e </w>
. </w>
t </w>
o </w>
, </w>
s </w>
t h
a </w>
y </w>
n </w>
d </w>
p o
o u
e r
i n
a n
s t
m </w>
e n
l </w>
í </w>
i </w>
th e</w>
c h
r o
t o</w>
o r
po s
a r
a l
n e
u </w>
a t
ou </w>
& a
pos ;
&a pos;
r e
o n
g </w>
k </w>
f </w>
o n</w>
l e
a t</w>
o t
s e</w>
o v
in g</w>
? </w>
e d</w>
er </w>
l i
; </w>
o f</w>
q u
I </w>
s e
t i
ch </w>
o m
y ou</w>
an d</w>
é </w>
r a
ě </w>
i t</w>
i n</w>
qu ot
& quot
&quot ;</w>
n o
i s</w>
t a
p ro
p ř
e l
o d
i c
l a
j e</w>
e n</w>
i t
n a</w>
n í</w>
á </w>
s t</w>
d o
l e</w>
m e</w>
h o</w>
or </w>
. .
v e</w>
e s</w>
e d
i l
c e</w>
ž e</w>
a l</w>
v </w>
a n</w>
.. .</w>
i s
p r
a s</w>
w h
d e
b u
th at</w>
n a
w </w>
s h
&apos; s</w>
l o
! </w>
i on</w>
s k
b e
a d
ý </w>
u r
l y</w>
b y
b y</w>
a c
j e
h a
t e
t o
r </w>
í m</w>
i d
ž </w>
) </w>
a k
m o
en í</w>
o b
t er
( </w>
r i
g h
er e</w>
z a
d o</w>
m en
v y
u n
th </w>
o p
f or</w>
n ě
o l
s i</w>
@ </w>
@ -
@- @</w>
b e</w>
v ě
- </w>
t e</w>
s u
n ě</w>
th e
d i
se m</w>
p e
n á
m ě
w i
p </w>
ů </w>
š </w>
k y</w>
d ě
a s
&apos; t</w>
m e
n í
l a</w>
s a
m i</w>
j sem</w>
r u
c on
ou t</w>
h e</w>
ř e
2 0
m u
at ion</w>
n o</w>
v á
c o</w>
l u
th is</w>
al l</w>
h </w>
k a
t y</w>
z </w>
w e</w>
ý ch</w>
a b
c om
r á
t s</w>
n i
k u</w>
wi th</w>
c i
ou r</w>
f or
e v
e t</w>
l d</w>
w as</w>
j </w>
l á
no t</w>
a g
m y</w>
/ </w>
v e
s i
: </w>
k d
ř í
po d
c e
př í
gh t</w>
h o
ar e</w>
1 </w>
n é</w>
k e</w>
t r
á v
é ho</w>
m a
v ý
o d</w>
no w</w>
0 </w>
e x
on e</w>
a k</w>
ha ve</w>
p ra
k ter
g o
ou ld</w>
e m
j í</w>
c </w>
c i</w>
l i</w>
a p
j ak
ro z
al e</w>
h e
u l
j í
wh at</w>
i m
at i
a v
ou n
d e</w>
i r
i l</w>
2 </w>
n e</w>
i st
k o
j s
p l
t ě
m á
s po
p ar
r an
a y</w>
h od
z á
l o</w>
men t</w>
š e
en t</w>
th er</w>
ar </w>
d u
j ed
ti on</w>
pr o</w>
on s</w>
u t
b o
st i</w>
v í
s o</w>
y our</w>
ta k</w>
j u
bu t</w>
r e</w>
k a</w>
v o
a m
k u
m í
20 0
at e</w>
ta k
s s</w>
m u</w>
il l</w>
př i
3 </w>
el l</w>
s l
a u
c an</w>
m ů
f ro
5 </w>
the y</w>
n ic
d y</w>
h i
z e</w>
an t</w>
t u</w>
&apos; m</w>
&apos; re</w>
p re
f in
m y
f e
4 </w>
do b
š í</w>
z a</w>
e m</w>
p er
s om
v i
fro m</w>
d u</w>
w or
k on
po r
m in
t ed</w>
t ě</w>
t er</w>
ti c
th ere</w>
kd y
i d</w>
th ing</w>
d on</w>
st an
t i</w>
s ou
c t</w>
u p</w>
i f</w>
př e
v id
g u
k now</w>
er s</w>
i ch</w>
m ě</w>
it y</w>
g i
c í</w>
ju st</w>
h is</w>
f i
m i
p u
n á</w>
př ed
ov á
n y</w>
sh e</w>
a d</w>
ne b
&apos; </w>
ur e</w>
j ak</w>
g et</w>
n ý</w>
6 </w>
jak o</w>
al a</w>
s p
in g
st á
neb o</w>
j i</w>
d á
t u
pr áv
li ke</w>
ý m</w>
7 </w>
s v
8 </w>
pra v
c o
t v
st e</w>
& #
al ly</w>
k á
w n</w>
h ere</w>
p la
v z
f ic
h er</w>
v er
s le
l en
y e
d s</w>
l l</w>
C om
c í
ro v
j si</w>
v ed
j á</w>
hi m</w>
9 </w>
b er</w>
s ion</w>
b ý
js ou</w>
mu s
p ad
é m</w>
c k
st u
e l</w>
á d
ha d</w>
t ra
m is
kdy ž</w>
s o
m or
ab out</w>
m an
h le</w>
i r</w>
ní ch</w>
w e
t en
t ing</w>
v a
w ill</w>
r y</w>
s pe
a by</w>
ov at</w>
mo h
z ení</w>
u je</w>
t ře
C </w>
g e</w>
d er</w>
ď </w>
p an
n ou</w>
č e
ri ght</w>
ou r
by l</w>
i v
t ro
no sti</w>
c u
n ím</w>
ar d</w>
g o</w>
k e
v še
bý t</w>
c en
j en</w>
&apos; ll</w>
z e
l ov
le t</w>
l í
p le
n ov
u ž</w>
c el
s s
k la
ř e</w>
gh </w>
ic k
S </w>
v el
y s</w>
s y
ic e</w>
e st
lo o
u ž
w ay</w>
b le</w>
u s</w>
d a
wh ich</w>
le d</w>
p a
w ell</w>
l ou
v í</w>
z d
o f
x </w>
be en</w>
a se</w>
w ere</w>
á l
w ould</w>
ová ní</w>
f a
c k</w>
ž e
kter é</w>
d ing</w>
g ra
c ti
b i
in k</w>
f u
20 1
ic </w>
il a</w>
č </w>
t a</w>
s id
m an</w>
n i</w>
ře k
S t
p ů
js me</w>
g e
ac k</w>
m ar
ro p
com e</w>
o ther</w>
o m</w>
no st</w>
st e
som e
z na
le č
sk é</w>
&# 9
s er
bu de</w>
wh en</w>
ní ho</w>
dě l
ti me</w>
go t</w>
ho w</w>
j ste</w>
st av
p en
k ov
my sl
d is
d í
u s
b r
t en</w>
ž en
en ce</w>
E U
a f
h as</w>
mor e</w>
p o</w>
ne j
R e
in e</w>
at ed</w>
h la
an ce</w>
A r
by lo</w>
by ch</w>
d ů
mo ž
ar y</w>
it s</w>
jí cí</w>
f er
m á</w>
by la</w>
% </w>
se e</w>
en t
w ho</w>
t om
&apos; ve</w>
wh ere</w>
m ak
the m</w>
al i</w>
A </w>
l é
mis sion</w>
k ing</w>
for m
po z
ne d</w>
ku d</w>
w ant</w>
b </w>
th ink</w>
v ol
c re
k do</w>
se l
n ut
ne v
o h</w>
č í
w a
n ení</w>
i se</w>
oun d</w>
p li
li d
di d</w>
j i
ří zení</w>
a h</w>
on al</w>
u m
ou gh</w>
s ob
n ot
t y
pro st
b ack</w>
kd y</w>
in ter
c ould</w>
d er
a m</w>
h le
ř ed
s ch
m at
po li
ne ch
E u
r y
sa id</w>
v š
sh ould</w>
n u</w>
d om
st ar
s m
p á
c or
c au
c tion</w>
d r
ati ons</w>
st at
f ir
í š</w>
s vě
n ých</w>
t ur
v od
the ir</w>
al i
th en</w>
re d</w>
som e</w>
su b
ti es</w>
sh all</w>
vše ch
tic le</w>
je ho</w>
b od
c er
ne ž</w>
le s</w>
Com mission</w>
b ě
an y</w>
se s</w>
k ů</w>
k s</w>
to ho</w>
ev er
st a
ž d
re g
ov er</w>
pro du
s lu
v y</w>
h el
d v
0 0</w>
st í</w>
ov é</w>
ta dy</w>
č in
st ví</w>
j in
K om
ing s</w>
vá m</w>
men ts</w>
h u
š tě</w>
pr á
to m</w>
ta ke</w>
in to</w>
t ím</w>
t w
má m</w>
č ní</w>
go od</w>
le m</w>
ně co</w>
or i
do wn</w>
h u</w>
d a</w>
A n
v en
on ly</w>
or g
li t
EU </w>
ta m</w>
m p
pl at
go ing</w>
a st
el y</w>
te ď</w>
c t
an y
k ou
g re
ř í</w>
en er
c oun
n ého</w>
Eu ro
po kud</w>
1 9
d ov
y ing</w>
o se</w>
en é</w>
d ed</w>
m a</w>
š e</w>
á z
stan ov
or y</w>
g on
pro b
cau se</w>
spo leč
ž ád
k y
š í
d al
1 2
s í
ou s</w>
for e</w>
o ka
ad y</w>
mě l</w>
č len
E </w>
wh y</w>
ev er</w>
t le</w>
roz hod
m on
be t
ab le</w>
sy st
f e</w>
lo w
ň </w>
st r
at es</w>
sh o
c ar
e f
v is
t í</w>
gon na</w>
t ri
ý mi</w>
ř ení</w>
b li
j ist
en d</w>
v r
c ov
il i</w>
t al
z ná
E v
ye ah</w>
ne ed</w>
me z
C h
it u
e s
Euro pe
mů že
on g</w>
p p
il y</w>
b a</w>
j o</w>
th an</w>
po tře
t á
fin an
Europe an</w>
v ní</w>
po už
loo k</w>
nic </w>
&apos; d</w>
k ol
ne w</w>
p ě
sk u
kter ý</w>
re s</w>
v al
ag a
k rá
č á
ch od
bu d
k o</w>
ol d</w>
t é
l ing</w>
m il
Ar ticle</w>
ť </w>
i e</w>
pro to
m é
spe ci
c lu
z v
ra v
mak e</w>
m lu
g r
d id
c a
an i</w>
the se</w>
mů že</w>
to hle</w>
n ing</w>
R </w>
Ev rop
ov an
p h
en ti
Kom ise</w>
ch y
ř i</w>
wi th
mí st
tw o</w>
v la
je ště</w>
j te</w>
b or
bu de
mu st</w>
u ved
y es</w>
stu p
ž it
s in
li v
pro č</w>
nic e</w>
M ar
le g
d ní</w>
á m</w>
pod le</w>
d ru
c y</w>
t ý
tr an
ch an
st ru
cti ve</w>
ag e</w>
k r
i ch
z em
wor k</w>
a ž</w>
ser v
j en
po ř
m ov
an o</w>
od po
ar s</w>
é mu</w>
in form
op er
sa y</w>
ver y</w>
a ch</w>
ra z
f un
t ell</w>
al o</w>
kd e</w>
n u
em ber</w>
th er
je st
th ose</w>
ů m</w>
k ou</w>
s mě
- -</w>
ta l</w>
re e</w>
k om
sel f</w>
a z
de c
ou ght</w>
c es</w>
ma y</w>
vá s</w>
se t</w>
ti ons</w>
at e
fir st</w>
op le</w>
p i
č lá
n out</w>
be z
t í
be cause</w>
some thing</w>
p í
si g
did n</w>
dob ře</w>
p at
proto že</w>
b í
m ad
n it
še l</w>
ž í</w>
ul ation</w>
vě dě
nut í</w>
oka y</w>
po č
vid ě
s en
ro b
pe ople</w>
mus í</w>
it e</w>
st o
cí ch</w>
j de</w>
to o</w>
c ur
dob r
bod y</w>
v ů
ál ní</w>
s on</w>
j ich</w>
por t</w>
š tě
t ní</w>
tak že</w>
I n
př ed</w>
sh </w>
ap pli
d in
1 ;</w>
&#9 1;</w>
m it
&#9 3
&#93 ;</w>
jí t</w>
f ac
su p
L </w>
of f</w>
ch e
d re
s c
d ay</w>
D e
w an
m un
N </w>
re qu
ev en</w>
d ne</w>
k ed</w>
ko li
s na
P </w>
k em</w>
M ember</w>
lit tle</w>
st ran
k é</w>
ka žd
s ure</w>
č í</w>
le p
re ally</w>
h an
č er
l in
be fore</w>
nev er</w>
kter á</w>
pu bli
ro n
ř </w>
af ter</w>
mo c</w>
T </w>
ž i
š ení</w>
ov á</w>
u m</w>
s or
k á</w>
e le
o k</w>
k t
ře j
m al
e p</w>
t re
ever y
v en</w>
p ak</w>
l s</w>
f t</w>
c ts</w>
D </w>
1 0</w>
řek l</w>
č en
př i</w>
at ing</w>
z í
su ch</w>
k ro
at el
ch u</w>
al so</w>
n ati
i re
un der</w>
c al
pr i
Re g
kla d
st i
ně jak
pro gra
un der
dě lá
jest li</w>
d ne
st op
t el
J o
í me</w>
ch tě
f o
l an
je jich</w>
f ol
ne z
e ment</w>
sk ých</w>
vla st
v in
d en</w>
e ss</w>
m ot
ž iv
an s</w>
12 4
in t</w>
m ber</w>
it el
l u</w>
t ru
te č
č i</w>
ně ní</w>
O </w>
&# 124
&#124 ;</w>
ac í</w>
th r
P ar
ne k</w>
mysl ím</w>
tr y</w>
st ra
n er
op at
ch ce
ov al</w>
gi ve</w>
lo ž
mad e</w>
ar i
ka z
s ur
er i
f ri
le a
pan e</w>
vě t
ci al</w>
j ší</w>
ná s</w>
he y</w>
e k</w>
sid e</w>
ti l</w>
c lo
p s</w>
vá ní</w>
1 0
mez i</w>
u se</w>
la st</w>
st ill</w>
po u
pří pad
in d</w>
h or
St ates</w>
appli c
j u</w>
sh i
w s</w>
g er</w>
d ra
ic k</w>
ú č
ov er
de m</w>
h y</w>
v ím</w>
pod í
ž u</w>
in y</w>
tom u</w>
li ty</w>
mo st</w>
mě la</w>
bez pe
ni kdy</w>
E C</w>
a ch
prost řed
lo w</w>
na řízení</w>
mož ná</w>
mu ch</w>
il o</w>
fic i
ná m</w>
b ro
pro vid
ou l
ví š</w>
m od
u jí</w>
fu l</w>
děl at</w>
a ce</w>
h ra
moh l</w>
v es</w>
n or
N e
v a</w>
me an</w>
z en
w at
an i
má š</w>
in a</w>
by ly</w>
ob je
k ra
U n
my sle
or s</w>
h r
ne s
d at
ste j
o ch
b er
s il
všech no</w>
h y
re l
e st</w>
do st
thr ough</w>
c ted</w>
t vo
sk ého</w>
z pů
E S</w>
č as
h om
r .</w>
la l</w>
b as
st ro
ap pro
g a
. .</w>
.. ..
V </w>
d an
v á</w>
c le
vy pad
d áv
c ed</w>
j mé
b an
o z
m ed
Reg ulation</w>
au th
pu t</w>
n it</w>
20 </w>
n al</w>
ř en
po j
ta in</w>
al s</w>
T he</w>
per i
č ení</w>
by s</w>
w er</w>
r is
sku teč
l at
te ch
m er
ye ars</w>
ne y</w>
n ým</w>
z mě
in st
sle d
p ac
mě st
mů j</w>
v ing</w>
h a</w>
w ar
b re
o l</w>
ž ad
p e</w>
do es</w>
N o</w>
ch la
r u</w>
l ar
sv é</w>
in ve
k no
s ed</w>
pod á
z at
aga in</w>
P ro
uved en
m s</w>
ne u
op rav
en ts</w>
ex ist
nati onal</w>
B o
tv r
sk ý</w>
rozhod nutí</w>
S e
c ase</w>
p lá
fin d</w>
h ol
všech ny</w>
pla ce</w>
mlu v
di f
b a
x t</w>
s ol
při j
m es</w>
ra l</w>
19 9
B </w>
oul d
l ong</w>
ce p
li fe</w>
we en</w>
z ku
š i</w>
potře bu
le ss</w>
id e</w>
re ady</w>
un i
č e</w>
dal ší</w>
th an
le žit
th ought</w>
pre s
mů žu</w>
is ion</w>
el a</w>
e t
er ed</w>
ří k
ob la
mí t</w>
bet ween</w>
sk á</w>
v at</w>
í te</w>
s ím</w>
ur č
h ou
r a</w>
pro ce
lo g
dru h
ic al</w>
pos ky
vo z
c ol
c our
h al
ch ci</w>
ů j</w>
tran s
ac i</w>
ví c</w>
p it
re fer
m no
má me</w>
hel p</w>
s á
c an
u h</w>
h er
i es</w>
p is
i ons</w>
bu du</w>
ko ne
wa ys</w>
m en</w>
c ap
r it
ould n</w>
t é</w>
g ener
he m</w>
org á
ta in
inform ation</w>
zv lá
d lou
d í</w>
pro je
d en
ple ase</w>
pra cov
al o
i ght</w>
b ou</w>
tak ov
con cer
č .</w>
od st</w>
c la
M </w>
š ím</w>
ati ve</w>
m r
c all</w>
ma y
té to</w>
be z</w>
opat ření</w>
h á
g en
ar ound</w>
in clu
Un ion</w>
vá dě
a way</w>
h ar
fol low
to ho
li st
b u</w>
ch á
no stí</w>
p ur
sa me</w>
be ing</w>
š en
C oun
h ov
us ed</w>
t ly</w>
sub je
ta ky</w>
lov e</w>
b ar
pro to</w>
u st
por t
ch ar
j as
s práv
k et</w>
S po
ou p
vá ž
po ru
pr ů
sp ě
1 2</w>
ac cor
pos le
dr ž
n at
b al
s y</w>
d ic
ch o
sin ce</w>
h ot
ni ght</w>
he ad</w>
p as
smě r
n um
sl y
d ot
živ ot
any thing</w>
za č
ma jí</w>
o wn</w>
si ble</w>
stá t
t in
is h</w>
v nit
i le</w>
K </w>
F </w>
ti v
by ch
tak é</w>
ve řej
v rá
člá n
200 6</w>
qu est
t ov
al y</w>
do st</w>
ní k</w>
a si</w>
v an
bych om</w>
ra p
P o
do ing</w>
may be</w>
pod ni
je jí</w>
ci l</w>
k lá
t ed
in for
bet ter</w>
ce st
* </w>
su l
pl an
na me</w>
g ir
vý rob
j de
bud ou</w>
č l</w>
th ree</w>
u e</w>
toho to</w>
be li
bezpe č
ar e
zá klad
o hle
d od
ic es</w>
pro te
D ire
z i
ou t
no thing</w>
c ed
Com mun
slu š
ry ch
ká z
s la
do p
spo n
sor ry</w>
v al</w>
f ul
b en
pro sím</w>
s itu
fi ed</w>
man y</w>
n er</w>
pod por
b lo
jed no
tře ba</w>
o sob
C on
mo je</w>
so ci
g ed</w>
to ld</w>
r en
M a
an other</w>
Coun cil</w>
th ings</w>
ct or</w>
k ý</w>
h rá
ž á
vi e
použ í
jí cích</w>
n en
e ach</w>
with out</w>
ich ni</w>
ha p
f il
e ve</w>
zna men
a su
I I</w>
di re
mi ght</w>
d i</w>
te be</w>
ca me</w>
d ar
hla v
z áv
i g
vš ichni</w>
men t
m o</w>
ch áz
publi c</w>
se con
r ů
kon tro
St ate</w>
w om
200 9</w>
j o
3 0</w>
en ství</w>
mě li</w>
by ste</w>
ef fe
1 .
par t</w>
5 0</w>
c ů</w>
1 5</w>
ick é</w>
d á</w>
č it</w>
ke ep</w>
k te
200 8</w>
om e
ov i</w>
o t</w>
vě ř
tal k</w>
po mo
1 1</w>
pr v
sl ov
d ou
í ch</w>
tv í</w>
ří ct</w>
con sid
or der</w>
rá m
f ra
t ot
z ů
F ran
m ně</w>
č ně</w>
k il
200 7</w>
och ran
případ ě</w>
pro ti</w>
al ways</w>
al e
R o
me asu
ně kdo</w>
ou s
me mber</w>
gre at</w>
ab i
ho s
h lá
ce ss
á d</w>
hom e</w>
b ě</w>
svě t
w al
par ag
zná m
obla sti</w>
ul ar</w>
ne do
min u
ten to</w>
ti ve</w>
d ro
j ů</w>
l ine</w>
tro chu</w>
b ra
vě ci</w>
i de
způ sob
t od
f ound</w>
dif fer
jed in
z práv
_ </w>
L e
is h
stop </w>
a ut
ever y</w>
pří sluš
před stav
od e
t ky</w>
ye ar</w>
lep ší</w>
0 00</w>
prá ce</w>
jed en</w>
min ist
poř ád
t ting</w>
t on
ro om</w>
mus ím</w>
ř i
c ky</w>
v ra
o le</w>
pr in
ú čin
with in</w>
b el
p lo
posky t
M r.</w>
ther e
dě lal</w>
pra c
con om
st s</w>
l y
vš ak</w>
re spon
st and</w>
mu se
ž ení</w>
pr vní</w>
č il</w>
ro w</w>
ná vr
dv a</w>
s ing</w>
m b
wh ile</w>
podá ř
ot áz
vel mi</w>
má te</w>
w ard</w>
te le
s .</w>
i a</w>
de fin
n ém</w>
mí n
urč it
wor ld</w>
d it</w>
a sk
com pe
li t</w>
po dob
jed not
shi p</w>
v ed</w>
vel op
hap pen
200 4</w>
po int</w>
mar ket</w>
li e</w>
le ft</w>
ck ing</w>
de j</w>
ú da
p s
on a</w>
is ed</w>
a bych</w>
ob sa
ob chod
an é</w>
g y</w>
hos podář
směr nice</w>
g ran
ne za
re as
d one</w>
J u
bo th</w>
gh ts</w>
po d</w>
par tic
Spo leč
o st</w>
num ber</w>
ji m</w>
ch il
chce š</w>
par t
če t
může š</w>
pře s
w on</w>
te m</w>
st er</w>
š k
do hod
b av
Dire ctive</w>
gu y</w>
fa ce</w>
e j</w>
bu r
je š</w>
k ur
člá nek</w>
200 5</w>
pou ze</w>
la w</w>
every thing</w>
ty to</w>
se d
ní mi</w>
Commun ity</w>
ak e</w>
b it
G od</w>
ar ly</w>
d al</w>
po žad
š ť
in á
dat a</w>
a i
kte ří</w>
ter s</w>
l on
de velop
ve l</w>
g ot
com pan
spo r
C o
stá ty</w>
ka pit
la du</w>
ri ed</w>
odpo vě
measu res</w>
re le
A l
sh ed</w>
m é</w>
k ind</w>
201 0</w>
ron g</w>
tě ch
moh ou</w>
li ght</w>
s ad
di e</w>
f am
s u</w>
by li</w>
prá ci</w>
H ar
ha pp
com ing</w>
chtě l</w>
rá d</w>
je me</w>
jed nou</w>
o k
ta to</w>
ně jší</w>
jen om</w>
in st</w>
práv ě</w>
re spe
al ity</w>
oprav du</w>
201 1</w>
mus íme</w>
rap h</w>
f re
o stat
bude š</w>
y our
aga inst</w>
poř ád</w>
infor ma
ar t</w>
beli eve</w>
ne ed
n s</w>
moh la</w>
ss ed</w>
ob </w>
1 3</w>
těch to</w>
g es</w>
mo c
b lí
G </w>
ž al
z kou
d am
už í
vz ta
pos i
sk ou</w>
č as</w>
do es
ab li
f f</w>
n an
vidě l</w>
al ready</w>
or u</w>
g in
pro vis
lo c
H </w>
does n</w>
con tro
sku p
re gi
h at</w>
tur n</w>
o c
je m
hou se</w>
lea ve</w>
le t
d ri
žd y
ir d</w>
chan ge</w>
en ough</w>
d ance</w>
est abli
pro ced
in u</w>
gu ys</w>
ne po
míst o</w>
e c</w>
as se
pro vádě
wa it</w>
v ždy
ta ble</w>
sk a</w>
fic </w>
nev ím</w>
el i</w>
fe el</w>
e conom
z ad
bi g</w>
lo t</w>
ac coun
syst em</w>
pos ed</w>
vy š
f ur
sou ladu</w>
o sti</w>
b á
Společ enství</w>
mo ney</w>
inve st
jed ná
vie w</w>
ni e</w>
parag raph</w>
fri end</w>
st ri
č ku</w>
u p
1 4</w>
gi e</w>
p ul
d ří
ko ho</w>
P e
na š
h op
is l
p ati
kter ou</w>
rám ci</w>
ne m</w>
ot ev
hod not
dec ision</w>
follow ing</w>
tak ing</w>
z nov
ac tu
E N
e qu
C our
může me</w>
Evrop ské</w>
on ce</w>
ne xt</w>
m ů</w>
př á
bi lity</w>
wan ted</w>
ag re
ent ly</w>
s is</w>
or e</w>
do kon
lov ě
tě ž
ně j</w>
slu ž
b la
ov ala</w>
im port
vědě l</w>
kol i</w>
ted y</w>
ví te</w>
s si
bude me</w>
ší ch</w>
b it</w>
vů li</w>
kdy by</w>
some one</w>
t on</w>
to to</w>
dne s</w>
t rá
ap pe
an g
C ar
k li
ži vo
tý ka
ví ce</w>
po st
inst itu
cour se</w>
2 .
sho w</w>
sv ou</w>
id enti
h and</w>
secon d</w>
č ky</w>
prost ě</w>
pro mi
con di
EU R</w>
koli k</w>
koli v</w>
č lově
a ť</w>
l er</w>
p le</w>
im ple
k an
mysl íš</w>
per s
mě sí
w ent</w>
be c</w>
u jící</w>
is su
a th</w>
op en</w>
člán ku</w>
řek la</w>
m nou</w>
em s</w>
b rá
ali z
to ge
st řed
d at</w>
ne vy
m om
spo lu
pří prav
wh e
in ten
základ ě</w>
p er</w>
pu st
n ů</w>
toge ther</w>
zvlá š
to ok</w>
ti mes</w>
Cour t</w>
f er</w>
an e</w>
ne cess
se t
d ur
201 3</w>
poli ti
c ri
te k</w>
za v
ve j</w>
c op
jmé na</w>
in cre
g g
tak en</w>
lo st</w>
ne s</w>
é st</w>
st ed</w>
st rá
s li
loo king</w>
0 0
stej ně</w>
stan ce</w>
than k</w>
č ka</w>
th ough</w>
pě t</w>
re sid
ar ticle</w>
sa w</w>
ic i</w>
stá le</w>
l ze</w>
p al
min d</w>
su m
po h
mi li
un til</w>
J e
B u
bě ž
k vůli</w>
me ans</w>
nov é</w>
L u
com ple
mysle l</w>
ch ví
č ních</w>
t ou
z ak
dů vod
v lá
be st</w>
for m</w>
pá r</w>
st ay</w>
ro w
pos sible</w>
při prav
finan cial</w>
B e
u dělat</w>
p ly</w>
quest ion</w>
in ed</w>
ni kdo</w>
je m</w>
s ní
kla d</w>
M i
or ity</w>
ne ss</w>
ho w
fa ther</w>
as k</w>
zí sk
t an
st alo</w>
může te</w>
L i
bu sin
c it
vše ch</w>
t ři</w>
d el
z y</w>
cal led</w>
informa ce</w>
201 2</w>
ch a
1 8</w>
w as
dí ky</w>
st re
pří lo
b ad</w>
o be
da ys</w>
se en</w>
E C
re al</w>
ji ště
a y
dů ležit
ro ku</w>
mluv it</w>
živo t</w>
l od
o h
S ou
le j</w>
tr a</w>
k at</w>
gir l</w>
t ent</w>
2 5</w>
každ ý</w>
ž í
de k</w>
h ur
di v
de ad</w>
c ení</w>
li g
k lu
va ž
j du</w>
sk o</w>
k new</w>
k re
te e</w>
vů bec</w>
ke j</w>
ká m</w>
m g</w>
o s
l é</w>
m on</w>
a dop
re sul
ob dob
po vin
ně ž</w>
# </w>
i ti
i m</w>
ori ties</w>
ck s</w>
a id</w>
is n</w>
c are</w>
4 .
mov e</w>
h lí
ni l</w>
1 3
vědě t</w>
d ers</w>
od s</w>
k ill</w>
ir e</w>
&apos; il</w>
.... ....
tech nic
c ing</w>
Jo h
I N
stanov en
ne x</w>
by t
ti t</w>
m m</w>
h ned</w>
how ever</w>
ac tion</w>
t vá
b ed</w>
tod ay</w>
na bí
ge tting</w>
A u
f ar</w>
ro ss</w>
žád né</w>
1 6</w>
i z
fe w</w>
l and</w>
š pat
appro pri
st áv
dá le</w>
c ar</w>
wh ole</w>
pra vid
tr ying</w>
no st
váž ně</w>
o w</w>
pořád ku</w>
n ými</w>
C O
ř ad
ka m</w>
ov ých</w>
dá m</w>
f on
c li
ro k</w>
was n</w>
in s</w>
peri od</w>
there fore</w>
le d
s it</w>
stanov ení</w>
znov u</w>
lid i</w>
ab ly</w>
m it</w>
he ar</w>
dobr ý</w>
necess ary</w>
ch ed</w>
cí ho</w>
el se</w>
mus íš</w>
of fic
svě d
ú pl
re member</w>
200 3</w>
d ate</w>
in f
partic ular</w>
lea st</w>
b ran
an s
man ag
f ak
k v
va še</w>
accor dance</w>
tom to</w>
c ím</w>
b í</w>
th in
sna ž
fin e</w>
le vel</w>
ro ce</w>
vý m</w>
ř it</w>
over n
ti onal</w>
1 7</w>
řík al</w>
tri es</w>
con tin
y et</w>
za měst
pos e</w>
i ther</w>
D o
f y</w>
♪ </w>
do l
e yes</w>
org ani
ce ss</w>
tv ůj</w>
c ou
dá ní</w>
společ nosti</w>
E n
pre t
na d</w>
at u
c ra
stru k
ze jména</w>
an ti
ex am
s ám</w>
differ ent</w>
p t</w>
na še</w>
še t
se be</w>
subje ct</w>
po in
vá š</w>
re port</w>
actu ally</w>
ha ving</w>
1 6
vy so
sk vě
an al
stá t</w>
sm r
cti ons</w>
produ cts</w>
poli tic
hal f</w>
str ate
h uje</w>
ch rá
ro din
bu il
en g
li k
pro ved
p ing</w>
lo sti</w>
si r</w>
stan e</w>
ně te</w>
s r
d le</w>
z řej
ro d
li on</w>
ni ch</w>
J </w>
4 0</w>
star t</w>
he j</w>
he ard</w>
žal ob
ovan é</w>
dě ji</w>
te ch</w>
hi gh</w>
can not</w>
th s</w>
a jí</w>
e me</w>
un ie</w>
2 4</w>
ev rop
E S
ra d
busin ess</w>
ck ed</w>
cle ar</w>
zd a</w>
minist r
ut es</w>
wom an</w>
1 8
con tra
d it
ne můžu</w>
provid ed</w>
a w
progra m
h un
ve z
er y</w>
z ni
jde me</w>
mo ther</w>
vě dom
bo y</w>
a po
en ds</w>
zem í</w>
ve k</w>
ň uje</w>
applic ation</w>
j men
fic ation</w>
li a
dur ing</w>
s we
fac t</w>
u děl
sou r
l ení</w>
it í</w>
z pá
za ce</w>
sch op
p u</w>
vy k
ru les</w>
hod ně</w>
mé ně</w>
ter min
ji ž</w>
coun tries</w>
ž i</w>
B ar
žen a</w>
vý zna
sup port</w>
f el
š lo</w>
under stand</w>
3 .
R O
w in
1 .</w>
př es</w>
refer red</w>
w rong</w>
ov e</w>
j ob</w>
H e
serv ices</w>
ne jsou</w>
wat er</w>
le y</w>
p ap
oper ation</w>
ask ed</w>
gi ven</w>
sk u</w>
sv ého</w>
sh it</w>
ag o</w>
reg ist
se ar
import ant</w>
en a</w>
lo b
leg al</w>
ur </w>
a men
práv ní</w>
co ž</w>
z jist
kov é</w>
č ím</w>
fam ily</w>
lid é</w>
posle dní</w>
l ý</w>
d ce</w>
vě c</w>
do or</w>
h ran
auth orities</w>
vo j
per son</w>
. &apos;</w>
p ad</w>
e as
am oun
Ch ar
š it</w>
fu cking</w>
at y</w>
n on</w>
h ell</w>
š la</w>
od e</w>
la d
Y </w>
our s</w>
b or</w>
n y
moh li</w>
f le
obdob í</w>
rov něž</w>
tak hle</w>
f fici
ze p
sk y</w>
ob ě
inclu ding</w>
list en</w>
člen ských</w>
zpá tky</w>
U </w>
b le
za se</w>
t or
Kom is
č né</w>
bu l
p ed</w>
bě hem</w>
wor d</w>
1 7
vnit ro
1 5
tal king</w>
or din
h old</w>
whe ther</w>
coun try</w>
R u
sa mo
l ní</w>
če k</w>
pla y</w>
úč ast
happen ed</w>
r ic
g s</w>
znamen á</w>
sv ůj</w>
cer tain</w>
před pis
ou p</w>
u dělal</w>
m ed</w>
a ro
contro l</w>
ru n</w>
ch ce</w>
chví li</w>
h l</w>
h ard</w>
abi lity</w>
mu l
ď te</w>
posi tion</w>
k ých</w>
ar gu
ul t</w>
in de
mat eri
h ist
in te
I S
&a mp
&amp ;</w>
dá l</w>
pp ed</w>
je te</w>
stá tní</w>
R ady</w>
y ed</w>
ve li
fi ve</w>
ke y</w>
ous ly</w>
k id
dlou ho</w>
z u
my s
ov ý</w>
in di
mož né</w>
ot o
cur ity</w>
org an
wor king</w>
concer ned</w>
te bou</w>
vždy cky</w>
re ce
li ve</w>
ne bude</w>
vypad á</w>
in ing</w>
prin ci
1 9</w>
v er</w>
ne byl</w>
w ouldn</w>
chce te</w>
l í</w>
st ře
př id
potře b
M e
mat ter</w>
pos lou
he ad
t ure</w>
k ri
dv ě</w>
G e
S u
po wer</w>
k ce</w>
pod mín
lé č
ri zi
s a</w>
sle du
v u</w>
de l</w>
b il</w>
1 4
práv a</w>
lid í</w>
A T
c y
člen ské</w>
d ve
ko lem</w>
rele v
a st</w>
kra č
ma in</w>
reg ar
čí s
p lu
pan í</w>
zřej mě</w>
in e
na vr
A N
1 00</w>
z er
č ty
g ar
ad di
g ing</w>
ká ch</w>
ka z</w>
zd ro
h nout</w>
2 1</w>
ci r
n ar
vlast ní</w>
econom ic</w>
tr hu</w>
loo ked</w>
An nex</w>
te m
y ment</w>
s al
w el
krá t</w>
ho j</w>
is ation</w>
stát ů</w>
th ers</w>
m as
vět ší</w>
mom ent</w>
z í</w>
accoun t</w>
cep t</w>
br ing</w>
tě ch</w>
ně kdy</w>
condi tions</w>
cel a</w>
tri bu
poli ci
ser i
po vě
po ko
žád ný</w>
te xt</w>
prob lé
st up</w>
ov ou</w>
sk on
spo lu</w>
tech no
po čí
b od</w>
your self</w>
bas is</w>
th ird</w>
př ev
ar ing</w>
x i
ma j
ze mě
at ely</w>
en ing</w>
k ar
obe c
mak ing</w>
ju d
z vý
do m</w>
med i
do cu
tvo je</w>
oka m
zd rav
chla p
- -
za stav
com mun
při po
č ního</w>
od y</w>
ad ministr
me et</w>
s ak
tur ned</w>
vy tvo
v il
mu ž</w>
b aby</w>
lia ment</w>
fi el
v od</w>
por ts</w>
na d
y oun
k ni
ú rov
vý še</w>
f our</w>
rych le</w>
en sure</w>
ě ní</w>
requ ire
pří li
kone c</w>
cur r
G er
k op
200 2</w>
200 1</w>
j ení</w>
G re
fro n
sc ri
vlast ně</w>
jin é</w>
hla s
mit tee</w>
p am
do kt
at or</w>
po stav
hu man</w>
ň te</w>
o kol
přes ně</w>
r un
ful l</w>
z i</w>
st oup
nech ci</w>
sch o
za jist
ní ků</w>
pro fe
m ag
st er
pac i
po tom</w>
di l</w>
na pad
hle dem</w>
su d
u stanovení</w>
re du
je ž</w>
ne jsem</w>
ce m</w>
bude te</w>
ac k
g one</w>
uved ené</w>
in dic
f ree</w>
ch op
sk ým</w>
čet ně</w>
zem ě</w>
d ně</w>
in es</w>
dě ku
ž dy</w>
2 2</w>
o s</w>
bas ed</w>
vidě t</w>
ide a</w>
k ým</w>
prav du</w>
po stup
a ir</w>
ex pe
stu di
M r</w>
pr y
ve s
pres ent</w>
Par liament</w>
clo se</w>
nějak é</w>
$ </w>
n at</w>
e b
3 0
ick ých</w>
mě lo</w>
če k
rop e</w>
p ut
ú če
před mě
v četně</w>
av ai
inve sti
t la
l ém</w>
k lid
or a</w>
d ou</w>
si ve</w>
leg isl
a hoj</w>
pret ty</w>
ná kla
po vol
požad av
sly š
avai la
te st</w>
Í </w>
zá vě
orgá ny</w>
ab ove</w>
lat er</w>
g la
S te
ic s</w>
re st</w>
prob lem</w>
R ad
mor ning</w>
A mer
u mož
příli š</w>
are a</w>
h im
h ad
ší ho</w>
za po
u plat
provis ions</w>
poli cy</w>
wan na</w>
s ing
c ting</w>
i gh
ris k</w>
k lí
te l</w>
an d
č em</w>
sna d</w>
at a</w>
po krač
2 3</w>
h roz
pů vod
c ul
pří mo</w>
č i
proced ure</w>
M on
způ so
+ </w>
jed na</w>
vi ron
za čí
kapit á
o zna
slu že
ne mám</w>
se zna
li st</w>
a mi</w>
p ay</w>
jas ně</w>
f ar
so on</w>
par ty</w>
ch ing</w>
š li</w>
ř á
en d
en cy</w>
sk ém</w>
čer v
requ i
m al</w>
de sig
á ch</w>
id ence</w>
ro dní</w>
do prav
N or
vět š
mě ly</w>
sol u
st al</w>
E R
ná š</w>
on y</w>
dělá š</w>
dě ti</w>
e li
m ist
r at
as ed</w>
dom ů</w>
ch ž</w>
ss ing</w>
E H
k ry
dost at</w>
compan y</w>
P resid
k ty</w>
sm all</w>
men tu</w>
w on
M o
čá st</w>
respe ct</w>
se ver
ne t
po važ
mu m</w>
ří ká</w>
finan ční</w>
odpo ví
c at
za řízení</w>
inter est
compe ti
m ého</w>
si l</w>
e ither</w>
col le
ů vod
pl y
pen í
le n</w>
ph one</w>
c ouldn</w>
stat e
e u
nějak ý</w>
T re
b ot
pry č</w>
ne bylo</w>
w ing</w>
ch u
t or</w>
an a</w>
men tal</w>
speci fic</w>
syst ému</w>
do ku
z ní</w>
kil led</w>
gu ess</w>
prob ably</w>
O K</w>
appropri ate</w>
I O
w o
min utes</w>
ste ch</w>
dobr á</w>
3 1</w>
od vě
e ar
al one</w>
ment ation</w>
V ý
pro voz
ní mu</w>
do kud</w>
nej lepší</w>
cel ý</w>
pení ze</w>
han ds</w>
got ta</w>
Y ou</w>
G u
sear ch</w>
st ří
E N</w>
ne j</w>
s vo
br at
m ou
ze k</w>
ch y</w>
b in
gener al</w>
h ind</w>
pro pos
dá t</w>
reg ul
D r.</w>
při šel</w>
M an
dě je</w>
c ent</w>
In ter
se curity</w>
W il
E x
pě k
t ar
h ů
S er
201 4</w>
Ne w</w>
De c
u al</w>
m l</w>
ne ch</w>
fu ck</w>
č em
nez byt
be hind</w>
wi fe</w>
ne může</w>
rů z
v il</w>
fri ends</w>
par ti
at ta
sv ob
m ou</w>
s pl
‑ </w>
ne bo
t ;</w>
g overn
t ku</w>
dělá m</w>
ý š
Q u
r id
hi gh
t ů</w>
co sts</w>
určit ě</w>
sou čas
every one</w>
mon ths</w>
be m</w>
roz poč
přá tel
ac ti
my self</w>
sa ys</w>
a in</w>
mí t
dob u</w>
m to</w>
de ch</w>
l or
š ko
st ě
serv ice</w>
poz or
f al
sh or
com es</w>
for ce</w>
ř el
ř il</w>
de b
al most</w>
a bys</w>
sl ou
relev ant</w>
dou f
F in
availa ble</w>
produ ct</w>
u t</w>
člově k</w>
podpor y</w>
blo od</w>
č ist
ý ho</w>
him self</w>
fe el
i tal</w>
ic i
si ons</w>
er ing</w>
wa it
ga ve</w>
wh at
in iti
k t</w>
i e
fur ther</w>
any one</w>
he al
ostat ní</w>
týka jící</w>
in du
Eu rope</w>
hu h</w>
prote ction</w>
w rit
úpl ně</w>
man ž
po ten
ví me</w>
em plo
do sa
F or
f la
lé d
cház í</w>
f f
par la
kter ých</w>
f lo
mr tv
před po
po ku
sv ých</w>
v ice</w>
youn g</w>
200 0</w>
hop e</w>
h ours</w>
br ought</w>
p il
st y</w>
to bě</w>
struk tur
scho ol</w>
o w
v ést</w>
com mon</w>
b ol
b ře
provid e</w>
č er</w>
je jí
v o</w>
mit ted</w>
develop ment</w>
ch od</w>
vy svět
za hr
ex </w>
en viron
ex peri
con tain
ri ghts</w>
vý sled
dre n</w>
ob a</w>
re m</w>
po p
it a</w>
an im
ate g
kro mě</w>
jmé no</w>
li l</w>
e ch</w>
stanov í</w>
mon it
lo gi
gr ound</w>
la u
st om
st í
ve čer</w>
ex ac
h lu
á t</w>
che ck</w>
syst é
ti c</w>
am er
con clu
á ní</w>
g er
prob lém</w>
h á</w>
S T
vy pl
ne má</w>
služ by</w>
od stav
2 8</w>
p an</w>
gu ar
Ch ri
ov ali</w>
6 0</w>
dří v</w>
sa ying</w>
z ví
ha ven</w>
kt ů</w>
c ity</w>
su d</w>
no c</w>
od ůvod
jiště ní</w>
b il
in vol
zvláš tní</w>
poj ď</w>
s cre
cel é</w>
2 7</w>
žen y</w>
e ch
B el
dost al</w>
v ždy</w>
loo ks</w>
indi vid
vid ím</w>
ton ight</w>
u ji</w>
se bou</w>
i led</w>
s k</w>
chtě la</w>
u z
b l
cen tr
vel y</w>
š i
r ž
ed u
amoun t</w>
mil lion</w>
chil dren</w>
d ad</w>
ad dre
Amer ic
le ar
in stru
dí tě</w>
ro st
áv á</w>
de ta
S a
mě r
k l</w>
need s</w>
oun ds</w>
sob ě</w>
za bí
val ue</w>
happ y</w>
he art</w>
un e</w>
zat í
0 ,
pos ou
o log
k ům</w>
X </w>
dam n</w>
s ci
fo od</w>
de termin
pr iv
po lož
con ne
kou p
vy uží
st at</w>
Com mittee</w>
li n</w>
dobr é</w>
v ari
re ad</w>
le h
ř ád
me t</w>
jedno ho</w>
rá da</w>
nu l</w>
ní ci</w>
čá sti</w>
mysl u</w>
Presid ent</w>
m ur
jedná ní</w>
do stan
ve m</w>
for e
př em
c le</w>
va jí</w>
cí lem</w>
s an
g in</w>
s ent</w>
tak ové</w>
pů sob
ne byla</w>
stran y</w>
G ener
l á</w>
ně koho</w>
ky ně</w>
ná stro
za jí
vz po
st or
w it
kno wn</w>
se x
mi le</w>
é ri
require ments</w>
chá ze
hod no
Dec ision</w>
č ila</w>
kter ým</w>
se qu
reas on</w>
ov ého</w>
n ému</w>
J an
ná z
me th
o st
r o</w>
as si
čá st
gh ter</w>
Komis i</w>
a ir
ru ce</w>
nic i</w>
ne moc
y e</w>
I n</w>
spor t</w>
tru e</w>
se le
b at
on i</w>
odpově d
2 6</w>
pla n</w>
as ure</w>
de ath</w>
f av
ac cess</w>
thin king</w>
in side</w>
we e
tu to</w>
m im
than ks</w>
V i
bo j
po hy
se n</w>
sak ra</w>
ap ply</w>
2 9
re cor
po de
li k</w>
fiel d</w>
spo tře
ele k
t ou</w>
5 .
ob č
ic ky</w>
ick ý</w>
tr ou
k or
qu i
A R
sm lou
vi ties</w>
O J</w>
fir e</w>
po moc</w>
ty pe</w>
situ ation</w>
v ot
d ě</w>
anal y
pro hlá
moh lo</w>
po l
2 9</w>
wan ts</w>
aut om
podí vej</w>
u po
jed nu</w>
as s</w>
t at
per fe
al low
č ast
c over</w>
id i
B er
com men
ny ní</w>
tra de</w>
de li
ní ky</w>
M ich
děl á</w>
y er</w>
stá tu</w>
im pro
cov ered</w>
nech tě
ne t</w>
mak es</w>
d y
em p
stan dar
ge ts</w>
= </w>
wor ds</w>
th re
le s
me chan
li cen
rá no</w>
s sion</w>
použ ití</w>
tre at
společ nost</w>
vš e</w>
fi le</w>
cu t</w>
S A</w>
r ing
con tribu
po w
bro ther</w>
u káz
o g
me m</w>
wat ch</w>
ac tions</w>
ener gy</w>
d or
zá sad
I t</w>
bo h
applic ant</w>
be au
bu ď</w>
i li
acti vities</w>
co g
or row</w>
žen é</w>
ne měl</w>
x im
ou cí</w>
wom en</w>
f ut
ur y</w>
n ila</w>
u ju</w>
ans wer</w>
nic tv
ří zen
sch vá
mě ní</w>
v hod
odvě tví</w>
nabí d
muse l</w>
st y
vz hledem</w>
o či</w>
poz ději</w>
zá j
z de</w>
ele c
bor u</w>
de al</w>
ra di
k ul
st ate</w>
p ic
podpor u</w>
jí cím</w>
h it</w>
en ter
m id
reg ard</w>
out side</w>
cel ou</w>
what ever</w>
il s</w>
M c
mez iná
krá lov
P O
řek ni</w>
ov ací</w>
dov ol
mu set</w>
o ned</w>
ře l</w>
z ved
st ing</w>
ová ny</w>
b and</w>
ne pří
ar ed</w>
do by</w>
úda jů</w>
tom orrow</w>
az y
c ru
ss ment</w>
si x</w>
m er</w>
zaměst nan
gr oup</w>
accor ding</w>
h ro
com pli
rov na</w>
moh u</w>
N a
fron t</w>
D i
proce ed
pře ce</w>
O r
na jít</w>
organi z
z ru
ad ing</w>
star ted</w>
inter est</w>
pří klad</w>
stu ff</w>
v ic
jí cího</w>
dohod y</w>
mar ke
d ala</w>
sa fe
sou vis
s it
rov ná
Ú ř
ž il</w>
c tu
d é
qu ite</w>
to p</w>
ot ec</w>
děl ení</w>
us ing</w>
auth or
so cial</w>
L a
ně kolik</w>
sly šel</w>
ov a</w>
not i
nov ý</w>
E l
fi g
st in
manag ement</w>
ati onal</w>
dokon ce</w>
med ic
produ ction</w>
fut ure</w>
at el</w>
samo zřejmě</w>
k er</w>
imple mentation</w>
I II</w>
z el
jed no</w>
z rovna</w>
ir s</w>
progra m</w>
e š</w>
hel e</w>
ně j
U nie</w>
ct ly</w>
ten hle</w>
D u
u vid
w ed</w>
čís lo</w>
ní ku</w>
pa st</w>
syst ém</w>
an ý</w>
z en</w>
investi g
il l
čin nosti</w>
u mí
g lob
krá s
en ý</w>
min e</w>
mar k</w>
vá l
návr h</w>
mus íte</w>
v zá
h on
ag es</w>
jedno du
3 2</w>
ch es</w>
de te
vy j
M in
na u
poz ná
sing le</w>
w ish</w>
S y
re cog
op </w>
c ation</w>
en ed</w>
g row
treat ment</w>
fi ght</w>
me work</w>
ka mi</w>
P or
su c
s ses</w>
mo m</w>
inform ací</w>
speci al</w>
zatí m
ná sledu
pod stat
l ate</w>
3 5</w>
á š</w>
t ří
d lo</w>
n al
s vým</w>
to wn</w>
mož nost</w>
za vol
tic al</w>
k ého</w>
úda je</w>
M r
ver s
je t</w>
ak ing</w>
an á</w>
consid ered</w>
8 0</w>
T H
vě st</w>
pří stup</w>
on d</w>
g t;</w>
& gt;</w>
ne l</w>
progra mu</w>
jin ak</w>
we ek</w>
v é</w>
do poru
pur su
a bychom</w>
vo ice</w>
S o
4 5</w>
služe b</w>
m ing</w>
mim o</w>
I C
podmín ky</w>
ac t</w>
úrov ni</w>
mysle la</w>
offic e</w>
C a
Gener al</w>
pam atu
vi z</w>
2 5
prostřed í</w>
at ten
dot čen
i i</w>
stan ces</w>
exist uje</w>
ál ních</w>
Úř .</w>
ent ů</w>
ová na</w>
H o
m ate</w>
ob lig
atel e</w>
raz y</w>
k id</w>
g ent
př ist
ac ross</w>
roz vo
dob ě</w>
ál ně</w>
o znám
chy b
al ong</w>
stan ding</w>
str ic
part ner
dů sled
f en
sho t</w>
z ar
9 0</w>
exac tly</w>
sour ces</w>
war ds</w>
me e
ze mi</w>
pod po
b lá
ch ance</w>
ka ce</w>
ka mar
o rov
is s</w>
roz dí
A gre
my š
upo n</w>
S ta
hel d</w>
m lad
mysl íte</w>
sk o
w w
sk ými</w>
J ack</w>
ar en</w>
contin u
ti la</w>
ev idence</w>
fel t</w>
ve jte</w>
Evrop ského</w>
C or
B ri
jin ého</w>
om o
tri ed</w>
T o
L or
I T
úče lem</w>
se e
k tu</w>
fa st</w>
áv at</w>
A p
u li
d ny</w>
ful ly</w>
způso bem</w>
ová n</w>
regi on
establi shed</w>
v ala</w>
še m</w>
cer ti
šť ast
an ých</w>
z bo
ní ka</w>
vá dí</w>
requi red</w>
p y
zá kon
W al
vypl ý
effe ct</w>
vý zku
por ted</w>
sel ves</w>
fak t</w>
ště stí</w>
druh é</w>
S an
ben ef
ple s</w>
R E
kon om
e ty</w>
m ž</w>
de jte</w>
í t</w>
ob rá
hot el</w>
commun ic
vše m</w>
be come</w>
hla vní</w>
sa ma</w>
á r
jak é</w>
R ob
m p</w>
ra ce</w>
adop ted</w>
ně m</w>
ál u</w>
kid s</w>
cu stom
chil d</w>
vidě la</w>
sh ing</w>
si bility</w>
ra n</w>
ex pen
se x</w>
ve ň</w>
lon ger</w>
r ing</w>
ro ky</w>
inter national</w>
míst ě</w>
z mi
dě podob
gu n</w>
ish ed</w>
rece iv
kno ws</w>
ni fic
klad ů</w>
pro ti
f l
0 1</w>
ch a</w>
id ed</w>
2 7
in v
pa in</w>
ic ally</w>
před se
A L
z alo
s un
ick á</w>
m .</w>
prav děpodob
jist ě</w>
pati ents</w>
d es</w>
provádě ní</w>
k ti
si mp
eas y</w>
e konom
issu e</w>
asse ssment</w>
happ en</w>
or o</w>
ú to
i st</w>
at ory</w>
v ě</w>
pr ice</w>
takov ý</w>
s qu
D av
ma in
zpráv y</w>
199 9</w>
poč et</w>
vědě la</w>
ov ě
pravid la</w>
nictv ím</w>
mno ž
vě st
ta x
kr é
dě lej</w>
pomo ci</w>
ca ses</w>
se cre
z id
inst al
prv é</w>
6 .
ta x</w>
sup posed</w>
li mit
dal e
ro veň</w>
a byste</w>
použ i
k at
some body</w>
ha ps</w>
minu t</w>
it u</w>
š ku</w>
su per
no ci</w>
con f
tot al</w>
prá v</w>
vyš ší</w>
la id</w>
jak o
za há
jednot liv
en ty</w>
ál ního</w>
z tr
in spe
l er
d lu
h léd
Agre ement</w>
z ne
f an
in ě</w>
in ion</w>
to lik</w>
pod mí
el e</w>
c it</w>
em ed</w>
st ry</w>
ti on
i p
wor ks</w>
s mo
u res</w>
e ss
pre ci
hrá t</w>
me an
k al</w>
concer ning</w>
stu d
ř ené</w>
prav da</w>
bo ok</w>
pre sen
u na
P er
poz ici</w>
every body</w>
per haps</w>
ce mber</w>
c id
do ctor</w>
poli ce</w>
B en
proceed ings</w>
tí mto</w>
bu t
u zav
potřebu ju</w>
C ha
nic tví</w>
agre ement</w>
au to</w>
A f
ot s</w>
kaz y</w>
do pl
še ho</w>
De cember</w>
cir cu
dr ink</w>
st o</w>
he z
pe v
á l</w>
la n</w>
i ve</w>
z ra
jak ý</w>
z u</w>
po t
dů vod</w>
2 8
h ou</w>
our nal</w>
l ů</w>
zd á</w>
ed er
ro r</w>
th y</w>
le av
zí tra</w>
stran ě</w>
ni ž
ter m</w>
con ta
ach i
ho ž</w>
rel ati
g an</w>
An d</w>
A d
bla ck</w>
solu tion</w>
po n
př en
h i</w>
k en</w>
da jící</w>
ob vyk
t at</w>
stra š
prostřed nictvím</w>
Joh n</w>
der ed</w>
práv o</w>
po mal
r ate</w>
za ch
j azy
p y</w>
ven tion</w>
refer ence</w>
T o</w>
na příklad</w>
me s
ti n</w>
auth ority</w>
proce ss</w>
st itu
důvod u</w>
sa ge</w>
kdy bych</w>
c er</w>
záv az
m lou
any way</w>
pos í
přem ýš
minu te</w>
T ri
s er</w>
země děl
beau ti
en ces</w>
at s</w>
for ward</w>
re li
p es</w>
ad u</w>
ga me</w>
po tvr
bli ž
s ound</w>
h ic
el s</w>
m ně
R us
mi mo
te x
R om
w ar</w>
p sy
s end</w>
č ný</w>
ně né</w>
curr ent</w>
sle dov
j ím</w>
cor re
er e
roz um
á k</w>
do w</w>
r at</w>
finan c
život a</w>
bre ak</w>
stup u</w>
ak ce</w>
tiv ity</w>
ří t</w>
du e</w>
pre par
ří kám</w>
by d
ex pla
E d
nech at</w>
pen ě
hodno cení</w>
svě tě</w>
af fe
spo ust
IO N</w>
e at</w>
sig nific
sou kro
d on
ž it</w>
cour t</w>
za bi
st ory</w>
e ce</w>
z pět</w>
wait ing</w>
al u
vnitro stát
gu e</w>
G r
wal k</w>
parti ci
z bran
ne š</w>
nat ure</w>
fin al</w>
bo le
.. ..</w>
jin ých</w>
A C
ovan ých</w>
need ed</w>
g li
par ties</w>
šk er
Y or
ur čen
prob le
fin ally</w>
A le
z lep
m l
M al
gen cy</w>
f ot
sta ň</w>
de scri
hla s</w>
ž dě
g ers</w>
an ts</w>
mee ting</w>
sá h
nákla dy</w>
d ly</w>
vz ít</w>
G o
ro ad</w>
lí bí</w>
ji šť
každ é</w>
is m</w>
rel ated</w>
co operation</w>
o thers</w>
ob serv
re publi
pr im
d ý
re commen
mov ed</w>
čas u</w>
po hod
du mp
at er</w>
B an
un d</w>
c in
D an
A m
sk oro</w>
om lou
syst ems</w>
mys l</w>
pra cu
kone čně</w>
ve šker
hod in</w>
ac e
al ter
uveden ých</w>
ct ure</w>
bud ou
H ol
g ment</w>
ur a</w>
K e
dve ře</w>
za mě
u su
requ est</w>
c ro
beauti ful</w>
V er
věř it</w>
Z </w>
b ri
ú spě
ra ther</w>
J ournal</w>
mu že</w>
tro du
h lou
nech ce
ra id</w>
g al
požadav ky</w>
š kol
d au
t un
kon kré
heal th</w>
spe ak</w>
k al
program me</w>
jde š</w>
kom u</w>
O d
r ně</w>
j di</w>
sen se</w>
st ati
sle ep</w>
od bor
ad re
mili on
compe tent</w>
do ká
cti ves</w>
j im
W hat</w>
děku ji</w>
en y</w>
x ed</w>
hur t</w>
ovan ý</w>
sig n</w>
ří ká
při je
cel kov
strá n
en o</w>
H u
žád ná</w>
vel ký</w>
U nit
la to</w>
ob raz
mysl í</w>
car ried</w>
pří tel
tru st</w>
ne lze</w>
ti al</w>
ve hic
b om
qu e</w>
1 ,
žá do
c razy</w>
ag ent
se ctor</w>
at ors</w>
Re public</w>
u vědom
R a
b ir
ori gin
........ ........
ma z
dne ska</w>
ju st
se l</w>
pres ent
O ffici
na víc</w>
h us
3 4</w>
š tí</w>
řek nu</w>
go es</w>
ob li
R ich
safe ty</w>
Unit ed</w>
M or
ati vní</w>
S ar
3 6</w>
ti sí
čty ři</w>
pa id</w>
Ú řed
tr h</w>
in trodu
c oup
M at
sv ém</w>
se ems</w>
ho t</w>
B ro
sa fe</w>
z trá
2 6
char ac
zd ra
č tvr
Ge or
mno ho</w>
dif fic
dů m</w>
Bo že</w>
propos al</w>
za ved
ohle dem</w>
run ning</w>
pr is
i ž</w>
po š
sa ve</w>
m ac
mo ř
vý ro
se k</w>
nech á
priv ate</w>
coup le</w>
hel lo</w>
douf ám</w>
sor t</w>
of fici
na konec</w>
vý vo
s on
en á</w>
ck é</w>
h our</w>
zná m</w>
pře svěd
seri ous</w>
p tá
ů v</w>
2 4
kno w
z lato</w>
quest ions</w>
sh ut</w>
pur pose</w>
l un
skuteč ně</w>
ni mi</w>
b lu
vy žad
lé ka
č ním</w>
wor ry</w>
im pac
lar ge</w>
po chop
ateg ori
min im
Tre aty</w>
h t
wh ite</w>
hlav u</w>
st u</w>
bo ard</w>
mis s</w>
S ch
C ol
u kaz
myš len
vz du
C ase</w>
vnit ř
dale ko</w>
ex ten
zá kla
in je
z by
ň ování</w>
B ru
ser ve</w>
af raid</w>
G ar
com par
skuteč nosti</w>
před tím</w>
a u</w>
za chrá
l ou</w>
3 7</w>
Mich a
r ou
ta ge</w>
ovan á</w>
g as</w>
pro per
b all</w>
e f</w>
dv ou</w>
ma ch
sto od</w>
ně které</w>
poč kej</w>
zatím co</w>
zač al</w>
Offici al</w>
vel ké</w>
T om
me mb
ad van
in fra
l om
vě z
j n</w>
šet ř
dol ů</w>
some times</w>
vis ion</w>
T ra
ru ku</w>
př in
ře šení</w>
resul t</w>
wor k
st a</w>
legisl ation</w>
por ting</w>
sou tě
v čer
speci fic
la ce</w>
vý da
před lož
N ov
y a</w>
v l
tru th</w>
7 0</w>
politi ky</w>
mu ž
ná mi</w>
3 3</w>
kv ap
imple men
cel á
ne g
k ru
prac ovat</w>
stav u</w>
su s</w>
š ky</w>
ná sled
tře tí</w>
w il
W h
parla mentu</w>
m and</w>
C S</w>
sle č
in ou</w>
problé my</w>
for get</w>
ná hra
krá t
qu ality</w>
d la</w>
důležit é</w>
R i
a de
it e
ad e</w>
ch em
ne pře
P ol
di ed</w>
spo ň</w>
dom a</w>
op ak
L o
shor t</w>
har mon
o by
liv ing</w>
op e</w>
posou zení</w>
k la</w>
k ó
la dy</w>
abi li
způsob </w>
jin ý</w>
sa z
ě l
pro mot
b ou
ká ní</w>
prav omo
J ac
mno hem</w>
souvis losti</w>
J une</w>
fe et</w>
ale spoň</w>
před lo
ter ms</w>
go ods</w>
tv é</w>
en s</w>
cri min
poslou che
re turn</w>
tran sport</w>
š é
H er
are as</w>
bezpe čí</w>
W or
govern ment</w>
ně jak</w>
tic les</w>
sever al</w>
vz al</w>
blí z
pro since</w>
it ed</w>
skup iny</w>
h é</w>
předpo klá
u ral</w>
con sum
sr dce</w>
počí ta
R A
sta v</w>
nit ř</w>
sp ace</w>
ohle dně</w>
le ží</w>
žá dost</w>
ta b
ch ov
di stri
č ko</w>
no body</w>
a ž
čá stí</w>
u č
ží t</w>
H en
man u
ar m</w>
princi ple</w>
loc al</w>
při jí
fra mework</w>
do w
P r
šk od
pla ced</w>
odůvod nění</w>
T i
C ap
dov oz
C en
n alo
vi se
ne můžeš</w>
dau ghter</w>
zá stup
el u</w>
da jí</w>
em is
mu s</w>
plá n</w>
zat ím</w>
ag en
b ru
u prav
nějak ou</w>
P a
dal ších</w>
pro de
se š</w>
dí v
7 5</w>
obč an
ish ing</w>
he av
buil ding</w>
množ ství</w>
u drž
řík ala</w>
bi li
e ments</w>
ová ním</w>
ne pro
na ší</w>
ing ly</w>
fu n</w>
mu ži</w>
ú ž
svě t</w>
ke e
ra z</w>
incre ase</w>
H an
dří ve</w>
re ach
ne budu</w>
dou b
le k</w>
s car
d cer
hospodář ské</w>
addre ss</w>
k vět
význa m
bud get</w>
te am</w>
př is
s lož
u kon
zabí t</w>
b ní</w>
vě cí</w>
ov aly</w>
k in
dec ided</w>
vz ni
pr ou
podmí nek</w>
applic able</w>
u š
me asure</w>
so by</w>
mod er
o gra
po tra
zá zna
s myslu</w>
na šel</w>
ste p</w>
promi ň</w>
cer tain
ro di
z ed</w>
pí s
posle d
ě jší</w>
nut ím</w>
cu se</w>
vá mi</w>
sk y
I V</w>
vrá tit</w>
circu m
vi de
re search</w>
reg ulation</w>
s ran
se emed</w>
s lo
otáz ky</w>
W e
exam ple</w>
trou ble</w>
technic al</w>
3 9</w>
zví ř
8 7</w>
ick ého</w>
guar an
zbo ží</w>
E m
do pad
N ě
fol low</w>
T e
Har ry</w>
ro n</w>
v ac
ka jí</w>
si on
la di
f all</w>
tel ling</w>
fa ir</w>
jed né</w>
han d
m at</w>
gh t
re ma
resul ts</w>
9 5</w>
ig n</w>
ry ing</w>
si st
h ů</w>
kan celá
su ffici
K ar
fun g
s cen
o x
gir ls</w>
fig ure</w>
ha ir</w>
S mlou
recog ni
cen y</w>
T his</w>
th ro
do cela</w>
m hle</w>
ň ují</w>
Y e
4 8</w>
bo x</w>
te sted</w>
le ad</w>
omlou vám</w>
op ě
memb ers</w>
P au
elek tro
th us</w>
pen d
s at
fa jn</w>
k ři
wee ks</w>
ne me</w>
fi k
f ran
competi tion</w>
ma mi</w>
it self</w>
je j</w>
b ac
ho sp
me tod
ban k</w>
ak ti
kr it
okam ži
vz or
im ag
E M
ab sol
předpis y</w>
do lar
stanov is
po žád
4 3</w>
slov a</w>
ted a</w>
pů j
op inion</w>
la w
cla im
manž el
co st</w>
ge st</w>
en e
n ers</w>
ch i
p un
po ví
plat í</w>
a sh
do state
ně koli
c am
ex clu
ct ors</w>
do šlo</w>
spo j
po cit</w>
ná kladů</w>
hus band</w>
vyj ád
předmě t</w>
k val
vy už
na prost
al low</w>
změ ny</w>
a me
el o</w>
pap í
pers on
přílo ze</w>
krit éri
kur va</w>
c rit
při jde</w>
st af
dr žit
dar k</w>
zdrav ot
tra l</w>
rel ating</w>
tot iž</w>
4 9</w>
bu n
ne mohl</w>
ro le</w>
T h
un less</w>
l hů
ar ran
effe ctive</w>
3 8</w>
as po
br zy</w>
če ho</w>
k ů
ex cept</w>
str eng
S ha
N i
distri bu
impac t</w>
d ali</w>
pří ležit
a j
se ction</w>
zpráv u</w>
I S</w>
svob od
ty hle</w>
im medi
nor má
A S</w>
p tion</w>
mov ing</w>
vz dá
pos es</w>
mluv il</w>
tic ké</w>
poin ts</w>
y s
C H
dri ve</w>
okam žit
sezna m</w>
w ed
st rong</w>
příprav ku</w>
financ ování</w>
v it</w>
G ra
cest u</w>
čem u</w>
inclu de</w>
ved e</w>
li že</w>
sa mot
te mp
pre ss</w>
z o
. 0
enti al</w>
sp ad
ch al
low er</w>
vnitro státní</w>
bo ys</w>
pracov ní</w>
eri a</w>
R oz
pře kvap
úž as
min i
addi tional</w>
ú prav
compan ies</w>
použí t</w>
rov at</w>
z lo
še k</w>
do káz
jak é
ob vi
gent le
ne ws</w>
fre e
t á</w>
politic al</w>
le ad
lo ď</w>
mat ka</w>
wi se</w>
aspo ň</w>
M ad
T y
20 0</w>
vz dělá
k ci</w>
a head</w>
míst a</w>
vý mi</w>
prostřed ky</w>
sh are</w>
ali ve</w>
vo lal</w>
lo se</w>
an g</w>
contin ue</w>
D a
kter ého</w>
wh o
. e
ci ti
T u
st ala</w>
pří jem
tak es</w>
po lo
do z
situ ace</w>
liv es</w>
4 2</w>
z veřej
pe m</w>
z z
nor mal</w>
a č
pří j
sm lu
gran ted</w>
pod rob
we apo
pre zid
4 4</w>
am es</w>
vý bě
práv ních</w>
S i
budou c
dire ct</w>
sou vise
pers onal</w>
spotře b
c ot
proje ct</w>
p ick</w>
á n
organ is
nov ých</w>
pa yment</w>
le l</w>
m ne</w>
lé pe</w>
roz sa
car e
sta ro
li š
c to
D N
dis cu
co ol</w>
proced ures</w>
m out</w>
ex ce
feel ing</w>
š tí
k tiv
nu al</w>
už iv
ochran y</w>
re fu
il ing</w>
t ory</w>
pí sm
p al</w>
le tí</w>
au to
h ru
maj or</w>
ž ní</w>
h ate</w>
do g</w>
bel ow</w>
s í</w>
nezbyt né</w>
b ers</w>
ani ž</w>
k nout</w>
n om
pp ing</w>
consid er
vod y</w>
pr ise</w>
s ite</w>
stup id</w>
ac tive</w>
7 .
fi gu
i an</w>
mar ried</w>
h la</w>
s prav
f fic
i ties</w>
ohle du</w>
i on
dec is
un g</w>
sto jí</w>
mě ř</w>
op port
staf f</w>
zpráv a</w>
sh e
se par
in ste
pomo ct</w>
si mil
ven ku</w>
M er
měsí ců</w>
appli ed</w>
inten ded</w>
B la
po zd
potřebu jeme</w>
kon tak
effe cts</w>
Č lá
čast o</w>
re sources</w>
dá me</w>
pre ss
si a</w>
úč ely</w>
chla p</w>
8 8</w>
povol ení</w>
W </w>
me mor
proble ms</w>
chan ged</w>
kov ých</w>
inf ring
Jan u
con sul
techno log
n or</w>
autom at
ně kde</w>
té měř</w>
speci ally</w>
obsa huje</w>
u ješ</w>
ú zemí</w>
gi ving</w>
do spě
se dě
la jí</w>
za bil</w>
char ge</w>
moh ly</w>
respon sible</w>
am a</w>
pat ří</w>
pří pad</w>
ef fici
as soci
li ko
hodnot y</w>
jest liže</w>
e se</w>
dělá me</w>
i tion</w>
nebo ť</w>
re ly</w>
vá me</w>
tu ral</w>
včer a</w>
lan gu
provid es</w>
individ ual</w>
jud gment</w>
pů l</w>
oh ro
b ar</w>
le ta
ner oz
fer ence</w>
am ong</w>
mo ci</w>
mal é</w>
chan ges</w>
g ro
your s</w>
vždy ť</w>
ch o</w>
liko ž</w>
V al
L is
Janu ary</w>
E ar
z na</w>
z nění</w>
vá z
ke pt</w>
nech al</w>
ne sm
paci entů</w>
e c
se em</w>
om s</w>
kov i</w>
ck o</w>
V á
po té</w>
h mot
i th</w>
dov o
stru cture</w>
pro gre
Char lie</w>
any more</w>
tu hle</w>
ex cuse</w>
L on
b s</w>
jedin ý</w>
ck er</w>
inte gr
la bor
w er
an n
zá ležit
dolar ů</w>
M ay</w>
C I
ci e</w>
know led
p .
ov ě</w>
val u
předpis ů</w>
ak tiv
requ est
Ju ly</w>
ma il</w>
ov </w>
by e</w>
mou th</w>
tě lo</w>
wel come</w>
ta ce</w>
bezpeč nost
dom ní
ší len
c old</w>
smr ti</w>
R y
pers ons</w>
ú vě
indu stry</w>
provis ion</w>
av o
ni chž</w>
su sp
zajist it</w>
ak tu
d ings</w>
bu y</w>
lí b
dov nitř</w>
a jící</w>
vý kon
sub mitted</w>
in fe
sy n
plat nost</w>
ov alo</w>
tra ining</w>
B i
reas ons</w>
ick ou</w>
do ws</w>
atten tion</w>
dis pozici</w>
spo jení</w>
Rad a</w>
ad í</w>
na stav
T a
not e</w>
sou hla
em er
tele fon
e arly</w>
sa m
sta ve
ji chž</w>
nut né</w>
va jící</w>
0 2</w>
itel né</w>
ž en</w>
regar ds</w>
po chyb
pří pra
trans par
K a
C la
o .</w>
k g</w>
h al</w>
mul ti
f it</w>
šet ření</w>
U ni
pr il</w>
ma xim
bezpeč nosti</w>
ati v
bod ies</w>
b ed
or e
L A
tak ová</w>
or ing</w>
C o</w>
obchod ní</w>
ar ri
roz ší
ved le</w>
w in</w>
bo o
invest ment</w>
sh ar
tý ká</w>
we b
at ure</w>
con sequ
T ur
bu dov
im a</w>
en jo
dec lar
u mě
zdra ví</w>
e te</w>
da ň
ev alu
Člá nek</w>
h raz
ochran u</w>
as ing</w>
prá zd
ver se</w>
si ster</w>
pří spě
K O
e ye</w>
L in
ve če
cap ac
ter ri
ci on
E E
ol a</w>
je likož</w>
B ur
sp ir
od mít
ar t
d nů</w>
jí cí
t ary</w>
z cela</w>
dom á
of f
manu fac
stan d
is ing</w>
č ili</w>
hod iny</w>
en ého</w>
sh a
veli ce</w>
pos t</w>
f lu
w r
er t</w>
u d
won der
sk r
na ši</w>
invol ved</w>
addi tion</w>
0 5</w>
kom uni
Mr s.</w>
pří pa
se k
rá t</w>
promi se</w>
re stric
bod ě</w>
před běž
ho st
T er
W e</w>
ner v
pre vi
ne js
slov o</w>
pa y
F ren
ke jte</w>
b ly</w>
ter rit
u čin
p el
promi ňte</w>
ru kou</w>
tý den</w>
n one</w>
f li
červ na</w>
W in
p te
alter nati
flo or</w>
c a</w>
ce ment</w>
ener gie</w>
dů vě
ch vil
mal ý</w>
TH E</w>
ú řed
pomo cí</w>
6 5</w>
B il
h mm</w>
dáv á</w>
sv at
M il
poz or</w>
ti oned</w>
t ý</w>
partic ul
lí to</w>
va hu</w>
9 2</w>
m ých</w>
cí le</w>
9 8</w>
A pril</w>
ze v</w>
ch at</w>
f y
cre dit</w>
de mo
spo jen
p ick
Mar ch</w>
re pe
ome z
o ček
ef for
leav ing</w>
ř ila</w>
po má
cí tím</w>
kon kur
ob nov
wh ose</w>
te pl
přípra vek</w>
chal len
In di
vi del</w>
al though</w>
podni ků</w>
dě len
er a</w>
fe e</w>
ne měla</w>
am s</w>
as pe
le vel
hle du</w>
O b
lin es</w>
ov u</w>
při mě
spotřeb itel
0 4</w>
ohle d
tá ta</w>
pur poses</w>
ben e
ta hle</w>
op ust
institu tions</w>
sní žení</w>
g ri
y ou
le jte</w>
sta čí</w>
p in
r ty</w>
receiv ed</w>
situ aci</w>
absol ut
K en
g a</w>
ř ilo</w>
tat i</w>
č ené</w>
su pp
ex ter
st ly</w>
pr ices</w>
ta j
oun ded</w>
vnit ř</w>
od stran
prostřed ků</w>
t ka</w>
čer ven
D E</w>
f ish</w>
sur ance</w>
zv u
ac cep
Evrop ská</w>
en ých</w>
ň ovat</w>
st řel
0 8</w>
amen d
te h
cla ss</w>
4 7</w>
pod a
ne můžeme</w>
pohod ě</w>
con centr
dire ctly</w>
př it
žádo sti</w>
ov lá
nat ural</w>
docu ments</w>
con du
ur o</w>
tr ů</w>
O R
ex per
administr ative</w>
du b
pla ying</w>
vid íš</w>
xi mum</w>
odpově ď</w>
circum stances</w>
uděl ala</w>
le tech</w>
re ž
con text</w>
u vnitř</w>
kov á</w>
e specially</w>
má ma</w>
de ar</w>
vý jim
contra ct</w>
inste ad</w>
zí ch</w>
soci ální</w>
o soby</w>
c ross</w>
za m
k on</w>
jist ý</w>
po star
8 9</w>
při šla</w>
č ná</w>
K ing
fa ult</w>
společ ností</w>
su dek</w>
sna d
dow n
zů stat</w>
din ner</w>
prohlá šení</w>
5 00</w>
od i
9 6</w>
správ ně</w>
lik ely</w>
t le
G i
her e
o práv
the m
ka ž
U S</w>
re view</w>
P P
ště ní</w>
c en</w>
U N
zep tal</w>
pí se
Jo e</w>
tra di
inter nal</w>
ev ed</w>
v an</w>
e ts</w>
D ar
investig ation</w>
wor ked</w>
b on
D on
P ra
A .</w>
voz id
s .
mon th</w>
vý hod
nesm í</w>
do stup
vý bor</w>
r ů</w>
4 6</w>
S ir</w>
fo cu
dod rž
con fir
Lor d</w>
sch ů
vý ši</w>
ht t
T O</w>
O F</w>
anal ý
bre ak
rad ši</w>
D en
hor u</w>
potřebu je</w>
A c
dat ab
spolu práci</w>
signific ant</w>
ztr at
av er
r ní</w>
m its</w>
B al
v ou</w>
spolu práce</w>
du ty</w>
mes sage</w>
mysle t</w>
un g
ne jsi</w>
svo je</w>
ová no</w>
to wards</w>
P at
za jištění</w>
ta jem
žen u</w>
zá ří</w>
cap ital</w>
po k
ne bezpeč
, 000</w>
O cto
par ents</w>
Úřed ní</w>
ne ar</w>
pursu ant</w>
ho ney</w>
F re
fil m</w>
uveden ého</w>
exist ing</w>
of ten</w>
com mit
vol u
t led</w>
stati st
ne máš</w>
im u</w>
S am</w>
let ter</w>
T hat</w>
ří j
A T</w>
E r
re st
hu man
ic ro
ac ích</w>
š il</w>
re ci
cho ice</w>
hran i
je l</w>
ry bol
be y
th ous
k ot
ti e</w>
ati l</w>
d av
conta ct</w>
be gan</w>
le ty</w>
va ší</w>
hol ding</w>
sig ned</w>
pr ve</w>
za b
enti re</w>
jak mile</w>
pozná m
důsled ku</w>
kon z
docu ment</w>
pově ď</w>
ho ne
r á</w>
sl í
j a
podí vejte</w>
orgá n</w>
tře tí
dom u</w>
E EC</w>
ha j
spo ko
am p
stu dy</w>
exist ence</w>
9 1</w>
pas s</w>
an nual</w>
pra cti
plu s</w>
k ovat</w>
ně kterých</w>
věst ník</w>
zmi z
D P</w>
o stí</w>
z lat
cest ě</w>
ká mo</w>
přísluš né</w>
ad ded</w>
Octo ber</w>
ř ela</w>
po prvé</w>
le te
hla vy</w>
nez áv
se a</w>
stej né</w>
rovná ní</w>
c ris
ol u</w>
form s</w>
čin nost</w>
še st</w>
ně mu</w>
limit ed</w>
sc ope</w>
plá nu</w>
vy šetř
clo sed</w>
za čá
mechan is
car ry</w>
re aliz
Ar ticles</w>
cle an</w>
ď me</w>
con tested</w>
any body</w>
Joh n
ob rov
do se</w>
g ar</w>
zen s</w>
je jichž</w>
A b
an ci</w>
r .
P od
š ka</w>
com put
la s</w>
sel s</w>
ag ent</w>
podni ku</w>
od sud</w>
or ders</w>
sour ce</w>
povin nosti</w>
návr hu</w>
perfe ct</w>
veřej né</w>
o nes</w>
de mon
qu ar
loc ation</w>
experi ence</w>
la y</w>
teh dy</w>
se str
Fren ch</w>
ol s</w>
O h</w>
P i
pro mluvit</w>
ed ing</w>
cí til</w>
ev ent</w>
s ation</w>
ci es</w>
b ack
z bra
bey ond</w>
w all</w>
E R</w>
t ors</w>
svě ta</w>
9 3</w>
4 1</w>
CO M
t ation</w>
g y
druh ý</w>
k ře
wor th</w>
htt p</w>
s at</w>
n ala</w>
červ ence</w>
co koliv</w>
podni ky</w>
zat ra
cou ra
bě hu</w>
de stro
pac ka
fun ny</w>
pů jdu</w>
grow th</w>
přílo hy</w>
consid er</w>
de set</w>
dě v
EH S</w>
li la</w>
appro ach</w>
měst a</w>
řad u</w>
po ky
tou ch</w>
g n
vy tá
chod u</w>
ná hod
milion ů</w>
ome zení</w>
z ran
po or</w>
ter ed</w>
ov ým</w>
roz sud
atel ů</w>
m ým</w>
tvr dí</w>
ná pad</w>
přípa dech</w>
P u
bod u</w>
stá tech</w>
žen ý</w>
dělá te</w>
equ ip
člen ského</w>
obli če
finan čních</w>
ori es</w>
s ounds</w>
ch tí
mean ing</w>
ex er
obje ctives</w>
prote ct</w>
m el
0 3</w>
5 5</w>
qu ick
cre ate</w>
ro l
střed ní</w>
pro por
6 8</w>
zá kaz
s ick</w>
v ý</w>
sto j
písm .</w>
A s
Č í
ap par
men ty</w>
presen ted</w>
dáv no</w>
equip ment</w>
for má
ně ny</w>
věř ím</w>
poten tial</w>
sou d
8 5</w>
nov á</w>
5 1</w>
high er</w>
zdro jů</w>
z mí
jas né</w>
ph s</w>
vyplý vá</w>
ma ximum</w>
ó n</w>
in o</w>
ná d
cle arly</w>
j ní</w>
comple te</w>
na horu</w>
tain ed</w>
J en
led na</w>
z o</w>
re fle
di alo
so ft</w>
pi ece</w>
zku šen
de ep</w>
l ying</w>
m oun
C al
decis ions</w>
jmé nem</w>
M ag
několi ka</w>
them selves</w>
M ed
zákla dní</w>
writ ten</w>
M ac
E L
žen ých</w>
ag ed</w>
partici p
stra ch</w>
žalob kyně</w>
ac tivity</w>
vy kon
c ode</w>
so f
při pad
hlu bo
li stop
záj mu</w>
vi ol
H ou
so lid
si ze</w>
z an
5 2</w>
no s</w>
zbra ň</w>
j a</w>
shi ps</w>
N e</w>
F a
proje cts</w>
kamar ád
ž ou</w>
cat ch</w>
zvláš t
expe cted</w>
sil í</w>
capac ity</w>
hor ší</w>
ati ves</w>
u zná
obje ctive</w>
bas ic</w>
An g
osob </w>
re present
of fer</w>
8 1</w>
re al
b on</w>
okamžit ě</w>
nen a
B a
hu jí</w>
en try</w>
ju sti
wr ite</w>
0 7</w>
h ovat</w>
kla du</w>
ko sti</w>
ori z
bit ch</w>
oznám ení</w>
vzdá len
s ice</w>
v ent</w>
Ně me
Min ist
sid es</w>
ta ble
stra ight</w>
takov ého</w>
L ou
t ely</w>
9 4</w>
stop ped</w>
relati on
výsled ky</w>
va ši</w>
Ger many</w>
po stu
stanov ené</w>
Nov ember</w>
win dow</w>
ů h</w>
po kro
ru le</w>
va z
p é
i er</w>
meziná rodní</w>
men tioned</w>
o ro
bě ž</w>
supp ly</w>
s pr
S im
agre ed</w>
žen o</w>
sp i
sou částí</w>
be gin
C an
crit eria</w>
fo ot
pro posed</w>
c vi
sho ot</w>
sup pli
u klid
společ ně</w>
vrá til</w>
g en</w>
pře zku
představ uje</w>
hot ov
cau ght</w>
pos l
pre ssed</w>
ne te</w>
A D
ch e</w>
ali zace</w>
sch eme</w>
su sta
ran ge</w>
chtí t</w>
J er
be t</w>
program mes</w>
vidě li</w>
com for
bor n</w>
poč tu</w>
pl nění</w>
u j</w>
z účast
P al
těž ké</w>
ener ge
5 3</w>
L an
K y
d red</w>
F i
č uje</w>
T ex
podpor a</w>
ko l</w>
pte mber</w>
it el</w>
vý mě
přije tí</w>
ně na</w>
dit ure</w>
le ti
sat is
vy tvá
Fran ce</w>
pan ěl
otáz ku</w>
tě la</w>
králov ství</w>
ask ing</w>
c as
vzta huje</w>
sur vi
zatra cen
chtě jí</w>
ha s
uvid íme</w>
v in</w>
po plat
fac i
de al
Geor ge</w>
f is
pres sion</w>
suffici ent</w>
Smlou vy</w>
p. m.</w>
ří dit</w>
nechtě l</w>
inde ed</w>
s ví
Se ptember</w>
špat ně</w>
pozd ě</w>
w ide</w>
sub sid
je hož</w>
ní z
vic ti
201 5</w>
sh od
organi zace</w>
br at</w>
orgá nů</w>
c ers</w>
tu d</w>
S h
k ategori
z ohled
s ady</w>
t lu
sa d</w>
mu t
t ko</w>
na ps
stáv á</w>
j me</w>
z dá
sh ouldn</w>
naprost o</w>
7 1</w>
fun ds</w>
O ffic
o č
comput er</w>
com pla
u ne
jed ná</w>
id el
assi stance</w>
bře zna</w>
er al</w>
simil ar</w>
n ilo</w>
řízen ím</w>
vý voz
defin ed</w>
každ ého</w>
n ale
2 .</w>
12 .
anim al</w>
ch oz
v ir
smlou vy</w>
ar ms</w>
particul arly</w>
hist ory</w>
sy m
elec tro
un ity</w>
podí vat</w>
sit ting</w>
evrop ské</w>
p ed
každ ou</w>
otáz ka</w>
na m
speci fied</w>
k ý
co ordin
společ ného</w>
qu anti
H el
wa ste</w>
some where</w>
E F
mini mum</w>
Yor k</w>
vi a</w>
see ing</w>
dro p</w>
poslouche j</w>
dire ctive</w>
otev řen
větš ina</w>
lo ck</w>
obvyk le</w>
o ce
pul l</w>
I M
tom u
ome zen
růz ných</w>
atel é</w>
vů či</w>
u vol
techno logi
K on
ka p
pro dej</w>
vot e</w>
F ir
li mit</w>
man ce</w>
po ra
p h</w>
l ých</w>
listop adu</w>
posky tu
fun gu
ne byly</w>
fa iled</w>
it ch
me ant</w>
život ě</w>
standar ds</w>
diffic ult</w>
elec tr
amen ded</w>
zá leží</w>
ob chod</w>
reach ed</w>
val o</w>
Americ an</w>
happen s</w>
Tri bu
0 6</w>
follow ed</w>
g un
de f
ap poin
nov ého</w>
cris is</w>
znám ky</w>
na jednou</w>
issu es</w>
regi onal</w>
se ven</w>
skuteč nost</w>
jako ž</w>
jed na
ag ric
st em</w>
í mi</w>
ar ch
c ard</w>
we ight</w>
Micha el</w>
š ak</w>
ta bul
il li
naš li</w>
follow s</w>
obchod u</w>
8 2</w>
lau gh
b lin
di se
la p
u dá
anim als</w>
pá nové</w>
&apos; i</w>
ti ll</w>
ho od</w>
ne máme</w>
cal ling</w>
lear n</w>
secre t</w>
pro jedná
got i
level s</w>
U R
na j
ans w
P R
S pe
citi zens</w>
Sou d
muse la</w>
jde te</w>
roz en
5 7</w>
it ě</w>
nal é
pravděpodob ně</w>
mod el</w>
stand ard</w>
bu s</w>
mys li</w>
držit el
blu e</w>
Dav id</w>
vy lou
rá ž
H a
cal ls</w>
č et</w>
T A</w>
dá š</w>
un k</w>
cap tain</w>
av šak</w>
immedi ately</w>
en ter</w>
a ční</w>
mně l</w>
u h
áv ají</w>
om lu
kontro ly</w>
chvil ku</w>
G overn
ř ic
su mp
rov é</w>
u jeme</w>
analy sis</w>
lod i</w>
před klá
M E
d rop
dot y
B ob
su f
pap er</w>
P en
š ti</w>
expen diture</w>
men ší</w>
k i</w>
ic a</w>
P re
practi ce</w>
le ž
­ </w>
ph ys
individ u
A li
Fin an
před ev
o ther
kter ém</w>
vý bor
pos uz
comple tely</w>
de sá
5 6</w>
incre ased</w>
při jít</w>
m ý
C y
com b
cest y</w>
f ell</w>
př er
o li
wo od</w>
ven ess</w>
9 9</w>
se ly</w>
žád nou</w>
sk ému</w>
hun dred</w>
tele vi
5 4</w>
dů stoj
jas ný</w>
allow ed</w>
f ishing</w>
č el</w>
tom hle</w>
vý raz
han g</w>
Chri st
eu ro
na dále</w>
meziná rod
r. o.</w>
ci d</w>
J im
l ně</w>
získ at</w>
říj na</w>
e ight</w>
ne hod
člen ský</w>
agric ul
nechce š</w>
n uje</w>
8 3</w>
hle dis
knowled ge</w>
ko ordin
nic méně</w>
s me</w>
cou z
fe ar</w>
u dělám</w>
pic ture</w>
min ul
re k</w>
not ice</w>
má ní</w>
r is</w>
ari es</w>
for d</w>
k ří
léč iv
dr ž</w>
in ici
nej dřív</w>
V e
z ku</w>
d vě
interest ed</w>
King dom</w>
per for
le gi
mus ic</w>
appe al</w>
čem ž</w>
opě t</w>
profe ssi
ba g</w>
n ou
7 2</w>
ac cid
ne viděl</w>
I T</w>
ko st
er ror</w>
fi kov
7 3</w>
I m
sou d</w>
8 .
Pe ter</w>
společ enství</w>
co f
od dí
man i
expla in</w>
sci enti
vš tě
aut a</w>
quick ly</w>
fer ed</w>
sp íš</w>
hy dro
emplo yment</w>
f a</w>
0 .
J i
be l</w>
J ust
m la
ag ree</w>
est im
as on</w>
dan ě</w>
pomal u</w>
hlí d
ne goti
gla d</w>
s mí
P RO
argu ment</w>
20 20</w>
ál ním</w>
nen áv
P ri
kov ý</w>
ver sion</w>
pode z
řík at</w>
establi sh
sup er</w>
gentle men</w>
cal cul
mur der</w>
r ound</w>
progre ss</w>
nov ou</w>
ze ch</w>
5 9</w>
w ow</w>
environ ment</w>
h ý</w>
vy bav
kone č
za ř
poj ďme</w>
sy n</w>
h led</w>
potřebu ji</w>
zd ů
přin es
způsob il
ver i
IN G</w>
předev ším</w>
conne ction</w>
press ure</w>
hlav ou</w>
nej de</w>
květ na</w>
stre et</w>
po lov
zdů raz
An s
změ nit</w>
se ll</w>
k ční</w>
9 .
cí l</w>
vý boru</w>
lá ní</w>
af ter
\ </w>
N A
inclu ded</w>
com mer
L E
v at
br id
gi i</w>
ter ist
wor se</w>
odstav ci</w>
sta irs</w>
Por tu
z bav
p age</w>
obje v
g ger</w>
D ev
e fe
ů r</w>
star ý</w>
kom bin
ar má
stat us</w>
6 1</w>
oblig ations</w>
prob í
pří bě
s mar
konkré t
rozdí l</w>
gh ting</w>
atta ck</w>
9 7</w>
vod u</w>
pře sto</w>
~ </w>
če ká
záv až
lá tky</w>
při bliž
kre v</w>
hrá l</w>
k in</w>
on ing</w>
snaž il</w>
pan a</w>
5 8</w>
en ím</w>
ní ž</w>
° </w>
druh ou</w>
con stru
ne od
glob al</w>
zvý šení</w>
na př
člen skými</w>
gran d
wat ching</w>
přij at
vra ž
ar ity</w>
ov šem</w>
ka ma</w>
gran t</w>
U T
ex change</w>
rozhod l</w>
be k</w>
Po li
ty pu</w>
dr ží</w>
s ra
en ci</w>
jí dlo</w>
M ary</w>
dre am</w>
ladi es</w>
čen o</w>
p a</w>
Od pověď</w>
vari ous</w>
ž ila</w>
mi les</w>
V y
mis sing</w>
mo ji</w>
při čemž</w>
ná moř
ot u</w>
dv ůr</w>
podá ní</w>
ate st</w>
pře prav
materi al</w>
prv ním</w>
ra men
f on</w>
O H
ch l</w>
e y</w>
re ach</w>
oto gra
d l</w>
y ers</w>
lan ds</w>
S lov
ved l</w>
mí ru</w>
inde pend
liv er</w>
ú ř
sl un
f ying</w>
b our
hol ka</w>
následu jící</w>
wer en</w>
monit oring</w>
pěk ně</w>
ne um
re ports</w>
v é
dub na</w>
há ní</w>
elektro nic
ť te</w>
marke ts</w>
vehic le</w>
žen ou</w>
simp le</w>
o svěd
vel ká</w>
v ali</w>
cen a</w>
Ans wer</w>
áv al</w>
naš ich</w>
S al
stat ement</w>
ac qu
sud den
certi fic
pal u
M u
poč kat</w>
dvě ma</w>
in al</w>
m lá
con tent</w>
tak ings</w>
výrob ků</w>
net work</w>
P h
environ mental</w>
r ide</w>
st ation</w>
v ti
hosp ital</w>
op ened</w>
h id
7 7</w>
ra ději</w>
hist or
certain ly</w>
za se
m í</w>
benef it</w>
N á
osob ní</w>
bor der</w>
an ti</w>
nej větší</w>
měst o</w>
konz ul
pro spě
Ye ah</w>
l ar</w>
T V</w>
vy ře
s pre
re pli
pas sed</w>
x ml</w>
Americ a</w>
re la
dě te</w>
rozvo j</w>
vš im
langu age</w>
hledis ka</w>
p íš</w>
6 4</w>
d voj
tre st
klu k</w>
sp í
polici es</w>
sudden ly</w>
ot ce</w>
t ala</w>
č a
F EU</w>
g u</w>
rež imu</w>
regar ding</w>
P ří
pří tel</w>
se tting</w>
ide l</w>
C lar
de pen
tě z
star ting</w>
k od
t ari
arran ge
s per
Pau l</w>
kon ci</w>
mlu ví</w>
pře staň</w>
smr t</w>
O S
vy sí
dost ala</w>
p is</w>
za hrani
pu s
skvě lý</w>
c ům</w>
dě lají</w>
např .</w>
jed ním</w>
0 9</w>
under takings</w>
na šeho</w>
st age</w>
recor d</w>
ch ap
potřeb ovat</w>
b o</w>
re ven
g ged</w>
mod i
in surance</w>
zá roveň</w>
c ast
ně ných</w>
odpo věděl</w>
parag ra
nes mí
B ra
nád her
Gr oup</w>
St ar
k es</w>
život ní</w>
sh ro
měsí ce</w>
kom ise</w>
prac tic
ov y</w>
st one</w>
ww w
rozhod ně</w>
fi xed</w>
to p
takov ou</w>
ad dy</w>
O p
ou gh
mil uju</w>
Z e
B ul
d ře
lit ary</w>
P an
me ta
cel á</w>
3 00</w>
no hy</w>
au dit
ob ě</w>
ci se</w>
sá hnout</w>
th row</w>
oc cur
writ ing</w>
be at</w>
č ů</w>
w ine</w>
F o
á n</w>
Am eri
poz mě
k ni</w>
I P</w>
e over</w>
vš u
.0 10
k ala</w>
L ar
wh is
swe et</w>
gre en</w>
dost ali</w>
le z
U SA</w>
č ce</w>
econom y</w>
offic er</w>
ce l</w>
vi li
M iss</w>
f ru
ku p</w>
přij mout</w>
b ab
pust it</w>
míst ní</w>
sk len
work ers</w>
we ar</w>
boh at
es cap
u pří
A S
čá ste
ma ster</w>
š anci</w>
ovan ého</w>
Au th
ex plo
offici al</w>
kr at
dan ger
ot a</w>
vy z
refer en
ne igh
li er</w>
zají ma
poj ďte</w>
plat it</w>
g od
6 7</w>
se be
v ad
En gli
dokt or</w>
m ém</w>
fil led</w>
mis sed</w>
par ts</w>
s ně
D ani
A t
S cot
ta ci</w>
re gu
rel ation</w>
eb ru
v li
použ it
dr in
or ů</w>
č ilo</w>
cti vely</w>
on u</w>
člově ka</w>
vy p
ob last</w>
to ward</w>
tu res</w>
y ho</w>
začí t</w>
pře zkou
chy ba</w>
oper ating</w>
bezpeč nost</w>
cof fee</w>
odstav ce</w>
zá ch
vide o</w>
I D</w>
or al</w>
in ation</w>
m ber
ov liv
ex port</w>
Fir st</w>
K o
lov é</w>
F ebru
t ys</w>
přátel é</w>
ex cep
zá bav
že k</w>
t ým</w>
2 3
2 ,
povin nost</w>
Febru ary</w>
K ing</w>
rov n
ch lá
Z á
ot á
ul ly</w>
sezna mu</w>
u vádí</w>
st vo</w>
s mysl</w>
vzpo mí
pří tom
cen u</w>
přit om</w>
perfor mance</w>
ná rodní</w>
dobr ou</w>
smě rem</w>
pra videl</w>
tvá ř</w>
is on</w>
ic ity</w>
u skuteč
ti s</w>
sk in</w>
od pad
prac ování</w>
t iny</w>
reg ion</w>
op ra
199 8</w>
differ ence</w>
k lin
nech te</w>
relation ship</w>
Je sus</w>
co l</w>
ac ting</w>
tech ni
ostat ních</w>
re ži
u n</w>
jak á</w>
B en</w>
w ind</w>
postup y</w>
st abili
c ab
ško ly</w>
for mu
cor por
mal á</w>
voj á
tar get</w>
prů běhu</w>
dě t
vla sy</w>
paragra phs</w>
č en</w>
sna ží</w>
ex tra
pod poru
te ach
expe ct</w>
kontro l
C he
su n</w>
agre ements</w>
ú nor
pokrač ovat</w>
polici e</w>
čin ností</w>
drž et</w>
kul tur
Spo jen
říká š</w>
cen trá
co m</w>
ř ské</w>
fi f
do le</w>
suc cess
implemen ting</w>
ad s</w>
pro mis
gre ater</w>
poh led</w>
post up</w>
b ase</w>
scar ed</w>
coun t</w>
part ner</w>
u ká
pů jde</w>
je v
vě de
vlá da</w>
c ut
é r</w>
jak ou</w>
poru šení</w>
y l</w>
k le
s low
di st
wal ked</w>
produ cers</w>
mid dle</w>
Evrop ský</w>
strate gy</w>
instru ments</w>
qu ick</w>
peně z</w>
ou ps</w>
f eder
tv á</w>
H ot
fa il
in ce</w>
kom is
an ého</w>
pozor nost</w>
čas .</w>
re main</w>
s ů</w>
bre a
trans fer</w>
e cu
v stoup
dlou hod
u kra
F er
li dem</w>
rá ní</w>
con stitu
za brá
mrtv ý</w>
me c</w>
poten ci
under taking</w>
simp ly</w>
d ů</w>
p sá
sp á
tv ou</w>
za mít
výrob ky</w>
ně no</w>
roz e
pa in
po tí
dan é</w>
přílo ha</w>
E li
C hi
c lin
equ al</w>
t ali
mož nosti</w>
J o</w>
pre sid
O V
im ports</w>
ř ed</w>
A gency</w>
vě zení</w>
oper ations</w>
jedin á</w>
vr ch
en ta</w>
proper ty</w>
vá te</w>
liv ě</w>
d rá
l ého</w>
Hen ry</w>
i al</w>
dáv at</w>
b al</w>
en ou</w>
ma d</w>
n ili</w>
L y
roz sudek</w>
dra w</w>
zá sady</w>
st ic</w>
ně n</w>
sprav ed
Ger man</w>
ne řekl</w>
j ur
pravid el
se y</w>
l ím</w>
ná zev</w>
V a
ná rod
princi ples</w>
nějak á</w>
or em</w>
ra ised</w>
kri min
prv ního</w>
osob a</w>
infring ement</w>
poj ení</w>
gla ss</w>
ne ither</w>
rozsa hu</w>
val id</w>
Rich ard</w>
ne myslím</w>
produ ktů</w>
z lom
an ou</w>
nejs píš</w>
soci ety</w>
po le</w>
vel kou</w>
Komis í</w>
gu ard</w>
bro ke</w>
manufac tur
spe ed</w>
pp er</w>
všu de</w>
demon str
qui et</w>
u držitel
ess ential</w>
z is
lo gie</w>
lov ed</w>
rizi ka</w>
ap art
oun d
appe ared</w>
mín ky</w>
Cap tain</w>
bal ance</w>
úspě š
bý vá</w>
fin ished</w>
lu cky</w>
ó </w>
danger ous</w>
G a
A L</w>
J ack
re je
r ati
nej méně</w>
gg est
o sla
Engli sh</w>
zjist it</w>
kv ali
EC B</w>
í ho</w>
nedo stat
klid ně</w>
ně ho</w>
k as
got ten</w>
u jete</w>
sou du</w>
in nov
D ra
pl ans</w>
la un
en i</w>
over all</w>
7 6</w>
důvod ů</w>
K el
spoust u</w>
sump tion</w>
other wise</w>
rozsud ku</w>
I M</w>
strate g
su ggest
territ ory</w>
stu pu
voz idel</w>
fi kace</w>
c ell</w>
záv is
chá zení</w>
kti vní</w>
dě tí</w>
bo že</w>
susta in
zem ích</w>
head ing</w>
compli ance</w>
G ran
ka pac
u lož
appe ar</w>
8 6</w>
stra n</w>
Ch ina</w>
aver age</w>
ine se</w>
dec ide</w>
A .
rů st</w>
ck et</w>
ná mit
stá tě</w>
loc ated</w>
con st
sup pose</w>
ch er</w>
systé my</w>
finan cing</w>
Fran k</w>
stru ctu
T R
zač ala</w>
ad ap
ko st</w>
si e</w>
rych le
ti red</w>
qu ali
ti li</w>
pří stupu</w>
e j
ří d
g gest</w>
T hom
zná š</w>
bro ken</w>
každ ém</w>
rozpoč tu</w>
u l</w>
zdro je</w>
free dom</w>
Pro gra
neza po
bo at</w>
posled ních</w>
6 2</w>
je jím</w>
e uro</w>
Ban k</w>
ú roveň</w>
B re
h n
su spe
bra in</w>
veřej ných</w>
stran ge</w>
t ří</w>
c al</w>
St re
t íš</w>
b b
vhod né</w>
vě ří
author isation</w>
cla im</w>
7 8</w>
gr oups</w>
orgá nu</w>
tra in</w>
použí vání</w>
du de</w>
cit ed</w>
edu cation</w>
cla ssi
6 9</w>
t r</w>
správ ní</w>
slyš ela</w>
ně mž</w>
St an
N o
un t</w>
při šli</w>
ú lo
lo ss</w>
ná vště
Pro to
interest s</w>
o čí</w>
ži je</w>
appro val</w>
mat ters</w>
její ho</w>
C S
bo ss</w>
com pati
D P
J e</w>
cor respon
www .
EN Í</w>
de leg
chá pu</w>
contain s</w>
M y
ri es</w>
m as</w>
o il</w>
ni koho</w>
Mi ke</w>
hodnot a</w>
be ar</w>
práv ního</w>
hlá šení</w>
choz í</w>
6 6</w>
chce me</w>
sleč no</w>
Ju li
dod ate
part ment</w>
měst ě</w>
begin ning</w>
dosa žení</w>
licen ce</w>
vzta hu</w>
cri me</w>
doporu čení</w>
ty p</w>
navr h
příspě v
A g
T om</w>
T ran
n ovat</w>
I tal
s wi
be came</w>
ní kem</w>
de se
issu ed</w>
Co že</w>
kdy bys</w>
společ né</w>
be j
pl ant</w>
ho d</w>
h ý
ko le
respon sibility</w>
postav ení</w>
fun kce</w>
H i
th a</w>
z obraz
fam ili
tele fon</w>
strate gie</w>
a x
vo st</w>
ar ily</w>
u vádě
lo ad</w>
ž ky</w>
au di
ta m
studi es</w>
pr del
žen á</w>
m ra
je zd
6 3</w>
il ls</w>
fran couz
dou ble</w>
eri es</w>
má lo</w>
in ov
in tel
po pu
hlav ně</w>
í k</w>
ti sk
poz orov
respon se</w>
zbran ě</w>
dv ora</w>
řek něte</w>
sol di
opport unity</w>
svo ji</w>
ši ro
kon ce</w>
si ght</w>
requ ire</w>
st va</w>
pří sa
fo ot</w>
poskyt nut
skup ina</w>
Wil li
usu ally</w>
cho ose</w>
m ý</w>
ali ze</w>
condi tion</w>
pati ent</w>
da m</w>
jak ý
exist ují</w>
le ss
st ick</w>
mlu vím</w>
d ry</w>
stat es</w>
fan ta
sh ap
ší mi</w>
lí p</w>
ar ti
secon ds</w>
ne mají</w>
oblig ation</w>
sp ent</w>
tot ally</w>
han dle</w>
al ed</w>
8 4</w>
me k</w>
desig n
establi sh</w>
nástro je</w>
G al
le v
mach ine</w>
u jte</w>
co s</w>
ie f</w>
pust il</w>
týka jících</w>
vě t</w>
H e</w>
ne měli</w>
vešker é</w>
swe e
zastav it</w>
lu ck</w>
en e</w>
pl ně</w>
ast ro
a im
u se
ear lier</w>
zak áz
P S
corre ct</w>
cí lů</w>
determin ed</w>
list ed</w>
inici ati
cov ery</w>
U S
si an</w>
ca sh</w>
při z
ka men
cop ak</w>
cház et</w>
oby v
custom s</w>
med ical</w>
na hraz
jedin é</w>
J ames</w>
bezpečnost ní</w>
A ust
Bo ard</w>
ná ro
bo j</w>
účin ky</w>
vy vol
pe ace</w>
potře by</w>
doub t</w>
Govern ment</w>
B ůh</w>
gh tly</w>
pos si
un it</w>
at o
ně ji</w>
her self</w>
s ně</w>
enter ed</w>
ap preci
meth od</w>
ch ro
ac i
únor a</w>
niž ší</w>
jednotliv ých</w>
mi litary</w>
ma je
ozna čení</w>
systé mů</w>
V el
re n</w>
ig nor
ri se</w>
vědom í</w>
th es</w>
th ou
ná l</w>
skvě lé</w>
10 .
tisí c</w>
won der</w>
ro ck</w>
ad a</w>
h en
ne w
con sist
be half</w>
Ear th</w>
to x
š ené</w>
děl ala</w>
R an
kr ý
7 4</w>
původ u</w>
ste ps</w>
É </w>
rizi ko</w>
H on
de sp
hu jící</w>
form ed</w>
tak to</w>
h ám</w>
ch ování</w>
administr ation</w>
asse ts</w>
rodi če</w>
s. r.o.</w>
pos sibility</w>
previ ous</w>
ani a</w>
iv al
ob tí
N ic
C zech</w>
7 9</w>
gi ble</w>
s p</w>
ř ím</w>
po va
dá my</w>
communic ation</w>
míst nosti</w>
ade qu
ac ts</w>
mo jí</w>
tvr d
se kt
se at</w>
va š
raz il</w>
hod inu</w>
em u</w>
sur ve
imag ine</w>
jící mi</w>
am ing</w>
vo jen
sal es</w>
jednodu ch
ode jít</w>
k m</w>
B I</w>
chtě li</w>
an tly</w>
k ování</w>
po čá
mar ks</w>
bu sy</w>
za jišť
význa m</w>
fer red</w>
všech na</w>
gra ce</w>
ori gin</w>
k ém</w>
jmen uje</w>
zby tek</w>
pre ven
če ká</w>
zá jem</w>
prou d</w>
projedná van
p ir
serv ed</w>
x i</w>
de fen
dě j
kom ple
veče ři</w>
dne š
ing ing</w>
z prav
fy z
I F
pracov ních</w>
e en</w>
y el
jist á</w>
l ot
dopl ň
člen ským</w>
b ast
člán kem</w>
ho le</w>
podni k</w>
re s
itel e</w>
noti fied</w>
sle e
s word</w>
ad d</w>
spo ke</w>
pul led</w>
dv ac
h um
řá du</w>
sp át</w>
vzdělá vání</w>
th ir
cest a</w>
p ist
nedo ká
V ě
použi je</w>
bý val
b ral</w>
commer cial</w>
ed s</w>
poko j</w>
uveden ý</w>
pre vent</w>
EE A</w>
jo in</w>
rá mec</w>
sa mi</w>
ha m</w>
zvíř at</w>
od tud</w>
za vo
šen ím</w>
zů stan
poskyt ování</w>
na mes</w>
tre ated</w>
ne jen</w>
in ess</w>
slyš et</w>
sex u
ob s</w>
r ation</w>
uni ver
zna č
Z a
re ment</w>
la sk
f low
ast er</w>
ve ter
ac ím</w>
appro ved</w>
se v
D ad</w>
he aring</w>
hur ry</w>
dob a</w>
schop nost</w>
zvlá d
h m</w>
čís la</w>
ot y</w>
přid ě
do sud</w>
ob ou</w>
ri ch</w>
idel ines</w>
ist s</w>
thin ks</w>
fi x</w>
M ex
ex tre
poko ji</w>
re ported</w>
kov ého</w>
kol u</w>
ev ening</w>
ří kají</w>
t es</w>
s dělení</w>
re placed</w>
tomu to</w>
th in</w>
we ird</w>
men out</w>
com pen
go od
Offic e</w>
z pí
u pozor
subje kty</w>
ten ce</w>
cel kem</w>
pa mě
z em</w>
star ší</w>
Hou se</w>
susp en
al leg
AN D</w>
pravomo ci</w>
n b
sho wed</w>
ac y</w>
tov ý</w>
nech ce</w>
S .
snaž ím</w>
T he
ne bezpečí</w>
ac cept</w>
hlou p
i o</w>
úče tní</w>
pre mi
Jim my</w>
sc é
de gre
ali a</w>
prac uje</w>
pow ers</w>
hlí ž
E T
té hle</w>
h věz
plan e</w>
po kry
poko je</w>
ban ky</w>
ne můžete</w>
c amer
had n</w>
desig ned</w>
care ful</w>
min ut
a maz
cel l
J ane</w>
no on</w>
di stin
guaran tee</w>
hu ge</w>
konkur en
c ku</w>
en coura
sk i</w>
nati on
D el
st ore</w>
st vím</w>
š t
mor eover</w>
u míst
zahr nu
mů žou</w>
dre ss</w>
ten to
fail ure</w>
c ure</w>
contribu tion</w>
pis u</w>
continu ed</w>
h ne</w>
3 1.</w>
ho ře</w>
určit é</w>
mat u</w>
ne o
pe č
dá te</w>
indu stri
podí val</w>
inf lu
ci vil</w>
I tali
fun ction</w>
avo id</w>
jed e</w>
tal ked</w>
applic ations</w>
s low</w>
dod áv
život ního</w>
vers ity</w>
origin al</w>
tic ky</w>
tur ns</w>
H am
ef ully</w>
impro ve</w>
va šeho</w>
dra wn</w>
dam age</w>
le te</w>
plat nosti</w>
J ed
fi ghting</w>
důvod y</w>
zá pad
produ ced</w>
ye ster
naš tv
Con vention</w>
benef its</w>
T ar
v i</w>
happen ing</w>
chla pe</w>
jed eme</w>
sy na</w>
n ily</w>
sí tě</w>
i onal</w>
mno ha</w>
Evrop ě</w>
pri ority</w>
E A
z pě
spo čí
ce stu
at temp
ob leč
tr pě
F or</w>
v ices</w>
ne věděl</w>
ne budou</w>
klí č
val id
do stane</w>
posi tive</w>
marke ting</w>
ž ili</w>
bene fici
x es</w>
fu ck
S mi
I D
Au gu
S O
proved ení</w>
redu ction</w>
ne mohu</w>
ev en
tr é
kla dy</w>
tra ck</w>
p iv
tento krát</w>
ně kteří</w>
le dne</w>
C ity</w>
u lo
ra ci</w>
a ses</w>
sp end</w>
f ly</w>
vě ku</w>
plan et</w>
nes ení</w>
A ll</w>
fungu je</w>
clo thes</w>
vrá tí</w>
contro l
pay ments</w>
ci vili
ú z
dop ad</w>
O R</w>
ru s</w>
im port</w>
dor az
w ake</w>
pr e</w>
z jev
kapitá ne</w>
rodin a</w>
terri ble</w>
k cí</w>
zlep šení</w>
tem por
F ra
s w
min ary</w>
mov ement</w>
potřebu ješ</w>
náz oru</w>
N Í</w>
at ic</w>
b low</w>
V ic
hle dat</w>
ul ations</w>
conclu ded</w>
we aring</w>
svět lo</w>
W o
měsí c</w>
m b</w>
hlas ování</w>
A s</w>
mě r</w>
vid íte</w>
zep tat</w>
pan ts</w>
vez mu</w>
stave c</w>
ak ci</w>
dom ě</w>
g al</w>
blí ž</w>
sub stan
tov ých</w>
n ul
fin ish</w>
dohod a</w>
ris ks</w>
claim s</w>
fi les</w>
O P
špat né</w>
odpověd nost</w>
ku s</w>
I I
ob čas</w>
ne mohla</w>
pla vid
I r
Bu t</w>
vyso ké</w>
u j
6 0
it ely</w>
st ated</w>
če kat</w>
sta ňte</w>
dom in
.e u</w>
tur ning</w>
plá nov
dru h</w>
char ak
z ně
potra vin
ri d</w>
zkou š
te st
schop nosti</w>
g ate</w>
ne máte</w>
ac </w>
maxim ální</w>
Par la
opat řen
identi fied</w>
kli d</w>
fore ign</w>
tajem ství</w>
ogra ph
á vání</w>
obla stech</w>
ak rát</w>
seri ously</w>
vzá jem
zase dání</w>
tě mi</w>
Inter national</w>
od had
poli ce
thous and</w>
E D</w>
č el
blíz ko</w>
cha ir</w>
fre sh</w>
valu es</w>
kon stat
po ně
brat r</w>
příbě h</w>
stu die</w>
enjo y</w>
vli v</w>
vědě li</w>
hy per
O n</w>
ru ky</w>
desig n</w>
bi olog
sou hlas
&apos; cause</w>
agricul tural</w>
recommen d
dre w</w>
cal m</w>
evalu ation</w>
{ </w>
kil ling</w>
kro k</w>
kontro lu</w>
okol ností</w>
b an</w>
liv é</w>
sub stance</w>
oper ace</w>
produ kty</w>
zprav od
legi ti
H al
id s</w>
mar y</w>
kaz uje</w>
ak e
vozid la</w>
dí ž</w>
vz ala</w>
r ates</w>
reas on
T an
gen e
dv akrát</w>
men u</w>
for tun
hy po
re zer
li ber
proce su</w>
rá di</w>
ad ed</w>
g an
199 7</w>
F ar
gir l
H or
tu díž</w>
s ila</w>
wor ried</w>
accoun ts</w>
speci es</w>
pro ve</w>
ž ím</w>
jo int</w>
gi ves</w>
Ž al
curr ently</w>
p au
infra struktur
er n</w>
idi ot</w>
při způsob
stá l</w>
serv er</w>
vyžad uje</w>
cen tral</w>
začí ná</w>
progra mů</w>
chap ter</w>
g ol
smar t</w>
hor se</w>
ob ran
vytvo řit</w>
inter ne
professi onal</w>
káz al</w>
dne m</w>
par ame
yester day</w>
ch al</w>
cháze jící</w>
request ed</w>
fun ding</w>
čí st</w>
S am
haj z
st al
p ha
organis ations</w>
s lá
g old</w>
pro vést</w>
dokt ore</w>
š ila</w>
uděl ali</w>
od hal
me at</w>
ček al</w>
pla yed</w>
st ar</w>
vlá dy</w>
aw are</w>
exer cise</w>
provoz ov
ca st</w>
op ening</w>
pre li
hod il</w>
od mě
ta il</w>
com mand</w>
kee ping</w>
hro m
b i</w>
de vice</w>
j děte</w>
ck ý</w>
c at</w>
po dě
š er
tá m</w>
exter nal</w>
přísluš ných</w>
li es</w>
druh ého</w>
tu al</w>
by tu</w>
prdel e</w>
od stavec</w>
případ ně</w>
bi e</w>
fun cti
poda řilo</w>
f at</w>
te en</w>
la ck</w>
f light</w>
e ur</w>
Ma x</w>
část ky</w>
adop t</w>
dů kazy</w>
} </w>
k áv
op ak</w>
requi res</w>
pe c</w>
radi o</w>
ther more</w>
A no</w>
C E</w>
spe aking</w>
á tu</w>
fin ding</w>
cra ft</w>
vis it</w>
ro ll</w>
pl om
že š</w>
sle dek</w>
wal king</w>
děku ju</w>
ta n</w>
ex tra</w>
institu ce</w>
establi shing</w>
pla ces</w>
on o</w>
použí vat</w>
concer ns</w>
dri ving</w>
di ag
š ed
mist ake</w>
hu d
ří z
ori e</w>
usu al</w>
sig n
absolut ely</w>
le ch</w>
schvá lení</w>
dise ase</w>
á me</w>
contra cts</w>
author ised</w>
deb t</w>
k end</w>
pas sen
vá n</w>
spo t</w>
S V</w>
nenáv id
form ation</w>
zlo čin
num bers</w>
jed u</w>
z r
st ron
ú silí</w>
k ne
EC R</w>
ch em</w>
focu s</w>
Dan ny</w>
me mber
buil t</w>
po sti
vzdu chu</w>
reg ular</w>
euro pa
pr st
concer n</w>
ut í
s mile</w>
dáv ky</w>
in d
da mental</w>
emp ty</w>
gg ing</w>
heav y</w>
tv ého</w>
preli minary</w>
ri age</w>
rů stu</w>
cre ated</w>
vypad áš</w>
gr ounds</w>
Sou dní</w>
hrom ady</w>
chod em</w>
re cent</w>
tě m</w>
schvá len
dov ed
s al</w>
jin ou</w>
Finan cial</w>
normá lní</w>
Par ties</w>
u te
zvlá ště</w>
av y</w>
na řízením</w>
na hoře</w>
prost řed</w>
součas né</w>
s ong</w>
vnitrostát ních</w>
jin ým</w>
vá ny</w>
stanovis ko</w>
1 1.
ří ci</w>
přibliž ně</w>
vý hra
technolog y</w>
en for
do sáhnout</w>
pri or</w>
od dělení</w>
y o</w>
S il
ni m</w>
S .</w>
sho ws</w>
přimě řen
ick ým</w>
pod lé
establish ment</w>
pl ying</w>
k lo
P Ř
c ulation</w>
podí l</w>
com pon
M ur
poz ice</w>
sex y</w>
interest ing</w>
ne ří
prů měr
n ine</w>
de moc
s ac
pů l
muž ů</w>
obvi ously</w>
la b
cen é</w>
prepar ed</w>
Bel gi
weapo ns</w>
pos lal</w>
z nalo
publi shed</w>
ad er
sled ovat</w>
cháze jí</w>
u jících</w>
an nex</w>
J ap
cel o
atu res</w>
proce ssing</w>
re ading</w>
rov i</w>
čí ch</w>
1. xml</w>
tain s</w>
tw enty</w>
ně ný</w>
ha m
zajist í</w>
me ch</w>
posle dy</w>
vnitř ní</w>
sv ému</w>
f requ
W est
wed ding</w>
ur ch</w>
o zná
li qu
atel i</w>
l ing
s dí
li li</w>
k ly</w>
region ální</w>
áz i</w>
umí š</w>
uveden á</w>
zjist il</w>
před u</w>
rodin y</w>
apo n
deta ils</w>
okamži ku</w>
defin itely</w>
ru p
A B
cop y</w>
za znamen
buil d</w>
sho wn</w>
sl an
vez me
bo ha</w>
I .</w>
pur ch
na posledy</w>
us er</w>
ode šel</w>
ov o</w>
š te</w>
představ it</w>
h ide</w>
Just ice</w>
c ka</w>
hra je</w>
předmě tem</w>
u d</w>
en ant</w>
á ze</w>
zavol at</w>
mov ie</w>
J ef
contain ing</w>
pří stup
W ho
k ut
S he
pam at
ex pl
it al
zdá lo</w>
H y
C ro
dé l
prost oru</w>
hospodář ství</w>
pa th</w>
tw ice</w>
stanov it</w>
z mat
any where</w>
je z
vše ho</w>
im possible</w>
sym bo
di vo
ann oun
h ně
vra žd
A M
E conom
EH P</w>
C hu
com ply</w>
l ink</w>
po kou
I V
pick ed</w>
sa ved</w>
it ing</w>
actu al</w>
u jist
výda jů</w>
hol ders</w>
konkré tní</w>
mil k</w>
wonder ful</w>
t ree</w>
z jiště
mad am</w>
pod poř
stanoven ých</w>
muse li</w>
e .
řek li</w>
slu č
dump ing
sm ell</w>
náz or</w>
soutě že</w>
ai m</w>
kri ze</w>
pod la
ce le
consum er</w>
kritéri a</w>
A C</w>
na hra
w id
k ými</w>
o po
té ž</w>
K ri
op s</w>
M .
ď á
cau sed</w>
z vyš
du ties</w>
u mění</w>
fri end
é ž</w>
ř iv
PP E</w>
stej ný</w>
arrange ments</w>
nor m
determin e</w>
C H</w>
bro ad
memor y</w>
člen ském</w>
ari an</w>
m ení</w>
ab s
put ting</w>
conclu sion</w>
ú vahu</w>
adop tion</w>
pe k</w>
pro f
so li
C am
pě tí</w>
po žá
cle an
p ho
třetí ch</w>
sto le</w>
ně me
S tr
cor e</w>
obec né</w>
ele ments</w>
for mě</w>
sla b
amoun ts</w>
ment ary</w>
napad lo</w>
zá sob
si m
ti l
Com mis
výrob ce</w>
lear ned</w>
sh ir
D on</w>
import ance</w>
šen ý</w>
nes ná
kou z
zástup ce</w>
otáz ce</w>
po tě
boj ovat</w>
růz né</w>
z t</w>
Jo int</w>
al y
hodnot u</w>
do pro
slow ly</w>
naš la</w>
nej lep
te sts</w>
vý chod
u děláme</w>
le tě
vytvo ření</w>
hol ky</w>
ev ents</w>
an ces</w>
pů jdeme</w>
lá tek</w>
nes práv
blá z
ne existuje</w>
OH IM</w>
ř ili</w>
tý dny</w>
Mar k</w>
předse dající</w>
ra cy</w>
for ever</w>
ku p
výda je</w>
bole st</w>
advan tage</w>
vehic les</w>
hr din
N ot
vie ws</w>
od kud</w>
compar ed</w>
t ové</w>
še st
dal o</w>
mlu víš</w>
Af ric
re cep
odpoví dající</w>
přist oup
mi kro
do sáh
bir th
W ar
institu tion</w>
develop ed</w>
ob vin
liv ed</w>
atel né</w>
redu ce</w>
od liš
S at
nic í</w>
bo y
á te</w>
tr e</w>
S tu
ty pes</w>
we st</w>
použí vá</w>
Y es</w>
M icro
tra vel</w>
ne budeš</w>
equ ival
oby če
po ško
á ly</w>
Progra m
F und</w>
řad ě</w>
cel ém</w>
odpově di</w>
N O
fe ed</w>
hroz ně</w>
electro nic</w>
S pain</w>
jen že</w>
c l
provid ing</w>
po div
H O
s wit
uplat ňování</w>
com man
obje ct</w>
con vin
mí st</w>
neg ative</w>
pě ti</w>
it em</w>
proje ktu</w>
za hra
by sme</w>
con fu
zem řel</w>
1 50</w>
bal í
ri a</w>
ad vo
před sed
ban kov
as su
accid ent</w>
hlav ě</w>
předběž né</w>
obsa h</w>
tur y</w>
ochran né</w>
Se e</w>
ex tent</w>
V in
hod in
svět la</w>
sub mit</w>
ang li
náhod ou</w>
ne ví</w>
for my</w>
brid ge</w>
na med</w>
j our
as s
ic o</w>
associ ated</w>
vod a</w>
u dě
po vat</w>
doprav y</w>
polož ky</w>
sled ování</w>
ter ro
i ka</w>
re solution</w>
rodin u</w>
D ob
pl né</w>
každ á</w>
te ř
ren e
ř ů</w>
ol u
dlouhod ob
ř idi
boo ks</w>
F BI</w>
řek ne</w>
sur prise</w>
di vid
ac ce
pamatu ješ</w>
stran u</w>
s old</w>
effor ts</w>
ran i
pro pri
ter or
do čas
elek tr
řek neš</w>
ac cu
obec ně</w>
de mand</w>
za bezpe
T ony</w>
at tra
ak es</w>
Č e
sou střed
čí me</w>
not es</w>
napad eného</w>
ele kt
zaměstnan ců</w>
re j</w>
pris on</w>
ick s</w>
zná te</w>
prů mysl
sy mp
jedno m</w>
st ab
stro je</w>
ic ed</w>
f ers</w>
G or
pr ý</w>
K ore
applic ants</w>
sele cted</w>
rele van
regul atory</w>
sou bor</w>
č kou</w>
Hot el</w>
fung ování</w>
Ital y</w>
su it</w>
ško le</w>
finan čního</w>
slun ce</w>
faci lit
pli c
c row
b ought</w>
ku chy
po hle
š ť</w>
di plom
sto ck</w>
kapitá n</w>
klu ci</w>
................ ................
tri p</w>
prospě ch</w>
separ ate</w>
větš inou</w>
změ na</w>
packa ge</w>
ká mo
souvise jící</w>
ph ar
k iss</w>
dri ver</w>
re turned</w>
materi als</w>
příležit ost</w>
li ghts</w>
pořád ně</w>
kapit ola</w>
N E
poz em
aliz aci</w>
v ar
ni a</w>
j .</w>
připo mí
vy vá
amend ment</w>
p ack</w>
ex pos
h oriz
využ ití</w>
mod r
el le</w>
. europa
ř ka</w>
pow er
at r
a p</w>
jen ž</w>
e th</w>
I f</w>
lo y
R ach
drž el</w>
0 4
com bin
s me
evrop ských</w>
chod it</w>
Sar ah</w>
h ala</w>
th i
deta iled</w>
en able</w>
pop ulation</w>
sed m</w>
ch am
soutě ž</w>
m lé
hov o
g ly</w>
lo stí</w>
vy bran
ně kam</w>
li mits</w>
vzta h</w>
samo stat
D un
Sou th</w>
be gin</w>
hléd l</w>
ch ut
zahr nuje</w>
propos als</w>
ú mlu
form er</w>
ju dic
vývo j</w>
am ed</w>
rema ins</w>
dostate čně</w>
D .</w>
emplo ye
í cí</w>
za slou
AT ION</w>
guaran te
or ed</w>
e z
liv ý</w>
o ž
dů kaz</w>
působ nosti</w>
do hromady</w>
dis crimin
ex ist</w>
beli ev
en gin
živ u</w>
e ut
pře ká
lask av
g ay</w>
ur čení</w>
sí ly</w>
ší mu</w>
poč kejte</w>
b ad
amaz ing</w>
prost or</w>
re alize</w>
fer ing</w>
dump ing</w>
on to</w>
nen ech
• </w>
umož ňuje</w>
W ash
takov ých</w>
star á</w>
pro hi
dom est
po chy
sustain able</w>
zách ran
minim ální</w>
C aro
di stance</w>
cli ck</w>
li ter
I B
bud dy</w>
de si
op ti
čen ím</w>
be sides</w>
z vě
me trů</w>
fur thermore</w>
inter pret
achi eve</w>
lid ské</w>
j á
hospodář skou</w>
A ra
ear th</w>
consum ers</w>
pracov al</w>
zákon a</w>
kdy si</w>
rele ase</w>
výzku mu</w>
crimin al</w>
správ né</w>
v teř
pra k
reci tal</w>
no se</w>
C .</w>
návr hy</w>
úř ad</w>
f our
má l</w>
oper ators</w>
zv al</w>
pro dlou
ždě ní</w>
postup ů</w>
plan e
ap li
rozum í</w>
s vými</w>
tr u</w>
ck ých</w>
j at
po sto
head s</w>
posky tov
jin á</w>
roz to
p are</w>
ex ecu
descri bed</w>
ne ck</w>
u prostřed</w>
st ability</w>
skvě le</w>
clo ser</w>
apart ment</w>
ved ení</w>
ar ds</w>
vy rob
U L
star é</w>
ob lí
případ u</w>
mag ic</w>
rozvo je</w>
C hap
Ch inese</w>
bil lion</w>
se stav
S an</w>
E le
ná ní</w>
has n</w>
emer gency</w>
par k</w>
ar ance</w>
F un
nev adí</w>
of fered</w>
.europa .eu</w>
ne musí</w>
poskyt nout</w>
postup u</w>
charac terist
Stre et</w>
stran a</w>
certific ate</w>
tre at</w>
grow ing</w>
h ád
cap able</w>
op tion</w>
no ční</w>
f em
pri or
Auth ority</w>
fac ts</w>
em ot
invest ice</w>
stát ům</w>
dá l
k do
č ných</w>
wh ere
sk s</w>
Inter net</w>
u ses</w>
čí š</w>
la ws</w>
D ou
začá tku</w>
thr ough
provoz u</w>
uli ci</w>
consid ers</w>
vil la
odpoví dá</w>
regi ons</w>
B or
gu il
Š paněl
rybol ovu</w>
d ingly</w>
čen a</w>
commun ity</w>
i ed</w>
dat um</w>
ven kov
sch edu
d an</w>
f ted</w>
dire ction</w>
re cen
ar my</w>
0 3
en ding</w>
g .</w>
kil ler</w>
bre ath</w>
pohy b</w>
závě ru</w>
ve ment</w>
Bil ly</w>
ri st</w>
indic ated</w>
hod it</w>
se ssion</w>
deli ver
Augu st</w>
me ň</w>
j dou</w>
on er</w>
M ol
scienti fic</w>
Wash ing
per s</w>
con sci
klá dá</w>
o kra
ad vice</w>
medic ine</w>
ni komu</w>
spoust a</w>
část ka</w>
dal šího</w>
o le
z uje</w>
di men
pro cen
hla va</w>
L at
Par ty</w>
ní kům</w>
ty p
strá ž
car rying</w>
ár ní</w>
t ovat</w>
per man
I .
cop </w>
cí tit</w>
lo cked</w>
de cre
pa ir</w>
presid ent</w>
oper ate</w>
dod av
ic ul
ch ief</w>
ne arly</w>
kou sek</w>
K u
noti fication</w>
ed ge</w>
Ste ve</w>
ne víš</w>
rece ive</w>
P ap
pro of</w>
di g
stáv ající</w>
l ars</w>
kov ou</w>
vá leč
John ny</w>
vid í</w>
ozná men
W at
obyče j
or dered</w>
con vers
ru ling</w>
E D
leg s</w>
h at
potře ba</w>
přísluš ný</w>
k ali</w>
s niž
S to
lou d</w>
ký v
sh op</w>
there of</w>
os m</w>
dru g</w>
dokon al
cre w</w>
streng th</w>
kapit álu</w>
reži m</w>
4 00</w>
V I</w>
roz hov
comfor table</w>
CO M</w>
ak cí</w>
redu ced</w>
c et</w>
lid mi</w>
spre ad</w>
s mi
volu me</w>
M IS
sou l</w>
B r
tou to</w>
stáv a
q </w>
ES C</w>
clu b</w>
us ers</w>
D is
ovan ou</w>
ateg ory</w>
scen e</w>
inform ed</w>
Christ mas</w>
meth ods</w>
z pracování</w>
tě mi
li ked</w>
199 6</w>
drop ped</w>
b ag
g over
ú smě
ra dy</w>
ov ém</w>
not ed</w>
ra ise</w>
p tal</w>
á t
jin ými</w>
appropri ations</w>
skr ý
po znamen
Wor ld</w>
s lo</w>
I tá
za bý
plan ning</w>
le ading</w>
výbě r</w>
zru šení</w>
jazy k</w>
ne žád
ka mer
k er
in cid
den ně</w>
promis ed</w>
F eder
Who a</w>
ev il</w>
proje ktů</w>
mě ru</w>
pro ces</w>
E P
ó ny</w>
cli mate</w>
sestr a</w>
tý če</w>
s ale</w>
závaz ky</w>
za sran
199 4</w>
předse da</w>
druh á</w>
it ou</w>
j ury</w>
tem per
vy stav
ap art</w>
con ven
a ther</w>
Itali an</w>
lun ch</w>
I N</w>
2. 1</w>
tí me</w>
R ay
ne musíš</w>
dě l</w>
infra structure</w>
rozhod nutím</w>
cel kové</w>
sur ing</w>
after noon</w>
pro per</w>
regist ered</w>
organ isation</w>
sele ct</w>
Proto col</w>
sur face</w>
chá pe
nb sp</w>
iná ch</w>
law yer</w>
slo žit
už el</w>
zahá jení</w>
wat ched</w>
tur ing</w>
gr at
k de
nost mi</w>
ber t</w>
pá ni</w>
vy stoup
o th</w>
j obs</w>
to ler
dra ft</w>
S us
us nesení</w>
ban ks</w>
pro vo
ti tu
plan ned</w>
sp at
pří ští</w>
ve lit
ci a</w>
bej t</w>
f fic</w>
mlu víme</w>
nes l</w>
g or
pr ised</w>
ně ná</w>
I R
použ itel
weapo n</w>
i or</w>
špat ný</w>
o oh</w>
kategori e</w>
lig ence</w>
ě j
infor m</w>
observ ed</w>
sho ot
I L
ck á</w>
ví te
ost rov
dí tě
wh om</w>
it ation</w>
swe ar</w>
fi re
por u</w>
lor d</w>
j ader
z as</w>
d ci</w>
pri ses</w>
společ en
poj ené</w>
technic ké</w>
chlap i</w>
z ou
lu je</w>
ss or</w>
z vol
za pla
G ol
regu la
man ner</w>
Micro soft</w>
pre ten
condu ct</w>
s mut
ztr atil</w>
birth day</w>
progra my</w>
Par is</w>
Ale x</w>
chví le</w>
ro vání</w>
u važ
na vš
boh užel</w>
DN A</w>
be ha
Y our</w>
vyšetř ování</w>
B on
č ase</w>
ul l</w>
sub sequ
mo ře</w>
r né</w>
Bob by</w>
um ím</w>
čí n
v ag
k lon
něj ších</w>
desp ite</w>
žen ím</w>
partner ství</w>
i ous</w>
J á</w>
v sad
figu red</w>
ne se</w>
bot tom</w>
ad v
z moc
phys ical</w>
fal ling</w>
accep ted</w>
C ast
tru ck</w>
P la
abs ence</w>
con ver
za p
medic inal</w>
particip ation</w>
zvláš ť</w>
př ine
d ated</w>
č te</w>
děl ali</w>
Soud ního</w>
con tr
A P
len g
sh r
vě jší</w>
success ful</w>
u blí
deb ate</w>
ac ího</w>
ne jsme</w>
develop ing</w>
rest au
C re
implemen ted</w>
I P
B rit
rov ol
re porting</w>
I s</w>
T or
K ate</w>
čer st
jednot ky</w>
věř il</w>
š uje</w>
Wh ite</w>
re covery</w>
dis krimin
manž el</w>
poru čí
chod í</w>
vis i
girl friend</w>
in come</w>
pode ps
pou ště
ná sledov
m ir
W est</w>
appe ars</w>
nu clear</w>
g od</w>
hot elu</w>
bl b
ol der</w>
Rach el</w>
independ ent</w>
he ar
d .</w>
ů l</w>
n ům</w>
z po
Mar tin</w>
con sumption</w>
ju di
effici ent</w>
Par t</w>
fuck in</w>
dic tion</w>
uveden o</w>
U kra
c m</w>
ad just
phar mac
doku men
staro sti</w>
správ y</w>
těmi to</w>
c z</w>
využí vání</w>
199 5</w>
v stupu</w>
Ser vice</w>
M em
tu ally</w>
r i</w>
dů kaz
za cházení</w>
Ar gu
Tex t</w>
N ational</w>
sen si
EH SV</w>
T ru
iz o
výrob ku</w>
E ESC</w>
sub stances</w>
Mr s</w>
ssi ve</w>
chy tr
re sta
ang ry</w>
through out</w>
sk ří
domest ic</w>
M el
realiz ed</w>
psy cho
dob rovol
v ak
vy klá
uděl á</w>
pil ot</w>
ent ní</w>
ene my</w>
cop s</w>
sí lu</w>
resta ur
pres ence</w>
wor st</w>
osob ně</w>
S P
affe ct</w>
kr ou
po jištění</w>
jur is
zak á
straš ně</w>
g row</w>
R am
vo sti</w>
proje kt</w>
bat tle</w>
po ly
develop </w>
ther ap
jed nat</w>
war m</w>
g l
r ky</w>
v ul
okamži k</w>
sla v
em at
de e
dcer a</w>
kdy byste</w>
cest ou</w>
d ying</w>
pro káz
kt or</w>
dal ším</w>
subsid i
su gar</w>
se ch</w>
sr p
itch en</w>
cor ner</w>
u věřit</w>
S un
con ten
sup ported</w>
lan d
te prve</w>
o ne
con si
Lon don</w>
charac ter</w>
instru ment</w>
by t</w>
v ity</w>
C el
m ely</w>
hone st</w>
i ky</w>
dan ger</w>
D om
uni i</w>
O ne</w>
sa mé</w>
nu la</w>
dostan u</w>
osvěd čení</w>
Ne ther
prote cted</w>
adequ ate</w>
jí st</w>
č nou</w>
č aro
se ctors</w>
ved le
Ale x
len é</w>
Econom ic</w>
n ur
oč ima</w>
ad lo</w>
do hledu</w>
tran spor
im age</w>
eli min
a .
inter ven
zbran í</w>
br inging</w>
výjim kou</w>
š aty</w>
dí š</w>
nezáv isl
b ing</w>
r ý
escap e</w>
zavol ám</w>
š pi
šen á</w>
obla stí</w>
úč et</w>
enti ty</w>
oc cas
p ag
ře m</w>
mat ch</w>
za mil
pu sh</w>
ob ra
nic ké</w>
agent ury</w>
ukáz at</w>
lid ských</w>
ple a</w>
e h</w>
uzav řen
smo ke</w>
tra ce</w>
а </w>
její ch</w>
s ar
al ko
zač ne</w>
eut enant</w>
ς </w>
la h
při zná
ne jste</w>
kter ými</w>
nat á
ne budeme</w>
no s
c on</w>
C as
god damn</w>
ved la</w>
bur n</w>
Něme cko</w>
T O
se h
che cked</w>
přij de
á le</w>
3 ,
roz voj
ka m
ro ční</w>
defin ition</w>
mal ou</w>
pohy bu</w>
compati ble</w>
A ir
ó zní</w>
de ad
gra du
uží vání</w>
koup it</w>
I C</w>
l ers</w>
manag ed</w>
hů ru</w>
využí t</w>
M O
oper ational</w>
stu den
pra chy</w>
n ky</w>
Bru s
Program me</w>
char ges</w>
p as</w>
pos ly
výzku m</w>
na opak</w>
b az
30 .</w>
on line</w>
al th</w>
republi ka</w>
b at</w>
zá klad</w>
lov es</w>
est s</w>
g on</w>
stu ck</w>
že le
tempor ary</w>
mluv ila</w>
p í</w>
ma p</w>
č ného</w>
vz hůru</w>
výro by</w>
dru ž
inter pre
O n
tra ffic</w>
s ake</w>
consider ation</w>
cel ní</w>
vy mě
výkon u</w>
feel s</w>
bast ard</w>
t ough</w>
ukon čení</w>
ro oms</w>
sh oul
k i
hro mad
Nether lands</w>
problé mů</w>
tr val
ť á
raz it</w>
ně kým</w>
victi m</w>
navš tí
l ation</w>
possi bly</w>
S par
sou drž
sle ch
hr a</w>
dvac et</w>
nastav ení</w>
m ati
le ts</w>
appar ently</w>
ž id
for got</w>
exam ination</w>
Cen tral</w>
chy bě
fu el</w>
mi e</w>
děl í</w>
con tain</w>
concentr ation</w>
str ý
appro xim
příprav ky</w>
bá ch</w>
ukáz al</w>
poin ted</w>
fav or
ro te</w>
st ov
EN T
au dit</w>
effici ency</w>
b ound</w>
z ing</w>
ved lo</w>
M om</w>
men tion</w>
le g</w>
potra vin</w>
mimo řád
za jiště
ha jí</w>
et ings</w>
ordin ary</w>
ho st</w>
ná hle</w>
L O
J im</w>
di a</w>
tě hot
na z
rizi k</w>
lov ely</w>
nech ala</w>
diffic ul
he at</w>
lik vid
wil ling</w>
fun damental</w>
it ní</w>
mil li
ur g
P hi
podstat ě</w>
cen ter</w>
lo nel</w>
O ther</w>
recen tly</w>
ro se</w>
vy mez
K an
ff s</w>
mas s</w>
ri ver</w>
just ice</w>
vy bí
olog y</w>
týka jí</w>
v ací</w>
appli es</w>
š né</w>
appreci ate</w>
sum mer</w>
e ko
Ř e
od chy
potřeb oval</w>
nechtě la</w>
interpret ation</w>
d rob
c les</w>
je ct</w>
reven ue</w>
ci i</w>
sig ns</w>
me t
hla din
zapo mněl</w>
ar a</w>
be er</w>
plá ny</w>
bel on
ú kol</w>
re si
nej vyšší</w>
Rus sia</w>
recor ds</w>
equival ent</w>
thre at
promot e</w>
Evrop y</w>
im posed</w>
sur prised</w>
zved l</w>
dokáz al</w>
part ners</w>
à </w>
člán ky</w>
dru gs</w>
bo t</w>
fun d</w>
cí tila</w>
ta sk</w>
D ru
zachrá nit</w>
vrá tím</w>
zabezpe čení</w>
s ot
C ra
T it
al ing</w>
we ak
u ply
us nad
in ter</w>
plat by</w>
S han
S um
m ers</w>
an í</w>
una ble</w>
ro man
ob il
id es</w>
recommen ded</w>
hon or</w>
skuteč né</w>
ved oucí</w>
fic ations</w>
zvu k</w>
kil ome
com mitted</w>
dr unk</w>
ba th
sk lá
pracov níků</w>
H av
m il</w>
před stí
je mně</w>
mí ry</w>
B ob</w>
K i
kon ě</w>
podob né</w>
un its</w>
V AT</w>
ili ties</w>
th or
conf li
me ss</w>
vše mi</w>
combin ation</w>
ce mi</w>
Ry an</w>
gn ant</w>
custom ers</w>
kon cen
vál ky</w>
se ts</w>
n ý
const it
od u</w>
po může</w>
Su b
u ch
Ed die</w>
o fici
practic es</w>
J ake</w>
require ment</w>
rozhod nout</w>
ke ys</w>
ves sels</w>
dot čené</w>
K ev
ře te</w>
na živu</w>
kr ve</w>
vý raz</w>
ál ů</w>
sa v
ob tained</w>
g est
Bu d
na pl
lat ter</w>
plu kov
skon čí</w>
bo je</w>
bá t</w>
P ot
ar u</w>
shro má
M us
R ol
dop is</w>
ho l</w>
hel ped</w>
sk em</w>
u ti
constru ction</w>
legisl ative</w>
ic ation</w>
ple asure</w>
tra g
cele br
vy dá
F ro
u pí
un fortun
pr ch
vá ch</w>
dv an
At lan
st ers</w>
obtí ž
at mo
evrop ského</w>
sk ut
kli du</w>
ž es</w>
distribu tion</w>
k lep
úda j
Win dows</w>
n ku</w>
nástro jů</w>
amend ments</w>
d ani</w>
Man ag
k itchen</w>
bu je</w>
výzku m
ně komu</w>
em bar
B ran
-- --
accor dingly</w>
ne mohou</w>
sc ale</w>
rychle ji</w>
veřej ného</w>
appro ach
sof tw
nech ám</w>
dohod u</w>
S E</w>
k en
ge ograph
f otogra
che cks</w>
hr ů
dis ku
podez řel
m in</w>
conne cted</w>
affe cted</w>
J or
N a</w>
smlu vní</w>
kó d</w>
ex emp
fin gers</w>
poz nal</w>
sou dní</w>
t vým</w>
vy rá
ari a</w>
dostan eme</w>
ther n</w>
součas ně</w>
j it</w>
S ol
S P</w>
power ful</w>
nalé ha
eli gible</w>
ov a
ká zá
hran ice</w>
reason able</w>
och ot
&apos; you</w>
uveden y</w>
regist ration</w>
účin nosti</w>
spo l
tan e
vý ji
z mr
tě mto</w>
judi kat
y ch
it é</w>
mi gr
ka ční</w>
nat o
kon struk
D al
stro j</w>
l ým</w>
b ere</w>
ra ble</w>
id a</w>
under stood</w>
argu ments</w>
Se ction</w>
break fast</w>
oc cu
poskytu je</w>
mí r</w>
en suring</w>
vě ří</w>
D o</w>
inclu des</w>
j ac
trans actions</w>
Nor th</w>
emis sions</w>
použí van
ev id
M org
o svob
prode je</w>
hel ping</w>
beha vi
tic kých</w>
st ní</w>
za chy
te ční</w>
V ám</w>
otá zek</w>
ne l
u dělej</w>
j seš</w>
pře kro
main tain</w>
eng ine</w>
á vám</w>
doku ment
M P</w>
A ction</w>
pro mě
t ul
ve j
achi eved</w>
g ation</w>
h vě
con ce
eas ily</w>
A my</w>
smě ř
spí še</w>
Ma y
nost em</w>
s rovnání</w>
f é
de sk</w>
Do hod
f ill</w>
P ře
al ty</w>
fon du</w>
vol un
mag ne
s ní</w>
propor tion
challen ge</w>
ř ství</w>
Chri st</w>
fig ur
cu te</w>
fo ol</w>
for give</w>
ni jak</w>
tra vel
our selves</w>
confir med</w>
případ ů</w>
in no
ž íš</w>
tr at
politi ka</w>
ch ick
slee ping</w>
D O
et te</w>
adre su</w>
mp le</w>
o čeká
subje ktů</w>
fi e</w>
blá zen</w>
iv a</w>
effor t</w>
innov ation</w>
pla ce
apo logi
vez mi</w>
vy hov
pu ště
Se cre
nemoc nice</w>
služe b
recog n
Tom my</w>
tov i</w>
to s</w>
vz ru
čen ých</w>
z tra
initi al</w>
J a
G ri
contr ary</w>
ba se
mar ry</w>
descri ption</w>
změ nu</w>
zá kon</w>
na vi
gra b</w>
ú ro
ser t</w>
stop y</w>
pro boha</w>
z ovat</w>
E V
nebo j</w>
původ ním</w>
č in</w>
ko ly</w>
ed ly</w>
li c</w>
do ors</w>
ú řadu</w>
ill ance</w>
řed itel
Re gi
na v
ni koli</w>
léč by</w>
st on</w>
čet l</w>
z práv</w>
fav our</w>
T here</w>
il le</w>
no d
komis a
budouc nost</w>
vy dě
sla d
před e
z y
na h</w>
základ ního</w>
an te</w>
pos ád
tvr zení</w>
postu pem</w>
re ality</w>
sto že</w>
po un
N ick</w>
š ance</w>
enfor cement</w>
st olu</w>
H ow</w>
e pi
med ia</w>
vypad al</w>
R od
jí š</w>
změ n</w>
w rote</w>
re kla
z aci</w>
t j.</w>
ro li</w>
ber te</w>
kdy bychom</w>
Chap ter</w>
C u
list ening</w>
sto letí</w>
sub paragraph</w>
am b
camer a</w>
cli ent</w>
ří dí</w>
P řed
da ily</w>
in ts</w>
spo leh
po vz
w ra
ran de</w>
it ting</w>
ser ž
ti ght</w>
chy bí</w>
N S</w>
neu věř
doká že</w>
G en
boy friend</w>
ne při
vy prá
ko leg
O ut
DP H</w>
Ř í
mo bili
snad no</w>
odpo ledne</w>
fac tors</w>
krá l</w>
po bře
lá ska</w>
tu red</w>
skup inu</w>
čen ý</w>
re move</w>
fik aci</w>
n on
regar ded</w>
do jde</w>
e ating</w>
rela x</w>
otev řít</w>
repli ed</w>
sly ším</w>
S en
destro y</w>
chla d
some how</w>
zaved ení</w>
proto kolu</w>
pří čin
chla pec</w>
V ol
log y</w>
La w</w>
tran si
dneš ní</w>
obliče j</w>
M y</w>
stor age</w>
L en
ri e</w>
u čit</w>
o sa
colle ge</w>
a war
arri ved</w>
Fran c
kancelá ře</w>
sh el
pl í
si gh
Le e</w>
c tví</w>
c ategory</w>
ří dil</w>
f u</w>
i table</w>
can did
u vést</w>
představ ují</w>
poky ny</w>
te a</w>
říká te</w>
my st
úč a
car s</w>
C ur
á čku</w>
clo ck</w>
st ali</w>
pl ný</w>
tain ing</w>
abili ties</w>
c od
tre es</w>
tla čí
nut no</w>
zač ali</w>
už ite
obje vil</w>
základ ních</w>
contain ed</w>
mar riage</w>
te ach</w>
C D</w>
polici i</w>
nen ap
blo ody</w>
tá mhle</w>
initi ative</w>
pos al</w>
člen ů</w>
na rozen
nev in
zdravot ní</w>
regul ations</w>
nej prve</w>
jak ým</w>
shoul der</w>
mlad ý</w>
ň ující</w>
t ing
g lu
E ast</w>
tý dnů</w>
po ol</w>
podni k
nev rá
důležit ější</w>
oto čil</w>
ú čet
u es</w>
pře stože</w>
coun ter
sch em
lin ked</w>
ver ti
ti ch
eb o</w>
zů stal</w>
tex tu</w>
ck ého</w>
l t;</w>
& lt;</w>
it or</w>
mer ely</w>
colle ction</w>
dv ou
úprav y</w>
ca j
achi ev
po rad
che st</w>
vi rus</w>
S pan
gi ft</w>
k ní
e. g.</w>
ok na</w>
T ech
E I
Q </w>
i ro
kro ky</w>
convers ation</w>
kno wing</w>
Lou is</w>
okol o</w>
advo ká
ul ti
oblí ben
z jednodu
15 .</w>
Brus sels</w>
oprav dov
pr u
o či
požadav ků</w>
sou hr
c ated</w>
nar az
dokt or
účin né</w>
mp lo
characterist ics</w>
vá ním</w>
el d</w>
W ol
brá t</w>
fle xi
nu t</w>
prů zku
no stech</w>
S hel
ň á
3 .</w>
cu e</w>
z kur
ser ies</w>
publi cation</w>
dol lars</w>
dí val</w>
h ří
ka ž</w>
re presented</w>
t ings</w>
lod í</w>
at u</w>
e th
compen sation</w>
te eth</w>
ter y</w>
ru m</w>
spir it</w>
air port</w>
contribu te</w>
mo on</w>
vysvět lit</w>
od vo
E ur
z kla
Rob ert</w>
po mohl</w>
rel and</w>
alternati ve</w>
lab our</w>
M is
ge tary</w>
re akce</w>
incre asing</w>
Rus sian</w>
una ven
ex pression</w>
R ay</w>
v is</w>
př il
politi k</w>
ali for
contro ls</w>
ra in</w>
under standing</w>
ú va
W i
der ing</w>
Thom as</w>
r é
set kání</w>
tla k</w>
rozhod la</w>
H O</w>
t one</w>
po ta
potí že</w>
ne dělej</w>
z one</w>
wal ls</w>
ssi ons</w>
P l
con form
nar u
ad mit</w>
gra de</w>
původ ní</w>
pís men
Se curity</w>
tří dy</w>
e z</w>
ví těz
in hi
in stance</w>
t ma
n ýho</w>
al right</w>
blo ck</w>
de fe
řík ali</w>
S M
jud ge</w>
ra da</w>
ov ými</w>
ctu al</w>
ry bá
šťast ný</w>
relev ance</w>
metod y</w>
fin ance</w>
lu m</w>
Pr in
připrav en</w>
c ry
sa mple</w>
kid ding</w>
neu dělal</w>
stej nou</w>
nepo ko
oper ator</w>
pi e
Ch an
lik es</w>
ab </w>
bo ji</w>
pre gnant</w>
dí vat</w>
qu it</w>
přítel e</w>
po ps
politic ké</w>
col or</w>
por te
cest ov
m ní</w>
ko š
tic s</w>
ick ed</w>
zer o</w>
akti vní</w>
pu štění</w>
reje cted</w>
&apos; am</w>
D addy</w>
opat r
clin ical</w>
z in
introdu ced</w>
fl ying</w>
e mi</w>
Ar th
se min
P lat
harmon iz
kov al</w>
ju mp</w>
I reland</w>
declar ation</w>
four th</w>
F lor
tran sl
za vr
Yor ku</w>
the less</w>
z ky</w>
gun s</w>
Fran cie</w>
medi um</w>
sot va</w>
de man
rov al</w>
pl ate</w>
zu by</w>
fav or</w>
ti še</w>
li ps</w>
car efully</w>
re ad
re ag
suc ce
mot or</w>
lo g</w>
nej dříve</w>
en ti</w>
bu z
ně ním</w>
ti sh</w>
of fen
fir m</w>
parla ment</w>
b ory</w>
n é
dív ka</w>
ish eries</w>
ř eli</w>
dru hu</w>
An dy</w>
D .
produ cer</w>
Evrop a</w>
Dani el</w>
dar k
re ve
produ ce</w>
bot tle</w>
budouc nosti</w>
č t
M an</w>
závě r</w>
opat rně</w>
sch val
serv ation</w>
pre hen
sou boru</w>
b lan
plat eb
tr en
řic et</w>
se cure</w>
an t
neří kej</w>
not iced</w>
K im</w>
val y</w>
o nemoc
Pro du
přij ala</w>
j ou</w>
isl and</w>
k ers</w>
minu losti</w>
pr sty</w>
sig nal</w>
tr vá</w>
fl at</w>
di am
h ry</w>
nechá pu</w>
k ick</w>
kv ó
jaké koli</w>
com mittee</w>
dovo lit</w>
í čko</w>
Jo se
mysle li</w>
pe k
er ie</w>
ta ste</w>
zázna my</w>
ně me</w>
So cial</w>
ori i</w>
ta sks</w>
neza jí
podá vání</w>
mr zí</w>
horiz on
V an
ne znamená</w>
lead er</w>
E st
ori a</w>
der iv
ne dáv
ten ed</w>
zastav il</w>
de fic
doku menty</w>
as ide</w>
for ced</w>
wil d</w>
s or</w>
shir t</w>
re moved</w>
x e</w>
hr u</w>
T FEU</w>
ni ght
kni fe</w>
vě dí</w>
ru b
t ment</w>
e k
f ale
co koli</w>
consist ent</w>
A R</w>
constitu te</w>
identi fi
kamar á
povin ností</w>
post ele</w>
S wed
T en
a h
cell ent</w>
f il</w>
com ments</w>
it ems</w>
zpráv ě</w>
dur ation</w>
answ ered</w>
head ed</w>
ex plan
re t
ves sel</w>
l on</w>
c turing</w>
stran ou</w>
Vá s</w>
za člen
comple ted</w>
sli bu
po jist
op tions</w>
kter ému</w>
spoko jen
centrá lní</w>
re member
och rá
li s
20 .</w>
sekt oru</w>
ak s</w>
degre e</w>
mlu v</w>
t ování</w>
ná ct</w>
der og
l atest</w>
fa irs</w>
vod ní</w>
me etings</w>
mluv ili</w>
úrov ně</w>
um n</w>
va jících</w>
domní vá</w>
k is
ří dí
pří ště</w>
nor th</w>
P ane</w>
199 3</w>
univer z
ju mp
inv ited</w>
Vě c</w>
ne dě
koup il</w>
ri er</w>
urč it</w>
scre en</w>
kaz u</w>
re struktur
Ap propri
zamě řen
klí č</w>
R en
ar rest</w>
ově ř
resul ting</w>
r ick</w>
pů jdeš</w>
j er
re d
Char les</w>
COM P</w>
eas ier</w>
k lou
Rad ě</w>
š u
nedo stan
tab let</w>
super vis
ra ke
vzta hují</w>
clo sure</w>
sur g
st ůl</w>
sci ence</w>
ed i
on y
commit ment</w>
har m</w>
in i
an ebo</w>
psy ch
potře bí</w>
st ou
shap e</w>
or an
chlap a</w>
tic ký</w>
el op
u stanoven
pre fer
hou se
t wi
sil ence</w>
ochran ě</w>
S pojené</w>
competi tive</w>
bun ch</w>
Commis sion
T han
skon čil</w>
industri al</w>
st vo
la d</w>
od d</w>
m icro
kontro lov
za ví
dru hy</w>
sk lad
tí mhle</w>
tr vat</w>
T ed
po m
L a</w>
vá na</w>
guar ds</w>
drin king</w>
se ek</w>
L it
za s
wonder ing</w>
L E</w>
zv u</w>
en ab
4 .</w>
A ha</w>
J as
x u</w>
cre ation</w>
c ry</w>
zel en
cra p</w>
ev a</w>
cov ering</w>
ic ide</w>
K ra
ke ts</w>
U C
za potřebí</w>
mimo chodem</w>
rov á</w>
imple ment</w>
represent ative</w>
Jac ku</w>
hospodář ského</w>
t áv
a th
st ři
ge ant</w>
Appropri ations</w>
mar i
zpě t
Commun ities</w>
Je an</w>
prá vem</w>
tr vání</w>
CI A</w>
s dě
um í</w>
fel low</w>
16 0</w>
te sting</w>
fi red</w>
z vyk
en ded</w>
umož ní</w>
republi ky</w>
enti tled</w>
ex cellent</w>
do gs</w>
H DP</w>
bot y</w>
bili ties</w>
konkuren ce
gu idelines</w>
b abi
pat ter
up set</w>
domá cí</w>
G DP</w>
dra w
c ti</w>
účin nost</w>
dre ams</w>
integr ation</w>
ic í</w>
ch urch</w>
labor ato
consequ ently</w>
po vr
potřebu jete</w>
mal ých</w>
R ed</w>
table ts</w>
identi fy</w>
pra cí</w>
emis í</w>
od vol
h li</w>
poli caj
s ová</w>
as sho
přen es
D am
veřej nosti</w>
w av
cti veness</w>
at om
dob rej</w>
dovoz u</w>
nod ded</w>
symp tom
no ise</w>
Hi gh</w>
přis pí
tri al</w>
v lož
co o
za plat
inje ction</w>
dve ří</w>
za stře
S o</w>
leav es</w>
expos ure</w>
běž né</w>
ari é
pit om
rozší ření</w>
Fra mework</w>
In stance</w>
vý slov
every where</w>
r ka</w>
fac es</w>
proje kty</w>
tro šku</w>
am bi
kom pli
c ate</w>
obchod ních</w>
maj ority</w>
př el
pa ying</w>
ce ch</w>
techno logie</w>
vti p
aktu aliz
mb H</w>
uni ties</w>
ch lor
j eli</w>
bom b</w>
čin í</w>
di rty</w>
vě ř</w>
consequ ences</w>
z bý
high ly</w>
sho es</w>
ace mi</w>
gener ally</w>
aspe cts</w>
zjev ně</w>
k les
rel ations</w>
závaz ků</w>
kr vá
re volu
len a</w>
podpo rovat</w>
přemýš lel</w>
pěk ný</w>
záležit osti</w>
Uni i</w>
ir a</w>
cel ého</w>
hu st
sm al
al d</w>
pro vádí</w>
B ill</w>
produ kce</w>
pře stat</w>
o sm
vybav ení</w>
d ž
ač koli</w>
tr ž
m ali
electr icity</w>
comple x</w>
leng th</w>
zvíř ata</w>
neu stále</w>
bi gger</w>
nástro j</w>
on g
lau gh</w>
har dly</w>
hol der</w>
feel ings</w>
ru ka</w>
al co
zá sa
j ela</w>
rozum ím</w>
soci álního</w>
al ised</w>
b ird</w>
mot or
minist er
jo ke</w>
star s</w>
S I</w>
calcul ated</w>
nějak ého</w>
op i
mo ther
z vo
při hlá
odpověd nosti</w>
log ical</w>
pí še</w>
ta u
v ky</w>
iv é</w>
ř en</w>
tvo ří</w>
Evrop skou</w>
kval ity</w>
su b</w>
199 2</w>
druh ů</w>
bud getary</w>
určit ých</w>
l ots</w>
hor ri
.e .</w>
thre at</w>
blí ží</w>
recogn ised</w>
justi fied</w>
vy brat</w>
kan did
ac id</w>
prezid ent</w>
vý kon</w>
sle p
pe l</w>
ve ge
S K
A l</w>
vy hle
y n</w>
N an
C O</w>
thro at</w>
srp na</w>
lu s</w>
monit or</w>
z te</w>
restaur ant</w>
Dev elop
mož no</w>
bul l
coordin ation</w>
dvan á
un cle</w>
recogni tion</w>
S E
dne ch</w>
U r
pre pare</w>
vra ť</w>
lo sing</w>
sta ying</w>
dis ci
re min
bu m</w>
lod ě
t .</w>
itel ný</w>
hop ing</w>
země pis
pic tures</w>
therap y</w>
P rá
oček áv
tr y
e g
služ ba</w>
Č er
spraved l
IS O</w>
č ními</w>
me tal</w>
výsled ků</w>
bo w</w>
dodrž ování</w>
poskyt nutí</w>
před cho
pře chod
re form</w>
organiz ací</w>
hlav ním</w>
sim pli
ž lu
případ y</w>
inten ance</w>
ka š
B un
vy dání</w>
lo s</w>
tov ého</w>
mně la</w>
zdrav ím</w>
sedě l</w>
zd i</w>
d ové</w>
be side</w>
A G
Vi z</w>
com mod
subje kt</w>
claim ed</w>
su ggest</w>
úč ast</w>
provádě t</w>
centr e</w>
sol ve</w>
gi es</w>
vi ze</w>
sty le</w>
le la</w>
C ri
be th</w>
š pin
ac compan
Ne w
op u
in si
z pochyb
ci gar
n ů
exist enci</w>
ře čeno</w>
politi ku</w>
H ung
f low</w>
L .
vý bu
ob avy</w>
Le on
uvědom il</w>
J .</w>
amen ding</w>
odpoví da
Ch ic
nezáv is
po t</w>
orgá nům</w>
chlap če</w>
b one</w>
in ary</w>
doku ment</w>
pá ní</w>
li a</w>
wait ed</w>
připo mínky</w>
zd rž
na p
b right</w>
correspon ding</w>
ap lik
i .e.</w>
zby teč
fac ilities</w>
stu po
prostřed ku</w>
it ím</w>
považ uje</w>
de pos
s ma
ti cho</w>
dlou hé</w>
deta il</w>
aut ě</w>
f as
Mar i
ž alo
dostan eš</w>
us il
kr ku</w>
cam p</w>
OS N</w>
recommend ations</w>
při poj
osvob o
estim ated</w>
š á
běž te</w>
pro cház
směr nici</w>
2 50</w>
pad l</w>
pus ť</w>
opport unities</w>
br zo</w>
J on
u spo
10 7</w>
Co lonel</w>
pre jud
kal hot
no w
nerv ous</w>
v dě
conform ity</w>
ad mi
Slov en
z iv
vaš ich</w>
J es
web site</w>
� </w>
roz poru</w>
ne byli</w>
mb led</w>
vzdu ch</w>
Span ish</w>
observ ations</w>
ja il</w>
sk i
serv es</w>
du š
lo an</w>
commit ments</w>
poslouche jte</w>
W ith</w>
č au</w>
ber u</w>
negoti ations</w>
mi se</w>
žen ého</w>
plat né</w>
chlá p
a čního</w>
sou ght</w>
přísa hám</w>
F R</w>
bath room</w>
ne tu
vzá c
chrá nit</w>
požád at</w>
j am
jí ch</w>
de m
prejud ice</w>
tá ní</w>
p at</w>
chan ging</w>
zásad ní</w>
communic ations</w>
strán ky</w>
sou th</w>
přezku mu</w>
vý ho</w>
fin ger</w>
cel ls</w>
an ci
sele ction</w>
vě cech</w>
it ted</w>
tro j
per cen
krás ná</w>
bi le</w>
pe t</w>
CS .010
lí bit</w>
refer ring</w>
suc cess</w>
zů staň</w>
ru hé</w>
le c</w>
T ro
po ro
at om</w>
o we</w>
dis cre
ap plying</w>
G ab
nu to</w>
přítel i</w>
jin ém</w>
for est</w>
výji me
appoin ted</w>
r ent</w>
A sh
sou sed
sa ges</w>
směr nicí</w>
rá na</w>
ut ed</w>
ká lní</w>
služ bu</w>
R ev
rám ce</w>
sup ple
d ních</w>
tor ů</w>
m mm</w>
§ </w>
k li</w>
prim ary</w>
rov nou</w>
z jištění</w>
osob ních</w>
sho wing</w>
resid ence</w>
meta bo
jednotliv é</w>
nov i</w>
defin i
W a
píse m
i j
B lu
č ov
vz ali</w>
war ning</w>
victi ms</w>
mé mu</w>
T im
iti vní</w>
favor ite</w>
RE G
závě ry</w>
n ali</w>
mí r
ro čně</w>
nej horší</w>
ka jící</w>
kol a</w>
A K
v nější</w>
ab sor
přer u
sedě t</w>
EN .010
human s</w>
ší te</w>
plan ts</w>
brat ra</w>
sch ov
B y
as sum
ate lem</w>
sch open</w>
soldi ers</w>
zku sit</w>
sk ills</w>
zahá jen
tu dy</w>
že h
ex ha
v stup
šé fe</w>
surve illance</w>
úča sti</w>
člán ků</w>
e b</w>
ř ily</w>
nezbyt ná</w>
ř ely</w>
is y</w>
a bu
u děláš</w>
Smi th</w>
zkušen osti</w>
D y
, 5</w>
re ch</w>
mrtv á</w>
thou ghts</w>
oro vání</w>
M .</w>
cur ren
ne ver
manufactur er</w>
na jdeme</w>
tu je</w>
n ka</w>
Z o
Mar ie</w>
pod aná</w>
ř mi</w>
pozmě ň
specific ally</w>
ti me
cu s</w>
ra dost</w>
vrá tila</w>
inspe ction</w>
C P
š ování</w>
stud ent</w>
s bí
k něte</w>
a zení</w>
ac tiv
He y</w>
ky sel
sel ling</w>
we ak</w>
K al
vé d
transpar ent
la ci</w>
hid ing</w>
profe sion
tle ment</w>
x ing</w>
leti ště</w>
ž ku</w>
považ ovat</w>
přes un
přis pě
výrob ní</w>
kře s
5 0
ch á</w>
mo zek</w>
c ular</w>
porte ur</w>
pro vin
il ní</w>
f an</w>
ist a</w>
naz ý
E gy
opra vy</w>
uni form</w>
pod ně
pre ced
g ry</w>
to w
fa ir
Pu bli
apli kace</w>
5 .</w>
ele ment</w>
S hi
na prav
P L
desá t</w>
7 .</w>
zvý šit</w>
norm ally</w>
č ela</w>
control led</w>
r s</w>
inter net</w>
získ al</w>
ag ents</w>
znov a</w>
ná sob
šé f</w>
softw are</w>
pí t</w>
ne dávno</w>
D ur
ten der</w>
N at
mat e
En g
ne líbí</w>
d ni</w>
potřebu jí</w>
E X
San ta</w>
ná bo
k ně
P .
Em ily</w>
bla me</w>
něj ším</w>
na jdu</w>
j un
enti ties</w>
gre atest</w>
a me</w>
N A</w>
i k</w>
ex pressed</w>
obleč ení</w>
jedin ou</w>
J ak
let ters</w>
suspe ct</w>
ag ue</w>
cen tury</w>
rat ic</w>
příj mů</w>
skuteč ný</w>
b lon
R em
šen a</w>
prv ky</w>
B 6</w>
agent ura</w>
š ný</w>
G mbH</w>
blin d</w>
dist ur
use ful</w>
ú j
Willi am</w>
V o
Re port</w>
Pe te</w>
bod ů</w>
Minist er</w>
f ou
J ak</w>
dí l
ta pe</w>
Fa ther</w>
V O
il legal</w>
op hi
bal ls</w>
ol i</w>
discu ss</w>
ma intenance</w>
do jem</w>
P ay
smr tel
cí tíš</w>
ř ských</w>
pre scri
úmlu vy</w>
exten ded</w>
rozpoč et</w>
dé le</w>
za volal</w>
de stin
h all</w>
tru ly</w>
dan ý</w>
r ku</w>
Rob er
Au to
invest ments</w>
V ir
expla ined</w>
vzni k
země mi</w>
bu ďte</w>
ob drž
a to</w>
přátel e</w>
W el
C lau
Á </w>
ar med</w>
car ds</w>
juris diction</w>
nahraz uje</w>
pie ces</w>
shar es</w>
conf identi
prohlá sil</w>
consul tation</w>
ná ch</w>
bol í</w>
re por
technologi í</w>
dre ssed</w>
účin ek</w>
ber g</w>
gro wn</w>
nedo state
s ni
od kaz</w>
is mu</w>
tvo ji</w>
zů stane</w>
exper t</w>
stav y</w>
á ny</w>
ter ing</w>
se dí</w>
še sti</w>
fru it</w>
in fu
skvě lá</w>
datab ase</w>
vytvo řen
ti s
figu res</w>
skup in</w>
tab les</w>
re presen
má lem</w>
ad minist
c up</w>
sil ný</w>
i ště</w>
obsa hu</w>
judic ial</w>
bir th</w>
stá tem</w>
ne dá</w>
c ategori
elekt ř
zna ky</w>
han ging</w>
sh rani
s ne
posle ch
et c</w>
ak er</w>
infrastruktur y</w>
formu lá
udrž et</w>
o he
B et
F e
posl at</w>
gre w</w>
ne řekla</w>
mar ked</w>
identi ty</w>
st aly</w>
naps al</w>
pu te</w>
fa ster</w>
ste el</w>
druh ém</w>
podob ě</w>
who a</w>
le an
ni kam</w>
po bytu</w>
ra jí</w>
vý sledek</w>
E ner
Pe ter
deliver ed</w>
posuz ování</w>
1. 1</w>
na de
influ ence</w>
střed is
zad u</w>
z nal</w>
E L</w>
Develop ment</w>
Lon dý
A ct</w>
st able</w>
M id
beli eved</w>
tran sm
ter i
cha in</w>
chu ť</w>
fa ith</w>
tot ož
itel ně</w>
C ode</w>
bo hem</w>
v ých</w>
Reg ulations</w>
la cí</w>
ků že</w>
ish es</w>
don u
16 .</w>
obvi ous</w>
R al
mat ku</w>
for ces</w>
neigh bor
zen a</w>
změ ně</w>
enti rely</w>
ý ma</w>
ad o</w>
lí š</w>
car bon</w>
stat ní</w>
s od
K ap
proper ly</w>
stru gg
stát ních</w>
tro l</w>
respe ctive</w>
exce ed</w>
prav y</w>
mot ion</w>
muse jí</w>
vypad at</w>
ne ar
D ri
exam ine</w>
z hor
we igh
k to
smi led</w>
1 20</w>
trans mission</w>
vypad alo</w>
řad a</w>
mot iv
tvá ře</w>
poh ř
T em
du še</w>
ot is
měr ně</w>
M as
Par k</w>
ka y</w>
S ever
challen ges</w>
A P</w>
ur u</w>
perfe ctly</w>
6 .</w>
li ke
náhra du</w>
žen ě</w>
con grat
an ým</w>
Chri sti
ves míru</w>
myšlen ky</w>
E l</w>
Gre ece</w>
st is
po vo
zatracen ě</w>
snaž ila</w>
stru cturing</w>
l há
fiel ds</w>
lož ky</w>
s --</w>
con cept</w>
u kaž</w>
visi ble</w>
mil áčku</w>
á tor</w>
pře shrani
shoot ing</w>
har d
ge t
W ill</w>
s ý
s dru
char ged</w>
úspě ch</w>
le ep</w>
re t</w>
er u</w>
re j
Sus an</w>
tic ká</w>
občan ů</w>
th u
při kýv
zají má</w>
vot ed</w>
chlap ci</w>
8 00</w>
požád al</w>
smlu v
pos ad
veli kost</w>
teach er</w>
krás né</w>
nej později</w>
zavo lej</w>
form al</w>
mat ic</w>
ká me</w>
embar ra
sh le
sud den</w>
š paněl
T al
svo jí</w>
T ed</w>
posí lení</w>
a j</w>
h ře
mas o</w>
introdu ce</w>
pop is</w>
bo w
obsa hující</w>
se es</w>
temper ature</w>
kla si
di stor
. com</w>
po bí
ali ties</w>
pit í</w>
solu tions</w>
bur g</w>
air craft</w>
stanovis ka</w>
post eli</w>
H om
k tní</w>
u přes
čen á</w>
pro fit</w>
zeměděl ství</w>
addre ssed</w>
hod ný</w>
význam né</w>
O B
U K</w>
offici als</w>
i ku</w>
nor my</w>
an da</w>
B .
L ily</w>
bro thers</w>
B y</w>
O statní</w>
sv á</w>
zv a</w>
exam ined</w>
P et
oči vid
ha w
rozsa h</w>
sho ok</w>
že te</w>
na šem</w>
vy zved
z ard</w>
obě ti</w>
dlu ž
b es</w>
I A</w>
ch ů
Mi les</w>
pev ně</w>
to ols</w>
zna čně</w>
back ground</w>
kni hov
př iná
zd an
tý mu</w>
s ity</w>
otev řel</w>
zdro j</w>
As soci
man n</w>
příj my</w>
man age</w>
J apon
Po kud</w>
nov ým</w>
palu bě</w>
se cu
lear ning</w>
ban ka</w>
care er</w>
de vět</w>
vz d
zep tala</w>
referen ční</w>
r ala</w>
villa ge</w>
N ot</w>
ne ut
bur den</w>
slyš eli</w>
ru kama</w>
věst níku</w>
gen i
er o
zač alo</w>
pha se</w>
kni hy</w>
wor l
O l
who ever</w>
rá di
tr valo</w>
hun gry</w>
piv o</w>
ss y</w>
Commission er</w>
ali st</w>
migr ation</w>
změ nil</w>
ad es</w>
occur red</w>
assu me</w>
lod ě</w>
lí k</w>
cy cle</w>
inst in
it ch</w>
Lis bon</w>
an ds</w>
y al</w>
dark ness</w>
w ol
mož ností</w>
star ed</w>
mo bility</w>
ob ávám</w>
ide as</w>
U .
po každé</w>
categori es</w>
vyz ý
n ést</w>
vy chází</w>
vzta hy</w>
tí te</w>
d ce
ová ni</w>
Je ží
atel ům</w>
ná lu</w>
A le</w>
dob ou</w>
bre aking</w>
pá rty</w>
declar ed</w>
sleč na</w>
z al
identi fication</w>
е </w>
gg s</w>
re ply</w>
Qu een</w>
sli ghtly</w>
kli matu</w>
institu cí</w>
ct ory</w>
zásad ě</w>
vra h</w>
Ju d
vlast nictví</w>
sm el
deal ing</w>
fon d</w>
plavid la</w>
ob raz</w>
destro yed</w>
schem es</w>
re structuring</w>
e ar</w>
sur r
Afric a</w>
asse ss</w>
O f</w>
8 .</w>
jící mu</w>
fin dings</w>
poslou chat</w>
stud ents</w>
ky ni</w>
předpo kladu</w>
pří s
pé če</w>
ad mis
nechce te</w>
roz dě
ther ed</w>
vál ka</w>
functi oning</w>
ex pan
použi jí</w>
sí la</w>
stre t
but ton</w>
ad vis
In du
Pa ří
pá n</w>
r ny</w>
souvise jících</w>
she et</w>
win dows</w>
těž ko</w>
zach ování</w>
wit ness</w>
her o</w>
sen ding</w>
ve čer
police jní</w>
příprav ků</w>
dra wing</w>
transpar ency</w>
pl enty</w>
thre w</w>
en ced</w>
všim l</w>
pokro ku</w>
dov i</w>
Commun ication</w>
š im
z er</w>
pr int</w>
v ní
na chází</w>
unfortun ately</w>
č ování</w>
ste al</w>
u spoko
id ing</w>
rou te</w>
N izo
překvap ení</w>
ž to</w>
zástup ci</w>
dovo z</w>
ní že</w>
pě st
s áz
dr a</w>
p en</w>
effe ctiveness</w>
kontrol ovat</w>
er o</w>
mp s</w>
manag er</w>
is u</w>
contribu tions</w>
sex ual</w>
invest ic</w>
di es</w>
sig nál</w>
pi z
In formation</w>
cal culation</w>
2 1.</w>
re ál
li ability</w>
il lu
produ ktu</w>
Ameri č
An nie</w>
vlast nosti</w>
discrimin ation</w>
Jer ry</w>
stre ss</w>
t une</w>
d lem</w>
li ed</w>
ve ch</w>
á na</w>
M ě
6 00</w>
s éri
sp lit</w>
sp al</w>
sup porting</w>
ba mi</w>
S tra
B .</w>
approxim ately</w>
pro jít</w>
del ay</w>
bar ely</w>
st ories</w>
zku še
S up
ra w</w>
zku s</w>
indic ate</w>
defin ice</w>
li s</w>
tel ls</w>
h ni</w>
mechan ism</w>
yel low</w>
cu st
Sim on</w>
ga in</w>
zachrá nil</w>
g lan
příprav kem</w>
hol či
mil uje</w>
L A</w>
sch od
ví ce
pra y</w>
e mo
deli very</w>
M S</w>
a vek</w>
ná ležit
pod vod
ch ovat</w>
su m</w>
conclu sions</w>
ste pped</w>
L au
dan ého</w>
í ku</w>
zkou šky</w>
H od
ann ul
li fe
sh ou
kee ps</w>
tou ched</w>
19 .</w>
S FEU</w>
hu bu</w>
i hned</w>
ší me</w>
incre di
drž te</w>
hlav ních</w>
dese ti</w>
odpo čin
bud oucí</w>
quar ters</w>
kone čné</w>
Pro te
podporu je</w>
B O
fam ous</w>
An dre
inno cent</w>
oddí l</w>
pr del</w>
na hrá
společ ný</w>
M A</w>
toho hle</w>
uveden ým</w>
sou těž
her o
d are</w>
zař az
set tled</w>
m or</w>
urč ené</w>
kat astro
příspě vek</w>
ostat ními</w>
1 1.</w>
ku je</w>
as y
sledov al</w>
ner ship</w>
lhů ty</w>
Belgi um</w>
Ed ward</w>
kancelá ři</w>
extre mely</w>
ar re
ur á
ick ými</w>
ú koly</w>
in corpor
lod ged</w>
re ver
před chozí</w>
vraž du</w>
employe es</w>
u tr
ukaz uje</w>
per spe
pravomo c</w>
K ir
akti v</w>
m alo</w>
streng th
veli kosti</w>
can cer</w>
a we
ž em</w>
přid ru
kou kni</w>
l or</w>
nej víc</w>
li br
zá zra
cre ating</w>
qu es</w>
famili ar</w>
Evrop ských</w>
relevan tní</w>
pomo c
pro saz
žalo by</w>
wh en
upří m
škod a</w>
engin e
W ell</w>
L t
dcer u</w>
friend ly</w>
roz ví
de fault</w>
poř á
ve čí
z pracov
R um
ser ver
an u</w>
řá s
in s
be c
iv er</w>
ú tv
vývo je</w>
ra y</w>
šťast ná</w>
pis y</w>
spr ing</w>
ob těž
c la</w>
posly š</w>
wat ers</w>
v it
ther ine</w>
A U
per mit</w>
Bri tish</w>
zni čit</w>
poznám ky</w>
ma min
způso by</w>
gu est</w>
regist raci</w>
navr hov
vý z
rych lost</w>
tisí ce</w>
úžas né</w>
t ová</w>
uplat ň
en ess</w>
com prehen
si x
fem ale</w>
14 .</w>
vyso kou</w>
on om
pen sion</w>
Sta ff</w>
ne vz
televi zi</w>
dis covered</w>
tv ých</w>
adv ance</w>
k men
demo krat
prostřed ek</w>
záležit ost</w>
za platit</w>
li vost</w>
g lo
hospodář ský</w>
dra há</w>
chu ck
re fer</w>
Do ctor</w>
viol ence</w>
Lar ry</w>
výrob ci</w>
doku mentu</w>
před em</w>
dáv ají</w>
lé ta</w>
přezku m</w>
dar ling</w>
il la</w>
dis play</w>
b ill</w>
sh ared</w>
ovan ým</w>
k ie</w>
zmiz el</w>
ostat ním</w>
in c
záj my</w>
no hou</w>
Indi a</w>
odbor né</w>
cul tural</w>
st ake
id ance</w>
působ í</w>
ohe ň</w>
Spojen ých</w>
T ak
chy bu</w>
pe al</w>
ne viděla</w>
ori en
dot ý
anci ent</w>
z ó
z nepoko
kontro lu
mr t
facilit ate</w>
pamatu ju</w>
telefon u</w>
0, 000</w>
duš ev
star ts</w>
N áv
geograph ical</w>
d ates</w>
B at
B P</w>
bar u</w>
S el
by to
sko čil</w>
wee kend</w>
coun ter</w>
Nizo zem
t all</w>
g ames</w>
Washing ton</w>
arch ite
f at
hol ku</w>
state ments</w>
rá m</w>
Com mon</w>
bo ther</w>
práv ními</w>
sa u
as ist
pokry tí</w>
ak ed</w>
Pi er
10 1</w>
rov no
V II</w>
prů myslu</w>
introdu ction</w>
previ ously</w>
differ ences</w>
compla int</w>
gran ts</w>
rema ined</w>
e p
hez ký</w>
C .
vádě ní</w>
pochop it</w>
kra b
tau ght</w>
stup ně</w>
in cur
zaměst nání</w>
ist er</w>
gra ci</w>
dy nam
cí tí</w>
na klá
nej ist
17 .</w>
vlast ních</w>
budov y</w>
E M</w>
čin u</w>
Hon or</w>
Kel ly</w>
thous ands</w>
12 .</w>
pří pust
fac tor</w>
A ri
ag ency</w>
receiv ing</w>
offic ers</w>
stupu je</w>
výbor ně</w>
lan e</w>
pu stí</w>
E T</w>
že me</w>
excep tion</w>
s ou</w>
p neum
ing er</w>
ri ers</w>
od dělen
de sper
té ma</w>
D er
požad avek</w>
pap ers</w>
úč el
de le
po cket</w>
ad verse</w>
cho sen</w>
ne dovol
allow s</w>
certain ty</w>
Eur atom</w>
la bel
kno ck</w>
18 .</w>
gra ph
f ázi</w>
svob ody</w>
pos il
er ation</w>
row ing</w>
main ly</w>
consid ering</w>
K or
K ur
vyjád ření</w>
U E</w>
šk ody</w>
víte jte</w>
t kem</w>
vlast ního</w>
pro zatím
z váž
ní š</w>
S on
An ge
pop táv
vy čer
roz kaz</w>
tvo jí</w>
p av
zvlá dne
sev ere</w>
ve y</w>
po hledu</w>
bole sti</w>
větš inu</w>
d edu
vysvět lení</w>
as leep</w>
moder n</w>
Da ve</w>
sá hl</w>
n ské</w>
součas nosti</w>
en han
loo se</w>
slyš íš</w>
do oprav
vy hrá
Cla ire</w>
J ason</w>
ck ou</w>
pi sem</w>
ch ou</w>
den ní</w>
cen ý</w>
A N</w>
Z em
te j</w>
z ná</w>
w are</w>
Itá lie</w>
š ly</w>
Ne t
up stairs</w>
l n
in jury</w>
vzd ory</w>
V an</w>
sí tí</w>
ž ď
s par
člen y</w>
Pol and</w>
clo sely</w>
investi ční</w>
An na</w>
dosa ženo</w>
leta dlo</w>
le b
ztrá ty</w>
a zek</w>
líb ilo</w>
š en</w>
Sy stem</w>
es ses</w>
ó z
10 .</w>
A ut
stanoven a</w>
na vzdory</w>
de liver</w>
ve st
plá n
c ake</w>
E G
g as
ab or
€ </w>
částe čně</w>
guil ty</w>
ne záleží</w>
ob lo
Pro ced
assho le</w>
ang le</w>
quanti ties</w>
chlá pek</w>
ač koliv</w>
vyso ce</w>
low ing</w>
cu k
con fe
dooprav dy</w>
ě n</w>
Ke y
de vices</w>
wo od
ob tain</w>
pl od
okol í</w>
zab ili</w>
Ze mi</w>
regist er</w>
sou část</w>
c s</w>
situ ations</w>
Arth ur</w>
bene ath</w>
kontro lní</w>
ad i
jedna cího</w>
rovn ová
Parla mentu</w>
poh ře
perman ent</w>
in tra
ro ba</w>
N C
chick en</w>
En ter
Ru les</w>
pla y
ps a</w>
ku f
dá vám</w>
al arm</w>
použí vají</w>
sen tence</w>
úprav a</w>
s in</w>
mplo yment</w>
conf idence</w>
B ren
pře kon
doprav a</w>
D or
efe ktiv
udá losti</w>
rám cov
U N</w>
gi a</w>
bal ení</w>
předpoklá dám</w>
s mu
mo stly</w>
prac tical</w>
accoun ting</w>
Ó </w>
se cur
obje ví</w>
el la</w>
bour g</w>
P S</w>
quanti ty</w>
ov o
zpravod aj
exper ts</w>
ne mělo</w>
pamě ti</w>
9 .</w>
žele zni
rost lin
obě d</w>
dis gu
úto k</w>
ro of</w>
přij du</w>
upří mně</w>
percen tage</w>
za pl
ener gii</w>
par don</w>
mili ar
d ating</w>
v av
obrá til</w>
Y P
kon ver
ph otogra
L ev
mis sions</w>
spo ru</w>
pokrač oval</w>
mach ines</w>
za ční</w>
r ice</w>
leta dla</w>
stri ke</w>
tr hy</w>
A dam</w>
stor m</w>
integr ated</w>
mo ři</w>
lhů tě</w>
O per
2 2.</w>
r are</w>
inde x</w>
Bri an</w>
ta mi</w>
zů stává</w>
jmen ším</w>
enter prises</w>
hez ké</w>
good bye</w>
sum mary</w>
represent atives</w>
thir ty</w>
prav a</w>
oper aci</w>
žalob ní</w>
přísluš ným</w>
dis pute</w>
do hod</w>
J an</w>
ing u</w>
minul ý</w>
g ru
nemoc nici</w>
serv is</w>
vytvá ření</w>
b ř
po jišť
část ku</w>
R on
glob ální</w>
ti p</w>
š am
tě les
vyso ký</w>
ow ner</w>
ĺ </w>
Va še</w>
M a</w>
tv ém</w>
la ying</w>
laugh ing</w>
za dek</w>
lá sku</w>
lá t
v čas</w>
gr and</w>
demo kra
S ophi
m ale</w>
bo ju
ro kem</w>
RO Z
zabi ju</w>
gi í</w>
T hey</w>
vy kaz
dokt ora</w>
sk á
připrav it</w>
ochran a</w>
request s</w>
Af gh
č it
0 5
R ak
v le
přij me</w>
pus ťte</w>
de partment</w>
D A</w>
přine jmenším</w>
br ala</w>
in i</w>
Cha mber</w>
in valid</w>
k le</w>
daň ové</w>
sil ent</w>
. cz</w>
fis cal</w>
Mad am</w>
le tting</w>
bro ad</w>
š et</w>
nej vět
s é
lé ky</w>
br ou
F OR</w>
N av
appoin tment</w>
never theless</w>
ne víme</w>
milion u</w>
pas sing</w>
produ cen
pu shed</w>
when ever</w>
cl ari
bre ach</w>
vytá hl</w>
mil uji</w>
stre am</w>
we ather</w>
F u
dáv al</w>
medic ines</w>
itel ná</w>
classi fied</w>
mas a</w>
zázna m</w>
ra kov
poh léd
199 0</w>
Ad ministr
hal ó</w>
whis per
manžel ství</w>
G race</w>
sil né</w>
ne stalo</w>
řen ý</w>
t les</w>
pěk né</w>
A ir</w>
sh op
Wal ter</w>
podpo ře</w>
li i</w>
attemp t</w>
La ur
st á</w>
ati on
su rov
r out
purch ase</w>
ran t</w>
u prch
dí k</w>
c rying</w>
pre dic
kon čí</w>
at en</w>
signific antly</w>
vol ný</w>
zabrá nit</w>
g ly
dě ní</w>
C F
pan e
fac tory</w>
veter iná
nau čil</w>
p t
Gre ek</w>
lá m</w>
sc ra
L ex</w>
jednoduch é</w>
provádě cí</w>
region u</w>
papí ry</w>
I sra
Ch ris</w>
zaměst n
pust ila</w>
o gen
survi ve</w>
Lt d</w>
v ila</w>
h nul</w>
kni hu</w>
at tribu
hid den</w>
rema ining</w>
S he</w>
hor ses</w>
schů zku</w>
tal ent</w>
compon ents</w>
na vždy</w>
ŕ </w>
curren cy</w>
eu roz
skup ině</w>
tě l</w>
ex cit
sta yed</w>
znamen at</w>
bull shit</w>
quest ion
práv ním</w>
přá l</w>
23 .</w>
ř u</w>
olog ical</w>
fung ovat</w>
as signed</w>
dialo gue</w>
re l</w>
13 .</w>
def ence</w>
ď ar
infor mu
w et</w>
připad á</w>
vra ždy</w>
pro ni
je ď</w>
me č</w>
nábo žen
spe ech</w>
c ad
o čích</w>
Tit le</w>
jist é</w>
pří kaz</w>
přísluš nými</w>
mo zku</w>
vlast ním</w>
du ši</w>
tv or
za mí
la b</w>
ho ly</w>
klu ka</w>
Ag ent</w>
jednodu še</w>
získ ání</w>
atta ched</w>
W here</w>
fi es</w>
a pe
obě ť</w>
S her
stí ž
m id</w>
C le
o cel
J am
passen gers</w>
pan el</w>
žádo stí</w>
ne mohli</w>
v ku</w>
přer uš
per formed</w>
mezinárod ních</w>
ick ém</w>
EN T</w>
wor e</w>
D at
něj šího</w>
prav é</w>
zem řít</w>
očivid ně</w>
ne vidím</w>
O kay</w>
dostup né</w>
závis losti</w>
even tually</w>
squ e
P L</w>
w a</w>
á ř</w>
bi ggest</w>
a w</w>
Joh ne</w>
nam ely</w>
nabíd ku</w>
sh es</w>
Sou du</w>
pravidel ně</w>
adjust ment</w>
far m</w>
sí ť</w>
ple ased</w>
L ady</w>
ed y</w>
D an</w>
le dv
ir ing</w>
spoj ené</w>
slož ky</w>
vzá jem</w>
dot az
c ové</w>
n in
člen ové</w>
ne věděla</w>
úlo hu</w>
ic ích</w>
C I</w>
sm a</w>
bi o
dom lu
su e</w>
na vzájem</w>
environ ment
dotčen ých</w>
vy vin
vy dal</w>
e ars</w>
it es</w>
n is</w>
Ste ph
ti veness</w>
Tra de</w>
mo z
spotřebitel e</w>
4 0
rá nu</w>
tar gets</w>
y l
uli ce</w>
čaro děj
lá rní</w>
dohod ě</w>
le tu</w>
gh ty</w>
Ap peal</w>
re di
ti ves</w>
oz bro
· </w>
pos lan
Scot t</w>
mov it
argu menty</w>
předlo ží</w>
par al
jin de</w>
C e
cam pa
s bohem</w>
ú myslu</w>
α </w>
f ting</w>
id u</w>
T w
provis ional</w>
poz nat</w>
teror ist
při chází</w>
rov ých</w>
inter vention</w>
div or
div né</w>
vz adu</w>
asse ssed</w>
sran du</w>
výrob u</w>
ode šla</w>
dáv ka</w>
pro kázá
form ing</w>
kte m</w>
pohy b
cov ers</w>
&apos; t
souhla sím</w>
mu tual</w>
T ak</w>
where as</w>
ab an
čt ení</w>
liv á</w>
P .</w>
dan á</w>
origin ating</w>
sensi tive</w>
Rob in</w>
dob ro
u jícím</w>
Kev in</w>
m ic
nebezpeč né</w>
che cking</w>
skon čila</w>
E A</w>
squ are</w>
aw ful</w>
ak tu</w>
pí š
rov nat</w>
op í
Ky le</w>
peri ods</w>
Lu x
informa ční</w>
sp ending</w>
zbav it</w>
tradi tional</w>
ati e</w>
potřeb né</w>
si vely</w>
ut u</w>
muse lo</w>
pu ts</w>
Lu ke</w>
námoř ní</w>
ta bility</w>
W ho</w>
it er
nej více</w>
dete kti
mo ct</w>
C R
remember ed</w>
důležit ý</w>
Portu gal</w>
advan ced</w>
il led</w>
br o</w>
nau čit</w>
k arié
cre dit
su rely</w>
ro t
ist an</w>
příležit osti</w>
bav it</w>
ád ně</w>
dů chod
Ro s
te lem</w>
po myslel</w>
he sion</w>
impro ving</w>
al ist
dete ctive</w>
trans action</w>
Ali ce</w>
e ho</w>
t ř
pen di
pova hy</w>
ní kovi</w>
net works</w>
I sa
sil ver</w>
in cen
ag g
ná silí</w>
s rovn
10 4</w>
příjem ce</w>
structu ral</w>
se znám
de serve</w>
do chází</w>
sh i</w>
S har
28 .</w>
fu cker</w>
D ol
konkrét ně</w>
sní žit</w>
od bě
star ing</w>
effe ctively</w>
otev řené</w>
buil dings</w>
g rov
nu ts</w>
moun tain</w>
roz u
před ví
svě tle</w>
nabíd ky</w>
zak lá
rene w
uni verse</w>
lin ed</w>
t ých</w>
1 1
čer né</w>
for gotten</w>
zabi je</w>
ří me</w>
vyrá bě
neu ro
de pend
dis appeared</w>
ro rs</w>
ř az
sa ving</w>
následu jících</w>
en dá
Aust ria</w>
takov ým</w>
che ese</w>
tr ick</w>
vo le</w>
použ il</w>
vsad ím</w>
vyprá vě
iniciati vy</w>
č nost</w>
gi tal</w>
L am
posi tions</w>
instru ctions</w>
form at</w>
če st</w>
pp y</w>
zlep šit</w>
Pod le</w>
IB M</w>
stric t</w>
heal thy</w>
znám ka</w>
měst nan
initi atives</w>
přij al</w>
agen cies</w>
be ach</w>
crow d</w>
bir ds</w>
pan u</w>
F ri
ukáz alo</w>
va šem</w>
kou zel
st ac
f are</w>
em a</w>
inje kční</w>
ře z
ar i</w>
awe some</w>
smlou va</w>
tr žní</w>
a z</w>
odstran ění</w>
mat ky</w>
s pod
statist ics</w>
obec ného</w>
v or</w>
ne znám
Žal oba</w>
technologi es</w>
ad ju
navr huje</w>
o str
polož ka</w>
Gre at</w>
léč bě</w>
ak or
brá ní</w>
F al
připrav eni</w>
analý zy</w>
Eng land</w>
návr hů</w>
D r</w>
regi me</w>
přá ní</w>
š ilo</w>
re action</w>
f áze</w>
u čení</w>
Ů </w>
n ation</w>
co at</w>
off ers</w>
dan ou</w>
i ron</w>
re mot
do jít</w>
poun ds</w>
dá rek</w>
z pomal
g ang
spojen ých</w>
okol nosti</w>
sp here</w>
vedle jší</w>
Y u
so le
ne věřím</w>
f ts</w>
ne víte</w>
30 .
jo ined</w>
hod not</w>
bě h
ly mp
bod ech</w>
roz sáh
3. 1</w>
š ir
t l</w>
ob lé
vál ce</w>
B ut
vod ou</w>
ú drž
G H
par ent</w>
dialo g</w>
at ý</w>
Dohod y</w>
fin ds</w>
ku pu
cut ting</w>
hospodář ských</w>
chem ical</w>
In stitu
rele ased</w>
immedi ate</w>
přije l</w>
skr z</w>
obraz ov
přines l</w>
zaměstnan ci</w>
Náv r
ex porting</w>
structu res</w>
di ver
aim ed</w>
perfe ktní</w>
vyře šit</w>
as set</w>
řád ně</w>
V or
ře šit</w>
im pli
vy pla
v ého</w>
vla j
čen y</w>
0 2
ste k</w>
hla d</w>
dov á</w>
me tr
pro file</w>
Dire ctor</w>
ori al</w>
M en
Bla ck</w>
hez ky</w>
Manag ement</w>
low s</w>
cla ss
O li
člově če</w>
ve ďte</w>
kontro lou</w>
hle dám</w>
stati sti
fol ks</w>
schedu le</w>
pr ud
umí te</w>
br ali</w>
stáv ají</w>
o cen
af ford</w>
zad ní</w>
pl ing</w>
sek un
odstran it</w>
tvá ří</w>
počá tku</w>
B us
jedin ým</w>
prepar ation</w>
ag er</w>
soli d</w>
u de
Ro ger</w>
pro spe
č ník</w>
P it
ex cited</w>
re present</w>
answ ers</w>
ob o
A lan</w>
li ft</w>
mr tví</w>
strate gii</w>
ni čemu</w>
un known</w>
oper ací</w>
Qu in
individu als</w>
A V
stě ž
špin av
sta rost
gran ting</w>
benefici ary</w>
výhod y</w>
z ation</w>
pří rod
stan ds</w>
25 .</w>
pho to</w>
y le</w>
bí lé</w>
pří šer
S p
stá la</w>
pos ite</w>
ran k</w>
men d
Vý boru</w>
Vi et
ků ži</w>
vy raz
slí bil</w>
sk ry
ví tr</w>
strateg ic</w>
fu cked</w>
con solid
hle dal</w>
stan ice</w>
přid at</w>
sl and</w>
2. 2</w>
mur dered</w>
B 7</w>
ch er
ka fe</w>
řed itel</w>
bi tion</w>
ct or
jed eš</w>
důsled ky</w>
cre am</w>
stom ach</w>
ton u</w>
určen a</w>
Sat ur
confli ct</w>
be coming</w>
oun ding</w>
Bru sel
boj ov
mí ře</w>
d ila</w>
Co g
us mál</w>
V en
ele v
t te</w>
ã o</w>
fal ls</w>
inter view</w>
život y</w>
fac ed</w>
G il
milli ons</w>
uved l</w>
píse mně</w>
obsa hovat</w>
B A</w>
fon dů</w>
mě j</w>
rodin ě</w>
K Y</w>
rid ge</w>
ba sk
dokument ů</w>
human it
ot y
F la
Su per
tr hů</w>
symbo l</w>
ne slyšel</w>
lov á</w>
n ce</w>
přij ata</w>
Or g
pla ys</w>
C P</w>
čí te</w>
appar ent</w>
fe atures</w>
kol á
up date</w>
im mun
wa ve</w>
 </w>
defic it</w>
zá lo
for mu</w>
rap porteur</w>
per form</w>
Com mit
ar ticles</w>
smlou vu</w>
re infor
as ant</w>
e ti
dí me</w>
Lu cy</w>
vel kých</w>
po p</w>
zí ho</w>
ně čeho</w>
busin esses</w>
4 ,
nabí zí</w>
svět ové</w>
vez me</w>
uč itel
a i</w>
Tribu nál</w>
na mi</w>
zvlád nu</w>
N ev
k ne</w>
won dered</w>
zví ře</w>
tov ou</w>
b l</w>
e a</w>
il ý</w>
přítel kyně</w>
on i
vol ala</w>
br illi
soldi er</w>
sl oup
m ly</w>
id en
recor ded</w>
vrá cení</w>
mo bil
s wal
energe tické</w>
B as
autom obil
sí me</w>
quar ter</w>
t ons</w>
radi o
re actions</w>
ad verti
za uj
s now</w>
Eli za
ot e</w>
zad rž
m ous</w>
o šk
Portu gal
war ri
kom un
de st</w>
smlu v</w>
Wh en</w>
spotřebitel ů</w>
zen o</w>
vý lu
d vo
C li
promot ion</w>
na děje</w>
začá tek</w>
odchy l
klu bu</w>
Ř Í
dlou hou</w>
ta h</w>
zna čné</w>
ved ou</w>
s fé
R ap
už ití</w>
exten sion</w>
scé ná
the ory</w>
surg ery</w>
ná pad
už i
prin ce
vel kého</w>
smal ler</w>
cu rement</w>
věří š</w>
sc an
slou ží</w>
S ci
tu ře</w>
lar ger</w>
T hor
be comes</w>
ele ss</w>
výslov ně</w>
swit ch</w>
shar p</w>
děv če</w>
C at
sle pt</w>
uzav ření</w>
4. 2</w>
eko log
ekonom ické</w>
mo le
et ly</w>
počíta č</w>
slov y</w>
ře k</w>
vol ného</w>
d addy</w>
ne be</w>
S ME
o ko</w>
Com pan
předlož it</w>
ča sem</w>
substan tial</w>
K rá
z prostřed
tvá ři</w>
č len</w>
stanoven á</w>
za úto
4. 4</w>
len e</w>
199 1</w>
inform aci</w>
vy hod
a ward</w>
K os
nu ty</w>
manž ela</w>
za č</w>
Sa fe
EI B</w>
high est</w>
b id
govern ments</w>
Vý bor</w>
nes ses</w>
technic kých</w>
bi a</w>
du st</w>
sen átu</w>
ob al
ha ma</w>
přimě řené</w>
ma ce</w>
sac ri
P ro</w>
dig it
Bul g
speci fy</w>
iz ed</w>
hom e
ál ními</w>
be ze</w>
vy sky
z ie</w>
Jap an</w>
ří ch</w>
Cen tre</w>
T ay
adre sa</w>
s cor
h oval</w>
cul ture</w>
obje m</w>
subsequ ent</w>
ous in</w>
dan í</w>
exist s</w>
zne či
far mers</w>
má la</w>
po u</w>
sol ved</w>
á tor
při ta
roz p
incur red</w>
výrob ců</w>
bo st</w>
horri ble</w>
shi ft</w>
krás ný</w>
p ment</w>
vypad ni</w>
Á V
ver ze</w>
ne budete</w>
mil ovat</w>
ná rok</w>
zač neme</w>
im por
av i
dlou hý</w>
zahrani ční</w>
příprav y</w>
zná t</w>
č ily</w>
fun ctions</w>
as y</w>
těž ký</w>
fle et</w>
zem řela</w>
10 8</w>
ví no</w>
Úřed ním</w>
pravid lo</w>
poskyt ovat</w>
řek něme</w>
z l</w>
snaž it</w>
tlačí tko</w>
ur ing</w>
opust it</w>
S ION</w>
bur ning</w>
L im
roz en</w>
o sud</w>
gener ation</w>
hun g</w>
KO M</w>
Associ ation</w>
vy hlá
Lux em
li gh
acce ssion</w>
snad né</w>
bur ned</w>
tot éž</w>
trans ferred</w>
bla ck
recogni ze</w>
postav it</w>
u sa
počíta če</w>
ch i</w>
mil ý</w>
pe ti
ul ts</w>
E ri
b ell</w>
subje ktu</w>
tic ally</w>
souhlas í</w>
tě sně</w>
rozdí ly</w>
so le</w>
ful fil</w>
disci pl
fri gh
per cent</w>
po krý
famili es</w>
úžas ný</w>
le va</w>
lo ans</w>
dod r
O t
men ted</w>
váž né</w>
mů m</w>
en á
sit es</w>
boj ím</w>
So ci
od cház
minu ty</w>
ne movit
chápe š</w>
e ing</w>
ú tě
ř uje</w>
komple x
jednot ka</w>
z má
at d.</w>
ti ed</w>
IO NS</w>
tr hem</w>
kritéri í</w>
při pojení</w>
ap pel
ě né</w>
ci g
re pre
postup ně</w>
změ ní</w>
ká š</w>
f ought</w>
fla g</w>
ast ern</w>
vy slech
cri tical</w>
T r
zna k</w>
Proced ure</w>
kou le</w>
A G</w>
bel ong</w>
psy chi
L et</w>
měsí ci</w>
mon ster</w>
D V
mí ra</w>
domní vám</w>
M aster</w>
restric tions</w>
é nu</w>
form a</w>
takov ém</w>
y i</w>
popu lace</w>
š le
správ ce</w>
certi fi
ot rav
komuni k
č ata</w>
stre ets</w>
vý car
ele n</w>
vzpomí nám</w>
Jo ey</w>
To to</w>
pl nou</w>
Ri ghts</w>
ti ally</w>
Ser vices</w>
dop ádně</w>
zlat íčko</w>
re ti
ř in
hod né</w>
bin ding</w>
d ar</w>
poky nů</w>
uved la</w>
al ties</w>
pos ed
gi ant</w>
pri orities</w>
1 12</w>
Ti me</w>
ne znám</w>
jour ney</w>
vi e</w>
iv ý</w>
sha dow</w>
Ju st</w>
obě tí</w>
ti ous</w>
čtvr t
de stru
á nu</w>
k ému</w>
fil mu</w>
P op
G reg
kontro l</w>
mě ření</w>
u dělen
hle d
&apos; all</w>
ta jí</w>
Gr and</w>
na ked</w>
tele vision</w>
eri ff</w>
projednávan é</w>
Z ENÍ</w>
K at
nepří jem
zkur ven
re produ
flow ers</w>
zaměstn ance</w>
kol ů</w>
liv u</w>
E .
in ti
ní me</w>
lov ých</w>
jest y</w>
EU RO
8 0
stron ger</w>
du m</w>
cháze jících</w>
classi fication</w>
multi ple</w>
o stro
mis si
lob ou
nov ě</w>
3 1.
10 00</w>
tra ding</w>
depen ds</w>
nut a</w>
par kov
je sky
titu de</w>
D e</w>
agen da</w>
A gr
fa il</w>
saz by</w>
e ggs</w>
the tic</w>
design ated</w>
od kazy</w>
te j
a er
ta cí</w>
W hy</w>
v on</w>
clo sing</w>
h an</w>
hru b
ček ala</w>
Bi g</w>
su itable</w>
stran ami</w>
dom ov</w>
vin a</w>
se kre
ru ption</w>
sy nu</w>
S U
impro ved</w>
výro bek</w>
ton gue</w>
satis fied</w>
mon d</w>
žen ská</w>
no where</w>
R on</w>
ti to</w>
encoura ge</w>
Un der
ss a</w>
čer tu</w>
od sou
stake holders</w>
lo sses</w>
suppli es</w>
li te</w>
o th
pobře ží</w>
e ye
ci vil
posto j</w>
l at</w>
pa int</w>
M s.</w>
R ose</w>
pos ing</w>
podob ně</w>
V še
vz kaz</w>
cion ální</w>
do zen</w>
redu cing</w>
sho wer</w>
lí me</w>
be tra
lid ská</w>
násled ně</w>
Z áv
ac u
podni kání</w>
ple d</w>
opráv ně
Mar ia</w>
end ant</w>
ro bot</w>
SME s</w>
dra hý</w>
e il</w>
chy by</w>
hran í</w>
vol á</w>
prode j
condu cted</w>
develop ments</w>
ně čím</w>
ř ady</w>
l ům</w>
se j
stáva jících</w>
We b</w>
ut é
zaměstnan osti</w>
oprav ného</w>
eng aged</w>
vod ě</w>
soukro mé</w>
obě ma</w>
Sou d</w>
br it
kaž dopádně</w>
Clar k</w>
ot ic</w>
rid icul
vě nov
Mem bers</w>
democ racy</w>
co w</w>
stru ck</w>
con ference</w>
inter oper
s ny</w>
≥ </w>
F rid
el né</w>
g ang</w>
Eliza beth</w>
znamen alo</w>
mili ard</w>
ot če</w>
en tem</w>
za prvé</w>
fa x</w>
pla yer</w>
zů stala</w>
obrá zek</w>
h ové</w>
L os</w>
vě d
pa ce</w>
sta čilo</w>
whe el</w>
brá nit</w>
d ary</w>
beau ty</w>
D ay</w>
f ó
dro g
fas cin
c ovat</w>
noti fy</w>
29 .</w>
M od
e ast</w>
hmot nosti</w>
dá r
27 .</w>
O N</w>
pří no
b its</w>
ste in</w>
zajíma vé</w>
Er ic</w>
person nel</w>
mani fe
Me z
po v
mod el
vysí lání</w>
an o
w ound</w>
hlu pá
přij dou</w>
vě r
paci enti</w>
bu ň
učin it</w>
vi z
Op inion</w>
ra il
vil le</w>
par king</w>
o ly</w>
vy ni
vzor ku</w>
zen y</w>
jako žto</w>
t ance</w>
al er
len ě</w>
fot ky</w>
z lodě
ov acích</w>
pre fer</w>
veri fication</w>
C T
á ře</w>
o proti</w>
26 .</w>
uvid í</w>
fle sh</w>
valid ity</w>
kontro la</w>
určit ou</w>
mes sages</w>
per mission</w>
col umn</w>
Jen ny</w>
A D</w>
u klá
pod at</w>
y ard</w>
m ové</w>
dal šími</w>
run s</w>
ti hle</w>
stanoven y</w>
vy sl
C í
ow ned</w>
F R
s ili</w>
vel kým</w>
sou dce</w>
vš ím</w>
O w
ou cích</w>
poz itivní</w>
en tu</w>
1 10</w>
žen ým</w>
gi ous</w>
Re cu
an ů</w>
nech ali</w>
z hru
ř ád</w>
přev ed
spl nění</w>
M other</w>
chy stá
akor át</w>
kapac ity</w>
ochran ná</w>
šen y</w>
předpoklá dá</w>
res cue</w>
žalob ce</w>
invol ving</w>
lu x
i ses</w>
brea the</w>
ak ci
dro gy</w>
s and
mí stech</w>
l ních</w>
sto len</w>
roz dělení</w>
zají malo</w>
ec .europa.eu</w>
frequ ency</w>
š tá
inhi bit
osob u</w>
u cha
Ta to</w>
la bel</w>
na ro
zá sad</w>
při rozen
re a</w>
in spi
p it</w>
její ž</w>
zvlášt ních</w>
hol ds</w>
id er</w>
poku s</w>
doká žu</w>
uklid ni</w>
mez i
zná me</w>
celkov ý</w>
sha me</w>
zhru ba</w>
hn us
V ar
rybol ov
ně čem</w>
pos se
uvid íš</w>
cour ts</w>
po blíž</w>
lah vi
z vy
vir tu
we b</w>
zá da</w>
del ší</w>
stat ek</w>
pu s</w>
ply nu</w>
Po ložky</w>
ne myslíš</w>
opust il</w>
o zval</w>
th at
3. 2</w>
W en
nů ž</w>
He alth</w>
klí če</w>
Žal ob
cre ature</w>
peč livě</w>
z bláz
f isheries</w>
pozměň ovací</w>
bo nes</w>
as sa
v ence</w>
C er
cy k
rej stří
ativ ních</w>
sv ý</w>
Recu eil</w>
vý sky
kr u</w>
sh aring</w>
I E</w>
ir o</w>
fun kci</w>
h ill</w>
vlá d
Rich ar
vy hra
j ád
x y</w>
nev šim
Brusel u</w>
áv ala</w>
za sa
ně hož</w>
mb ling</w>
š kr
b ite</w>
účin ků</w>
ž ka</w>
suffici ently</w>
Se a</w>
žit í</w>
pa st
pís ni
vý počtu</w>
bu cks</w>
po pis
tax es</w>
dě si
soudrž nosti</w>
k ins</w>
dotčen ého</w>
h em
te en
ab o
Gre en</w>
stá lo</w>
indic ation</w>
ov i
pla cing</w>
sle m</w>
promot ing</w>
de s
byd lí</w>
hou ses</w>
kla dem</w>
du mb</w>
nut é</w>
sacri fic
Ge org
intel ligence</w>
uží vat</w>
ti tle</w>
div ný</w>
podpoř it</w>
čin y</w>
pil ot
sdru žení</w>
na jí</w>
připomí ná</w>
d its</w>
m ere</w>
pracov ala</w>
tic kého</w>
passen ger</w>
sho ck</w>
Vý roba</w>
bul let</w>
vol by</w>
V Ý
Evrop ským</w>
ry ho</w>
o ch</w>
pra v</w>
prav ý</w>
jak ou
vyplý vající</w>
respon d</w>
nerv ózní</w>
cir cle</w>
Luxem bourg</w>
výbě ru</w>
br a</w>
sh ake</w>
ři krát</w>
langu ages</w>
r ou</w>
souhla sil</w>
v ers</w>
pokro k</w>
Tur key</w>
mil oval</w>
M un
me al</w>
domá c
nějak ej</w>
kdy koliv</w>
sou bor
nedo kázal</w>
čist é</w>
do předu</w>
vy jedná
mla dá</w>
b en</w>
M E</w>
poně kud</w>
přemýš let</w>
ak u
M L</w>
De partment</w>
laskav ost</w>
od hod
c u</w>
neza městnan
respe ctively</w>
č ar
al location</w>
constit utes</w>
interne tu</w>
th um
W ay
a qu
P har
vy ví
od ol
k lobou
us mí
zjist í</w>
preten d</w>
Par t
H aw
kar ty</w>
T S</w>
m ar</w>
zem ní</w>
d ý</w>
5 ,
č il
St ru
mlu víte</w>
lo ne
z im
vě novat</w>
stej ná</w>
ta mhle</w>
suppli ed</w>
Pr ince</w>
pol lu
glan ced</w>
emp ha
brea thing</w>
govern ance</w>
advan ta
R O</w>
re vo
Com e</w>
zab ila</w>
m ala</w>
po ver
comb ined</w>
zou fal
roz umě
fif ty</w>
ed ic
bu ried</w>
slov </w>
ští ch</w>
dod at
24 .</w>
od ráž
in su
ch est
bri ef
re mind</w>
lo aded</w>
n t</w>
is ol
swee the
to ol</w>
ps al</w>
repe at</w>
chy t
dlou h
bá je
D re
žád á</w>
ir y</w>
z bývá</w>
apologi ze</w>
F on
wa sh</w>
Poli cy</w>
wo ods</w>
chu dá
Pro fe
ví na</w>
han ded</w>
poznám ka</w>
řen á</w>
sr de
is mus</w>
zveřej nění</w>
cí li</w>
fal len</w>
z přístup
mom ent
ge ment</w>
na jde</w>
ád a</w>
pla stic</w>
po prav
speci ální</w>
sh ut
a do
mod u
scre w</w>
z odpověd
dve řmi</w>
S au
b led
dí te</w>
dro ve</w>
při blí
pat ing</w>
G ary</w>
proved l</w>
Rak ou
difficul ties</w>
č ným</w>
t ar</w>
lead ers</w>
p sy</w>
uká žu</w>
faci lity</w>
řen y</w>
stan tly</w>
zjist ila</w>
c ousin</w>
vy bral</w>
T ele
C lu
čí mž</w>
zna mení</w>
dal y</w>
bor ne</w>
tic kou</w>
aro n</w>
im pa
sp í</w>
Alex an
g au
při hléd
společ ných</w>
P ři
dostan ete</w>
r ough</w>
cí sa
competi tiveness</w>
in ky</w>
An ton
br ž</w>
st ant</w>
comman der</w>
léka ř
hod nosti</w>
prin ts</w>
re place</w>
mod e</w>
ph en
vě c
Com man
T el</w>
přistoup ení</w>
od lož
vul ner
ris h</w>
Je ss
c as</w>
dáv ku</w>
determin ing</w>
de st
ný brž</w>
le y
pracov ního</w>
tic ket</w>
sil ni
gu e
ok no</w>
ší ření</w>
see king</w>
pís m</w>
po le
se ason</w>
ur s</w>
exemp tion</w>
m aga
profe sor
legiti mate</w>
guarante es</w>
i ze</w>
p ení</w>
is i</w>
s and</w>
úsmě v</w>
sp ap
sil ly</w>
th ick</w>
zv on
ru ral</w>
S ur
for th</w>
pra sk
pot kal</w>
oper ative</w>
jed nom
an ese</w>
ci p
so oner</w>
bag s</w>
poku ty</w>
z lé</w>
m te</w>
hov no</w>
Tribu nálu</w>
pod pů
nesná ším</w>
Con tra
tele phone</w>
fac ing</w>
Rom e</w>
káz ala</w>
D ata</w>
po hla
řen a</w>
k ing
be j</w>
že lez
s rá
Car ter</w>
nor em</w>
V eli
re zid
jedna k</w>
tabul ka</w>
ser ted</w>
alco hol</w>
Roz hod
záj mů</w>
for em</w>
inte grov
fra ud</w>
Ac cor
řen ím</w>
person ally</w>
defen se</w>
tra p
De an</w>
slu ší</w>
sp la
cle arance</w>
Viet na
Pay ments</w>
laun ch</w>
Jack ie</w>
ut a</w>
Safe ty</w>
heav en</w>
t our</w>
spo ken</w>
ově ření</w>
ří š</w>
th ing
ro g
ridicul ous</w>
mí ň</w>
provo z</w>
maje tku</w>
roz lou
S ing
10 2</w>
podě kovat</w>
thre sh
zá dy</w>
vy slov
I ra
mlad ší</w>
do or
tra p</w>
reli ef</w>
aut onom
vzájem né</w>
f ake</w>
nez mě
amer ické</w>
ni ghts</w>
m ble</w>
l ního</w>
ho ř
bro wn</w>
zaká zek</w>
L ang
sp are</w>
postav il</w>
ě ji</w>
připo menout</w>
u gly</w>
N G
W TO</w>
prv ních</w>
vyso ká</w>
vyvá že
dan ých</w>
hle dání</w>
tě ší</w>
mo bile</w>
refu sed</w>
ucha ze
here by</w>
exac t</w>
uni que</w>
ba star
rovno cen
b ach
zá ruky</w>
ak t</w>
léka ř</w>
W ar</w>
pracu jí</w>
rov ý</w>
nic kých</w>
oček ává</w>
zeměděl ské</w>
zvlášt ního</w>
ot al</w>
de ck</w>
D ate</w>
M ic
ch ir
si mul
l ant</w>
nes pl
vá zá
vhod ná</w>
vypad ala</w>
comprehen sive</w>
V .</w>
Se con
chlap ce</w>
1. 2</w>
P á
u ví
sek und</w>
compon ent</w>
AC E</w>
kr k</w>
me tal
le ase</w>
on ia</w>
pi g</w>
j ších</w>
az ky</w>
set tle</w>
rov ého</w>
nur se</w>
ne přátel
St ar</w>
poku sil</w>
S C</w>
vý chozí</w>
pravděpodob né</w>
expen sive</w>
na jdete</w>
Zem ě</w>
soukro mí</w>
re z
dom ov
fra me</w>
compe tence</w>
potře bu</w>
al es</w>
af t</w>
hun dre
men ting</w>
expe ct
an ger</w>
ji st</w>
qui etly</w>
mož ný</w>
ve změ
ti ly</w>
Chi ef</w>
ra d</w>
otáz kou</w>
hov ala</w>
proce sses</w>
и </w>
d in</w>
H un
symptom s</w>
nej bliž
če st
Lis ab
N AT
s one</w>
z ře
at eral</w>
ze ň</w>
ble eding</w>
you th</w>
cli mb
vi se</w>
V í
suspen sion</w>
mi ra
pro curement</w>
vy hrál</w>
lov i</w>
pojišť ov
P il
ne pat
dis k</w>
lead s</w>
skuteč ností</w>
dá vek</w>
num er
lá tku</w>
mechanis ms</w>
jako by</w>
N u
tr h
ti le</w>
e ze</w>
souhr n
pow der</w>
vnitrostát ního</w>
vál ku</w>
itel ných</w>
obchod ování</w>
win ter</w>
Rum un
gin s</w>
vyk ři
onemoc nění</w>
sla u
lá sky</w>
ň ů</w>
c ování</w>
vy rovná
smo king</w>
lete cké</w>
zar u
convin ced</w>
elektronic ké</w>
bo ok
poví dat</w>
normá lně</w>
studi í</w>
šen o</w>
ú ni
super vision</w>
jí ždě
H um
provoz ní</w>
speci aliz
v or
ot ci</w>
qui red</w>
výraz ně</w>
pra š
op position</w>
Mar ty</w>
zaměst nav
sr dci</w>
spor tov
Sa int</w>
compar ison</w>
dv oru</w>
ne buď</w>
rozhod ne</w>
hvě zd
sweethe art</w>
sh ould
def endant</w>
en ě</w>
al located</w>
g ods</w>
pře č
A man
cí mi</w>
iv ě</w>
nějak ým</w>
br ings</w>
20 7</w>
ulož it</w>
Rom ania</w>
podpo r</w>
zav ést</w>
id ly</w>
seh nat</w>
po rovnání</w>
dod á
automat icky</w>
c ried</w>
rid ing</w>
na proti</w>
poslou ch
K ol
vítěz ství</w>
řek nete</w>
ther ing</w>
vý klad</w>
fir my</w>
O .
vti p</w>
expen ses</w>
ris ing</w>
Cog nos</w>
sel hání</w>
P as
pla cement</w>
re cru
vi ď</w>
b ila</w>
odpo věděla</w>
ox y
A ven
syst em
te sty</w>
b ov
ex por
re fers</w>
využí vat</w>
D í
důležit á</w>
n ings</w>
bu ry</w>
ni koliv</w>
sli b</w>
Jack son</w>
Mez iná
dítě te</w>
CH MP</w>
žád ném</w>
il u
S om
ří cí</w>
suf fered</w>
I l
správ ný</w>
po ch
Õ </w>
dá vej</w>
před e</w>
závis í</w>
L ist
streng then</w>
go al</w>
brilli ant</w>
believ es</w>
ch ů</w>
rol led</w>
podez ření</w>
k ob
f ate</w>
po und</w>
compli cated</w>
krá le</w>
chla pí
rá ny</w>
doprav ní</w>
allow ing</w>
přá tel</w>
out put</w>
zá pas
custom er</w>
při roz
ot ro
S w
be aring</w>
poru chy</w>
podni kům</w>
zeměděl ských</w>
gentle man</w>
man e</w>
nezají má</w>
G ro
anti dumping
úč tu</w>
ick ing</w>
z ené</w>
kri ti
li p</w>
ch amp
pro pose</w>
tu šení</w>
pů dy</w>
¶ </w>
automat ically</w>
kilome trů</w>
bed room</w>
Pro dej</w>
so m</w>
O LA
pri vi
nad měr
s bě
Mar ket</w>
sc ru
Na me</w>
co ok</w>
N ad
zd ar</w>
Ener gy</w>
Vá no
c am</w>
pří zni
pl en
v stup</w>
H ap
kne es</w>
kamar ád</w>
vnitrostát ním</w>
finan ced</w>
plat eb</w>
finan čním</w>
de emed</w>
rol ling</w>
ter mí
occur </w>
acqu is</w>
da ří</w>
h ob
le se</w>
zahr novat</w>
prokáz at</w>
r t</w>
ni čeho</w>
mno ho
stan ici</w>
M ir
rozhov or</w>
R .</w>
na je
I X</w>
hr ou
b ak
shro ma
i k
kontro le</w>
di e
C ust
sou bory</w>
mili ony</w>
mez itím</w>
accompan ied</w>
ot cem</w>
přítom nost</w>
aim s</w>
measu red</w>
rat s</w>
léka ře</w>
Č len
slu ne
in em</w>
by tek</w>
Car l</w>
N em
i f
Ken ne
uté ct</w>
spolu pracovat</w>
present ation</w>
jedin ě</w>
il ly</w>
ň oval</w>
pochop il</w>
ne stane</w>
vý cvi
tu n</w>
prote cting</w>
gra ve</w>
Str ate
di g</w>
odpo vědět</w>
jí dla</w>
jaké ho
s man</w>
umož nit</w>
N um
problé mu</w>
prezid enta</w>
wi re</w>
mi xed</w>
kon cep
předlož ila</w>
Ro ad</w>
laugh s</w>
ži jí</w>
explan ation</w>
un ion</w>
připrav ený</w>
la s
obje mu</w>
materi álů</w>
re vis
přísluš ného</w>
me ter</w>
solid arity</w>
po l</w>
úpl né</w>
s rovná
na zna
en h
pře stal</w>
J .
inten tion</w>
indic ators</w>
uživ atele</w>
bo ku</w>
pra xi</w>
zd r
zá pas</w>
op en
datab áze</w>
enti ally</w>
řen o</w>
mov es</w>
akti va</w>
hla š
p ure</w>
po vahu</w>
zvě dav
solu te</w>
determin ation</w>
monit orování</w>
je al
te ars</w>
studi ed</w>
Ma j
m ming</w>
M oun
hospodář ská</w>
cro ssed</w>
Ma jesty</w>
míst nost</w>
spl něny</w>
F le
přikýv l</w>
ob jas
ho li
patter n</w>
zan ech
ci zí</w>
ur ych
sp án
jí me</w>
ře t</w>
ne se
modi fied</w>
or ální</w>
odpo čí
vy nalo
lat ely</w>
tar ge
Z a</w>
set tlement</w>
10 5</w>
stor ed</w>
bal an
t ová
leh ce</w>
u ta
pos a
an tní</w>
polož il</w>
CO N
vie wed</w>
institu tional</w>
roz tom
soci álních</w>
obsa hují</w>
roz umíš</w>
Par ag
D C</w>
expe cting</w>
pr ád
h ř
zran ění</w>
pul ling</w>
Chu ck</w>
hist orii</w>
tax ation</w>
ex press</w>
T .</w>
na ším</w>
7 0
F is
pover ty</w>
neg ativní</w>
derog ation</w>
A dri
veli tel</w>
fo li
P y
P AR
comb at</w>
b id</w>
Ve gas</w>
drin ks</w>
a e</w>
vezme me</w>
D EC
en su
po bo
h áz
sexu ální</w>
si zed</w>
necess arily</w>
sub mission</w>
žá dám</w>
ť ák</w>
zdůraz ňuje</w>
Na řízení</w>
na mí
vy berte</w>
server u</w>
zahrani čí</w>
gu idance</w>
kon textu</w>
en em
cli ents</w>
dire ctor</w>
za va
účast níků</w>
běž ně</w>
ná prav
ře těz
výsled kem</w>
nej lépe</w>
Morg an</w>
f ounded</w>
blá zni
ě ný</w>
u viděl</w>
na zv
Ran dy</w>
kontak t</w>
záv azek</w>
o ke</w>
ari o</w>
arre sted</w>
léčiv é</w>
discu ssion</w>
Org ani
M ul
kid na
douf al</w>
přiz nat</w>
vy le
S in
nation als</w>
ho nem</w>
R ed
Hu man</w>
As se
main tained</w>
P ic
ma m
poda ří</w>
ma x</w>
kancelá ř</w>
publi c
ma il
r ic</w>
no hu</w>
zem ře</w>
původ ně</w>
obliče je</w>
ko stí</w>
co ated</w>
d é</w>
appe arance</w>
Tu re
Ju lie</w>
hla sem</w>
ča j</w>
h ování</w>
Jap anese</w>
zam ýš
bar vy</w>
Dob ře</w>
politic kých</w>
Plat by</w>
pěk ná</w>
jednot ek</w>
r na</w>
rov ná</w>
tra ined</w>
trans akce</w>
poskyt ne</w>
ob rat
H igh
ú kolů</w>
9 0
T y</w>
čty ř</w>
mar gin</w>
Frid ay</w>
gla sses</w>
schop ni</w>
kal endá
D es
e jte</w>
wh er
A id</w>
ic an</w>
dis posal</w>
zá tě
colle cted</w>
West ern</w>
zen ím</w>
quali fied</w>
re cit
MIS SION</w>
p he
destin ation</w>
mom ents</w>
instal lation</w>
gen u
poč as
L og
adre sá
čer no
libr ary</w>
S S
ov acího</w>
pomá há</w>
me j
laugh ed</w>
mu m
Gab ri
Commit ments</w>
zahá j
po lí
va mi</w>
ate ful</w>
nu d
ni us</w>
kdy koli</w>
Nic ole</w>
an alo
ex pir
pro zkou
har der</w>
suggest ed</w>
záv isl
partner ship</w>
zru šit</w>
u pper</w>
hlubo ko</w>
uplat nění</w>
úč el</w>
sh are
nežád oucí</w>
Be th</w>
opatřen ích</w>
Al li
li ar</w>
dan cing</w>
po měr</w>
wa y
V z
vývoz u</w>
C A</w>
pří mé</w>
dostate čné</w>
ukra dl</w>
li eutenant</w>
tře mi</w>
dů klad
emplo yed</w>
zavo lejte</w>
An ne</w>
col lap
fy zi
L .</w>
pane bože</w>
gover ning</w>
pre vention</w>
foot note</w>
en tr
ry by</w>
sou se
E .</w>
confir m</w>
sv al
dokáz at</w>
ú c
bel t</w>
ent ure</w>
haw k</w>
š ili</w>
probí há</w>
de part
bu ying</w>
6 ,
rost lin</w>
dopad u</w>
S A
orgá nem</w>
op er</w>
š o
en te</w>
zen ý</w>
Un cle</w>
V III</w>
mot orov
ne smě
s atel
nen e
defin e</w>
posí lit</w>
interpre ted</w>
out ta</w>
out come</w>
S Z
zmí r
ně k</w>
finan cí</w>
nedoká žu</w>
li d</w>
id y</w>
ře či</w>
bezpeč né</w>
ře tě
vl h
stav í</w>
ka bel
vnitř ního</w>
škol u</w>
Enter prise</w>
m ó
se ment</w>
remot e</w>
an ony
z lý</w>
tá h
cra w
restau race</w>
K aren</w>
Le o</w>
net ary</w>
koup el
vypad ají</w>
občan ské</w>
memor ies</w>
vý stav
so il</w>
n ci</w>
it ý</w>
kvali fikov
impro vement</w>
ad er</w>
vnitrostát ními</w>
g ov
sou hlas</w>
ok ru
dam ned</w>
m ic</w>
opráv nění</w>
appropri ation</w>
ŘÍ ZENÍ</w>
skup in
secre ts</w>
i v</w>
dodate čné</w>
P T</w>
vů dce</w>
zá kaz</w>
pat ch</w>
D ě
annul ment</w>
osvobo zení</w>
zá ru
pí ch
ct oral</w>
vojá ci</w>
m ation</w>
P rov
pra kti
zahrnu jí</w>
fal se</w>
ple asant</w>
hone stly</w>
Gu idelines</w>
ně ného</w>
z ent
PŘ Í
hundre ds</w>
celkov ého</w>
pé či</w>
in sul
qu een</w>
bu dil</w>
sp al
ká men</w>
se ven
ne h
ú </w>
ed ed</w>
ge ar</w>
do ctors</w>
roz liš
Sun day</w>
to i
Jo nes</w>
stu pem</w>
op posite</w>
du chu</w>
Den mark</w>
mi zer
M ama</w>
ist ic</w>
d ick</w>
&apos; it</w>
spor ts</w>
tr zích</w>
přijde š</w>
Argu ment</w>
přem í
shroma žď
dá n</w>
posle dně</w>
mě k
de plo
mysl íme</w>
jmen uji</w>
zřej mé</w>
Indu stri
charak terist
of fering</w>
ru pt</w>
Compan y</w>
P D
cra ck</w>
sp ell</w>
ex it</w>
su icide</w>
g ence</w>
en or
sto cks</w>
g ments</w>
v ili</w>
spočí vá</w>
čar ou</w>
Mat t</w>
byd li
v ka</w>
I K
conven i
atel ný</w>
organiz aci</w>
COM MISSION</w>
kt ům</w>
určen y</w>
osob ám</w>
počíta č
ex ports</w>
tla ku</w>
Go od</w>
sub mits</w>
di gital</w>
do hled</w>
list s</w>
St .</w>
kou s
M ot
in put</w>
an xi
materi ál</w>
cra sh</w>
leg ally</w>
rozto k</w>
šé f
bi ot
Swed en</w>
tat í
bre ad</w>
nedostat ek</w>
k tu
S or
ce m
ν </w>
paci ent
consci ous</w>
konzul tace</w>
plán ování</w>
ici ous</w>
š ně</w>
ori ent
tá ž</w>
ta min
alleg ed</w>
f ed</w>
ele ction</w>
li ší</w>
10 6</w>
sh u
svobod u</w>
ci ous</w>
inte lig
výrob ního</w>
tan k</w>
suf fering</w>
každ ým</w>
pře staňte</w>
s ons</w>
refu se</w>
nat ur
po hotov
serv ing</w>
ap e</w>
pro bud
N on</w>
kdo koliv</w>
Publi c</w>
region ů</w>
pendi x</w>
Uni versity</w>
benefici aries</w>
A ni
desi re</w>
12 5</w>
ví ch</w>
vid íme</w>
ne ls</w>
qu e
jak á
an ie</w>
Gre en
Dri zz
námit ky</w>
pro sin
obra zení</w>
fav ou
de p
zat á
Mex ico</w>
hle dá</w>
H elen</w>
Č l</w>
Ph il</w>
pla st
slož ení</w>
č tí</w>
end ar</w>
cor rid
ě t</w>
li vosti</w>
p in</w>
F eli
h rob
vot es</w>
zá pisu</w>
ni i</w>
kov </w>
od por
mur der
moun tains</w>
káv u</w>
v on
stro j
tvr dě</w>
ne možné</w>
ch t</w>
ví kend</w>
ob le
určen ých</w>
jac ket</w>
Lis a</w>
pro ved</w>
im ported</w>
respe kt
zapo menout</w>
mi x
cti vity</w>
N Í
ob jedná
Ho ward</w>
poskytu jí</w>
kre v
I sland</w>
ve c</w>
zkušen ostí</w>
p ál
pad la</w>
kaž dej</w>
ob div
particip ate</w>
bě hl</w>
in her
Bla ck
Spe ci
Záv azky</w>
ra du</w>
colle ctive</w>
la ke</w>
t ně</w>
HO DN
dra hou
sh ots</w>
vz te
Evrop skému</w>
id ity</w>
en tal</w>
přist ě
i í</w>
ar ising</w>
nepří zni
congrat ulations</w>
po hov
posou dit</w>
otev ři</w>
k nutí</w>
národ ních</w>
úto ku</w>
gener ální</w>
S ky
ce lej</w>
swee tie</w>
mil uješ</w>
prů vod
corre ctly</w>
muž em</w>
ře č</w>
che ap</w>
T able</w>
vy lé
vzdělá ní</w>
míst ních</w>
al ert</w>
dlou há</w>
tru m</w>
přesvěd čit</w>
C i
u la</w>
p ages</w>
a o</w>
respon si
ci ties</w>
Christi an</w>
D iv
umíst ění</w>
u vidím</w>
tra um
vy ch
he sit
tin ě</w>
confidenti al</w>
materi álu</w>
princi pal</w>
exten d</w>
ho ši</w>
ac compli
en ým</w>
pu su</w>
sam ples</w>
S ally</w>
čer ný</w>
krát kod
parti al</w>
uved ení</w>
za sl
ře ky</w>
d ky</w>
zobraz it</w>
ca p</w>
P lan</w>
ali en</w>
vy počí
P oz
po jem</w>
experi enced</w>
a f</w>
H A</w>
partici pating</w>
E d</w>
ovan ém</w>
kon fer
obrov ské</w>
způsobil osti</w>
gar den</w>
sle chl</w>
Jef f</w>
licen ces</w>
contra cting</w>
hy dr
neroz umím</w>
po zastav
OLA F</w>
repe ated</w>
i pped</w>
hal y</w>
po klá
cov er
rozvo ji</w>
ch ose</w>
vezmě te</w>
důkaz ů</w>
nabíd ka</w>
w is
de vil</w>
Š véd
fif th</w>
tá tu</w>
š ce</w>
staro st</w>
cen á</w>
a č</w>
Sa me</w>
význa mem</w>
nej důležitější</w>
K la
Španěl sko</w>
di stra
dis h</w>
with draw
S lu
da ň</w>
kol o</w>
4. 1</w>
for mul
zapo meň</w>
dump ed</w>
sc rat
de pre
vzpo mín
pla videl</w>
enem ies</w>
jist otu</w>
pod al</w>
á no</w>
ac cel
ni kde</w>
zař azení</w>
koneč ném</w>
M A
con cre
ne musíte</w>
ger ich
o nech</w>
hand ling</w>
každ ému</w>
va ším</w>
scre aming</w>
em ise</w>
e leg
tře ch</w>
ž er
ne myslel</w>
stanoven o</w>
od kaz
go in</w>
cast le</w>
na roz
pick ing</w>
Ange les</w>
vy hrát</w>
r ali</w>
tře tím</w>
Bar ry</w>
e hm</w>
na cí</w>
ph oto
co her
T hur
dol lar</w>
Bar ney</w>
u hlí
consider ations</w>
Bus iness</w>
stan u</w>
± </w>
prin ce</w>
proto kol</w>
vla k</w>
u jícího</w>
D án
ovlá d
al isation</w>
Con trol</w>
za bit
administ ered</w>
Ö </w>
jaké koliv</w>
di a
s co
cem bur
cen ou</w>
rozhod ování</w>
l are</w>
ustanoven ími</w>
incid ent</w>
pod é
atta cked</w>
ner e
ste ady</w>
gra m</w>
wat er
Kore a</w>
ke y
vražd a</w>
ri sts</w>
inv ite</w>
li tu
k éž</w>
t řicet</w>
po no
mal ého</w>
a .</w>
man it
ce iling</w>
lar gest</w>
li fted</w>
18 0</w>
připo mín
ut í</w>
posl ali</w>
gu ests</w>
u boh
aut or
příspěv ky</w>
má mu</w>
maga z
m raz
cház el</w>
fe es</w>
studi i</w>
evrop ský</w>
An drew</w>
ner ov
Im ple
analý za</w>
strán ce</w>
st ol
sing ing</w>
píš u</w>
ac ted</w>
ok ie</w>
kin da</w>
j ab
dr s
ac cur
f rozen</w>
dovol te</w>
Do c</w>
kon tin
mb ly</w>
z la</w>
mě ny</w>
uveden ou</w>
Reg ist
hist orie</w>
zá had
om á
správ u</w>
it ty</w>
co ach</w>
inter net
O D
comfor t</w>
sen ior</w>
ž el
důstoj ník</w>
Satur day</w>
bad ly</w>
L R</w>
dis kut
stá r
analý zu</w>
statist ical</w>
Hung ary</w>
cen ých</w>
× </w>
tě le</w>
administr ativní</w>
á ž</w>
t oval</w>
celkov á</w>
smě ru</w>
table ty</w>
B ay</w>
Sophi e</w>
roz ši
b ám</w>
Pl nění</w>
očeká vání</w>
z byt
mir ror</w>
J ar
H aro
hel p
ra il</w>
continu es</w>
rel ative</w>
dobr ého</w>
star at</w>
p ie</w>
dodáv ky</w>
hun ting</w>
subje cts</w>
reach ing</w>
ved li</w>
ně ným</w>
veče ře</w>
tlu st
it i</w>
použit ím</w>
tion ally</w>
new spap
li able</w>
vý no
it ors</w>
preci sely</w>
an e
pomo z</w>
uzná ní</w>
- --</w>
se stry</w>
Ý CH</w>
ag a</w>
sluč itel
lo e</w>
potřeb ovala</w>
su ck</w>
gra ss</w>
up dated</w>
min us</w>
va ce</w>
podstat né</w>
pa th
tu ne
dese ti
kar tel
U. S.</w>
sil nější</w>
Mol ly</w>
R ES
Ty pe</w>
s an</w>
kr mi
bř ich
ro hu</w>
cen ím</w>
exclu ded</w>
sh ody</w>
Li eutenant</w>
conne ct</w>
v ou
announ ced</w>
omez it</w>
re akci</w>
zdan ění</w>
z es</w>
pro hlí
obč any</w>
form ou</w>
š at
do s</w>
D ut
Se an</w>
p il</w>
ri f
lat eral</w>
Jor dan</w>
no hama</w>
v lo
Cast le</w>
pop ular</w>
po zdrav
Ar ch
přijat ých</w>
b ic
št ina</w>
vo ices</w>
r itu
nost ní</w>
smo oth</w>
rece i
ess entially</w>
campa ign</w>
j ar
T ER
z or
P ho
um řít</w>
inov ace</w>
inclu sion</w>
ramen o</w>
rů ž
obvin ění</w>
mat ce</w>
gra y</w>
d r</w>
confu sed</w>
va rování</w>
Caro l</w>
une x
gh ost</w>
K in
myš lení</w>
ne měly</w>
sig nature</w>
d ová
potvr zení</w>
p ó
stro my</w>
bla ho
par a</w>
pos un
Pra gue</w>
reg ret</w>
vo ř
mas sive</w>
KO MIS
zbo ž
depen ding</w>
Re search</w>
D ie
mimo to</w>
con vic
ser geant</w>
ph a</w>
ovo ce</w>
ne xes</w>
should ers</w>
N L</w>
consider able</w>
foot ball</w>
C alifor
quot a</w>
sledu je</w>
min or</w>
् </w>
pravomo cí</w>
zúčast něné</w>
ně která</w>
sk lon
narozen iny</w>
kalhot y</w>
nechá me</w>
soukro mého</w>
V il
B C</w>
itel é</w>
z opak
transpar ent</w>
há dám</w>
H il
roz kazy</w>
t t</w>
ge ous</w>
star ých</w>
uprav it</w>
S r
C ru
O lymp
ren der</w>
mal o
refle ct</w>
Af fairs</w>
rozdí l
ublí žit</w>
ko m</w>
jí te</w>
vra cí</w>
za h
c lou
Lan gu
tic kets</w>
sly ší</w>
koncen trace</w>
youn ger</w>
ci zin
ba th</w>
B ir
bor ders</w>
pl ý
podí vala</w>
r ating</w>
ty py</w>
ve jme</w>
minut u</w>
Secre tary</w>
ris on</w>
k řiv
společ ným</w>
fun kční</w>
nato lik</w>
doká žeš</w>
organ ised</w>
zná sil
10 3</w>
ti er</w>
připrav ená</w>
g ely</w>
Bul har
při šlo</w>
č ující</w>
S S</w>
volun te
vešker á</w>
vrá tíme</w>
Mag gie</w>
e ign</w>
objev ila</w>
z ti
předlož ení</w>
tr pas
chy tit</w>
da y
nes la</w>
mar ine</w>
postar ám</w>
bra ve</w>
po měrně</w>
přijí mání</w>
ě na</w>
d nu</w>
mil é</w>
ý t</w>
me ňte</w>
žalob u</w>
ta ční</w>
g ross</w>
wher ever</w>
there by</w>
place bo</w>
Lisab on
k nu</w>
pris on
licen se</w>
meth od
produ kt</w>
střed u</w>
vy h
hod í</w>
vývoz ní</w>
st am
V O</w>
t g
par </w>
suf fer</w>
per mitted</w>
re put
s ounded</w>
democ ratic</w>
hvěz dy</w>
do zadu</w>
exce eding</w>
fun kcí</w>
zakáz ky</w>
tw el
žá r
clean ing</w>
Man u
Vic t
im pul
b in</w>
mi x</w>
ztrat ila</w>
ál nímu</w>
certific ates</w>
whisper ed</w>
lá tka</w>
Rozhod nutí</w>
už it
za ps
prezid ent
inc idence</w>
pust ili</w>
o su
rov ou</w>
infe ction</w>
I EC</w>
wor ker</w>
roz ru
ri an</w>
věř te</w>
C iv
Du ke</w>
čast é</w>
pomá hat</w>
demonstr ate</w>
specific ké</w>
est ate</w>
požad ované</w>
stro jů</w>
l ery</w>
výhra dně</w>
w ishes</w>
concre te</w>
о </w>
en zy
automat ic</w>
vý š</w>
dis orders</w>
ra ising</w>
pla in</w>
léč bu</w>
li ly</w>
invest ors</w>
význam ný</w>
F il
vá no</w>
strán kách</w>
aktu ální</w>
communic ate</w>
prak ticky</w>
me zení</w>
způsob it</w>
Fran ku</w>
hel ps</w>
prst en</w>
supervis ory</w>
dri ven</w>
finan cov
l t</w>
k rav
be g</w>
ble w</w>
oddí lu</w>
vzá jemně</w>
fun k
Bo hu</w>
k icked</w>
uni or</w>
zpo ždění</w>
e lem</w>
I AS</w>
c é
d enti
gu ide</w>
stří let</w>
ne c</w>
I ran</w>
y m</w>
auto bu
recei pt</w>
Chic ago</w>
J ame
vel ko
strán ka</w>
kou kej</w>
bez prostřed
t z</w>
nákla dní</w>
sh h</w>
Minist ry</w>
b la</w>
ro ws</w>
zjist ili</w>
výrob ě</w>
systé mem</w>
ře š</w>
bre ast</w>
Ch il
z ima</w>
mak ro
zohled nit</w>
velit el
p ti
ous ness</w>
le ge</w>
po hledem</w>
ì </w>
conten ts</w>
vari ety</w>
fir ms</w>
pre g
mo od</w>
ak ty</w>
exclu sive</w>
zd vi
abo ard</w>
ac knowled
tin u</w>
lí te</w>
U l
na ději</w>
hod ná</w>
ound ation</w>
com ment</w>
dů věř
zapo mněla</w>
Mar shall</w>
cu kru</w>
car tel</w>
z kontrolu
na pětí</w>
d ice</w>
ach es</w>
hlíž el</w>
zna čky</w>
mlé ka</w>
stej ným</w>
Out turn</w>
coura ge</w>
av en
pod odstavec</w>
compar able</w>
Š výcar
san kce</w>
konstat ovat</w>
Bulg aria</w>
vr st
če kám</w>
ner ad</w>
P C
Key words</w>
syst emat
lan ding</w>
vteř in</w>
am ble</w>
kni ha</w>
El li
v ení</w>
n d</w>
čist ý</w>
práv u</w>
M M
uveden ém</w>
pan ic</w>
navr hu
ukáz ala</w>
cen trum</w>
instal led</w>
Bo s
hléd nout</w>
letě l</w>
doporu čuje</w>
vý počet</w>
N el
re forms</w>
podpo rov
pl ná</w>
závaž né</w>
strán ku</w>
v amp
psá t</w>
AL DE</w>
brá cho</w>
po tla
hla sy</w>
há ně
pro sper
projednávan ém</w>
opě tov
metod a</w>
nech od
s core</w>
do sti</w>
vers al</w>
mo bil</w>
tr o</w>
K .</w>
Bo ha</w>
he li
pro pag
říd ím</w>
t ních</w>
kamará de</w>
H it
nech ut
obyv atel</w>
od raz
naje vo</w>
s op
důvě r
d or</w>
lo ading</w>
ku ř
fan cy</w>
V la
ro t</w>
vů le</w>
kombin aci</w>
recommend ation</w>
b ance</w>
Spe cial</w>
Al f
enter prise</w>
zábav a</w>
jednot li
před ní</w>
poplat ky</w>
Bro wn</w>
e ks</w>
du ch</w>
osa mě
ha zar
ex pozice</w>
ck ets</w>
vis a</w>
ion ally</w>
moder ni
exha ust
mlad ých</w>
less on</w>
pora den
t our
hlíd ky</w>
ku cha
vysí la
strá vil</w>
cestu jících</w>
F OR
chuck les</w>
Pat rick</w>
sp at</w>
obje cts</w>
sp ala</w>
intel le
e igh
Fa x</w>
star ého</w>
špat ného</w>
hor e
Pal est
tion ary</w>
ne musím</w>
sh ion</w>
sto nes</w>
S pen
dis aster</w>
resid ent</w>
sestr u</w>
associ ation</w>
tax i</w>
par ku</w>
fin ger
komuni kace</w>
chá š</w>
Ro ss</w>
ná sil
ti lo</w>
rati o</w>
é r
po li</w>
republi ce</w>
T am
St řed
W y
ing redi
profe ssor</w>
jed em</w>
H IV</w>
b oun
ve t
vnitř ním</w>
hor ní</w>
re formy</w>
An gli
ch lu
plateb ní</w>
L and
m ýho</w>
změ nila</w>
KOMIS E</w>
incredi ble</w>
ru sh</w>
navští vit</w>
bí lý</w>
sigh s</w>
Franc is
ed a</w>
mechanis mus</w>
li m
bas ically</w>
bude m</w>
f fy</w>
stou pen
ins ane</w>
doprav u</w>
oce an</w>
nar uš
re cy
č okol
E ver
mov ies</w>
acqu is
k s
dobr o</w>
pro dat</w>
odi um</w>
Mat the
o su</w>
po mohla</w>
man a</w>
cur ious</w>
rozpoč tové</w>
poško zení</w>
g gy</w>
pro šel</w>
iden tical</w>
vlá du</w>
obec ných</w>
ute kl</w>
pneum ati
az i
uká že</w>
obyv atel
á ty</w>
docu mentation</w>
pa pr
M os
10 9</w>
sear ching</w>
otev í
sle y</w>
v stal</w>
shop ping</w>
reli able</w>
loc ate</w>
di o</w>
hi red</w>
ach e</w>
e an</w>
hroz né</w>
plat ná</w>
no sit</w>
ra s
B rad
ask s</w>
vy hraz
fi i</w>
kri zi</w>
posled ního</w>
pal á
k an</w>
té hož</w>
ph ra
ob jed
CO 2</w>
Indi an</w>
assum ed</w>
Americ ans</w>
Strate gy</w>
politi ce</w>
souvis í</w>
dív ky</w>
S qu
s vá
žen ý
Ukra ine</w>
admis sible</w>
dě tem</w>
k aly</w>
F red</w>
ko j
AL E</w>
p tala</w>
nit ro
roz pětí</w>
vezme š</w>
do č
preci se</w>
leg ální</w>
tem not
š eri
ne obvyk
t ations</w>
sh ore</w>
ch lo
nov iná
at or
cod es</w>
počas í</w>
cig are
ph y</w>
enter ing</w>
w re
chod il</w>
dostan ou</w>
5. 1</w>
Fran cii</w>
ab solute</w>
pri est</w>
kas ačního</w>
kre vní</w>
zúčast něných</w>
ch or
P 6</w>
jin í</w>
excep tional</w>
Pe ople</w>
focu sed</w>
G .</w>
Em ma</w>
corpor ate</w>
def end</w>
k lo</w>
nar row</w>
pře stě
stu pe
0 7
přis pět</w>
lhů ta</w>
to wer</w>
tion ing</w>
léč ba</w>
stu dov
škol a</w>
spo r</w>
poručí ku</w>
věř ila</w>
standar dní</w>
bo x
ř ou</w>
uděl ení</w>
T otal</w>
neu tr
ban king</w>
ho ď</w>
úč ty</w>
Po int</w>
krát ce</w>
Ježí ši</w>
pře tr
. ht
vol at</w>
sv az
Feder al</w>
západ ní</w>
men e</w>
fot ku</w>
de sert</w>
Ter ry</w>
vyjád řit</w>
kre sl
proportion ate</w>
O L
naps at</w>
v ně</w>
S ab
se st
ο υ
argu e</w>
P ou
bit ed</w>
per or</w>
skon čit</w>
im un
pat ro
výmě ny</w>
ry tí
syn dro
exce ssive</w>
refer ences</w>
výmě nu</w>
hran ici</w>
ad ult</w>
R iver</w>
candid ate</w>
expir y</w>
ě ny</w>
proti právního</w>
předsed nictví</w>
sil ou</w>
distin gu
zů staňte</w>
uved en</w>
uveden ými</w>
atmo sfé
vyj ad
podí vám</w>
as u</w>
inter medi
pravid ly</w>
vypad ám</w>
co operate</w>
Sy st
prodlou žení</w>
ag ing</w>
hun t</w>
cham ber</w>
drahou šku</w>
t s
Comman der</w>
M ak
partici pants</w>
re views</w>
lep šího</w>
W eb
bri ef</w>
ch en</w>
hodnot ě</w>
b bed</w>
stov ky</w>
n ní</w>
gr ateful</w>
áv ali</w>
mali č
dan ém</w>
reci pi
vulner able</w>
z jišť
naru šení</w>
ul u</w>
sh ov
lé ká
u zaví
belon gs</w>
shor t
pra xe</w>
sk la</w>
g é
oc it
nech á</w>
ho ok</w>
ac tor</w>
Prote ction</w>
Re ference</w>
p se</w>
ab les</w>
ob slu
Langu age</w>
invol ve</w>
trou b
pr už
ná klad
M itch
fik ovat</w>
roz vin
electr ic</w>
kapit oly</w>
před nost</w>
ch la</w>
do in</w>
ton nes</w>
kval it
sran da</w>
ovan í</w>
interne tových</w>
b is
veri fy</w>
19 89</w>
Brit á
but t</w>
armá da</w>
fl ot
inter rup
an ém</w>
zač aly</w>
schů z
en vis
ujist it</w>
cru cial</w>
Ch loe</w>
in er</w>
j apon
plan ety</w>
he l</w>
mother fucker</w>
nabíd nout</w>
pres sive</w>
ju je</w>
Han k</w>
X X
za bal
chy til</w>
a v</w>
gu ver
poplat ků</w>
R T
Char lot
Gran d
čet la</w>
en u</w>
zmoc ně
mě nit</w>
lin ks</w>
voz ů</w>
exist ovat</w>
hlou b
ge on</w>
nom in
sh er</w>
pře sa
nut ý</w>
K er
vy hý
inv itation</w>
om y
chil d
fer ti
dra g</w>
sniž ování</w>
ten krát</w>
il er</w>
šen ě</w>
Návr h</w>
dis missed</w>
ac quired</w>
fe eding</w>
propor tion</w>
č kách</w>
Če ské</w>
váž ení</w>
ev olu
inform ovat</w>
sign ment</w>
poz nala</w>
nepro d
poně tí</w>
vz ne
mě ří
certifi ká
připo jen
zásad a</w>
atel ná</w>
chytr ý</w>
dostup ných</w>
bá l</w>
degre es</w>
pi š</w>
0, 5</w>
I zra
cho col
EA N</w>
há ch</w>
im bur
A mend
D I
K am
pa desát</w>
pod odstavce</w>
me ters</w>
withdraw al</w>
způsob u</w>
ě l</w>
Soud nímu</w>
papí r</w>
t ó
čen ou</w>
stan ou</w>
správ a</w>
předpis u</w>
detekti v</w>
sti mu
sk al
c av
execu tion</w>
re ss</w>
nepo chyb
šen ých</w>
oprav ný</w>
P A</w>
Fre d
přeshrani ční</w>
S t</w>
b .</w>
šen ého</w>
star ej</w>
recit als</w>
la m
če b
od stra
sv ol
vý chod</w>
hop ed</w>
geni us</w>
sti mul
požád ala</w>
přistě hov
zabý vat</w>
nepří pust
Vše ch
posled ním</w>
equ ity</w>
Něme cku</w>
re source</w>
k len
V is
kro m</w>
t ling</w>
cel y</w>
ok ine
demonstr ated</w>
sole ly</w>
vi tal</w>
od es
com pu
po vím</w>
colle ct</w>
áz í</w>
zv ra
secon dary</w>
ter e</w>
jí zd
discre tion</w>
kon zer
ay e</w>
sly šíte</w>
15 .
ex posed</w>
čas op
lat ure</w>
mimo zem
hand some</w>
vyni kající</w>
un like</w>
poskytnut é</w>
roz manit
de va
P el
T ha
z obrazení</w>
struktur y</w>
ak ční</w>
pla v
tabul ky</w>
znalo sti</w>
ch at
Mar sh
fre ak</w>
obč ané</w>
k ř
B lo
B ol
čen i</w>
S IS</w>
laun ched</w>
discu ssed</w>
k é
ky ní</w>
peri od
f í
s my
kone m</w>
je h
pří ro
- I</w>
lid ay</w>
re mun
sc ar</w>
la h</w>
polov inu</w>
dce řin
vo le
příprav u</w>
cal endar</w>
co ck
Pro č</w>
vot ing</w>
ztrat ili</w>
responsi bilities</w>
tari ff</w>
de lete</w>
sk lo</w>
n alo</w>
urg ent</w>
iv o</w>
h n</w>
an ě</w>
Ben e</w>
o svět
vy drž</w>
zpí vat</w>
ale y</w>
a čních</w>
nejlep ších</w>
tro ops</w>
výjim ky</w>
proced ural</w>
léčiv ých</w>
bu b
maje tek</w>
ast s</w>
kter ej</w>
he ight</w>
consequ ence</w>
čí slem</w>
roz umění</w>
gr atu
R ight</w>
pos lu
sty l</w>
pr é
Sy l
sil ná</w>
invol vement</w>
násled ovat</w>
30 1</w>
ply n</w>
inv ent
sta vě
he v</w>
1 40</w>
obtíž né</w>
atel ské</w>
cle ared</w>
zach ovat</w>
ve sel
vy šel</w>
R S</w>
vý kladu</w>
za poj
ph y
proti právní</w>
mlad é</w>
coun ting</w>
terro rist</w>
letě t</w>
p ale</w>
ig no
web cam</w>
takov é
poh ád
technolog ical</w>
L et
re ar</w>
9 ,
attra ctive</w>
assi stant</w>
posl ala</w>
Ang ela</w>
nenap adlo</w>
be zd
dod al</w>
incre ases</w>
Ná zev</w>
ho o
žad atel</w>
šílen ý</w>
hlíž et</w>
C Z</w>
pochyb nosti</w>
pamat ovat</w>
sko čit</w>
ac commod
ad la</w>
Parla ment</w>
uvádě ní</w>
b ů</w>
For d</w>
přel o
spl ňuje</w>
ob stac
ozbro jen
ro cks</w>
nic ích</w>
S pr
gr in
recogni zed</w>
C in
ztrat it</w>
co hesion</w>
proje v
pracov níky</w>
Isra el</w>
judikat ury</w>
od ár
ř ská</w>
2. 3</w>
miliar dy</w>
br ý
diag no
ung le</w>
fol der</w>
krá st</w>
vy plá
několi krát</w>
ic ing</w>
materi ály</w>
ici an</w>
ex pi
sli pped</w>
obje ctions</w>
á ři</w>
for tune</w>
sed m
druh ým</w>
v ale</w>
venkov a</w>
proce ssed</w>
er ion</w>
mani pul
A fri
podí vejme</w>
chá ní</w>
me te
dopad ů</w>
K ro
kon tra
valu able</w>
Agr icul
Califor nia</w>
zd voř
Hol ly
Rol and</w>
An der
Jac ob</w>
bla de</w>
chan nel</w>
3 8
vy hnout</w>
železni ční</w>
neprod leně</w>
prav ou</w>
f lat
náhra dy</w>
G ru
t řikrát</w>
od vez
si de
na hlas</w>
I rá
twel ve</w>
sla v</w>
proved e</w>
ředitel ství</w>
prav ed
Tom e</w>
diskrimin ace</w>
dead line</w>
C C</w>
jo y</w>
G od
tra il</w>
vzdálen ost</w>
strength ening</w>
údaj ně</w>
vzor ků</w>
Go og
střed ních</w>
dív ku</w>
přidru žení</w>
se ats</w>
ovan ými</w>
C YP
těhot ná</w>
c ational</w>
th rowing</w>
prepar ing</w>
De te
vi zi</w>
dve řím</w>
da ce</w>
reli gious</w>
ck le</w>
do statek</w>
podrob nosti</w>
u ši</w>
re covered</w>
post el</w>
zá pis</w>
i gh</w>
Civ il</w>
Roz sudek</w>
subsequ ently</w>
za pá
š ná</w>
fun eral</w>
Tribu nal</w>
O ld</w>
ad ults</w>
vol ba</w>
mil á</w>
Jess ica</w>
tomu hle</w>
spravedl nosti</w>
po měru</w>
za pad
29 6</w>
D G</w>
klep něte</w>
postar at</w>
S měr
awar eness</w>
cen ě</w>
ná ma</w>
Vic tor</w>
li ght
na zdar</w>
jedin e
en cies</w>
á tů</w>
sa ze
s ory</w>
op a
pi pe</w>
mat kou</w>
povr chu</w>
hrá li</w>
l hal</w>
Dun can</w>
jeal ous</w>
NAT O</w>
tun nel</w>
po můžu</w>
down stairs</w>
stře lil</w>
dí vej</w>
ohro ž
od mí
gra fic
pok le
ne musel</w>
po kr
Po známky</w>
stej ného</w>
je mu</w>
un usual</w>
En viron
bo jí</w>
re tro
ní te</w>
restric ted</w>
reput ation</w>
če kají</w>
me l</w>
end or
low ed</w>
compen s
pla yers</w>
bil ateral</w>
guarante ed</w>
um řel</w>
obrov ský</w>
str čil</w>
pří stavu</w>
na znač
justi fy</w>
špat ná</w>
sní dani</w>
připrav te</w>
tor ney</w>
cab in</w>
žd í</w>
dé mon
re imbur
une mployment</w>
důvod em</w>
In vest
e ties</w>
y i
1 15</w>
Gor don</w>
20 .
inter im</w>
brá ny</w>
nech o
j ního</w>
podmín kách</w>
třetí ho</w>
lan a</w>
na pos
ově řit</w>
wor ding</w>
C N</w>
prů mysl</w>
myšlen ka</w>
proved ena</w>
cen tra</w>
za pojení</w>
mrtv é</w>
I slan
z řízení</w>
nesmí š</w>
pro mluvil</w>
Pro ject</w>
compati bility</w>
případ né</w>
spat řil</w>
ž ilo</w>
od rá
k el</w>
z lo</w>
r ings</w>
v stupuje</w>
ha jící</w>
zře tel
čty ř
ne vypadá</w>
ren al</w>
Wo od
požad uje</w>
pain ting</w>
br and</w>
zá sil
Lu cembur
R .
S ig
ti se</w>
poznám ce</w>
H ong</w>
Lin col
h ated</w>
lone ly</w>
ate ch</w>
čas y</w>
koordin ace</w>
m ými</w>
kuchy ni</w>
uvid íte</w>
kr vi</w>
lov </w>
for mace</w>
sil ně</w>
poz i
le li</w>
A re</w>
n ová
ves nice</w>
Ab by</w>
proper ties</w>
zásad u</w>
z dy</w>
len ý</w>
vrá tili</w>
ple as</w>
krátkod ob
ish ment</w>
en ém</w>
ě no</w>
dov a</w>
aw ake</w>
rap id</w>
na klon
L aw
ot ě</w>
Amer ice</w>
Na than</w>
d less</w>
T ED</w>
C ul
sc ent</w>
použ ity</w>
vyso ko</w>
nech y
poznamen al</w>
dec ent</w>
dat ory</w>
z řízen
ti sk</w>
vzta hů</w>
y ards</w>
á ka</w>
ru in</w>
vol ně</w>
Ma ďar
řád né</w>
sed ni</w>
ostat ně</w>
kouz lo</w>
jin dy</w>
admi rá
zač nou</w>
ž ily</w>
ad mitted</w>
Směr nice</w>
ff ed</w>
takov ej</w>
za še
UT Í</w>
zna jí</w>
organ ic</w>
považ ují</w>
má t</w>
pá tek</w>
důvě ru</w>
im ages</w>
vy pracov
C Z
H R</w>
snaž íš</w>
Drizz t</w>
H ow
po tre
in žený
nechá pe
cer em
t ch</w>
fre y</w>
bezpečnost ních</w>
uspo řá
John son</w>
hle dáme</w>
li lo</w>
law ful</w>
řen ých</w>
e v</w>
Žalob kyně</w>
an ými</w>
účin ku</w>
zem ím</w>
N ations</w>
m are</w>
ab sur
vyžad ují</w>
pří buz
L es
ped i
ic als</w>
bar vu</w>
cap su
kom pen
po pul
inten d</w>
d ka</w>
š ující</w>
vojen ské</w>
7 ,
vylou čení</w>
nedo šlo</w>
pí še
Con ne
podí lu</w>
ová vání</w>
stro m</w>
rap idly</w>
Y oun
charak ter
bydli ště</w>
ch ers</w>
B au
udá lostí</w>
desper ate</w>
ff in</w>
asy lum</w>
cep tion</w>
pohléd l</w>
kol ena</w>
zlo čin</w>
itu de</w>
příspěv ku</w>
dost alo</w>
stří br
pamě ť</w>
hrá la</w>
uplat ňuje</w>
st ý
o logi
ter ap
fil ling</w>
přen os
kov ým</w>
vamp ire</w>
st ations</w>
hodin ky</w>
z om
pro cent</w>
Secon d</w>
mov al</w>
rozhod li</w>
behavi or</w>
entr ance</w>
bo ar
nepří tel
harmon ised</w>
arrange ment</w>
ofici ální</w>
zad r
oh roz
hrdin a</w>
bran ch</w>
suspe cted</w>
představ ení</w>
sp ac
list ened</w>
ved u</w>
služeb ního</w>
s sible</w>
ve st</w>
mat ur
mul ti</w>
Ma ur
rych losti</w>
rych lé</w>
in after</w>
par ano
záv od
vol ání</w>
ten tion</w>
ac tors</w>
tox icity</w>
f ér</w>
kin ds</w>
packa ging</w>
do ned</w>
jump ed</w>
růz nými</w>
odvě tv
vy rost
invest or</w>
správ nou</w>
ú kolem</w>
od a</w>
agricul ture</w>
Ye ar</w>
moder ní</w>
slou žit</w>
ris m</w>
modr é</w>
mod els</w>
po r</w>
pod ala</w>
е н
po vý
piz za</w>
na štěstí</w>
D ick</w>
rel ate</w>
lí st
poh ro
Parag raph</w>
fanta stic</w>
bab ies</w>
w ag
ly n</w>
ro ste</w>
1 14</w>
spán ku</w>
B ay
let ý</w>
čist ě</w>
d lu</w>
crit erion</w>
T un
L ou</w>
G w
ob klo
vyk op
gener ál</w>
str ing</w>
st an</w>
J en</w>
zákon odár
ch ý
assi st</w>
pá na</w>
balí ček</w>
ved ou
mys ly</w>
dokon čit</w>
Rem ar
b re</w>
scre wed</w>
z are
dis closure</w>
em ia</w>
bu st</w>
Mon day</w>
vac c
abu se</w>
S vět
set kat</w>
liqu id</w>
An n</w>
il st</w>
z rych
ra j
po vede</w>
1 30</w>
tru b
za jít</w>
zad ruhé</w>
secon dly</w>
t ům</w>
iv ed</w>
soustřed it</w>
ve mte</w>
Li z</w>
Mi ami</w>
av ir</w>
m ask</w>
emis sion</w>
satel lite</w>
vzpo mínky</w>
doub ts</w>
uživ atelů</w>
ma sk
e mail</w>
zar uč
vic tory</w>
dise ases</w>
k tive</w>
wit ch</w>
re serve</w>
s nu</w>
vzpomí náš</w>
toi let</w>
přin u
přin ést</w>
P aci
refu sal</w>
tě s
const ant</w>
P C</w>
plo t</w>
bankov ní</w>
independ ence</w>
lo ha</w>
h ed
di vision</w>
ak en</w>
ztrá ta</w>
ite lem</w>
natur ally</w>
omez ené</w>
Ca therine</w>
politic s</w>
2 2
st ě</w>
sta čit</w>
armá dy</w>
od ě
o ka</w>
telefon ní</w>
ex em
o živ
zel ené</w>
nov iny</w>
electr ical</w>
pos pě
kři ž
&apos; what</w>
inter val
zůstan u</w>
na půl</w>
zen ých</w>
B ou
here inafter</w>
leg ality</w>
z el</w>
H all</w>
smr tí</w>
adju sted</w>
ti ky</w>
nahra dit</w>
der ly</w>
audi ence</w>
relati vely</w>
na sad
pen ding</w>
---- ----
od ed</w>
hajz lu</w>
Váno ce</w>
t ut
sh ine</w>
má mě</w>
pracu ju</w>
u věz
sand wi
b ří
lean ed</w>
nov er</w>
strate gies</w>
&apos; s
nes u</w>
Tech no
slibu ju</w>
Ne j
n ity</w>
ode ch</w>
st rop
exer c
under taken</w>
ctor ate</w>
formá lní</w>
tri gger</w>
&apos; clock</w>
zad ku</w>
inten ziv
Sta n</w>
achiev ing</w>
zmr z
bý val</w>
pist oli</w>
zmiz ela</w>
16 .
vývo ji</w>
výz vy</w>
law yers</w>
pal iva</w>
pří stroje</w>
de scen
Or gan
sch rá
photo s</w>
na kop
re au</w>
tam tud</w>
r in
mat ely</w>
kre dit
o o</w>
lin s</w>
under lying</w>
Nan cy</w>
Reg ion</w>
potenci ál</w>
Contra cting</w>
pas sion</w>
f ab
nez ů
re call</w>
H is</w>
h il
uti li
wor n</w>
ptá t</w>
ni k</w>
d ím</w>
hum or</w>
živ é</w>
P lan
en i
spor né</w>
udě lejte</w>
sch e</w>
S ti
služ bě</w>
vy má
h nut
na sty</w>
adverti sing</w>
uveden a</w>
schop ný</w>
13 1</w>
B ě
an ne</w>
pro mluvíme</w>
sou dem</w>
ostro v</w>
lež el</w>
pamatu ji</w>
st en</w>
min ds</w>
Remar ks</w>
destru ction</w>
plat ný</w>
S H
z le</w>
zá pa
elektr ické</w>
kap sy</w>
Ear l</w>
proce ed</w>
host ů</w>
far mak
vi al</w>
zad av
ar bit
G o</w>
x on</w>
po is
vá ží</w>
cre atures</w>
opu ště
Tw o</w>
A dam
Mar gar
gh ters</w>
pamatu j</w>
men tem</w>
j šího</w>
for ty</w>
5. 2</w>
F ron
at us</w>
pro fi
v stá
dne ss</w>
manžel ka</w>
gener ace</w>
na slou
veřej nou</w>
be ast</w>
n in</w>
jed ou</w>
pru dce</w>
availa bility</w>
f r
oper ated</w>
úspěš ně</w>
host itel
4. 3</w>
pou ští</w>
ukaz ují</w>
po chází</w>
nezapo meň</w>
ak a</w>
se ctions</w>
určit ý</w>
id ní</w>
čí ho</w>
přijí mat</w>
set tings</w>
oznám í</w>
naro dil</w>
dopro vod
ptá m</w>
plat form</w>
cu ts</w>
h ali</w>
v před</w>
bole st
jedin ého</w>
A A</w>
ka b
pe st
dee ply</w>
tabul ce</w>
hla dov
L. A.</w>
au x</w>
sc are</w>
perspe ctive</w>
indic ates</w>
mů žem</w>
ere my</w>
podí váme</w>
jed ená
ra ge</w>
m ky</w>
inst ant</w>
contra ctual</w>
13 8</w>
zprostřed kov
Z u
Bar bar
confu sion</w>
i red</w>
kon f
A 1</w>
pr vek</w>
tre ss</w>
š ní</w>
dra gon</w>
z zy</w>
n .</w>
cau ses</w>
k el
rozpoč tový</w>
wo ke</w>
vy lu
t ká
tur ist
fla sh</w>
equ ally</w>
úřed níků</w>
vy č
Gi b
chan ces</w>
přev od
difficul ty</w>
sli p</w>
Ar my</w>
Rad ou</w>
červen é</w>
ROZ HODN
dele ted</w>
op in
sam ý</w>
zá soby</w>
s ona</w>
přihléd nutím</w>
specific ations</w>
er rors</w>
pře hled</w>
ê </w>
za sáh
počíta či</w>
vzni ku</w>
τ η
py t
dol í</w>
O .</w>
se m
ohro m
du ly</w>
Pra ha</w>
brat ran
C amer
C E
13 .
ak ade
D od
podé l</w>
conclu de</w>
zen á</w>
al ler
is ko</w>
G et</w>
cla use</w>
proved la</w>
va st</w>
zo zem
dimen sion</w>
incorpor ated</w>
x x
od váž
hlav ního</w>
n oucí</w>
S K</w>
iv ní</w>
Char ter</w>
pod ot
áv ající</w>
soubor ů</w>
taj né</w>
vy m
Profe ssor</w>
REG UL
vra ťte</w>
s wa
wh ilst</w>
přij at</w>
žád nej</w>
divid ed</w>
cen o</w>
estim ate</w>
E s
dře vě
vozid lo</w>
descri be</w>
program ming</w>
Ira q</w>
dá ma</w>
T .
proto col</w>
otev ření</w>
zku ste</w>
divor ce</w>
Ly n
as ingly</w>
ov atel</w>
c cm</w>
N ed
ROZHODN UTÍ</w>
recommen d</w>
é n</w>
od tamtud</w>
koordin aci</w>
ó zy</w>
sk ej</w>
Ele c
S cho
Cust oms</w>
men š
y ar
manag ing</w>
c ta
hy gi
nechce me</w>
Coun ty</w>
da wn</w>
dě de
Au str
impa ir
Ě </w>
ex ec
G an
tu s</w>
vz ná
ru ined</w>
ch ant</w>
spo u
ná le
neighbor hood</w>
odpoví dat</w>
raz í
a unt</w>
N az
la p</w>
š vi
ne viděli</w>
z ování</w>
tre st</w>
i um</w>
EURO P
ně čemu</w>
mez í</w>
minu lost</w>
ov e
ab í
se ver</w>
hur ts</w>
wol f</w>
ex pli
1 11</w>
san it
resi stance</w>
uprch lí
by tí</w>
transi tional</w>
eg g</w>
R icky</w>
at ri
ignor e</w>
lež et</w>
ý mu</w>
ar ů</w>
o šetř
escap ed</w>
ulož ení</w>
il u</w>
roz tr
dopad y</w>
na místo</w>
tr end</w>
ol ly</w>
a ys</w>
im es</w>
vypad áte</w>
nic ká</w>
B ry
ti vní</w>
ukon čit</w>
t less</w>
b ond</w>
odpoví dají</w>
thro wn</w>
hroz í</w>
komuni kační</w>
bar ev
regula ční</w>
dlouhodob é</w>
zan ed
arri ve</w>
represen ts</w>
prav á</w>
h ire</w>
stě ny</w>
příspěv ků</w>
ekonom iky</w>
an na</w>
7 00</w>
cle ver</w>
R est
in ovací</w>
G l
z ím</w>
P on
veřej nost</w>
gra ční</w>
hu deb
pově z</w>
ne vid
stupe ň</w>
cestu jící</w>
zahá jit</w>
vz dát</w>
ti t
C an</w>
investig ations</w>
s ate
jí del
ne potřebuju</w>
ček ali</w>
z de
secur ities</w>
pas sword</w>
C ho
le hnout</w>
po e
A rea</w>
navrhov atel
preci ous</w>
kval itu</w>
ber ou</w>
su ch
ot er
bi ke</w>
z rá
in direct</w>
mi ghty</w>
u na</w>
těž ší</w>
Kap it
tra cks</w>
ran ean</w>
do ses</w>
ob haj
ch in</w>
konf lik
b ars</w>
w an</w>
Ral ph</w>
vý ta
S ad
sv ate
zapl atil</w>
dá na</w>
dvaná ct</w>
ck rát</w>
Ver ts</w>
ver zi</w>
con sent</w>
6 4
T ob
vy cházející</w>
gra vity</w>
P ak
studi o</w>
es a</w>
blo cks</w>
prode ji</w>
Wh it
kom ent
fa shion</w>
ca su
O P</w>
h ře</w>
ved ly</w>
zaká zá
ye p</w>
grand father</w>
ch ová
omlu v
har m
la mp</w>
kop í
samot né</w>
zaslou ží</w>
equ ality</w>
parame ters</w>
employe e</w>
při vez
pře ji</w>
kom er
pu shing</w>
B ruce</w>
h nu</w>
ma st
ter nal</w>
H U</w>
car es</w>
bo hu</w>
si eur</w>
výro ba</w>
plukov níku</w>
lov er</w>
j ším</w>
experi ment</w>
ěj ších</w>
pro mp
em an</w>
depend ent</w>
večí rek</w>
na jdeš</w>
pris oner</w>
econom ies</w>
lig ent</w>
sh ru
car rier</w>
ful filled</w>
s ick
z ou</w>
ply nů</w>
počá teční</w>
ter a</w>
z bro
osob ě</w>
s ce</w>
ř ský</w>
mal ým</w>
Spar hawk</w>
revis ed</w>
vzor ek</w>
incre asingly</w>
ne stačí</w>
be gun</w>
ne přišel</w>
ve ď</w>
svě dom
ze ď</w>
re vol
č kem</w>
Goog le</w>
pow ered</w>
získ ala</w>
regist race</w>
zav řít</w>
dis appear</w>
J eremy</w>
du ší</w>
at titude</w>
vy dat</w>
continu ing</w>
gener á
ch ová</w>
kon cer
regul arly</w>
ir man</w>
nepo chop
ch ill</w>
re turns</w>
demokra cie</w>
od kazuje</w>
b ůh</w>
předcho zích</w>
S av
odpovída jícím</w>
med vě
hom o
c vo
atta cks</w>
co si</w>
ak tivity</w>
me to
fis her
Ex ecu
ř ského</w>
im it
c able</w>
kultur ní</w>
Portu gu
mu ze
vel kej</w>
ck ým</w>
k alo</w>
Pen ny</w>
pro hle
elektronic kých</w>
im pose</w>
d war
kre té
mp ed</w>
jin ýho</w>
id ů</w>
E lena</w>
Ser ver</w>
zkou šel</w>
k ak
závě re
bi an</w>
přes né</w>
hud bu</w>
ni zozem
candid ates</w>
d ence</w>
Pri me</w>
te orie</w>
lon i</w>
x y
viol ent</w>
h ři
as i
l ými</w>
unex pe
na il</w>
nut ně</w>
IC E</w>
stab ilní</w>
ti ka</w>
fon dy</w>
křes ť
pochy bu
convin ce</w>
bor ing</w>
ží cí</w>
poz adí</w>
1, 5</w>
u byt
ta il
vy hlášení</w>
spo lé
recor ding</w>
Č á
G B</w>
pen is</w>
с т
proportion ality</w>
lov ý</w>
ro ot</w>
nech áš</w>
člen em</w>
sup ports</w>
g ently</w>
decre ase</w>
B í
za dejte</w>
le sa</w>
in hal
thresh old</w>
W hi
aban doned</w>
chocol ate</w>
dokon čení</w>
cab </w>
přij mou</w>
kar tu</w>
H T
su peri
zv ala</w>
plane tě</w>
Mar tin
mun ici
záležit ostí</w>
Ni k
tá hl</w>
tra pped</w>
gol den</w>
ur čí</w>
I cel
přítom nosti</w>
bud ování</w>
v ší</w>
hop </w>
ta bá
n iny</w>
f i</w>
vů z</w>
impair ment</w>
pozorov al</w>
čer ná</w>
Bu sh</w>
O liver</w>
p hi
gra vi
tal ks</w>
bur st</w>
Veli čen
col our</w>
prv ků</w>
sh y</w>
dist ant</w>
win ning</w>
do slova</w>
s cu
Bo x</w>
přil o
at i</w>
sp is
cí r
а н
roman tic</w>
paci enta</w>
s ná
d ku</w>
do šel</w>
Dat um</w>
Afric an</w>
polo žek</w>
pou h
zaměst ná
w ings</w>
za š
sha dows</w>
tu m</w>
label ling</w>
zalo žení</w>
kop ie</w>
hud ba</w>
Tay lor</w>
práv ník</w>
úvě rů</w>
otis ky</w>
použ itelné</w>
uplat ňovat</w>
che j</w>
sil nici</w>
î </w>
palu bu</w>
dě lejte</w>
pohla ví</w>
affe cting</w>
ne funguje</w>
In die</w>
S wit
přiná ší</w>
ú st
ga thered</w>
dis charge</w>
d ation</w>
IV E</w>
ol ing</w>
mé di
im pression</w>
vy slan
z bab
Gra y
mlé ko</w>
infe kce</w>
nut ri
pro pad
on going</w>
m ku</w>
citi zen</w>
drž ela</w>
dře va</w>
oček ávat</w>
skuteč ná</w>
po ur</w>
deli ber
přezkou mání</w>
f ever</w>
I G
El lie</w>
re med
kter é
se mi</w>
help ful</w>
remun eration</w>
p l</w>
sav ings</w>
A dv
vy bu
IS ION</w>
3 5
stej ném</w>
kuchy ně</w>
áv a
níz ké</w>
A 6</w>
len á</w>
Charlot te</w>
I rish</w>
asse ssing</w>
figur ation</w>
stran ger</w>
indic ations</w>
do kto
De fin
St or
man až
an ta
kamer y</w>
sor s</w>
Fo od</w>
tro l
c ling</w>
pomo zte</w>
š tím</w>
paral lel</w>
com mit</w>
po ledne</w>
východ ní</w>
restric tion</w>
J ay</w>
vy tr
mě ry</w>
papí ru</w>
hvě zda</w>
cen né</w>
pod odstavci</w>
začí nám</w>
pis sed</w>
A th
zni čil</w>
přá t</w>
produ kci</w>
s ovi</w>
pu zz
Fin land</w>
Dut ch</w>
vý let</w>
S C
kontak tu</w>
inte grace</w>
sp y</w>
Su n</w>
war rant</w>
ry b</w>
loy d</w>
pře l</w>
engin es</w>
K ru
favou rable</w>
enh ance</w>
re tail</w>
zkuše bní</w>
concentr ate</w>
naštv aná</w>
z ují</w>
hroz ný</w>
ali e</w>
ov í</w>
upozor nění</w>
mari time</w>
le sk
k vě
fur t</w>
napos led</w>
Ru le</w>
leg is
rychle jší</w>
dobr ých</w>
pen alty</w>
mal ej</w>
prů měru</w>
Ty ler</w>
Cro ati
oh ně</w>
Gar ion</w>
trans fer
B R
požad ovat</w>
acquis ition</w>
subsidi arity</w>
te ar</w>
H ay
cast ing</w>
ověř ování</w>
ak y</w>
začlen ění</w>
t oru</w>
mo s</w>
lea ther</w>
ph il
oc y
před nost
kon figu
hád at</w>
Le w
zach ra
á ku</w>
kaž do
ch oval</w>
ak tů</w>
ne šlo</w>
F ol
allow ances</w>
jin ému</w>
bro w
připrav ena</w>
ná ladu</w>
transi tion</w>
sever ní</w>
vraž ed
sk vr
Offic er</w>
pre clu
snaž ili</w>
dokon ale</w>
behavi our</w>
stra chu</w>
sm iling</w>
A h
p ink</w>
zbý vající</w>
povol ání</w>
po žeh
poskytnut a</w>
gre en
de sí
labor atory</w>
přesvěd čen</w>
povin né</w>
K atie</w>
hlu b
aspe kty</w>
design ation</w>
hal f
ch le
vy jas
drž ím</w>
n ing
obnov ení</w>
opin ions</w>
be am</w>
D Y</w>
1. 3</w>
vo zí
š íš</w>
m bo
pris ing</w>
nehod a</w>
mid night</w>
port foli
za to</w>
satis fy</w>
pan em</w>
br y
O thers</w>
pi gs</w>
war n</w>
kla s
odpad u</w>
dá ny</w>
sluč itelné</w>
ne pod
el se
pr ide</w>
zr cad
&apos; the</w>
věde cké</w>
pl ní</w>
pa sti</w>
nej menší</w>
dět mi</w>
deleg ated</w>
v lou
bod em</w>
Num ber</w>
d li</w>
myst ery</w>
kov a</w>
sp in
pří jem</w>
králov na</w>
dlu hu</w>
an em</w>
do klady</w>
z kontrolovat</w>
stí n</w>
Pet r</w>
K as
neu mí
p la</w>
car go</w>
cház elo</w>
d is</w>
dovoz ní</w>
spotře by</w>
spoj it</w>
an no
spad á</w>
Ukra jin
prim arily</w>
innov ative</w>
pursu ed</w>
adap ted</w>
po ison</w>
K dy
P ur
Ca sey</w>
ovliv nit</w>
bo ots</w>
schedu led</w>
pracov níci</w>
L U
Lit tle</w>
al fa</w>
gra bbed</w>
elektř iny</w>
Bet ty</w>
va rov
kte ch</w>
získ ané</w>
ab led</w>
tru sted</w>
ma ma</w>
provid ers</w>
ná ku
ú sta</w>
ă </w>
rych lostí</w>
dro w
ná čel
mrtv ých</w>
0 8
S PO
svat bu</w>
obli ged</w>
va jí
ster n</w>
consi sts</w>
tax able</w>
ativ ního</w>
S V
exclu sively</w>
pre ssing</w>
Ph illi
částe k</w>
A t</w>
význa mně</w>
pla z
jo in
t la</w>
představ ovat</w>
Med iter
vy prac
Roz poč
terro rism</w>
tri k</w>
stup te</w>
Ma x
odbor níků</w>
dě la</w>
poz val</w>
z dě
vyzý vá</w>
co al</w>
ca ve</w>
M s</w>
š pe
communic ated</w>
appel lant</w>
č tě
at ra
pla sma</w>
D S</w>
pe ch</w>
vývo z</w>
manufactur ing</w>
tis sue</w>
vzpo mněl</w>
dů chodu</w>
1 4.
ná jem
ol y
partner y</w>
býval ý</w>
Ý </w>
fyz ické</w>
sil nice</w>
příj mu</w>
poj men
T E</w>
le dov
mov á</w>
im per
sen át</w>
nou z
B ond</w>
p ali
tab ly</w>
zná mo</w>
za vra
au t</w>
č ten
ví z
Ro y</w>
povo lit</w>
Y an
kamarád ka</w>
vy čist
sh ell</w>
Than k</w>
en tic
sa mo</w>
na po
ru ka
ji ž
A F
vypad nout</w>
znalo stí</w>
Ad mi
teach ing</w>
samot ě</w>
tří da</w>
k nul</w>
děku jeme</w>
fak tory</w>
ativ ním</w>
fif teen</w>
provádě jí</w>
škol ní</w>
uspoko j
trans akcí</w>
offici ally</w>
šen ou</w>
doty čné</w>
but ter</w>
kov ané</w>
H ill</w>
nan cy</w>
studi ích</w>
za stáv
den y</w>
jak osti</w>
pů jdete</w>
inspe kt
za vě
poš tov
c r
genu ine</w>
á ním</w>
en gen
arti st</w>
výsled ku</w>
d ing
K N</w>
accel er
hra ješ</w>
G on
id ge</w>
zákaz u</w>
zkouš et</w>
pří mý</w>
kro ků</w>
výhod u</w>
renew able</w>
vytvá ří</w>
en ční</w>
přines la</w>
fir ma</w>
to bac
zá dech</w>
li m</w>
suspen ded</w>
konkrét ních</w>
ří te</w>
scre am</w>
zá pad</w>
cla sses</w>
čast ěji</w>
pursu e</w>
R el
samostat ně</w>
Maj or</w>
Ber lin</w>
jednot ného</w>
Blu e</w>
pří znaky</w>
ky slí
as sure</w>
ev nitř</w>
van é</w>
nov ém</w>
plá nů</w>
rail way</w>
Meziná rodní</w>
mis i</w>
N ar
dotčen ý</w>
sv a
stra igh
zákon y</w>
he slo</w>
© </w>
pos session</w>
dá vání</w>
ju ice</w>
is ations</w>
Vir gin
š ší</w>
o stech</w>
J av
sin s</w>
fi x
ně nou</w>
prison ers</w>
no sí</w>
dá no</w>
ej ch</w>
daň ových</w>
kombin ace</w>
Wen dy</w>
legisl ativní</w>
přemýš lím</w>
ne vztahuje</w>
podla ze</w>
posád ky</w>
PR O</w>
ob zvláště</w>
itel ů</w>
bo xes</w>
ne můžou</w>
l ů
m med</w>
vol no</w>
excit ing</w>
enjo yed</w>
od vahu</w>
eng en</w>
provádě cích</w>
Jer sey</w>
řás l</w>
vej ce</w>
sr d
hran ic</w>
vstoup il</w>
znám ý</w>
shi eld</w>
Mil ler</w>
sh eriff</w>
kol on
vol ám</w>
soud ního</w>
bra ce</w>
ukaz atele</w>
Lin d
m all</w>
be ings</w>
kno cked</w>
pis s</w>
pro dáv
cre e
sol ven
gr un
ran dom</w>
initi ated</w>
dokáz ala</w>
l ka</w>
po pla
překá žky</w>
sof tly</w>
vy ho
atr ic</w>
Har vey</w>
nalé zt</w>
es cor
fik ací</w>
reven ge</w>
pozná vám</w>
tá ch</w>
u bo
mili ó
ho les</w>
mí rně</w>
comple tion</w>
Can ada</w>
pře pad
kli n</w>
původ ního</w>
poš lu</w>
amen d</w>
EUROP EAN</w>
lhá t</w>
wor thy</w>
Aven ue</w>
od jí
ome tr
obje ktiv
mon o
h ory</w>
da mi</w>
od en
tá bor
č nosti</w>
ex hi
ol o</w>
enor mous</w>
počí tat</w>
cí títe</w>
car di
REGUL ATION</w>
vis ual</w>
i th
ent re
fin es</w>
ku po
fo s
p ky</w>
kon ference</w>
th ou</w>
kategori í</w>
pracov ali</w>
při vedl</w>
řed itele</w>
je zer
g le
na jdi</w>
gratu lu
Ar t.</w>
ov atel
píse ň</w>
promě n
flow s</w>
accep table</w>
f it
pří ru
th ly</w>
P in
E Z
č ům</w>
na stoup
s odium</w>
Be ck
cat s</w>
intra ven
pla men
se ed</w>
pen alties</w>
í n</w>
gol f</w>
Mar s</w>
P 7</w>
zaměstnan ost</w>
lid ského</w>
hro ž
17 .
repre zent
Car los</w>
osob ou</w>
su me</w>
NA ŘÍZENÍ</w>
mist akes</w>
Ro yal</w>
M om
ě te</w>
EV RO
Not e</w>
kor up
pr </w>
po há
coun ts</w>
reag ovat</w>
p si</w>
důležit ou</w>
svě tov
prescri bed</w>
po pí
za j
atmo sphere</w>
s day</w>
tri als</w>
její mž</w>
swe at</w>
t ant</w>
ck ers</w>
cli mb</w>
S. A.</w>
krát ké</w>
den s</w>
poručí k</w>
brat ře</w>
obchod ního</w>
cen ts</w>
Bo w
přemýš lela</w>
společ ná</w>
2 1.
us ad
tur nover</w>
ne moc</w>
zalo žena</w>
th y
é ra</w>
le ž</w>
Geor gia</w>
nes rov
umož ňují</w>
cestov ní</w>
subsidi ary</w>
tradi ční</w>
společ nou</w>
ra cí</w>
man datory</w>
gu s</w>
p ale
Val ent
dv ace
M I</w>
Portugu ese</w>
zapo jen
regul ated</w>
Gu ar
gerich t</w>
3 9
ú hra
Jes se</w>
po city</w>
produ cing</w>
bar va</w>
uply nutí</w>
I U</w>
kamarád i</w>
to k</w>
P ov
dokumen tace</w>
dodá vek</w>
k van
priv acy</w>
bac kup</w>
b ent</w>
ro s</w>
war ned</w>
kapitá l</w>
zapo men
otev řete</w>
z krá
ie w</w>
aliz ed</w>
dire ctory</w>
cri mes</w>
z mín
ur ou</w>
ře me</w>
Way ne</w>
advanta ges</w>
D R
c loud</w>
je ví</w>
sk ot
pří rodní</w>
Car rie</w>
sa my</w>
cor ruption</w>
skon čilo</w>
zalo žené</w>
ochran ných</w>
zad ávání</w>
individu ální</w>
t ého</w>
přísluš nosti</w>
serv ants</w>
pp le</w>
d un
strá nek</w>
M au
la ble</w>
A la
Caro line</w>
am bu
certi fication</w>
pro puště
vra ha</w>
hy th
přesvěd č
Mediter ranean</w>
Čí na</w>
re con
ne exist
4 14</w>
alko hol
poslou chal</w>
och ut
I J
mo cí</w>
rozhod ující</w>
O N
0 6
Execu tive</w>
frigh tened</w>
z et</w>
kis sed</w>
A sia</w>
feder al</w>
gu es</w>
od jet</w>
spl nit</w>
nes li</w>
vy ři
Jon a
re ck
cor n</w>
I van</w>
La ura</w>
slož ku</w>
D ist
podrob né</w>
v am
DEC ISION</w>
jednom u</w>
zmá č
Euro stat</w>
K le
vzdálen osti</w>
h in
e co
představ u</w>
vy pořád
pro pojení</w>
N ow</w>
dialo gu</w>
bu jí</w>
a x</w>
Gol d
gen der</w>
ape u
fair ly</w>
Le g
naštv aný</w>
babi čka</w>
om en
se c</w>
A 7</w>
elekt rá
ů r
L ex
com posed</w>
vz bud
koncen tra
occas ion</w>
interoper ability</w>
worl d
Or der</w>
tří dě</w>
o hlá
t ina</w>
len o</w>
za řízen
tv ý</w>
ná h
S tro
1 st</w>
12 3</w>
chláp ka</w>
přijat é</w>
jmen ování</w>
in ven
extre me</w>
hmot nost</w>
O ri
v nu
Au dit
š ela</w>
náz ory</w>
u kládá</w>
E mp
re placement</w>
ed ay</w>
g ic</w>
ledv in</w>
deriv ed</w>
accur ate</w>
mezinárod ního</w>
tě ma</w>
b age</w>
volun tary</w>
práv ně</w>
man s</w>
equ ipped</w>
S b.</w>
re marks</w>
zásad ou</w>
šílen ství</w>
corrid or</w>
af fair</w>
mor al</w>
z hrou
od rů
pě stí</w>
T SI</w>
ag u
vš emu</w>
liter ally</w>
změ nilo</w>
z vr
poš lete</w>
pi le</w>
le asing</w>
odmít nout</w>
jer k</w>
surr ounded</w>
r al
com position</w>
quot as</w>
Part nership</w>
internet ové</w>
nesrov nalo
Egy pt</w>
refle cted</w>
jednot né</w>
¡ </w>
ramen y</w>
s ové</w>
8 ,
pro k
vi val
sub stitu
1, 000</w>
Qu e
Lo is</w>
Amend ment</w>
lá hev</w>
i šti</w>
chy b</w>
10 49</w>
stop ping</w>
2. 5</w>
zvlášt ním</w>
ari ties</w>
Sub ject</w>
přísluš ná</w>
8 5
dí vala</w>
fe m</w>
cvi čení</w>
te kut
acce ssible</w>
skuteč nou</w>
u děláte</w>
polož it</w>
hloup ý</w>
pon dělí</w>
y sl
wh ore</w>
Pro posal</w>
mě na</w>
ster o
zav řel</w>
rozto ku</w>
člán cích</w>
A k
par as</w>
arran ged</w>
cen t
wel fare</w>
naš im</w>
jmen ov
N ate</w>
příležit ostí</w>
hy b
sc ary</w>
your selves</w>
b lou
son ová</w>
j el
I R</w>
3 7
EVRO PS
bra ins</w>
or es</w>
&apos; and</w>
důvě ry
prosaz ování</w>
deal er</w>
hez ká</w>
zkou ška</w>
z prac
l ings</w>
not ably</w>
ne d
sed nout</w>
use less</w>
Ji žní</w>
věří te</w>
pří stav
happ iness</w>
za váz
sly šení</w>
Ste ven
zar az
inten z
K č</w>
p ity</w>
Mar is
pro tiv
d edic
restruktur alizace</w>
De ut
ang el</w>
fi xing</w>
extra ordinary</w>
s .&apos;</w>
li abilities</w>
za bezpeč
A n</w>
3 50</w>
ovan ému</w>
inten sity</w>
ná mě
rozši ř
s bal
nesmí rně</w>
man date</w>
Si x
neum ím</w>
re pair</w>
potravin y</w>
For ce</w>
tal í
b ních</w>
K im
zra k</w>
ox ide</w>
význa mu</w>
a. s.</w>
situ ated</w>
snaž íme</w>
ná ru
Ken ny</w>
dcer y</w>
za ple
Sch engen</w>
F ac
success fully</w>
b ili</w>
Ap plic
televi ze</w>
oran ge</w>
ó za</w>
Ch or
zač nu</w>
správ ních</w>
prav il</w>
Admi ral</w>
stoup ení</w>
ag ne</w>
issu ing</w>
mrt vej</w>
writ er</w>
mov ements</w>
2 30</w>
ny ho</w>
Georg i</w>
cau sing</w>
exclu ding</w>
souhla sit</w>
návště vu</w>
dě cka</w>
mo netary</w>
Se t
gar age</w>
stanoven ými</w>
L and</w>
professi on
za střel
wh i
aplik aci</w>
líb ila</w>
log ické</w>
náhra da</w>
vak cí
š ily</w>
tex ts</w>
zázna mů</w>
a ah</w>
recep tion</w>
dire cted</w>
poskyt la</w>
Atlan tic</w>
zer land</w>
ň ské</w>
gener ated</w>
bo om</w>
2, 5</w>
targe ted</w>
od dě
spo ry</w>
coo king</w>
S vat
vrá tíš</w>
efe ktivní</w>
odmít l</w>
sed mi</w>
harmon isation</w>
ko sm
bur ger</w>
intelle ctual</w>
Regi onal</w>
u x</w>
vy lep
sal t</w>
Ch er
svě tel
Ameri ky</w>
roz hraní</w>
pře číst</w>
ta s</w>
š ar
hou sing</w>
oznám il</w>
Wil son</w>
ná dob
nemoc ný</w>
Sar a</w>
ga ther</w>
Ex change</w>
Dete ctive</w>
region álních</w>
re cover</w>
Ra ist
scho ols</w>
Tex as</w>
ou ter</w>
bu g</w>
le st</w>
pat náct</w>
vol né</w>
u kry
ne dal</w>
pře žít</w>
z odpovědnost</w>
Presid ency</w>
s nu
D A
al bum</w>
prohi bition</w>
ni mž</w>
Nor way</w>
manufac ture</w>
Div ision</w>
EVROPS K
restau raci</w>
ef fic
en velop
awar ded</w>
předlo žené</w>
provid er</w>
roz bit
ži ju</w>
she ets</w>
Laur ie</w>
san ctions</w>
ur ban</w>
ish op</w>
Leon ard</w>
u li</w>
jed ete</w>
Bel gie</w>
I ES</w>
pro hlíd
tv ar</w>
K re
plat es</w>
ka ble</w>
ú dolí</w>
shou ted</w>
t ine</w>
1 13</w>
Go od
co ck</w>
ak cion
vy razit</w>
ě ním</w>
náz vem</w>
S ul
fu k</w>
Swit zerland</w>
argu ed</w>
prim a</w>
prosin ci</w>
dvou stran
nej de
mili on</w>
dodat ku</w>
hu jících</w>
ra b
cop ies</w>
kov ém</w>
Lat in</w>
p ě</w>
kámo š</w>
A x
smě r</w>
ris kovat</w>
audit u</w>
násled ky</w>
ne dostal</w>
ber eš</w>
iv á</w>
B o</w>
rejstří ku</w>
ž ha
L e</w>
cha os</w>
vylou čit</w>
nastav it</w>
kaž te</w>
st ake</w>
F ur
pli cation</w>
jader né</w>
2 2.
G un
ust oup
st en
če lit</w>
Mac </w>
Ch em
sam pling</w>
ra m</w>
meto d</w>
nev ad
vz e
vy pr
ne moci</w>
threat ened</w>
vyš lo</w>
ú st</w>
pe ace
kob er
P RA
urč en</w>
prof its</w>
T on
S T</w>
ri p</w>
účast níci</w>
rych lý</w>
měsí ční</w>
lin ie</w>
radi ation</w>
to ast</w>
smel ls</w>
f old</w>
bod y
pun ch</w>
contra st</w>
mach in
z me
ro m
l ním</w>
do leva</w>
sa y
Al bert</w>
J sem</w>
la ys</w>
warri or</w>
serž ante</w>
r í
mě jte</w>
ko čka</w>
PRO D
f lower</w>
UR L</w>
3 4
plá nu
dě dic
vla ku</w>
kor un
s výho</w>
poř adí</w>
or ation</w>
in sufficient</w>
pamatu jete</w>
mom my</w>
ag ues</w>
komuni ka
trans fers</w>
výro ční</w>
2 3.
liv ých</w>
na instal
přenes ené</w>
celebr ate</w>
účin ně</w>
som eday</w>
T P</w>
mac eu
balan ced</w>
Don na</w>
Fran kie</w>
získ ali</w>
Inter nal</w>
flexi bility</w>
ži jeme</w>
Mal ta</w>
nejlep ším</w>
ova č</w>
cen tur
mil ovala</w>
naroz ení</w>
exper tise</w>
o bez
dete cted</w>
T eva</w>
ň ovala</w>
par chan
s enti
sa f
non sense</w>
cel ku</w>
považ ována</w>
lež elo</w>
Pat ric
zd ar
prst ů</w>
zváž it</w>
w ished</w>
Á NÍ</w>
uspo řád
tu be</w>
Y ou
voj ák</w>
restric tive</w>
moh ut
z or</w>
re vision</w>
po cit
vě tru</w>
spravedl nost</w>
ac cess
lan ded</w>
ovan ě</w>
če tní</w>
W ed
do ne
Par ker</w>
CO UN
Li ber
prote in</w>
pust ím</w>
di rt</w>
z lob
T V
využ i
ta g</w>
Belgi an</w>
fot bal
jazy ce</w>
ví tě
n g</w>
par lia
si i</w>
u dek</w>
D ef
Rom an</w>
nej nov
du mp</w>
A li</w>
conta cts</w>
nesmí me</w>
ří m
el ing</w>
op á
do pisem</w>
živ ý</w>
fanta st
konkurence schopnost</w>
Ser geant</w>
za stav</w>
význa mnou</w>
Margar et</w>
na před</w>
camer as</w>
lov al</w>
ste aling</w>
tr pí</w>
main taining</w>
depen d</w>
G M
hon our</w>
nedostat ky</w>
represen ting</w>
f ü
Poli sh</w>
ti chu</w>
regi ony</w>
break s</w>
urč uje</w>
vy jde</w>
tu jí</w>
přizpůsob ení</w>
vy cházet</w>
integr ity</w>
pro fil
mlá de
nenávid ím</w>
set kal</w>
ú stav
potenci ální</w>
n an</w>
inde x
ha bit
N .
b ron
pil ls</w>
EC D</w>
bo jíš</w>
choz ím</w>
nenech ám</w>
par tly</w>
chy stá</w>
measu rement</w>
brat ři</w>
j ed</w>
est a</w>
ne existují</w>
organiz ation</w>
cti c</w>
jak ém</w>
am on</w>
pro po
CO D</w>
de cor
nebezpeč ný</w>
re turning</w>
co ast</w>
paci ent</w>
j ater</w>
stanoven ým</w>
d vi
ne dot
služ bách</w>
ten sion</w>
wan ting</w>
prote ctive</w>
Jo sh</w>
mechanis mu</w>
C op
e fici
inspe ctions</w>
scri pt</w>
mus cle</w>
Ten to</w>
19 88</w>
mat es</w>
Ř </w>
ti ku</w>
se al</w>
po cti
anti cip
č tu</w>
hodnot it</w>
takov ý
Aman da</w>
vy dělá
eng age</w>
V e</w>
omlu vit</w>
s ť
ba bek</w>
div ně</w>
by tě</w>
lin a</w>
ovlá dat</w>
paci enty</w>
201 6</w>
p ak
Evrop u</w>
K ong</w>
přij ato</w>
some what</w>
vr tul
samot ného</w>
prů hled
Li thu
dom ain</w>
zavra ždě
ru st</w>
13 9</w>
le vé</w>
ST I</w>
poz oro
minim álně</w>
le jší</w>
pre cau
tradi tion</w>
id al</w>
po tá
přátel ství</w>
vrch ol
N ich
klin ických</w>
po vrch
zdůraz nit</w>
veter inary</w>
shromá ždění</w>
ring e</w>
cigar ette</w>
celkov ou</w>
is er</w>
ri g
C lin
nej výše</w>
magaz ine</w>
kapitá na</w>
be zva</w>
zmiz et</w>
písmen o</w>
přátel i</w>
vy pracování</w>
nedoká že</w>
in ner</w>
re stra
EF SA</w>
ov at
3 6
amer ických</w>
Z el
gre ss</w>
conta min
pře vážně</w>
roz li
polov ina</w>
ne říkal</w>
kra jin
skon čili</w>
život em</w>
Zo e</w>
opust ila</w>
dospě lých</w>
rozumě t</w>
uzná vání</w>
vac ation</w>
expi red</w>
ni ma</w>
pu ty</w>
A hoj</w>
prázd né</w>
survi val</w>
lá sko</w>
tvr dil</w>
zajišť uje</w>
připoj it</w>
ID S</w>
žalob a</w>
ch ové</w>
vyso ko
sou stavy</w>
Do w
hod ila</w>
G ir
sacrific e</w>
stron gly</w>
Ž á
sp el
sk ull</w>
Tra cy</w>
elev ator</w>
hléd la</w>
bou ch
mer cy</w>
rel ates</w>
t lou
považ ovány</w>
odvo la
kur z</w>
prá sk
obje kt</w>
nevy hnut
An nexes</w>
smluv ních</w>
Clau de</w>
pl ném</w>
z nu</w>
au tem</w>
as ion</w>
Ap pendix</w>
žád at</w>
nebo jte</w>
se ctoral</w>
struktur ální</w>
cer e
ele ctions</w>
heli cop
O ECD</w>
M it
ga p</w>
est er</w>
ne dělá</w>
de ce
1 16</w>
star ou</w>
ö r
un likely</w>
ci o</w>
udá lost</w>
rout ine</w>
stri p</w>
&apos; We</w>
j an
st un
sh aking</w>
zis ku</w>
doz or
pa thetic</w>
š ného</w>
spl ňují</w>
člově ku</w>
trans it</w>
con ferred</w>
sch odech</w>
ě mi</w>
papí rů</w>
in serted</w>
li ber</w>
ro d</w>
d ant</w>
přev z
te ams</w>
fil ter</w>
ev es</w>
1 18</w>
z ot
Bo y
be ating</w>
komple tní</w>
zamít nutí</w>
w ounded</w>
B S</w>
koup ila</w>
nou ben
Ge e</w>
pan en
přev od</w>
ště m</w>
k ist
Spojen ého</w>
H la
Ben jam
ta c
J E</w>
stup ňů</w>
swi m</w>
Ber n
base ball</w>
A M</w>
ti a</w>
zvý hod
er ship</w>
obchod ním</w>
competi tors</w>
ho liday</w>
pi sech</w>
ο </w>
ko la
automobil ů</w>
che f</w>
vy s
tan a</w>
Re bec
cho ices</w>
S car
roz dělen
u stá
Net work</w>
P o</w>
12 2</w>
dec lare</w>
š krá
monit orov
j ack</w>
com pul
I F</w>
mu zi
pro kaz
re bel
see ks</w>
fle w</w>
přetr vá
vy n
29 .
ohro žení</w>
způsobil é</w>
suppli ers</w>
zí me</w>
aktu alizace</w>
přizná ní</w>
roz um</w>
stří ka
mí ří</w>
zti cha</w>
z ac
lov ou</w>
Le gal</w>
ro ads</w>
ni fer</w>
12 1</w>
st é
roz h
expect ations</w>
ev ol
zis k</w>
příjem ci</w>
zavol ala</w>
té mat
dokáz ali</w>
pe st</w>
proved eny</w>
pokrač ujte</w>
mi ti
ani an</w>
H S</w>
G len
napad ené</w>
itel i</w>
rob ot
B lan
plukov ník</w>
zku sím</w>
de mon</w>
le da
Rad u</w>
heal th
B ar</w>
řídí cí</w>
krvá cení</w>
continu ous</w>
let ého</w>
de ví
arri val</w>
nej vyš
j dem</w>
e ase</w>
preg nancy</w>
fis kální</w>
af r
chu d
h nutí</w>
infu sion</w>
dí ry</w>
ter ly</w>
prepar ations</w>
emot ional</w>
Cen ter</w>
d lan
rost oucí</w>
úprav u</w>
chlapí k</w>
bu něk</w>
G N
zá bě
1 17</w>
ban g</w>
pac ked</w>
é s</w>
reve aled</w>
K A</w>
akci í</w>
š tní</w>
Clu b</w>
pře žití</w>
B ai
nespráv ného</w>
dět ství</w>
za řídit</w>
su its</w>
F it
An aly
he art
in ku</w>
00 1</w>
rezer v
zan e
ob ý
pře h
Rozpoč tový</w>
ne st</w>
před čas
otev řela</w>
sustain ability</w>
ú střední</w>
we alth</w>
vlá k
cou ch</w>
sna pped</w>
vy hodit</w>
mla dí</w>
ži ješ</w>
ofici álně</w>
ji h</w>
sig ná
bí t</w>
Jed nací</w>
wh ist
F ree</w>
o svobod
lig ion</w>
effic acy</w>
ach er</w>
M ast
tobac co</w>
pa má
V ice</w>
C D
hodnot ou</w>
chod ní</w>
Jose ph</w>
pr ene
ob lek</w>
A B</w>
dlu hop
Re y
Cy pr
Me gan</w>
kli ent
Bro ok
ozna čování</w>
zna ků</w>
M P
po cházející</w>
pe kla</w>
e pis
přezkou mat</w>
pol da</w>
č tv
buň ky</w>
nejbliž ší</w>
s se</w>
zvládne š</w>
envis aged</w>
krá de
Ar t</w>
id o</w>
podlé há</w>
co w
Vin cent</w>
O ver
Á L
you --</w>
P ac
pa ch
b is</w>
H .</w>
na sa
to li
E ric
exam ples</w>
É HO</w>
uvědom ila</w>
alleg ing</w>
technic ally</w>
Mar cus</w>
námit ek</w>
H ag
ow nership</w>
ap ar
poin ting</w>
inst all</w>
son gs</w>
nar á
ě ná</w>
sklen i
D Ě
S ue</w>
b ay</w>
jun ction</w>
p hosp
pat ri
kra bi
sv r
satis fac
se cut
jez du</w>
navi g
L ab
L N</w>
mist r</w>
ná sledek</w>
je tí</w>
com promise</w>
ir regul
ku jí</w>
pokrač uj</w>
Fro m</w>
h ence</w>
tra cking</w>
ně nými</w>
c ali
ma id</w>
Be au
obec ný</w>
R ick</w>
zamě řit</w>
kapit ole</w>
kov ě</w>
L ake</w>
odvol ání</w>
c lar
len ých</w>
stud ent
gri d</w>
prohi bited</w>
zd í
jin am</w>
správ ná</w>
13 5</w>
d ge</w>
budouc nu</w>
H au
bor row</w>
dodrž ovat</w>
premi ses</w>
do ck</w>
depos it</w>
em i
při ví
C V</w>
hosp it
sí te</w>
ly n
rybol ov</w>
explo sion</w>
oper ační</w>
ex p
Sum mary</w>
minul ou</w>
se g
z važ
else where</w>
t ative</w>
Cypr us</w>
spad ají</w>
tře jší</w>
úč elu</w>
vysvět lil</w>
disku se</w>
Euro pol</w>
zdar ma</w>
she ep</w>
Jen nifer</w>
consul t</w>
tý dne</w>
ka ro
pro zra
Čí ny</w>
vy hrož
J ess</w>
he pat
informa čních</w>
stvo ření</w>
defini tive</w>
tra sh</w>
uplat nit</w>
territ orial</w>
S D</w>
pře ci</w>
institu cionální</w>
spol .</w>
PS E</w>
Her mi
profesion ální</w>
strá vit</w>
T C</w>
vstup ní</w>
pop sá
я </w>
wra pped</w>
ga ze</w>
pochy by</w>
regar dless</w>
úžas ná</w>
histor ical</w>
D ale</w>
stop u</w>
přijat á</w>
vy pá
pau sed</w>
28 .
vlá dou</w>
ag gre
possi bilities</w>
18 .
zjednodu šení</w>
gal ax
in ev
ku sy</w>
surve y</w>
M ou
nepří tel</w>
kvó ty</w>
at tered</w>
cust ody</w>
sk in
survi ved</w>
veřej ný</w>
D ex
omluv te</w>
nádher né</w>
přev odu</w>
strugg le</w>
deman ds</w>
s mů
pas sage</w>
je wel
neu vědom
sh ri
ou ts</w>
pře ju</w>
neza stav
cur se</w>
Juli a</w>
h alo</w>
C ole</w>
pozor ně</w>
an ej</w>
žid li</w>
h něte</w>
Ted dy</w>
č nímu</w>
bom ba</w>
ú h
komplex ní</w>
neigh bour
šet řit</w>
ar ab
10 ,000</w>
úsmě vem</w>
větš ině</w>
Institu te</w>
oxy gen</w>
do pisy</w>
kou sky</w>
člově kem</w>
na pá
A ye</w>
conf id
occu pi
ví ru</w>
řel o</w>
hra jí</w>
enhan ced</w>
An th
potě šení</w>
vzor ky</w>
d les</w>
ut ing</w>
ň uji</w>
0 1.xml</w>
ton a</w>
ber y</w>
znám é</w>
................................ ................................
fan ou
zvyš ování</w>
Hav ing</w>
kod ex
offic es</w>
nes ou</w>
dob ří</w>
sí ti</w>
ta ils</w>
cre di
byd let</w>
pho nes</w>
CF SP</w>
e aten</w>
vádě t</w>
an ovi</w>
použit é</w>
potvr zuje</w>
emer ging</w>
S hu
řad it</w>
předcho zího</w>
hear ts</w>
doprav ě</w>
sk lep
o slov
pre amble</w>
B our
kil ls</w>
rod ila</w>
accep tance</w>
podob ný</w>
podpor ou</w>
od ev
dis semin
suggest s</w>
et t</w>
horizon tal</w>
no su</w>
propor cion
El len</w>
fore seen</w>
p d
star ších</w>
A gen
ex tré
saz ba</w>
ta ct</w>
G lob
dovol enou</w>
wav es</w>
near by</w>
vyžad ovat</w>
Un der</w>
tri um
zá chod</w>
pen e
suppli er</w>
jist oty</w>
ků ň</w>
sob otu</w>
voz u</w>
zi one</w>
lu jící</w>
ab road</w>
ber ry</w>
kon solid
[...]
