e </w>
s </w>
s t
, </w>
a n
i n
e n
o </w>
t h
e r
t </w>
i </w>
a </w>
. </w>
o n
d </w>
y </w>
o r
r e
a t
a l
r o
p o
th e</w>
â </w>
m </w>
a r
i t
n o
e l
v </w>
j </w>
r a
h </w>
o t
t o</w>
f </w>
ʹ </w>
i c
i on
o f</w>
e s
i l
o u
g </w>
an d</w>
e d</w>
o v
o l
er </w>
e t
n y
o m
in g</w>
p ro
in </w>
e s</w>
o b
i s
a k
po s
n a
o d
en i
i m
; </w>
u </w>
a c
- </w>
i v
al </w>
i s</w>
ion </w>
or </w>
e st
g o</w>
a v
e m
e t</w>
i z
e c
q u
k </w>
an </w>
a m
en t
u r
a s
a s</w>
a pos
& apos
p l
e d
a t</w>
v o
p r
p re
l </w>
u s
s â</w>
k o
m o
n o</w>
i d
n a</w>
n e
r u
b l
an i
en </w>
û </w>
i st
s u
t o
a d
p er
po l
on </w>
e v
qu ot
& quot
&quot ;</w>
i r
en t</w>
i g
s o
a g
u n
e m</w>
i t</w>
st v
i i</w>
i h</w>
th </w>
i č
k a
l o
&apos ;
f or</w>
B -</w>
y ou
at ʹ</w>
i k
d o
at ion</w>
R B-</w>
f or
ny h</w>
e k
l y</w>
t er
r an
w h
v y
u t
u l
s p
c on
eni â</w>
n e</w>
el ʹ
u d
w i
o s
e j</w>
t ak
no st
c h
th at</w>
a st
0 </w>
ar e</w>
d l
al ʹ
ra z
i e</w>
s l
c om
a p
b y</w>
w </w>
no j</w>
o p
mo ž
r </w>
o v</w>
e x
ny e</w>
: </w>
o m</w>
wi th</w>
s e
you </w>
l i</w>
c e</w>
d u
c i
n </w>
b y
s k
v l
ion s</w>
a b
r i
no go</w>
ro v
dl â</w>
u č
b e
d e
eni e</w>
st </w>
s i
č to</w>
k ot
s h
ar t
&apos ;</w>
u p
k i</w>
ž e</w>
el </w>
er s</w>
kot or
er e</w>
ic </w>
l e
pre d
i j</w>
it y</w>
b e</w>
ol ʹ
) </w>
v er
m i</w>
c t
it ʹ</w>
â t
( </w>
p o</w>
e e</w>
k on
o st
f f
v a
u t</w>
ič es
- R
i m</w>
ec t
ny j</w>
- L
k ak
at e</w>
o g
ar </w>
p ra
a y</w>
u m
2 0
p or
i â</w>
û ŝ
et sâ</w>
for m
bl e</w>
e p
p e
-R RB-</w>
th is</w>
est v
o j</w>
-L RB-</w>
l i
m e
il i</w>
ro m</w>
r ic
l û
re m
an y</w>
th e
s e</w>
i es</w>
av e</w>
` </w>
k om
po d
&apos; &apos;</w>
w or
st av
d i
g l
ani â</w>
&apos; s</w>
f rom</w>
al l</w>
m y</w>
am i</w>
t e
s er
il l</w>
` `</w>
iv e</w>
u û</w>
l d</w>
no t</w>
m in
d el
ou n
ž d
h od
o k
I </w>
s ko
h ave</w>
l e</w>
ig h
w as</w>
it elʹ
a m</w>
u g
s o</w>
g ra
e go</w>
o t</w>
y e</w>
vo z
on e</w>
m ent</w>
w e</w>
kak </w>
il </w>
z d
t s</w>
k a</w>
20 0
a j
es s</w>
st an
t i
th er</w>
ra b
it e</w>
nost i</w>
a d</w>
t ra
ny m</w>
pol ʹ
a â</w>
ir </w>
es s
c h</w>
h o
r at
es li</w>
c an</w>
y ric
polʹ z
g o
û t</w>
iz </w>
è t
h e</w>
in ter
g od
n i
2 </w>
w ill</w>
5 </w>
a z
p es
a h</w>
1 </w>
ou r</w>
d a</w>
l en
in g
m er
ra s
a et</w>
ou t</w>
ic e</w>
y h</w>
u s</w>
d o</w>
v id
re s
c l
pr i
ur e</w>
è to
o č
re g
ion al</w>
s vo
ent s</w>
m en
è to</w>
no e</w>
t a
et e</w>
d ol
r y
est </w>
or g
vl â
c or
p ar
č t
st o
nost ʹ</w>
re d
S </w>
ag e</w>
in e</w>
I n
ka č
na â</w>
st ran
ka z
b ol
h as</w>
n i</w>
i f</w>
m or
at ed</w>
z a</w>
ani e</w>
k o</w>
d er
na č
v i
1 9
ou ld</w>
e g
b ud
it s</w>
ic h</w>
rab ot
z a
a y
tak </w>
no v
c ent
b o
3 </w>
p </w>
you r</w>
f in
t e</w>
n at
ny mi</w>
d s</w>
v y</w>
ʹ sâ</w>
. .
ek t
ser v
ac ii</w>
al ly</w>
pre s
o d</w>
polʹz ov
p art
i f
g e</w>
ičes k
wh ich</w>
v od
t er</w>
h ot
b ut</w>
i rov
k u</w>
4 </w>
t re
s am
d is
st a</w>
A </w>
? </w>
ob y</w>
ov er
as s
ou r
an t</w>
t im
re c
ar y</w>
d ru
r y</w>
a f
čt oby</w>
u ž
bol ee</w>
ac t
d e</w>
stv en
.. .</w>
û t
s v
b u
y j</w>
â z
a ble</w>
at ions</w>
ic al</w>
as e</w>
pro du
pra v
com p
8 </w>
s y
en d
om u</w>
ob ŝ
en ce</w>
the ir</w>
il l
c oun
/ </w>
lû č
b olʹ
0 0</w>
pr in
stv a</w>
in form
con t
o ž
m ak
w e
ic i
f e
u st
est ʹ</w>
7 </w>
6 </w>
pl e</w>
voz mož
up </w>
k e</w>
at el
us e</w>
the y</w>
no m</w>
c ii</w>
m at
C h
S t
e z
s el
ʹ û</w>
bolʹ š
o c
na š
mor e</w>
yric s</w>
v rem
re e</w>
st ru
sp ec
tak že</w>
u bl
l yrics</w>
t ek
kom p
c re
o ther</w>
t ur
an iz
n uû</w>
igh t</w>
b r
ik i</w>
m est
an ce</w>
eni i</w>
a re
ko v</w>
ût sâ</w>
ou s</w>
t ri
om e</w>
su b
olʹ ko</w>
h e
al i</w>
re l
dol ž
kotor ye</w>
gra m
an d
th em</w>
o k</w>
w s</w>
ot v
m e</w>
l a</w>
is polʹzov
m a
e č
v ol
k ol
ko j</w>
w n</w>
at elʹ
ast </w>
pro c
pred stav
d ev
m od
z ak
9 </w>
n es
al l
y e
v ed
k or
s ov
â vlâ
dru g
e ep
m ar
v est
it el
or y</w>
o ff
! </w>
k l
a ûŝ
por t
s ist
d er</w>
sl ed
v se</w>
mož ete</w>
v se
k lûč
d ing</w>
m an
R us
r it
d an
it ies</w>
g da</w>
k ra
pol it
th ere</w>
f ir
im i</w>
e -
s -
g u
ro ug
o go</w>
% </w>
m on
al so</w>
t ran
â n
ar d</w>
ani i</w>
k s</w>
a etsâ</w>
j stv
x </w>
O </w>
d es
ec t</w>
â h</w>
č ast
n â</w>
an t
pr im
eni j</w>
eni û</w>
ro d
s m
s ob
al a</w>
re s</w>
en c
u ûŝ
Rus si
w ere</w>
es ʹ</w>
on g</w>
mož no</w>
f l
m u
p h
â ŝ
by li</w>
do st
pro gram
g ro
ar i
org aniz
pr i</w>
h is</w>
il ʹ
al iz
c el
em ent</w>
il e</w>
n y</w>
c o
f er
ac e</w>
m et
@ </w>
a ût</w>
T he</w>
ist </w>
ev er
y va
ik e</w>
b er</w>
o per
g or
k t
pes ni</w>
sko j</w>
P </w>
en er
l o</w>
ne w</w>
a in
r e</w>
u b
e ŝ
pol n
a š
t ʹ</w>
to m</w>
i û</w>
d ar
us l
es e</w>
lo g
i d</w>
ar a
st or
re ct
pr iv
lo c
mož et</w>
z nač
or s</w>
â mi</w>
s it
pro iz
@ /
@/ @</w>
e b
ev er</w>
ar s</w>
so ci
ul ʹ
n et</w>
el op
tim e</w>
n er
on ly</w>
t el
st r
K eep
l â
po z
i a</w>
t w
stv o</w>
kač estv
mo g
s red
be z
s kač
Keep er</w>
L yric
Lyric s-
Lyrics- Keeper</w>
otv et
ec on
v n
d v
â m</w>
ru p
1 0</w>
be en</w>
w el
f un
on i</w>
re š
d a
in a</w>
ab out</w>
al u
en s
re z
d it
t y</w>
em u</w>
i b
ob raz
s del
en ʹ</w>
nat ional</w>
d et
vrem â</w>
u ŝ
skač atʹ</w>
sko go</w>
i al</w>
wh en</w>
pol uč
i p
por t</w>
mo st</w>
o f
mak e</w>
o e</w>
stan ov
b ec
k ing</w>
D </w>
os nov
C </w>
l a
e f
ât ʹ</w>
b or
si ble</w>
pro bl
to č
to go</w>
sl ov
s ol
u ro
k ov
tek sta</w>
u l</w>
s id
st ro
an s</w>
en y</w>
on a</w>
y m</w>
c ol
at ʹsâ</w>
f ree</w>
E </w>
per e
ž iv
ing s</w>
dev elop
ic es</w>
t or
so zd
com m
ch an
p ubl
l ed
wh o</w>
n ak
su ŝ
u m</w>
per i
wor k</w>
bud et</w>
b an
ect ion</w>
is ʹ</w>
z av
t olʹko</w>
pe č
t ed</w>
is h</w>
c er
A l
ac h
al s</w>
st at
v it
god a</w>
el y</w>
sp or
en nyh</w>
cl ud
s on
v s
c ion
ct ion</w>
fin an
va m</w>
r on
k no
su p
ec h
sy st
d em
d ob
r is
ay s</w>
pl at
mo ŝ
ko gda</w>
o ple</w>
l ič
w ay</w>
am p
eni em</w>
âvlâ etsâ</w>
m ed
kon om
im e
le g
th an</w>
ac c
h t</w>
ac h</w>
in st
n ik
t ing</w>
ver y</w>
m no
In ter
è konom
ed in
ot el
a u
e ž
re d</w>
pl e
a il
is h
ob l
w ould</w>
pro f
ko m</w>
èt omu</w>
in d
ot no
pe ople</w>
p e</w>
R </w>
r en
as h
ig n
è k
en no</w>
sk ih</w>
pos sible</w>
m any</w>
sist em
b as
th ese</w>
h ad</w>
v o</w>
ob ʺ
hot el</w>
su ch</w>
na m</w>
b er
h el
in clud
g re
P ro
ho w
de jstv
ov er</w>
no log
v el
r a</w>
d ec
to v</w>
T </w>
wi th
ko go</w>
N </w>
in to</w>
b et
by tʹ</w>
sv âz
lo ž
pro t
m a</w>
ne ob
su l
it sâ</w>
v is
pro vid
pol ož
how ever</w>
a bl
proiz vod
s ome</w>
d r
su dar
vozmož nostʹ</w>
A r
t a</w>
mar k
e j
e v</w>
el ov
t ro
os e</w>
s im
iv er
U n
g ov
ir e</w>
at ing</w>
ka â</w>
il ity</w>
at a</w>
m ot
ti rov
ispolʹzov atʹ</w>
zd esʹ</w>
pred el
fir st</w>
m u</w>
s c
in vest
A n
en a</w>
t ru
lo w
af ter</w>
ra ž
t y
pos le</w>
i an</w>
po moŝ
pro s
lû d
E uro
a č
na rod
p on
is s
V </w>
l in
wh at</w>
im ost
s et
u al</w>
t em
neob hod
te h
ag es</w>
U kra
vi e
po ètomu</w>
o š
ad e</w>
č elov
v as</w>
et a</w>
na i
by lo</w>
an a</w>
min ist
go sudar
ob es
h ran
ic y</w>
z v
s in
pl o
for m</w>
h ol
C on
c es</w>
en d</w>
over n
re qu
p ut
u res</w>
spec i
a in</w>
e k</w>
b i
di ff
b el
n ed
econ om
19 9
wor ld</w>
kačestv e</w>
po ž
un d</w>
e y</w>
j te</w>
C om
l iv
sh ould</w>
ac k</w>
com pl
po t
a ro
sk ij</w>
č er
ak t
V y</w>
R os
et y</w>
l ar
uč a
sdel atʹ</w>
at es</w>
m ay</w>
so otvet
k ry
pos led
n ing</w>
obes peč
ou g
it ion</w>
ur ing</w>
èto j</w>
u et</w>
g ot
â t</w>
mog ut</w>
nai bolee</w>
u st</w>
in y</w>
wel l</w>
ig n</w>
po p
no vy
F l
c ur
by l</w>
alʹ noj</w>
m ent
rec t</w>
b es
s č
pr is
ar t</w>
è l
f i
il y</w>
l et</w>
t i</w>
s ur
inform ation</w>
s em
f ac
god u</w>
em s</w>
re sp
S er
ple ase</w>
us ed</w>
vo m</w>
ičesk ih</w>
k ur
lû b
ne j</w>
d om
- f
kotor yj</w>
pod der
E v
du narod
z ap
ev en</w>
th er
ac iâ</w>
th ing</w>
ov e</w>
p y</w>
sootvet stv
i ro
s a
predstav len
mat er
ro om</w>
ye ars</w>
us in
en nye</w>
sl už
wh ere</w>
pri ât
al ity</w>
m y
id e
ro s
ol </w>
uč ast
sub m
v al
č em</w>
syst em</w>
n ih</w>
re t
do stav
id ent
h ar
et s</w>
em sâ</w>
n al
l ike</w>
ol og
t ion</w>
pos ob
M </w>
no w</w>
raz vit
gov or
me ž
il a</w>
e qu
roug ht</w>
ulʹ t
at iv
A mer
Russi an</w>
f t</w>
it ed</w>
m ents</w>
f ol
ov aniâ</w>
w er</w>
th roug
b rought</w>
tw o</w>
na hod
g et</w>
š e</w>
a use</w>
tri es</w>
u z
th en</w>
ta in
itelʹ no</w>
alʹ nyh</w>
c ar
al e</w>
u rov
at er</w>
fe el</w>
ac ion
u š
t ry</w>
ik a</w>
L </w>
at t
ani j</w>
vo d</w>
per son
pro v
d ist
t ech
u stanov
f ul
ic a</w>
coun tries</w>
u c
iz men
y mi</w>
op as
o wn</w>
c ap
d ay</w>
vo j</w>
ic ation</w>
g overn
suŝ estv
ast i</w>
vy so
n um
id e</w>
ut ion</w>
ic s</w>
èto go</w>
vl eniâ</w>
k li
on y</w>
or ii</w>
èto m</w>
s ot
ka h</w>
i ru
ci â</w>
it ʹsâ</w>
su m
o predel
B </w>
E n
ičes koj</w>
av t
ič estv
om s</w>
n &apos;
dob av
pro j
neobhod im
v klûč
in do
pož alu
slov a</w>
e ff
n&apos; t</w>
ho w</w>
z ad
j ust</w>
ât elʹ
b </w>
ok e</w>
am e</w>
ap pl
g .</w>
re k
ci al</w>
sit u
m em
st ud
bu il
s kaz
er ž
ex t
j sta</w>
g ener
ect ed</w>
mno g
y t
pra vlâ
K </w>
ni kov</w>
požalu jsta</w>
en g
C ent
usin ess</w>
ri b
sl uča
h or
re st
l an
reg ist
alʹ nogo</w>
gor od
r iv
ect s</w>
ch o
u že</w>
kak i
ye ar</w>
cor rect</w>
ka ž
vse h</w>
va ž
cor rect
c </w>
obŝ estv
pre dostav
a ut
od y</w>
s ii</w>
Russi a</w>
for e</w>
we en</w>
č is
s ec
g e
â s
tre b
st ra
& #
tri ed</w>
va š
ou s
a ir
alʹ nye</w>
l ev
ž iz
no mu</w>
F </w>
p is
g rup
bet ween</w>
eŝ e</w>
ac k
en i</w>
2 0</w>
c ed</w>
m an</w>
ru d
otno š
0 00</w>
ob </w>
d ed</w>
st v</w>
žd u</w>
sk ie</w>
up ra
gl ob
z am
E x
ac i
l et
diff er
a ûtsâ</w>
h ere</w>
w ar
id ent</w>
rez ulʹt
ov ku</w>
pere vod</w>
ac iû</w>
er n</w>
mež dunarod
ov atʹ</w>
Ev ro
i ev
in u
poz vol
n et
os ʹ</w>
ex p
d in
er a</w>
č et
prof ess
c ould</w>
ra v
M in
so sto
s od
throug h</w>
at ive</w>
l es</w>
is e</w>
kaki e-
st ara
ot pravlâ
i j
se e</w>
subm it</w>
kor rek
5 0</w>
i p</w>
a ž
G er
ch ar
y v
chan ge</w>
as ʹ</w>
v ari
ani û</w>
st rat
ekt iv
kotor yh</w>
M ar
tirov ki</w>
predstavlen a</w>
comp any</w>
f ul</w>
f e</w>
so v</w>
ist s</w>
v ir
k at
â et</w>
b re
lo w</w>
e ach</w>
g ol
nost ʹû</w>
e y
oč enʹ</w>
en noj</w>
s aj
me ždu</w>
stara emsâ</w>
m s</w>
ara oke</w>
ot kry
ičes kogo</w>
Fl ash
V aš
kakie- to</w>
n ar
â v
h igh
m ade</w>
col l
w n
pl an
s posob
k araoke</w>
ž el
bec ause</w>
ič u</w>
èto t</w>
reg ul
og ra
o s</w>
pres s
enc y</w>
correct ions</w>
so gl
is polʹz
d uring</w>
pl ace</w>
amp ;</w>
& amp;</w>
l ine</w>
ci û</w>
ou t
min us
k v
pes ne</w>
korrek tirovki</w>
g ost
c lo
S Š
da že</w>
usl ov
Flash -f
toč nymi</w>
Flash-f iču</w>
in t
got ov
nes k
SŠ A</w>
pes nâ</w>
po st
a h
otpravlâ jte</w>
un der
in cre
minus ovku</w>
com e</w>
t em</w>
develop ment</w>
ičesk ie</w>
an al
o z
inter national</w>
el s</w>
im port
pr iz
m ir
res s</w>
g ar
go od</w>
uč š
it ut
th ose</w>
resp on
en nogo</w>
r o</w>
al o</w>
t al
v z
re ad
š ʹ</w>
s om
s ite</w>
j o
ent ov</w>
ez </w>
irov an
act iv
pro st
on g
3 0</w>
m er</w>
b usiness</w>
is m</w>
serv ices</w>
bl ag
z an
ur y</w>
d ic
vo s
os ob
serv ice</w>
f ra
sh o
oug h</w>
dolž ny</w>
prav itelʹ
par t</w>
m ill
f il
re sul
f am
ne go</w>
s on</w>
s a</w>
un der</w>
er ed</w>
le ad
m il
vse go</w>
U </w>
ic ul
ro v</w>
p er</w>
e ar
or a</w>
el i</w>
1 0
i h
c at
pop ul
igh ts</w>
po d</w>
no mer
podder ž
r ight</w>
p an
wh ile</w>
Ser v
by la</w>
en nyj</w>
ry n
sot rud
z </w>
l ek
p it
coun try</w>
tak e</w>
proc ess</w>
b ur
èt i</w>
t r
è ff
b ro
indo ws</w>
S h
n or
tran s
mu st</w>
t en</w>
po kaz
a em
f ic
kotor aâ</w>
ot d
sp is
ne ed</w>
b ed
er y</w>
i ed</w>
d en
c t</w>
1 2</w>
om at
cur r
raz rabot
ch il
c ul
k ih</w>
pomoŝ ʹû</w>
ta in</w>
c le
v ent
r im
ot el</w>
komp anii</w>
alʹ nyj</w>
ist or
mater i
c c
mark et</w>
ol d</w>
ek a</w>
ic ally</w>
du st
sob stven
est s</w>
B an
sam e</w>
gl av
g de</w>
bud ut</w>
stru ct
e as
1 2
o -
iv id
probl em
num ber</w>
p ur
M os
ob or
ra ŝ
drug ih</w>
strat eg
za ŝ
zav is
c ust
bo th</w>
raz lič
zak on
no -
bolʹš e</w>
ičes ki</w>
c om</w>
N e
b â</w>
st re
be g
a ir</w>
qu e</w>
do m</w>
ter rit
ov oj</w>
b o</w>
s et</w>
otel ʹ</w>
itel ej</w>
ig h</w>
be ing</w>
200 9</w>
alʹ no</w>
p i
po in
l ad
as s</w>
1 5</w>
l it
us ing</w>
B el
vy š
comm un
pres ent
r â
proc ess
c our
R es
ž en
z y
n iz
imost i</w>
h um
d ra
v tor
includ ing</w>
nak o</w>
P ar
man ag
f ur
vy poln
inter es
c y</w>
l ic
sh ip</w>
H otel</w>
il ities</w>
vi ž
per vy
ispolʹz u
c a</w>
vid e
e h
od nako</w>
f act
k ro
G </w>
sa id</w>
bez </w>
g iv
ak </w>
ab ility</w>
ne e</w>
en o</w>
h er</w>
ac ij</w>
ob raž
ani č
av ail
an g
z at
bez opas
de p
u v
so obŝ
de âtelʹ
m un
di rect
W indows</w>
r al</w>
ish ed</w>
p a</w>
sod erž
200 8</w>
W or
p at
c ep
produ ct
T h
ner g
s il
l ist</w>
reg ion
ex am
s kaâ</w>
is su
b a
ac t</w>
ov an
vel ič
differ ent</w>
n iki</w>
pra vl
so stav
sč it
y s
dl ag
sto âŝ
pro vod
i ž
akt iv
sup port</w>
au th
pre dlag
con dit
stru k
* </w>
sid e</w>
A T
ad minist
econom ic</w>
rabot y</w>
m om
S B-</w>
oun d</w>
stran y</w>
dobav itʹ</w>
ov yh</w>
sled uûŝ
o kaz
S o
èl ekt
do es</w>
be fore</w>
ni k</w>
teh nolog
n er</w>
y č
ne v
v or
r ation</w>
R o
with in</w>
prim er</w>
ro l
en ci
with out</w>
A f
se ar
S ov
d ata</w>
at or</w>
fin d</w>
em ent
on s</w>
l eniâ</w>
m ag
ras polož
sistem y</w>
mu ch</w>
ed er
se bâ</w>
obl asti</w>
m us
ac cor
m nogo</w>
prin im
n ess</w>
sin ce</w>
ani em</w>
w ays</w>
publ ic</w>
ik an
t org
ic k</w>
i o</w>
k ed</w>
u ally</w>
sko m</w>
g es</w>
O r
produ k
ri p
1 1</w>
20 10</w>
$ </w>
or der</w>
ec </w>
čer ez</w>
v e</w>
pres ent</w>
m ol
vo pros
sel f</w>
cent re</w>
na cion
n im</w>
f o
se j
ât sâ</w>
in dust
on -
ʹ û
se god
ru z
li bo</w>
u e</w>
c ity</w>
govern ment</w>
li fe</w>
Euro pe
pred lož
svo i</w>
per ed
iver s
finan sov
lâ et</w>
in d</w>
d av
U S</w>
v alu
sled ov
l im
do poln
at y</w>
Ukra ine</w>
h igh</w>
pe j
O b
y ing</w>
ta ble</w>
ro oms</w>
un </w>
B o
u h
b al
Ros sii</w>
F ran
vo j
vie w</w>
si j
A N
requ i
wor d</w>
min ut
Inter net</w>
st ep
ko e</w>
pre z
st ate</w>
&# 9
ur ity</w>
tran spor
c en
d ž
n â
s ion</w>
am ent
z n
cont inu
et ʹ</w>
peri od</w>
et ing</w>
pl ay
ex </w>
dan nyh</w>
stan d
avail able</w>
fun k
200 7</w>
em ents</w>
1 8
K on
m iss
P ol
F or
ind ivid
T ur
ʹ â</w>
ne j
prin ci
ou </w>
U S
po wer</w>
c as
di d</w>
k um
l ess</w>
hor oš
od in</w>
spec if
con sid
ne ed
ex peri
â r
st vom</w>
are a</w>
na stoâŝ
r ist
svo ej</w>
â ž
obraz om</w>
1 .
it al</w>
or e</w>
al isʹ</w>
pro dolž
re aliz
gre at</w>
a em</w>
suŝ est
at ional</w>
pro ek
tech nolog
ur </w>
s ra
ud ov
po čt
ra st
an o</w>
ever y</w>
cust om
c um
P l
b en
bas ed</w>
ain st</w>
u velič
Europe an</w>
rec e
polʹzov atel
l â</w>
con n
ka žd
na primer</w>
n ed</w>
po stav
vo go</w>
pro stran
ter s</w>
l enie</w>
my š
Euro pe</w>
. com</w>
ect ive</w>
er ing</w>
p ass
import ant</w>
dis c
fol low
k ras
sluča e</w>
pro š
im pl
i ŝ
h im</w>
ag ainst</w>
st ol
hel p</w>
sp e
èff ektiv
p us
A z
kon tro
I N
na z
sootvetstv uûŝ
prim en
o suŝest
acc ess</w>
f aj
en s</w>
irov atʹ</w>
r anič
s ever
read y</w>
c all
ob âz
p a
polit ical</w>
qu ality</w>
u kaz
g ed</w>
lûd ej</w>
ap pro
Min ist
gro w
pro ved
b est</w>
su cc
gosudar stven
d ov
l ast</w>
dr en</w>
ost av
ent ly</w>
n už
t le</w>
ime et</w>
D i
t ure</w>
è nerg
am er
d or
m al
are d</w>
kov od
a ŝ
žd eniâ</w>
usl ug
d en</w>
a ur
probl em</w>
k n
k ij</w>
po k
f a
ičesk ij</w>
ac coun
g ran
loc ated</w>
f ig
ra m
pr ič
or ov</w>
or t</w>
sh e</w>
n ec
R e
b ers</w>
m it
k art
V I
na s</w>
č len
sogl as
do kum
e zd
el ect
me ŝ
equ ip
b ack</w>
str an</w>
em ber</w>
i ous</w>
dost up
ar m
ne m</w>
product s</w>
èt ih</w>
te č
â br
part ici
produ ction</w>
b in
bo ok
st up
tek st
0 -
over š
â d
M on
nej š
an ts</w>
s al
h ap
iz e</w>
l and</w>
vn im
sm ot
n ie</w>
nesk olʹko</w>
irov aniâ</w>
pro ekt
in te
s ci
ad v
w ant</w>
l ov
b iz
yva et</w>
èk s
m aj
t od
ou se</w>
lev el</w>
â č
iz vest
comp ani
l ist
b az
l ed</w>
sv ob
gra žd
b ir
t on</w>
ih sâ</w>
ever y
sov rem
ap pe
z na
v in
sto ân
pro g
g az
razvit iâ</w>
vn ut
pred priât
ad dit
de b
M an
al ist
i k</w>
mest o</w>
pl ac
drug ie</w>
s econ
ru kovod
st an</w>
f ast</w>
al th</w>
R E
il sâ</w>
il o</w>
so f
ad d
r id
pra kt
gra m</w>
ma in</w>
in k</w>
k to</w>
h a</w>
sear ch</w>
op </w>
an nyh</w>
t u
En gl
th ree</w>
lan gu
žiz ni</w>
i -
m ass
v et
a ud
ka m</w>
âz y
z ag
e ign</w>
an other</w>
âvlâ ûtsâ</w>
w ater</w>
A s
vrem eni</w>
vie ws</w>
èt a</w>
c li
K az
finan cial</w>
G o
f ri
hod it</w>
es â</w>
enc es</w>
vir on
K it
ad d</w>
m ov
off ers</w>
n ij</w>
kol ičestv
1 00</w>
st ill</w>
Un ited</w>
p ec
k ey
kli ent
k rup
ar â</w>
tod ay</w>
vo pro
po č
chil dren</w>
or ies</w>
p age</w>
S T
l ong</w>
provid e</w>
ar ly</w>
k olʹ
v iv
N or
proj ect</w>
z em
svo û</w>
mest e</w>
sm all</w>
w w
k ey</w>
an nye</w>
na me</w>
ur al</w>
re as
H e
oper ation</w>
us pe
p ut</w>
est abl
2 .
be ž
c ase</w>
th ough</w>
tre bu
form y</w>
imost ʹ</w>
un d
p ed</w>
klûč ev
ti v</w>
čelov eka</w>
f av
st af
na pravl
loc ation</w>
kno w</w>
en nym</w>
incre as
st art
- to</w>
so hran
f ut
alʹ noe</w>
na j
ic ations</w>
ne x
od s</w>
neobhodim o</w>
nec ess
A R
na m
t ov
P et
qu est
staf f</w>
X </w>
â vl
in stru
inform acii</w>
dep end
re al</w>
zak lûč
komp aniâ</w>
compani es</w>
ru ž
M ic
re stor
al osʹ</w>
ro l</w>
š ir
atel y</w>
il isʹ</w>
prost o</w>
torg ov
t en
exam ple</w>
en ʹ
nost ej</w>
org an
raz del
iz obraž
sk im</w>
su d
P er
kro me</w>
O N</w>
svo ih</w>
bes plat
og ranič
segod nâ</w>
part ner
pl y</w>
an ti
per ed</w>
loc al</w>
am et
do wn</w>
accor ding</w>
kol lek
od noj</w>
Ch ina</w>
or i
al sâ</w>
profess ion
m n
n al</w>
is k
i š
služ iv
t ab
lar ge</w>
em plo
c ev</w>
av ing</w>
č as</w>
o h
hum an</w>
l ik
n em
od a</w>
P res
sh all</w>
kotor oj</w>
im prov
č es
A d
ne š
dopoln itelʹ
s en
i v</w>
lo s
2 5</w>
N ov
S P
kotor oe</w>
wor king</w>
o g</w>
l ab
ic k
sotrud n
Inter national</w>
E N
bezopas nosti</w>
H </w>
m en</w>
do cum
nik a</w>
200 6</w>
o w</w>
pos ition</w>
k ie</w>
le č
r us
c k</w>
tak im</w>
prot iv
u k
a -
y -
komp ʹû
auth or
re v
aro und</w>
ra j
raz </w>
ob služiv
po treb
ed uc
fe at
u g</w>
res s
vozmož no</w>
im e</w>
s overš
K or
bec ome</w>
k m</w>
or din
k ami</w>
is ion</w>
program my</w>
E R
ot lič
tw are</w>
l ing</w>
cont rol</w>
part icul
glob al</w>
k r
follow ing</w>
m iro
B l
s ro
b om
program m
our ces</w>
rab oč
op y
oc en
sec urity</w>
4 0</w>
ful ly</w>
amer ikan
svâz i</w>
G re
I r
- -</w>
4 -
reg ion</w>
con cer
od e</w>
o th
deâtelʹ nosti</w>
0 0
alʹ nym</w>
struk tur
at oč
un e</w>
bre ak
en viron
per form
m as
b ran
som e
fer ence</w>
blag od
kom pl
s ek
ener g
f ot
Y </w>
cre ate</w>
h an
si â</w>
pol ag
s ign
te h</w>
en ing</w>
m es
go d</w>
inst itut
do wn
pra ct
st ar
pro per
v es</w>
w om
d ers</w>
p hot
red it
G u
rest aur
nahod itsâ</w>
in es</w>
P o
čelov ek</w>
am ong</w>
alʹ naâ</w>
m ob
m ul
in fl
proc ed
g en
re ž
f ak
lar g
ap art
mir a</w>
m ere</w>
b ar
experi ence</w>
ob o
or už
š iro
u pl
r ights</w>
av š
S y
ulʹ tur
ogra f
or ig
R O
g s</w>
stor ony</w>
d enʹ</w>
s w
19 8
vse gda</w>
otno s
1 3</w>
mod ern</w>
Amer ic
i em</w>
s or
teč enie</w>
pro gram</w>
gro up</w>
fi el
spec ial</w>
rel ig
itel i</w>
i kov</w>
ag re
z ab
l ong
at ov</w>
c ing</w>
pro tiv</w>
ubl ic</w>
F eder
tra ct
u ût</w>
i ra
com for
sk or
k ru
v eŝ
ci j</w>
nex t</w>
I I</w>
ob rat
na sel
pres s</w>
ros sij
i ally</w>
ʹ e</w>
i esâ</w>
na znač
na de
iv š
zan im
our s</w>
Engl ish</w>
h er
kat eg
res ur
por ts</w>
rib ut
ob yč
j ect</w>
re du
w ard</w>
l učš
ne kotorye</w>
ev ro
an y
m ire</w>
to o</w>
syst ems</w>
en noe</w>
pr il
upra vleniâ</w>
p ing</w>
en cii</w>
E S</w>
200 5</w>
reš eniâ</w>
g ing</w>
dic ion
ad a</w>
e š
off er</w>
žen ŝ
lo ok
mom ent</w>
m is
h al
t ar
hot â</w>
I S
g a</w>
f on
wor ks</w>
a ff
p ages</w>
ik u</w>
pol icy</w>
soci al</w>
1 4</w>
kon eč
stv e</w>
sever al</w>
al ways</w>
ub </w>
al ready</w>
me ans</w>
bl û
pr â
I D
ap </w>
Ar m
buil ding</w>
so ft</w>
f ace</w>
inte g
th s</w>
biz nes
or t
om ob
o hran
op is
b ra
st ay</w>
si b
k ulʹtur
gl e</w>
us il
R A
t ot
teh n
p ic
an n
6 0</w>
d viž
s af
ic le</w>
ic ii</w>
op en</w>
ver žd
tak ih</w>
inst all
la w</w>
p s</w>
t an
for eign</w>
dolž en</w>
po vyš
is l
fe w</w>
we b
e jstv
1 8</w>
ra cii</w>
cour se</w>
k ar
bolʹš in
zad ač
mnog ie</w>
coll ection</w>
D ž
mon ey</w>
tur n</w>
l ʹ
manag ement</w>
ent y</w>
clo se</w>
r or
ra di
des ign
w al
el ʹ</w>
kno wn</w>
h ib
otel â</w>
myš len
men ee</w>
est i</w>
vl i
P al
rel ated</w>
is sledov
v at
tak ie</w>
necess ary</w>
i e
wor k
il iz
z ar
p un
cel l
G ener
b û
f er</w>
ras prostran
K om
ho d</w>
n ut
pod ob
kaž do
1 6</w>
Wor ld</w>
po stoân
pot omu</w>
mill ion</w>
an e</w>
1 5
ent a</w>
d ays</w>
poin t</w>
ty s
s ed
du e</w>
D e
ri rov
R ep
un t
comp et
te per
kon kur
plo ŝ
tra dit
in ing</w>
secon d</w>
off ici
c e
i âh</w>
call ed</w>
pes en</w>
pro ver
L at
St ates</w>
ch ec
in s</w>
grow th</w>
kolʹ ku</w>
P art
av i
pl ay</w>
par amet
G ro
t ;</w>
m l
2 4</w>
gorod a</w>
to p</w>
sred i</w>
sej čas</w>
• </w>
dem on
pos kolʹku</w>
pr ig
re kt
s ig
re present
ë </w>
I n</w>
lo ok</w>
min im
ful l</w>
ban k</w>
energ y</w>
s ch
m ne</w>
zak az
vs em</w>
t on
sko e</w>
s k</w>
serv er</w>
im oj</w>
f re
s ect
a way</w>
med i
act ion</w>
b ody</w>
r i</w>
am a</w>
teper ʹ</w>
U N
f lo
m ig
l id
ent ial</w>
sotrudn ičestv
Pres ident</w>
iev e</w>
č iv
me as
ak e</w>
r ate</w>
bu m</w>
en ds</w>
cat eg
t .
pos red
vy bor
Bel ar
s y</w>
si rov
atel ej</w>
ro b
ran ge</w>
ne f
li šʹ</w>
p ak
wh e
curr ent</w>
priv ate</w>
usl ug</w>
kompl ek
it a</w>
m i
giv en</w>
le ar
pro myšlen
fut ure</w>
un i
k im</w>
ož id
f ound</w>
en naâ</w>
im enno</w>
p ay
ok ol
ok rat
a v</w>
n on-
k rat
st itut
en jo
každ yj</w>
o priât
mem bers</w>
n s</w>
ar ch
irov anie</w>
mes â
novy h</w>
mot r
kompʹû ter
har ak
in al</w>
yv atʹ</w>
des c
bud uŝ
B er
con tain
per son</w>
tel l
ra č
probl ems</w>
v stre
or ov
co w</w>
pro is
s lož
f ile</w>
fav or
activ ities</w>
žiz n
avt omob
t am</w>
G e
na d</w>
t ions</w>
organiz acii</w>
ev id
dv a</w>
od nogo</w>
it ary</w>
200 3</w>
c it
ni ž
Y ou</w>
ras šir
w rit
is klûč
as p
t est
reš enie</w>
nač in
Ban k</w>
pozvol âet</w>
eni âmi</w>
lûd i</w>
k redit
I tal
partici p
aûŝ ih</w>
langu age</w>
key word</w>
pr ice</w>
do v</w>
us es</w>
sy l
stran ah</w>
sof tware</w>
resul t</w>
200 0</w>
sosto ân
3 .
vstre č
S S
h ov
eni âh</w>
M ed
na uč
podder živ
T V</w>
W h
de f
b or</w>
n u
pl es</w>
st y
kno w
ex per
vy stav
âs ʹ</w>
S u
na zv
ho z
, 000</w>
I C
h ome</w>
stro itelʹ
i et</w>
th em
p al
inform aciû</w>
Mos cow</w>
al bum</w>
I T
mat riv
ab ove</w>
fac t</w>
d at
iv es</w>
custom ers</w>
equip ment</w>
c iv
ust ro
valu e</w>
w ide</w>
čast ʹ</w>
ar h
ent er
W eb
itel ʹ</w>
gost ej</w>
s ilʹ
person al</w>
p ât
c ent</w>
l ʹ</w>
to j</w>
u h</w>
â etsâ</w>
ou th</w>
pod gotov
O t
stran ic
of ten</w>
po is
ž estv
pos it
ud ob
re j
il asʹ</w>
in ost
he alth</w>
port un
â ûŝ
i û
en ed</w>
of f</w>
ičes kaâ</w>
by v
men â</w>
me th
need s</w>
Mic ro
man u
cl ick</w>
al og
bet ter</w>
obâz atelʹ
č ʹ</w>
b ar</w>
iz ed</w>
ičesk im</w>
condit ions</w>
ex pl
end ed</w>
med ic
ter m</w>
to ge
be aut
v ar
k rov
200 4</w>
naš ej</w>
naš u</w>
Ne w</w>
sob oj</w>
ost an
a im
elʹ û</w>
otvet stven
op portun
obespeč iv
problem y</w>
des ign</w>
čast i</w>
p ad
na stro
toge ther</w>
vnut ren
slov ami</w>
c al
r u</w>
S ec
leg al</w>
T ra
g ive</w>
d ate</w>
vozmož nosti</w>
ist ory</w>
ičes koe</w>
b ut
nuž no</w>
Or g
stru ction</w>
ol e</w>
ploŝ ad
ous ly</w>
ther e
se be</w>
impl ement
on es</w>
ov ye</w>
accoun t</w>
it u
-L SB-</w>
ko p
op tim
1 7
eep </w>
er ov</w>
âbr â</w>
vklûč aâ</w>
s es</w>
S p
treb ov
lo v</w>
tru d
l at
vnim anie</w>
ât ʹsâ</w>
ol s</w>
ter ror
comp ut
sov mest
ma š
1 7</w>
k an
wh y</w>
a th</w>
tel ef
ex t</w>
s ay</w>
th ink</w>
novy e</w>
evro pej
prin ât
otd elʹ
s cho
� </w>
fur ther</w>
materi al
h ost
g i</w>
go ing</w>
bl iz
mak ing</w>
upra vl
le ž
et c</w>
C oun
in it
dan nye</w>
lit tle</w>
it or
Vaš ej</w>
ram kah</w>
za im
hoz â
fam ily</w>
Americ an</w>
pomoŝ i</w>
territ orii</w>
svo ego</w>
sled uet</w>
èlekt ron
s ent
ko st
in f
+ </w>
svo j</w>
sto j
on ce</w>
pro živ
h ouse</w>
T er
igh t
provid ed</w>
tim es</w>
as soci
are as</w>
in u</w>
maj or</w>
obraz ov
-R SB-</w>
tra de</w>
administ rat
kr iz
is poln
osob enno</w>
d on
sistem a</w>
at er
zd orov
econom y</w>
l and
is a</w>
aci ej</w>
m p
blagod arâ</w>
vari ous</w>
F in
ni fic
d est
our ce</w>
d alʹ
uslug i</w>
skaz al</w>
St ate</w>
vide o</w>
ens ive</w>
og ro
O N
ost i</w>
stan dar
wom en</w>
hel d</w>
v ot
G od</w>
son gs</w>
n u</w>
ag ain</w>
ka pit
p ack
il osʹ</w>
kateg orii</w>
ivers ity</w>
V am</w>
f ar</w>
pl ani
down lo
net work</w>
K ar
no t
pl an</w>
znač itelʹ
in t</w>
Res publ
tran sl
x im
zat em</w>
s ong</w>
vo e</w>
ris k</w>
ch es</w>
bo ok</w>
oth ers</w>
he ad</w>
dost atoč
alʹ bom
na ž
succ ess
sootvetstv ii</w>
1 6
12 4
D es
mu zy
su t
c a
a il</w>
č uv
ben ef
A O</w>
manu fact
kl ass
th ir
spis ke</w>
in o</w>
okol o</w>
b a</w>
p et
kotor ogo</w>
naš ih</w>
ment al</w>
individ u
ver sion</w>
ob no
am oun
pos e</w>
indust ri
re kom
raz viv
it ted</w>
th re
o j
poluč itʹ</w>
f ron
per ev
a u</w>
pril ož
ver t
ma in
o il</w>
pol ic
gražd an
v neš
al asʹ</w>
I ra
d u</w>
ʹ i</w>
atel ʹ</w>
ov a</w>
v meste</w>
ok ruž
k it
polit iki</w>
ne zavis
č ist
n ical</w>
resul ts</w>
lo ws</w>
m ast
v es
stand art
Rep ublic</w>
inost ran
ist oč
količestv o</w>
com men
ul učš
vl asti</w>
en nosti</w>
m ach
d re
st rem
&# 124
c ris
predostav lâ
â ût</w>
w ar</w>
dem okrat
d ro
g t;</w>
& gt;</w>
3 -
proizvod stva</w>
alʹ nom</w>
1 ;</w>
kon fer
&#9 1;</w>
gro und</w>
indust ry</w>
stran icy</w>
prez ident
bl y</w>
ec ut
yva ût</w>
at ory</w>
Micro soft</w>
R eg
m ight</w>
incre ase</w>
y et</w>
B ar
oš ib
im p
stran ice</w>
naš i</w>
s an
v zaim
up s</w>
o wn
end ly</w>
19 7
ver h
n ič
ad em
in nov
h aving</w>
favor ite</w>
en nymi</w>
Amer ica</w>
g er
&#124 ;</w>
per at
A g
i ther</w>
D ec
č as
grup py</w>
break fast</w>
čis le</w>
st art</w>
d ou
z as
tur al</w>
po ka</w>
O R
cent r
0 .
struct ure</w>
nev er</w>
gener al</w>
re cor
et ov</w>
if ied</w>
char ac
det ej</w>
h istory</w>
v ic
con struction</w>
ispolʹzov aniâ</w>
Q u
- libo</w>
dv uh</w>
stv ov
pon im
c ost
technolog y</w>
H ol
includ e</w>
rece iv
ex ist
de fin
b og
du š
obespeč eniâ</w>
&#9 3
&#93 ;</w>
fiel d</w>
n ers</w>
nal og
A b
alʹ nuû</w>
ime ût</w>
c elʹû</w>
s ed</w>
emplo y
pro da
ž ur
provid es</w>
tak oj</w>
po w
ty p
raz d
comput er</w>
di rekt
ûŝ ih</w>
inter est</w>
4 .
mol od
r eniâ</w>
hod a</w>
i ble</w>
me eting</w>
pok up
pre v
različ nyh</w>
otnoš enii</w>
mnog ih</w>
V er
fac ilities</w>
re pl
w ing</w>
ty pe</w>
cent r</w>
men ʹ
at mo
in fra
ud al
len y</w>
tak en</w>
dejstv iâ</w>
drug oj</w>
ain s</w>
oč er
lo t</w>
v eb
pr id
P h
ef for
know led
prav a</w>
l en</w>
vi ol
l ight</w>
a j</w>
minut es</w>
produ kt
tre at
proj ects</w>
nor m
to t</w>
le ft</w>
k as
e a</w>
n g</w>
h im
19 </w>
ra sh
disc us
rezulʹt ate</w>
T ran
m ing</w>
J ap
st upl
y r
Serv ice</w>
f ik
ent ion</w>
nesk olʹ
avt omat
unt il</w>
o ŝ
učast ie</w>
èks per
E l
miss ion</w>
vent ion</w>
su g
mil itary</w>
Org aniz
pos ed</w>
im uŝ
sra vn
g os
kra ŝ
od ov</w>
s ekt
us ers</w>
d es</w>
at ors</w>
det er
nomer a</w>
alʹbom a</w>
A S
d al
prav o</w>
pro mot
sib ility</w>
dl e</w>
in oj</w>
ev a</w>
l uč
O f</w>
fo od</w>
pro b
nač ala</w>
issu es</w>
develop ed</w>
p yt
en se</w>
s ess
bor ʹ
e šʹ</w>
chan ges</w>
vo st
restaur ant</w>
in ation</w>
bolʹš oj</w>
B al
st e
sogl aš
vopro s</w>
dost up</w>
prin â
klûčev ymi</w>
n ight</w>
čast o</w>
der ž
in ian</w>
A p
2 -
g er</w>
to ok</w>
res ources</w>
5 -
cont ent</w>
pre žd
es pec
fun ct
mno go
A si
ov ogo</w>
us er</w>
zap is
t ies</w>
pro cent
Az er
mo j</w>
re f
G l
compl et
Com p
appl ication</w>
as k</w>
v an
oug ht</w>
E S
of ici
y š
I M
o od</w>
it esʹ</w>
im o</w>
war ds</w>
c ir
ob raŝ
st ab
m ess
whe ther</w>
I sl
h istor
nat ural</w>
iz -
sol ut
re fer
stv u</w>
tys âč
za âv
in tell
at or
g ruz
L a
op e</w>
š ih</w>
espec ially</w>
on d
abl y</w>
and id
obŝestv a</w>
novy j</w>
re le
set i</w>
em yh</w>
l -
h y
in vol
s po
pos et
estv a</w>
itel â</w>
S M
th us</w>
In di
pol nostʹû</w>
ser ʹ
p ust
or ity</w>
end ing</w>
ativ es</w>
cl us
re ally</w>
V el
god y</w>
E C
re commen
w in
inter est
i er</w>
Serv er</w>
educ ation</w>
očer ed
harak ter
sred stv</w>
mill ion
am b
ob j
tot al</w>
P r
acc ep
g as</w>
ent al</w>
sig nific
I sra
nasel eniâ</w>
š kol
s mo
va â</w>
th ings</w>
cent ury</w>
osnov e</w>
2 1</w>
otkry t
stv ie</w>
aj te</w>
mag az
proda ž
mer opriât
Â </w>
pri ob
ter ms</w>
1 -
so û
cap ital</w>
L e
d .</w>
h t
f iz
produ ct</w>
te am</w>
l y
g y
st and</w>
re search</w>
invest ment</w>
wh ole</w>
u x
dem oc
pra v</w>
le ast</w>
kollek ciû</w>
prav ilʹ
vest i</w>
počt i</w>
èt u</w>
port ed</w>
svob od
kl ad
proper ty</w>
ain ed</w>
n an
cre ated</w>
eas y</w>
sit es</w>
N ational</w>
c an
urov enʹ</w>
hap p
sp ra
c are</w>
to wn</w>
raz meŝ
proekt a</w>
rec og
1 ,
b ill
d i</w>
dru g</w>
mog li</w>
sk uû</w>
C or
f ilʹ
I z
sp ace</w>
cer tain</w>
B e
s syl
vy z
zav er
t our
Z </w>
и </w>
ra il
speci alist
v eni
vy s
na blû
u po
per v
el l</w>
2 2</w>
kv art
con sum
dolž na</w>
ros s</w>
oun d
w are</w>
A L
peč at
al most</w>
rabot u</w>
eff ici
lûb imoj</w>
iz- za</w>
n it
u ra
diff icul
n el</w>
ig ro
sel ves</w>
prâ m
categ ories</w>
ne ar</w>
em er
Gro up</w>
kotor om</w>
med ia</w>
st al</w>
tra ining</w>
fot ograf
pr ices</w>
at ion
form s</w>
hod âŝ
aûŝ ej</w>
sci ent
ob uč
od nim</w>
C l
vis it</w>
up on</w>
in depend
on o</w>
I S</w>
cris is</w>
add ress</w>
re vol
uni que</w>
èt im</w>
su ff
is ed</w>
et om</w>
sp ir
op s</w>
izmen eniâ</w>
sho w</w>
proš lo
reg ional</w>
E U</w>
P ut
ing .com</w>
c il</w>
i ej</w>
_ </w>
est ern</w>
sul ʹ
vi a</w>
Ge org
stan ding</w>
iv ely</w>
a go</w>
v ill
d y</w>
iver sit
to gda</w>
sozd atʹ</w>
speci aliz
c rit
tech nical</w>
A v
per f
l ater</w>
atelʹ no</w>
aûŝ ie</w>
urov nâ</w>
vy še</w>
cor por
ž est
. S
stor on
po stro
no mer</w>
av liv
Ger m
O p
j stva</w>
at s</w>
8 0</w>
ab ot
st ation</w>
obʺ edin
Un ion</w>
me h
po ter
sc en
comm on</w>
sub -
re views</w>
sootvetstvuûŝ ih</w>
ish ing</w>
comfor table</w>
Ukra iny</w>
lûb oj</w>
cent er</w>
M y</w>
he art</w>
C ol
uč re
dost iž
ist an</w>
ma il</w>
situ ation</w>
ar a</w>
book ing.com</w>
com mod
i an
motr â</w>
y a</w>
nar uš
ter nat
bur g</w>
m už
V as</w>
ry no
wor ds</w>
ro z
vs ej</w>
y s</w>
g ame</w>
particul ar</w>
s ure</w>
set t
predlag aet</w>
D ev
h ard</w>
ro le</w>
20 0</w>
proc es
uspe š
sug g
lead ing</w>
invest ic
O ff
ic ated</w>
f oc
nal ič
en ko</w>
ni že</w>
cent ral</w>
s f
a th
V ost
pod t
tr i</w>
urov ne</w>
O n</w>
o pl
g et
inter net</w>
M ol
mater ial</w>
be h
sam yh</w>
re port</w>
nak om
p am
ryn ke</w>
d iz
so m</w>
kotor uû</w>
em p
nes motrâ</w>
gro ups</w>
w id
ra ther</w>
s cre
avtomob il
l s</w>
g r
ru n
b ack
tre t
some thing</w>
C o
а </w>
vos stanov
he ad
se qu
S c
profess ional</w>
b il
des ât
se par
if ul</w>
osuŝest vlâ
gu ar
ro ad</w>
m ir</w>
sam om</w>
it ing</w>
S ol
en nuû</w>
red it</w>
ot kaz
sov et
deter min
ras s
requi rem
tak ing</w>
feat ures</w>
nastoâŝ ee</w>
d y
g am
yva etsâ</w>
it self</w>
M ež
c ar</w>
s fer
h ours</w>
com bin
le ar</w>
besplat no</w>
t ee</w>
ek s
S w
A C
tro du
žizn ʹ</w>
p ap
naj ti</w>
ex hib
komp anij</w>
mark ets</w>
liv ing</w>
Pet er
activ ity</w>
atel i</w>
f est
m oun
sup pl
A c
A ir
B rit
no s
sh ip
horoš o</w>
obl ad
Man ag
co operation</w>
kor por
st er
p y
pur ch
stran e</w>
Ger many</w>
v ed</w>
ani âm</w>
C ar
sim il
eni âm</w>
ra p
m ite</w>
individ ual</w>
ru n</w>
stv ovatʹ</w>
zy vy</w>
s ize</w>
prim er
addit ional</w>
ul t</w>
Di rect
ot a</w>
ičesk uû</w>
ë n
al -
su per
dolž no</w>
an nyj</w>
serʹ ez
bel ow</w>
k in
ch al
W </w>
ot del
I P
av tor
tem perat
t ation</w>
fil es</w>
t ures</w>
eff ective</w>
det ail
re li
dejstv itelʹno</w>
s elʹ
enter pris
s niž
con f
im es</w>
âs n
svo e</w>
er -
k ind</w>
soci ety</w>
de part
5 00</w>
t â
veb -
environ ment</w>
c le</w>
O S</w>
olog ical</w>
nablû d
co st</w>
o ât
ut veržd
čelov eč
com ing</w>
ef ul</w>
cap ac
for ce</w>
ser ver
per em
bi g</w>
A M
ion ing</w>
p ast</w>
uûŝ ih</w>
o znač
nik ak
instru ment
Z ap
rat es</w>
ne w
il i
l l</w>
act ive</w>
soglas no</w>
h and</w>
w .
znač enie</w>
nomer ov</w>
pro č
a x</w>
e w
act ions</w>
me š
voz v
bas is</w>
p or</w>
per sp
u kra
j ust
pod pis
stat us</w>
sk y</w>
ûŝ ie</w>
d am
h a
requi red</w>
Evro py</w>
a x
m id
2 3</w>
Evro pej
aro v</w>
po -
ex cell
k am
ogra ph
mem ber</w>
A m
200 2</w>
materi als</w>
mus ic</w>
on line</w>
knowled ge</w>
T o
suŝestv uet</w>
stat ist
pre par
ev ents</w>
there fore</w>
mon ths</w>
bolʹšin stvo</w>
ro st</w>
d -
web site</w>
ur g
bec ame</w>
f our</w>
ear ly</w>
u vid
is ing</w>
D is
if y</w>
look ing</w>
n ice</w>
al though</w>
commun ity</w>
high er</w>
t omu</w>
bo x</w>
ta bl
issu e</w>
ist a</w>
Gener al</w>
an ds</w>
N O
neskolʹ kih</w>
uc lear</w>
c k
c u
vy pus
s mer
g i
D ep
svo im</w>
obor ud
l ive</w>
en z
kon sulʹ
me an
èkonom iki</w>
vopros y</w>
sob yt
com es</w>
i âmi</w>
L ond
ot sut
atel â</w>
d nâ</w>
200 1</w>
t end
in trodu
me č
na st
zaver š
sl i</w>
r al
od na</w>
sin gle</w>
mak es</w>
amoun t</w>
žd y</w>
ion ed</w>
ol ev
develop ing</w>
dor og
zakon od
compl ete</w>
š ego</w>
ww w.
part y</w>
a g</w>
dostatoč no</w>
ens ure</w>
r .</w>
every thing</w>
stand ard</w>
S of
sled ovaniâ</w>
cont act</w>
ter min
gosudar stva</w>
if ic</w>
speci al
J </w>
stv iâ</w>
l er</w>
prot ection</w>
S k
b it
perform ance</w>
enjo y</w>
excell ent</w>
sozd aniâ</w>
re serv
con tra
Coun cil</w>
th ous
. .</w>
f ail
as ed</w>
ec h</w>
ot s</w>
ud a</w>
kom and
na d
vl ad
ist ov</w>
ak h
obor udov
inform acion
im etʹ</w>
n emu</w>
ro sta</w>
cost s</w>
d iv
koneč no</w>
ap e</w>
kon č
car ri
obl ast
pervy j</w>
ryn ka</w>
T H
on d</w>
pri rod
con sist
pravitelʹ stva</w>
sist em</w>
nat ure</w>
specif ic</w>
gu ests</w>
treat ment</w>
thir d</w>
iv er</w>
sh ort</w>
in e
produk cii</w>
R om
1 3
m art
you ng</w>
ogro m
rol ʹ</w>
rabot aet</w>
k rit
cas es</w>
em a</w>
off ice</w>
isk us
sred stva</w>
beaut iful</w>
h u
hal f</w>
dol la
it ar
con du
ned av
ne kotoryh</w>
žd enie</w>
mak sim
al lows</w>
a è
no voj</w>
mul ti
re p
ispolʹzov anie</w>
š tab
po ved
V lad
L inu
c ra
pravitelʹ stvo</w>
organiz ations</w>
kačestv a</w>
ur ch</w>
ot ra
di pl
val ût
am ent</w>
tra dicion
saj ta</w>
establ ished</w>
nar už
cle ar</w>
b ek
rabot atʹ</w>
predstav lâ
sk i</w>
f -
hod e</w>
en nom</w>
mod ul
mod er
ned ost
u red</w>
e th
by str
mer y</w>
ost ʹ</w>
re st</w>
sk imi</w>
l es
um a</w>
en ough</w>
sh are</w>
k eep</w>
â der
c op
sl ug
I V</w>
c ame</w>
a ete</w>
Mež dunarod
na u
ver oât
str eng
proek t</w>
ori ent
design ed</w>
sect or</w>
gost in
as h</w>
cli ents</w>
ot met
g ot</w>
posled nie</w>
z er
ev ent</w>
c all</w>
Arm eni
str ong</w>
s ou
hod ât</w>
program ma</w>
raz no
d one</w>
quest ion</w>
downlo ad</w>
raspolož en</w>
Comp any</w>
compl ex</w>
so edin
n ic
tre bl
an im
é </w>
do govor
kno p
e ither</w>
al ong</w>
kotor ym</w>
s at
sč et</w>
in c
u ver
L i
a û</w>
na ro
stv uet</w>
S ep
al low</w>
E L
T o</w>
na v
ap par
kom for
ph ys
zakonod atelʹ
r ig
ved uŝ
bû dž
inform aciâ</w>
osuŝest vl
b ed</w>
ass ist
start ed</w>
c rim
ex cep
5 .
st ali</w>
st im
poluč eniâ</w>
popul ation</w>
continu e</w>
ni kogda</w>
author ities</w>
w a
z ast
com mer
program me</w>
rec ent</w>
Af ric
S an
un ik
s er</w>
v iz
ug e</w>
rabot e</w>
ch ed</w>
obraz ovaniâ</w>
mož em</w>
dolla rov</w>
Cent ral</w>
cl im
zaŝ it
per eg
ph one</w>
al low
c ard</w>
sp here</w>
ing ly</w>
im age</w>
del iver
res ol
7 0</w>
ad ap
infl u
lû bo
pre kras
G overn
od no</w>
alʹ nymi</w>
li ber
institut ions</w>
iz acii</w>
situ ated</w>
rat ed</w>
c ou
ek s</w>
sf ere</w>
bl iž
stven no</w>
ot č
1 4
š ie</w>
govor it</w>
receiv ed</w>
f akt
t -
sleduûŝ ie</w>
vo t</w>
pre c
G ol
p ay</w>
olog y</w>
ost o
ho č
râ d</w>
enʹ š
â l
addit ion</w>
mon itor
form er</w>
luč še</w>
q </w>
w r
st atʹ</w>
part s</w>
O ON</w>
iz uč
om et
kom nat
pri š
chal len
kn ig
M us
to pl
vl ast
organiz ation</w>
sel ect</w>
beg in
if t</w>
I P</w>
el a</w>
er t
k -
Ir an</w>
n es</w>
ras smot
en nostʹ</w>
pod kategorii</w>
Belar us
pot enci
includ es</w>
ad lež
Ch rist
sem in
kli entov</w>
Linu x</w>
u ly</w>
I m
ric t</w>
po mog
Ukra inian</w>
2 7</w>
c y
w at
medic in
if ik
ry ing</w>
tem p
C O
we b</w>
cl ass</w>
di rect</w>
drug imi</w>
need ed</w>
m el
re ak
naz ad</w>
U slug
requirem ents</w>
s i</w>
reg ar
2 8</w>
dv ig
n uclear</w>
ing a</w>
ect ing</w>
fun ction</w>
&apos; re</w>
vy stup
der ev
pre vi
en ess</w>
im sâ</w>
spor t
pervy e</w>
Ch in
s n
spor t</w>
lead ers</w>
stoj čiv
cho ose</w>
dalʹ nejš
ac y</w>
g um
do or</w>
rece ive</w>
obyč no</w>
offici al</w>
stranic ah</w>
in ed</w>
ž al
za pre
t ol
M et
naš </w>
v a</w>
k up
includ ed</w>
lû by
chec k</w>
it ors</w>
po bed
š ej</w>
sty le</w>
itelʹ nyj</w>
k ret
na mi</w>
f ive</w>
re tʹ</w>
an u
2 6</w>
ill ed</w>
E U
direct ly</w>
lik ely</w>
obl ig
razvit ie</w>
ičes kom</w>
proživ aniâ</w>
tel ev
j ud
z one</w>
pered ač
U z
art icle</w>
stat es</w>
bog at
um e</w>
ob su
M il
let vor
ro st
sub- categories</w>
cle an</w>
l aš
pol no
uslov iâh</w>
rib ution</w>
aûŝ ihsâ</w>
ci ej</w>
kom u</w>
t it
G ar
id ed</w>
z al
m .</w>
udov letvor
Af g
t un
prin adlež
h ous
ʹ mi</w>
z al</w>
so kraŝ
tek uŝ
m it</w>
ur a</w>
wal k</w>
N AT
fl ic
pot ential</w>
I t</w>
at tract
po ol</w>
fri endly</w>
n imi</w>
s ource</w>
th an
d el</w>
scho ol</w>
sto it</w>
regist racii</w>
ach ed</w>
stud ents</w>
B u
ostan ov
b ot
In stitut
transpor t</w>
edin stven
19 6
d nej</w>
Com mit
o so
re ad</w>
S ever
ne g
program s</w>
bo ard</w>
nu žd
tradit ional</w>
buil t</w>
B i
priz n
m et</w>
cit iz
em ye</w>
ʹ te</w>
о </w>
h ab
no te</w>
do hod
tehnolog ii</w>
rass matriv
bel ieve</w>
pre m
zaŝ ity</w>
um enʹš
b um
en du
an no
prežd e</w>
b it</w>
H ar
f eder
ni kom</w>
vs em
ra ce</w>
j our
ičesk imi</w>
ast er</w>
kon tekst
W i
no vogo</w>
standar ds</w>
iv a</w>
ro w</w>
Cent re</w>
s ent</w>
Ger man</w>
voj ny</w>
i at
id es</w>
kom mer
pes n
st ar</w>
с т
naž mite</w>
re kl
per eč
qu ite</w>
t el</w>
kon ce</w>
att ention</w>
e voj</w>
T e
D V
Sov iet</w>
contain s</w>
kom mun
vli ân
ac commod
š ij</w>
me et</w>
čet y
S outh</w>
dov olʹ
saj te</w>
A P
ac qu
P ra
conn ection</w>
A .</w>
ex change</w>
diz aj
in de
il it
it or</w>
os v
an ced</w>
im a</w>
ustanov itʹ</w>
l ove</w>
bl i
otnos itelʹno</w>
bill ion</w>
hol d</w>
popul ar</w>
ik ol
meas ures</w>
program m</w>
tru e</w>
un iversit
dol l
r ic</w>
fun d
č aj
kra j
init i
kon kret
se a</w>
fl ik
pod klûč
air s</w>
ach iev
an aliz
O L
b on
sam ym</w>
funk cion
in stan
por âd
F ac
uslov iâ</w>
A t
them selves</w>
èlekt ro
f ran
to p
vopros am</w>
W estern</w>
kon flik
sist emu</w>
voz nik
opportun ity</w>
sol ution</w>
toč ki</w>
si û</w>
mo v</w>
F ren
popul âr
è </w>
ir a</w>
te ach
qu al
lin es</w>
av er
con flic
obʺ ek
az a</w>
vis ion</w>
ba th
an s
c vet
bystr o</w>
aut omat
ta x</w>
vid et
Web </w>
c over
C an
e .</w>
ustanov len
ist orii</w>
finan sirov
19 4
c amp
dokum ent
Uslug i</w>
žur nal
chil d</w>
ar ing</w>
s nov
per s</w>
ut ʹ</w>
Respubl iki</w>
part ies</w>
dec ision</w>
dist ribut
P rim
in ici
ic les</w>
po v</w>
pam ât
con sul
or on
otel e</w>
Sep tem
ot e</w>
t ren
k us
sk olʹko</w>
vy del
f el
pred us
poč emu</w>
an noj</w>
agre ement</w>
difficul t</w>
simil ar</w>
ch ing</w>
v eč
naš ego</w>
form ation</w>
capac ity</w>
g lo
iv atʹ</w>
čis len
ènerg ii</w>
t vor
begin ning</w>
sl iš
O S
3 1</w>
ens ion</w>
kol og
ext rem
skaz atʹ</w>
deâtelʹ nostʹ</w>
la un
&apos; ll</w>
Commit tee</w>
pre imuŝ
gu est</w>
J une</w>
sliš kom</w>
a i</w>
saj t</w>
increas ed</w>
Septem ber</w>
opy t</w>
low er</w>
g al
proved eniâ</w>
t ext</w>
vod y</w>
p en
aè ro
iz ma</w>
con veni
nade ž
pomoŝ ʹ</w>
E ast</w>
to -
per es
ari an</w>
ru et</w>
adv ant
zd ra
h uge</w>
docum ents</w>
ov al</w>
sim ply</w>
bas sej
cl ass
ig ra
Fran ce</w>
každo go</w>
Sy st
t u</w>
produk tov</w>
In d
o konč
ad op
Un iversity</w>
im â</w>
tra v
c are
označ aet</w>
nik ami</w>
put em</w>
vide o-
Evro pe</w>
dostup a</w>
Ex change</w>
itelʹ nogo</w>
c o</w>
an da</w>
Mar ch</w>
b aj
fund ament
pre p
sim ple</w>
k et
us p
O ct
pro vo
ob rabot
mest a</w>
à </w>
ani âmi</w>
s ection</w>
M er
biznes a</w>
quest ions</w>
rec ep
č it
ex press
itelʹ nyh</w>
l in</w>
9 0</w>
ch e
po mo
spec t</w>
re fl
cent ra</w>
technolog ies</w>
ned viž
obsluživ aniâ</w>
effor ts</w>
del atʹ</w>
cont rol
V al
Chin ese</w>
oč noj</w>
edin ennyh</w>
cer ti
j ti</w>
ind ic
s ays</w>
dom a</w>
lit er
di ag
dem and</w>
As soci
6 .
ban ks</w>
podderž ki</w>
reas on</w>
tur ned</w>
ž </w>
ill s</w>
ech an
w ed</w>
M al
anno un
gor od</w>
du m
â ûtsâ</w>
il et
appl ications</w>
M e</w>
b ag
con fig
pri or
v ved
implement ation</w>
se en</w>
fam ous</w>
av a</w>
appro ach</w>
high -
oborud ovaniâ</w>
larg est</w>
inst e
cli ent</w>
ob naruž
L ove</w>
Dec ember</w>
ènerg et
em y</w>
fron t</w>
rel ations</w>
ac ross</w>
t in
meždunarod nyh</w>
rip t</w>
if ication</w>
iv aet</w>
so st
ob er</w>
proek tov</w>
P C</w>
t est</w>
den ʹ
M or
е </w>
čast nosti</w>
plani rov
en e</w>
ov o</w>
Fren ch</w>
e .
vy raž
Cent er</w>
mod el</w>
c eny</w>
e an</w>
zak ry
in v
ženŝ in</w>
M ay</w>
del e</w>
appro pri
out side</w>
ex ecut
Lond on</w>
pred naznač
ys is</w>
S am
it able</w>
soderž it</w>
stab ilʹ
a ther</w>
gra f
âž enii</w>
člen ov</w>
p ul
st itu
aûŝ ij</w>
est ic</w>
ad ded</w>
vo ohran
pop yt
ed ž
sk ry
exist ing</w>
l ic</w>
n ul
ide a</w>
Vlad im
bas ic</w>
m m</w>
Kaz akh
3 5</w>
pis ʹ
nâ â</w>
kommer čes
I L
Asi a</w>
con ference</w>
S R</w>
vod u</w>
im medi
prog ress</w>
® </w>
S al
E R</w>
C our
Oct ober</w>
polic ies</w>
u stojčiv
u es</w>
F i
un ivers
podderž ku</w>
vy ber
š t
cul tural</w>
consid ered</w>
mno žestv
M o
dru go
ill ing</w>
pra vleniâ</w>
i red</w>
pereg ov
an g</w>
ot prav
meh aniz
predstav lâet</w>
An d</w>
comm it
s videt
beg an</w>
po v
ru š
2 9</w>
cont ribut
no thing</w>
Ro oms</w>
ric ul
Jap an</w>
vi d</w>
id ence</w>
plac ed</w>
NAT O</w>
dejstv ij</w>
con ver
D eb
Dev elop
er om</w>
iru et</w>
char ge</w>
pan ts</w>
B og
Al l</w>
go ods</w>
Isra el</w>
B ol
c redit</w>
itelʹ noj</w>
Pro gram
mo m</w>
bec om
gl ub
s ily</w>
develop </w>
è n
tehnolog ij</w>
ect ions</w>
d aet</w>
vid e</w>
rezulʹt aty</w>
B ar</w>
z reniâ</w>
ezd a</w>
W est</w>
all s</w>
kon tak
c ode</w>
lim ited</w>
re turn</w>
ther n</w>
consid er
svâz annyh</w>
h om
it es</w>
i koj</w>
priv ed
do č
inde ed</w>
li j
A pr
inste ad</w>
.S .</w>
naš a</w>
signific ant</w>
bl oc
s lo
zag ruz
vyso ko
e i</w>
Off ice</w>
k imi</w>
t esʹ</w>
stud y</w>
stven nyh</w>
po ver
ij sâ</w>
for ces</w>
av o
pl ast
oper ating</w>
otnoš eniâ</w>
qu are</w>
kli py</w>
itelʹ nosti</w>
rekom end
Tur k
am s</w>
sol id
ka br
b at
b ase</w>
Put in</w>
vy br
izobraž eniem</w>
G r
sto imostʹ</w>
prin âtʹ</w>
is pyt
typ es</w>
dv e</w>
pro to
č i</w>
Â pon
f ru
lev els</w>
dr ive</w>
plat y</w>
provid ing</w>
raz reš
I D</w>
ac ts</w>
pesn âm</w>
ple as
ou ra
recog niz
pol ez
3 00</w>
industri al</w>
pun k
y l
J anu
est vom</w>
0 ,
ro č
èl ement
U R
po meŝ
video- klipy</w>
d ance</w>
enci es</w>
èkonom ičeskogo</w>
sistem e</w>
sostav lâet</w>
prez ident</w>
N et
plac es</w>
č in
T el
ok t
sp on
telef on
ud e</w>
pod av
serv ed</w>
è kolog
curr ently</w>
k uh
otv eč
wor l
â vleniâ</w>
r or</w>
po vtor
ru les</w>
i um</w>
sv ed
W e</w>
spe ak
iz ation</w>
K i
anal og
iss ion</w>
hot ite</w>
put i</w>
i âm</w>
V ol
kl im
d ig
de kabr
vozv raŝ
R ad
under stand</w>
re ly</w>
it ions</w>
n .</w>
ep h
it ekt
gorod e</w>
ne bolʹš
ustanov ki</w>
cul ture</w>
poin ts</w>
orig inal</w>
učre žd
nut ʹ</w>
h vat
priv od
spis ok</w>
ne posred
ib er
B ro
pod rob
d ie</w>
c v
sk omu</w>
mas štab
ab or
comp on
te pl
u û
zam et
u at
D P</w>
leg ko</w>
d ik
sozd anie</w>
s ami</w>
s am</w>
dat ab
čis lo</w>
A N</w>
trebu etsâ</w>
obo i</w>
a im</w>
work ers</w>
dan nyj</w>
fotograf ii</w>
proiz ved
ej sâ</w>
us a</w>
itelʹ nye</w>
ag ent
s bor
ru č
Minist er</w>
sur ro
So û
resur sov</w>
eff ect</w>
irovan nyh</w>
h on
person s</w>
arch it
pur pose</w>
we ek</w>
nahod âtsâ</w>
Go og
ig ry</w>
rat ic</w>
E M
per cent</w>
A rab
Minist ry</w>
solut ions</w>
realiz acii</w>
yva â</w>
rekl am
particul arly</w>
sub ject</w>
cho ice</w>
ast e</w>
poz icii</w>
ev ol
stim ul
ot meč
sod ejstv
tak oe</w>
ver sii</w>
Uz bek
prakt ičeski</w>
aliz ation</w>
aem yh</w>
obespeč itʹ</w>
commer cial</w>
dec is
Mos kv
step </w>
f u
grup p
vtor oj</w>
û rid
P an
men u</w>
pat i
del eg
br ing</w>
naš imi</w>
long er</w>
sl av
t ly</w>
z y</w>
yva ûŝ
throug h
med ical</w>
A K
199 9</w>
re form</w>
na pis
od e
Kaz ah
su st
Apr il</w>
stv ami</w>
e um</w>
subm itted</w>
я </w>
al og</w>
S a
sup ply</w>
p ain
de ath</w>
uč it
B ul
pay ment</w>
š ag
stan avliv
Ar t
uč eb
m echan
partici pants</w>
orig in
do sto
svâz annye</w>
succ ess</w>
ag ed</w>
re cent
il s</w>
al ism</w>
ac </w>
predpriât iâ</w>
g ib
d ings</w>
grow ing</w>
success ful</w>
est im
mož ešʹ</w>
arh itekt
pl uat
to -to</w>
Vel ik
- term</w>
ar riv
pris ut
poz ic
inter ests</w>
nat ion
A ug
u gl
so on</w>
Kazakh stan</w>
3 2</w>
kit aj
N E
ved om
organiz acij</w>
fir m</w>
mon th</w>
Ros siâ</w>
sal es</w>
ist ic</w>
ep </w>
zaŝ iŝ
vy zv
w ent</w>
ti pa</w>
ro ut
requ est</w>
P O</w>
or om</w>
dom estic</w>
sv et
r atʹ</w>
Goog le</w>
polʹzovatel ej</w>
ed om</w>
grup pa</w>
trans fer</w>
prof il
èks pluat
M ag
N ations</w>
A D
writ ten</w>
stven noj</w>
recent ly</w>
Janu ary</w>
Iz rail
buil d</w>
con cep
f oun
nič ego</w>
appropri ate</w>
po trebl
rip tion</w>
k uû</w>
od no
ime ûŝ
C ity</w>
pe ace</w>
ari a</w>
rab at
li š
postoân no</w>
polož enie</w>
Nor th</w>
og da</w>
âŝ ih</w>
û s
us ually</w>
J uly</w>
equip ped</w>
vy bor</w>
scre en</w>
is sledovaniâ</w>
tak es</w>
sotrudničestv a</w>
zavis imosti</w>
pic tures</w>
komp on
d atʹ</w>
in sur
voz rast
l âtʹ</w>
hu do
ur ation</w>
sostav lâ
fi ed</w>
nač ale</w>
port ing</w>
saf ety</w>
p il
Ros sij
part ners</w>
ta x
sl uč
ast ro
hel p
raz nyh</w>
des p
M ak
ad s</w>
rez er
tak ogo</w>
Par is</w>
T O</w>
S ch
ti p</w>
st op</w>
po ko
independ ent</w>
th y</w>
kontro lâ</w>
le ad</w>
A ust
b od
VI Č
serv e</w>
sel f-
denʹ gi</w>
fest iv
perf ect</w>
vaš </w>
improv e</w>
leg isl
T ech
od ejstv
wel l-
Š t
t old</w>
m est</w>
X P</w>
f f</w>
k er
č ego</w>
V en
ukra in
Nov ember</w>
S v
reš enij</w>
z e</w>
â cii</w>
Indi a</w>
C D</w>
uûŝ ie</w>
del o</w>
di alog
i ans</w>
St or
mob ilʹ
krup nejš
ič no</w>
T he
men û</w>
a pre
oper ations</w>
em oj</w>
an nogo</w>
ric h</w>
P ak
2 ,
prois hodit</w>
N o</w>
ser ies</w>
vyber ite</w>
s end</w>
phot os</w>
s ions</w>
zap ad
play ed</w>
Govern ment</w>
h and
c ks</w>
us h</w>
jstv o</w>
step eni</w>
pos it</w>
ne ws</w>
I T</w>
vy h</w>
abl es</w>
po do
ad res
po mn
konsulʹ t
or k</w>
rabot a</w>
H er
k il
ud iv
nâ š
d over
reg ions</w>
in sp
al i
vid u</w>
o w
Cent r
gol os
cl aim
osnov nyh</w>
n û
&apos; ve</w>
4 5</w>
vn ed
Mol dov
V ista</w>
ie f</w>
ver g
razno obraz
M a
rel ev
cel âh</w>
met od
estv o</w>
m ove</w>
ap prov
Dep art
ma xim
obʺ ekt
ent er</w>
el eg
segod nâš
priob ret
े </w>
D on
som et
ang lij
at ure</w>
različ nye</w>
custom er</w>
Pal est
Ro om</w>
st age</w>
through out</w>
sred y</w>
P a
t ic</w>
â l</w>
au na</w>
raz u</w>
Develop ment</w>
drug im</w>
in come</w>
mat ter</w>
re -
sozd av
flo or</w>
važ no</w>
har d
pow er
sen se</w>
râ dom</w>
v ous</w>
eas ily</w>
v mesto</w>
očered ʹ</w>
sp ar
sy m
iru ûŝ
l ux
obsluživ anie</w>
Ob ʺ
е н
d et</w>
du ma
pa id</w>
nastro j
raz um
iz bež
mess age</w>
vz gl
ispolʹzu etsâ</w>
obno vl
v e
regist rirov
čeloveč es
to wards</w>
kaž etsâ</w>
U N</w>
voz du
re ach</w>
if ic
are s</w>
Û ž
p tion</w>
re ben
wh ose</w>
i er
gram mat
re ports</w>
cel i</w>
rem enno</w>
scient ific</w>
predstavlen y</w>
čast ʹû</w>
it ution</w>
l av
resp ubl
ov yj</w>
P RO
ž i</w>
M e
act ually</w>
mu z
c ause</w>
A S</w>
û r
par k</w>
docum ent</w>
ryno k</w>
gra du
w on
â g
at temp
process a</w>
material ov</w>
enc ed</w>
obespeč enie</w>
Belar us</w>
v en
P od
it og
ban kov
min d</w>
ch em
sp it
lear n</w>
govern ments</w>
apart ment</w>
pre ž
e go
mig ran
polʹzov atʹsâ</w>
neobhod imosti</w>
vo oruž
ent ire</w>
dr iv
raz mer
od nov
Institut e</w>
million ov</w>
№ </w>
učast nikov</w>
st alo</w>
pre ci
hran eniâ</w>
sh own</w>
ot čet
klient ami</w>
ec e</w>
ser d
lic enz
S Q
de fic
k et</w>
ci f
Kit aâ</w>
mob ile</w>
un g
st ala</w>
s ing</w>
ar ies</w>
Par k</w>
assist ance</w>
ime etsâ</w>
J oh
kom it
op tion</w>
sam oe</w>
19 5
živ ot
to k</w>
m ik
v eka</w>
re spect</w>
desp ite</w>
po or</w>
P R
hozâ j
Az ii</w>
iv aetsâ</w>
ek o</w>
po âv
valu es</w>
m ut
otd y
rel ate</w>
pl ant</w>
somet imes</w>
pred prinim
fam il
na do</w>
ion ary</w>
m ed</w>
vo sh
20 11</w>
ed s</w>
iz d
tra k</w>
svo em</w>
du ŝ
me work</w>
L it
kačestv o</w>
20 12</w>
pon ât
B a
žel ez
pol ov
H IV</w>
e ur
ident ial</w>
ani a</w>
oč evid
ot raž
Sec urity</w>
ssyl ki</w>
bud ʹ</w>
F or</w>
fri ends</w>
p razd
upra vlâ
ro sl
l už
st on
pract ice</w>
tra ff
form ul
citiz ens</w>
rezulʹt at
ob men
bol ez
O D
â li</w>
eš estv
ad vert
S af
situ acii</w>
mesâ cev</w>
lab or
ser ti
B or
pos v
struktur y</w>
kon tra
sosto it</w>
U .S.</w>
р о
B ud
ob vin
O n
h ope</w>
consid er</w>
an ces</w>
ess es</w>
do kaz
zdra voohran
pos eŝ
al ing</w>
8 -
fi x
dost ig
e g</w>
a zd
th ought</w>
sho ws</w>
f ev
pred polag
po min
t p</w>
Kit aj</w>
anal ysis</w>
podt veržd
O B
employ ment</w>
S e
H T
ill a</w>
za interes
D av
torgov li</w>
ra ciâ</w>
zab olev
itel âmi</w>
l ica</w>
b u</w>
miro voj</w>
k andid
every one</w>
P e
exhib ition</w>
g age</w>
high ly</w>
až a</w>
na sil
to že</w>
v eh
ev yh</w>
6 -
le ave</w>
chan ged</w>
Germ anii</w>
stru kt
install ation</w>
cel ʹ</w>
rel ation
l aj
an naâ</w>
ug roz
F il
dviž eniâ</w>
ship s</w>
invest ig
b and</w>
pri by
val id
p si
sil u</w>
S pec
indo w</w>
A ID
vl eč
sub stan
iz bir
C er
7 .
iz del
â n</w>
L u
ov aâ</w>
administ ration</w>
ron ic</w>
respon sible</w>
pomo čʹ</w>
baj dž
s av
kru g</w>
detail s</w>
mach ine</w>
2 5
sim vol
Z ak
mal enʹ
T his</w>
anti -
obŝ ej</w>
pol ice</w>
put ešestv
tret ʹ
rem ain</w>
par king</w>
as ked</w>
exper ts</w>
âvl enie</w>
predpriât ij</w>
dist ance</w>
ra cy</w>
s pl
dev ice</w>
A B
corpor ate</w>
is hod
port a</w>
uk repl
ac ks</w>
Serv ices</w>
o form
B usiness</w>
pol e</w>
am era</w>
F eb
los ʹ</w>
op ping</w>
Gl ob
E T
aver age</w>
eng ine
l enii</w>
âbr e</w>
he av
g ent
po m
sluča âh</w>
gar anti
help ful</w>
tru da</w>
snov a</w>
menʹ še</w>
M P
ch e</w>
ot obraž
pred sed
р а
znač itelʹno</w>
ič </w>
Com mun
cel om</w>
N acion
oc c
qu ick
atelʹ nyh</w>
Aug ust</w>
spe ed</w>
mo č
M r.</w>
pres ident</w>
art er</w>
post up
komp ani
an ci
al ov</w>
interest ing</w>
par l
condu ct
civ il</w>
im en
ad res</w>
pervy h</w>
W ar</w>
ay ing</w>
territ ory</w>
s možete</w>
ot y</w>
phys ical</w>
ar ds</w>
atelʹ nyj</w>
gre ater</w>
ast ern</w>
e â</w>
ba ij
den ež
le y</w>
Af r
carri ed</w>
h i</w>
ex ter
represent atives</w>
ound ation</w>
po kry
ân v
step s</w>
ser ious</w>
Azer baij
prot âženii</w>
to ols</w>
8 .
V y
minim um</w>
s ound</w>
S -
air port</w>
ad y</w>
EU R</w>
an -
exp ected</w>
predlož itʹ</w>
vaš ego</w>
F i</w>
mor e
stanov itsâ</w>
accommod ation</w>
ka et</w>
cont ext
meth od</w>
za registrirov
strateg y</w>
bud get</w>
saf e</w>
em e</w>
N om
proizvod stvo</w>
sk a</w>
problem a</w>
H am
ru le</w>
kl on
dejstv ie</w>
fe j
end er</w>
dl in
cre ation</w>
camp a
aliz acii</w>
mod e</w>
zv ez
svidet elʹ
est estv
previ ous</w>
b ig
abl ed</w>
meth ods</w>
do ing</w>
Part y</w>
oc cur
konfer encii</w>
èk ran
cl ub</w>
c ities</w>
trebu et</w>
fin al</w>
fa ult</w>
dor ož
k val
k er</w>
S C</w>
zam eč
ob rit
tre h</w>
obŝestv o</w>
st ad
gol ov
naj d
ri es</w>
dis k</w>
conn ected</w>
imp act</w>
ub ed
present ed</w>
na mer
hol id
publ ished</w>
restor an</w>
prig laš
pri hod
u bež
ug ol
form e</w>
j e</w>
va et</w>
in -
produ ced</w>
AID S</w>
zaklûč aetsâ</w>
you r
s razu</w>
charac ter
f requ
sam yj</w>
Velik obrit
ras polag
curr ency</w>
irovan nye</w>
lin k</w>
sat is
stan a</w>
ish ment</w>
da ily</w>
os na
lead er</w>
č rez
sob lûd
zapre ŝ
u na
desc rib
ag ing</w>
ok a</w>
Feder ation</w>
fun ds</w>
el o</w>
sh ort
M id
cer tain
Y our</w>
izobraž eniâ</w>
prezident a</w>
purch ase</w>
bro ad
D em
v ing</w>
3 0
ubl ik
sa w</w>
datab ase</w>
in ogda</w>
tysâč </w>
de al</w>
SQ L</w>
promyšlen nosti</w>
ad es</w>
razrabot ki</w>
S ci
O T
ne igh
pred otv
zap us
op in
per er
po st</w>
kon struk
ant ed</w>
con sequ
k al
iv nyh</w>
e- mail</w>
sum mer</w>
off ered</w>
u stanavliv
Sov et</w>
Afric a</w>
Com mission</w>
o o</w>
sci ence</w>
nedav no</w>
kontekst u
we ap
ach es</w>
K ol
c ro
itel em</w>
id s</w>
T u
g ets</w>
ici p
proiz oš
O AO</w>
on om
K ur
commun ication</w>
process ing</w>
raj on
ml n.</w>
net -
I N</w>
mod eli</w>
pl ans</w>
b all</w>
I B
ide al</w>
t. d.</w>
P ort
ru ary</w>
p aro
set ting</w>
R ec
Deb ian</w>
or d</w>
ht tp</w>
m ic
ed ly</w>
refer red</w>
okruž aûŝej</w>
el l
got i
Al eks
tra vel
iz mer
bli ot
im yh</w>
V .</w>
h und
dom in
lat est</w>
list ed</w>
requ ire</w>
posled ov
Amer iki</w>
leč eniâ</w>
op tions</w>
dan noj</w>
vklûč aet</w>
ne goti
otnoš enij</w>
se ems</w>
Air port</w>
com par
sostoân ii</w>
f y</w>
pro smot
men edž
V i
el ection</w>
ro und</w>
prior it
per en
B raz
conflic t</w>
Feb ruary</w>
vs emu</w>
sam ye</w>
run ning</w>
stan et</w>
relev ant</w>
l ag
ad ing</w>
199 8</w>
posled stv
O ut
sp as
br on
N a
continu ed</w>
È k
e god
v er</w>
ir y</w>
so čet
d ed
0- h</w>
7 -
Minist er
pack age</w>
ex clus
part ner</w>
služ by</w>
occ up
pred var
sravn eniû</w>
is on</w>
po ho
bu y</w>
každo j</w>
form at</w>
dist ribution</w>
sc ale</w>
Cour t</w>
atmo sphere</w>
s ev
y ed</w>
inter pre
A .
por ary</w>
ing ton</w>
d ek
ch en</w>
transpor t
po zd
op ened</w>
osnov nom</w>
ni kam</w>
muž č
D el
publ ik
ye es</w>
A u
v ov
b us</w>
per voj</w>
del aet</w>
Tur key</w>
P rez
as es</w>
primer no</w>
wel come</w>
D om
dru z
stv uût</w>
add ress
i oz
histor ical</w>
lo st</w>
bath room</w>
alʹ nosti</w>
ë t</w>
èkonom ičeskoj</w>
# </w>
st ri
čas ov</w>
gra ph
clim ate</w>
A k
pred y
l on
obʺ âsn
b usin
in ki</w>
radi o</w>
qu es</w>
inter v
v esʹ</w>
im ming</w>
ab ilities</w>
is ation</w>
O V
int en
posit ive</w>
op ublik
environ mental</w>
TH E</w>
c en</w>
rem ains</w>
ent i
korpor ativ
c ement</w>
č ikov</w>
t es
ist y</w>
se as
l ess
pre du
red ak
dipl omat
archit ect
pos sibility</w>
meždunarod nogo</w>
e ase</w>
sro k</w>
tain ed</w>
ed nev
u em</w>
P at
c uz
Con vention</w>
c ov</w>
prob ably</w>
play er</w>
ov ym</w>
st al
beh ind</w>
množestv o</w>
W il
G en
put ʹ</w>
si x</w>
od in
emplo yees</w>
M L</w>
deb t</w>
t ou
min ut</w>
mar k</w>
pos es</w>
F ri
vaš ej</w>
sy n
E con
sobstven nye</w>
langu ages</w>
sam ogo</w>
transl ation</w>
w ise</w>
ar m</w>
complet ely</w>
otv et</w>
a war
èk sk
ras predel
inostran nyh</w>
od nom</w>
investic ion
process es</w>
ol ot
m ani
rekom endu
ev ro</w>
est v</w>
skor ee</w>
G or
redu ce</w>
influ ence</w>
oborudov anie</w>
iz gotov
predy duŝ
m ass</w>
yr gy
v atʹ</w>
g ir
monitor ing</w>
raboč ih</w>
A T</w>
ber ež
ost aetsâ</w>
ik ami</w>
pl av
play ers</w>
polʹz u
aem ye</w>
9 .
s burg</w>
cel ej</w>
vnut ri</w>
posv âŝ
sl uš
cor respon
invol ved</w>
st ret
pereč is
s pr
stre et</w>
w indow</w>
sm .</w>
z nak
insur ance</w>
proces se</w>
c ru
wh ite</w>
I F
L a</w>
p ed
azd o</w>
D o
Ch il
hap s</w>
in king</w>
s pre
Ira q</w>
increas ing</w>
spis ka</w>
produ ce</w>
gor azdo</w>
odnov remenno</w>
high est</w>
Organiz acii</w>
h our</w>
10 -
An g
Econ om
Vladim ir</w>
t vo
pro p
part ii</w>
er t</w>
y pe</w>
enc oura
gos roč
cre ating</w>
obespečiv aet</w>
sam oj</w>
S un
j ob</w>
al ternat
fre edom</w>
k od
power ful</w>
mil li
particip ation</w>
ost rov
al y</w>
kl ad</w>
l ack</w>
VIČ </w>
tel l</w>
naz yva
restaur ants</w>
zast av
ion ally</w>
ež egod
funk cii</w>
em l
respon sibility</w>
press ure</w>
ar ran
zv u
inter nal</w>
G os
vari ety</w>
ž itʹ</w>
- -
mest nyh</w>
vill age</w>
quick ly</w>
revol û
в </w>
din am
bliž aj
fin ally</w>
la ws</w>
el ements</w>
pro mis
ru b
ra h</w>
w all</w>
foc us</w>
dv uh
adv anced</w>
mar š
en able</w>
m and
allow ed</w>
sob r
postav ŝ
al ist</w>
n ic</w>
him self</w>
benef its</w>
€ </w>
dec ided</w>
iz m</w>
len a</w>
N o
polit ika</w>
num er
sek ret
te j
S ar
pi ŝ
Fac ilities</w>
install ed</w>
Sov eta</w>
kulʹtur y</w>
dol gosroč
sess ion</w>
c er</w>
my sl
c ut
ran ee</w>
region e</w>
A G
bor n</w>
ay er</w>
A L</w>
ag ricul
rele ase</w>
se g
more over</w>
no vost
st il
rab ot</w>
m ist
regist ration</w>
ž a</w>
f it
vod a</w>
cour t</w>
prav ilo</w>
per haps</w>
fol low</w>
A P</w>
mod el
ut y</w>
en ciâ</w>
èlektron noj</w>
phot o</w>
prov in
B r
plat ež
do ct
™ </w>
be ach</w>
b ros
к о
opportun ities</w>
po kol
O R</w>
nost âmi</w>
lan ds</w>
t om
princi p
Gu est</w>
fak tor
razvit iû</w>
n est
ot zyvy</w>
S tre
em yj</w>
klass a</w>
finansov yh</w>
M S</w>
meždunarod noj</w>
up d
vo -
O F</w>
P S</w>
us h
vliân ie</w>
R em
any thing</w>
dou ble</w>
apart ments</w>
l ate</w>
vopro sov</w>
a â
kriz isa</w>
worl d
D N
program mu</w>
ru bl
giv es</w>
el ess</w>
qu iet</w>
su deb
avtomobil ej</w>
vid ov</w>
ans wer</w>
compet ition</w>
й </w>
vo č
k at</w>
in vit
tain s</w>
Isl am
cor e</w>
offici als</w>
b ad</w>
minut e</w>
to ol</w>
appe ar</w>
pap er</w>
P rav
vy hod
S E
am p</w>
feat ure</w>
ne y</w>
C z
respon se</w>
St ud
gosudar stv
enterpris es</w>
li es</w>
pod čer
Depart ment</w>
con stan
trav el</w>
polʹzovatel â</w>
kras iv
s il</w>
H ouse</w>
pre h
otvetstven nostʹ</w>
gam es</w>
w ish</w>
H um
pr ist
m in</w>
regist ered</w>
relig ioz
aûŝ im</w>
â â</w>
zas ed
obsu žd
f all</w>
T w
ा </w>
sent âbrâ</w>
sotrud nikov</w>
dev ices</w>
uč en
ex c
St at
no vaâ</w>
dan nogo</w>
ici al</w>
usil iâ</w>
a w
mo g</w>
l as
ʹ by</w>
faj l</w>
accor dance</w>
k amp
aûŝ iesâ</w>
su n
posred stvom</w>
bolʹš oe</w>
dom aš
P olʹ
uslov ij</w>
f ication</w>
an ing</w>
Al ex
kontro li
direct ion</w>
an ese</w>
Manag ement</w>
ant ly</w>
effici ent</w>
tirov atʹ</w>
moder niz
separ ate</w>
priv lek
polož eniâ</w>
3 3</w>
ant a</w>
osnov nye</w>
Tran s
n or</w>
but ton</w>
o ther
ned el
upravl enie</w>
serti fik
liv es</w>
Bul g
R ob
los s</w>
it ive</w>
7 5</w>
inter fej
&apos; m</w>
aliz ed</w>
mir u</w>
M ad
D ar
ar ily</w>
bel iev
z on
no min
et ic</w>
M at
k ad
W in
v eg
naš em</w>
I K
â ni
dostiž eniâ</w>
z â</w>
ak s</w>
im eni</w>
relig ious</w>
Nom era</w>
ver d
go al</w>
н о
persp ektiv
ris e</w>
pro s</w>
c os
organiz ed</w>
od nu</w>
k re
M aj
infra structure</w>
del a</w>
maj ority</w>
bal an
polit ičeskih</w>
em at
ved ʹ</w>
ect ively</w>
nû û</w>
S lov
trebov aniâm</w>
iru etsâ</w>
ûs ʹ</w>
ug h
svo imi</w>
sh e
2 4-
soobŝ eniâ</w>
an i</w>
po tom</w>
muzy k
P hot
c u</w>
appl y</w>
issledov anij</w>
aud i
predostav lâet</w>
K yrgy
vir t
sup ported</w>
u važ
ri a</w>
zapis i</w>
br id
tov arov</w>
off ering</w>
er o</w>
otnos âŝ
raz ruš
s pros
kotor ymi</w>
wor ked</w>
S O
ml r
recep tion</w>
un its</w>
ann ual</w>
ani âh</w>
n elʹ
n en
loc k</w>
ban ka</w>
ko g
in side</w>
y n
itelʹ nostʹ</w>
e f</w>
R F</w>
dist rict</w>
ž ert
2 4
vypoln eniâ</w>
maxim um</w>
US D</w>
ber eg
Des k</w>
s ave</w>
col or</w>
b ul
fir e</w>
kak ie</w>
su toč
knop ku</w>
svâz any</w>
inst all</w>
d ver
mov ement</w>
v i</w>
w o
krov at
Peter sburg</w>
g a
met all
g on
faj lov</w>
desât ilet
sel ected</w>
az </w>
sto âtelʹ
prošlo m</w>
f a</w>
S ea</w>
ocen ki</w>
he al
T ro
iv ity</w>
l ob
de fault</w>
thous and</w>
B ur
razdel e</w>
tran sm
larg er</w>
pl us</w>
al om</w>
iss ii</w>
prev ent</w>
e ing</w>
obŝ ego</w>
Y ork</w>
sub sid
ego sâ</w>
nak on
vybr atʹ</w>
get ting</w>
ast ing</w>
n eniâ</w>
Bo ard</w>
gosudar stv</w>
ov ali</w>
est ed</w>
ov anie</w>
i .
S ou
ko ordin
D ay</w>
vozmož nostej</w>
ny neš
exter nal</w>
naš li</w>
id a</w>
L E
c in
mnogo čislen
milli ar
iz ol
O O
sust ain
soverš enno</w>
lo k
press ion</w>
sur pris
V sem
pl ot
interest ed</w>
polit ičeskoj</w>
po verh
za pros
Syst em</w>
Ob ama</w>
prâm o</w>
nelʹ zâ</w>
Q </w>
s ources</w>
itelʹ nym</w>
automat ically</w>
coun t</w>
buduŝ em</w>
zan ât
M od
under standing</w>
for ward</w>
start ing</w>
rež ime</w>
ron t</w>
plan ning</w>
democ racy</w>
zdravoohran eniâ</w>
as si
fran cuz
e br
vzaim odejstv
primen eniâ</w>
prem ʹ
dokum entov</w>
territ or
pr on
5 0
long -term</w>
I s
dy nam
pere voz
sl a
appl ic
cal cul
by st
s ens
co ordin
P os
O ne</w>
un ds</w>
ist ics</w>
l ite</w>
ed y</w>
per vogo</w>
ov oe</w>
p as
F e
A ct
strateg ic</w>
prav ila</w>
book s</w>
ras skaz
ar gum
organ ov</w>
mart a</w>
er c
immedi ately</w>
f ab
fra mework</w>
dan nym</w>
acion nyh</w>
investic ij</w>
zam en
peri od
T S</w>
re t</w>
gosudarstven nyh</w>
py ta
vsem i</w>
an nym</w>
G al
mem ory</w>
funct ions</w>
Sec ret
osnov noj</w>
vis itors</w>
Brit ish</w>
zvez doč
sh opping</w>
jo int</w>
mark et
ext ra</w>
C D
k ul
3 ,
mo gl
marš ru
re ached</w>
T P</w>
mog u</w>
ispolʹzov aniem</w>
Ital y</w>
requi res</w>
ì </w>
over y</w>
prot ect</w>
Û N
y sl
bi bliot
M S
nahod âŝ
ž il
viol ence</w>
Vsem ir
sh op</w>
if e</w>
= </w>
civ iliz
E m
t aj
biznes -
St .</w>
spra ved
c andid
k iv
specialist ov</w>
M V
ak a</w>
grup p</w>
regul ar</w>
en da</w>
dopolnitelʹ nye</w>
il le</w>
ra t</w>
ho od</w>
an ov</w>
K an
stra d
hot els</w>
Ad minist
nem ec
con tract
bro w
et ary</w>
em ail</w>
èk spor
region a</w>
J es
dl ež
minut ah</w>
acion noj</w>
N acij</w>
faj ly</w>
than ks</w>
zdorov ʹâ</w>
form ed</w>
ed ing</w>
T ru
vs û</w>
ं </w>
princi ples</w>
spraved liv
sugg est</w>
tra in</w>
g ave</w>
š im</w>
ispolʹzu â</w>
re ported</w>
kon cep
va etsâ</w>
Ot zyvy</w>
ici ans</w>
An dre
zn aniâ</w>
sposob </w>
pred met
an noe</w>
ob eŝ
ide as</w>
Azer bajdž
in i</w>
iv nye</w>
v rač
inte gra
sto imosti</w>
ach ieve</w>
wal king</w>
t ask</w>
p ens
Afg h
Aleks and
so sed
stat ʹi</w>
ing -
elect ions</w>
iû nâ</w>
glo sutoč
alʹ nomu</w>
condit ioning</w>
kollek cii</w>
4 00</w>
Obʺ edinennyh</w>
lin ks</w>
Rossij skoj</w>
con struct
O per
S et
m ap</w>
prep ared</w>
un for
ek t</w>
sp ect
G ra
ni budʹ</w>
at ur
V .
be y
z el
M y
un g</w>
eff ects</w>
material y</w>
dis play</w>
pr er
199 7</w>
A V
s ale</w>
Moldov a</w>
sto ck</w>
obʺek tov</w>
us eful</w>
con fir
S N
art s</w>
reas ons</w>
ul ar</w>
yva ûtsâ</w>
bud em</w>
vo c
dic t
P rov
eph one</w>
kil omet
in j
m aâ</w>
G az
predlož eniâ</w>
s u</w>
fir my</w>
ovan nyh</w>
ič to
pre st
L en
K y
plo h
sign ed</w>
ak ov
ra se</w>
K ras
ass ets</w>
bal ance</w>
si ej</w>
V o
sro č
jour nal
comfor t</w>
si j</w>
Al ʹ
a e</w>
recor d</w>
stupl eniâ</w>
n atʹ</w>
zna men
H el
kontro lʹ</w>
c ut</w>
za poln
is c
nam es</w>
znač eniâ</w>
treb ovaniâ</w>
až </w>
et ings</w>
organiz aci
pr ik
polno moč
dec or
atmo sfer
po vodu</w>
1 50</w>
raj one</w>
mo st
et esʹ</w>
lo m</w>
spor ts</w>
w anted</w>
min er
h ou
ic o</w>
i el
gražd an</w>
L o
pe ac
otdy ha</w>
import ance</w>
tekst y</w>
9 -
C H
your self</w>
s auna</w>
itel âm</w>
Con ference</w>
dal ee</w>
op ening</w>
bl ok
po g
est ate</w>
dost ign
I A</w>
v pervye</w>
otvetstven nosti</w>
C ap
tâ žel
and er</w>
pro pos
pod n
invest ors</w>
s .
plan e</w>
s ad
vol ume</w>
w ood</w>
V O
bey ond</w>
sost av</w>
û ž
nacion alʹnoj</w>
un ičto
prinim atʹ</w>
vo krug</w>
me an</w>
gl âd
anci ent</w>
rele ased</w>
f ant
Zap ad
ed ul
Azerbaij an</w>
alʹ ân
bolʹš aâ</w>
fiel ds</w>
ear li
s usp
telev iz
vir tu
im ag
h ot</w>
naš im</w>
R ed</w>
soû z
special ists</w>
by t
Go sudar
B ak
sem ʹi</w>
du hov
stran ica</w>
ag g
com preh
r ing</w>
d iver
člen y</w>
ro da</w>
produkt y</w>
proced ure</w>
itelʹ noe</w>
p aci
igh ting</w>
po ur</w>
id ents</w>
A cc
kon cer
Gre at</w>
comp ared</w>
cra ft</w>
izmen enij</w>
bod ies</w>
° </w>
P riv
t rying</w>
ig ratʹ</w>
met ro</w>
način aâ</w>
poin ted</w>
v pečat
H or
ko sm
n on
pozvol it</w>
v stup
m o</w>
em ogo</w>
prež nemu</w>
re ta
direkt or</w>
al one</w>
G am
Cl ub</w>
prog no
sl ab
fak t</w>
Uzbek istan</w>
gre at
Pr in
ob ject</w>
ab sol
Gr and</w>
F ir
ri f
nedviž imosti</w>
voz ni
enterpris e</w>
US A</w>
So ci
č to-to</w>
og ov
democ ratic</w>
rezulʹt atov</w>
de g
z nakom
obʺ em</w>
vaš i</w>
id et</w>
gu e</w>
v ami</w>
c off
contra ct</w>
li ament</w>
im ages</w>
sh ops</w>
stor age</w>
govor itʹ</w>
integ ration</w>
benef it</w>
as ks</w>
a .
avtomat ičeski</w>
rel ax
zavis it</w>
manufact ur
strateg ii</w>
la w
for ced</w>
bl ack</w>
surro un
conveni ent</w>
mot iv
Armeni a</w>
kas aetsâ</w>
sluča ev</w>
sett ings</w>
d an</w>
rim in
izmen itʹ</w>
u d</w>
ep t</w>
n is</w>
kart y</w>
F re
I s</w>
wr ite</w>
announ ced</w>
C E</w>
ev alu
ʹ ma</w>
per ek
ur b
soderž aŝ
predostavlâ etsâ</w>
pod hod</w>
ovan nye</w>
server a</w>
r ent</w>
ent ed</w>
j stv</w>
plan ts</w>
c ik
organiz aciâ</w>
pre pât
gy p
ispolʹzov anii</w>
M em
n ation</w>
I ran
pit aniâ</w>
ič nyh</w>
um b
i kom</w>
ostav leny</w>
decis ions</w>
sy ch
alʹ ternat
zakon č
p ip
oper acii</w>
baz y</w>
u x</w>
li f
sob ira
alʹ nostʹ</w>
de put
K al
i or</w>
no voe</w>
W ar
R u
fil m</w>
so provo
ast s</w>
K rem
pres ents</w>
G ruz
sel ection</w>
9 5</w>
er ship</w>
d im
ic u</w>
3 4</w>
co -
atelʹ stva</w>
at orov</w>
veroât no</w>
kom ment
3 6</w>
rem on
S ain
um s</w>
R U
ru etsâ</w>
I ON</w>
uvid etʹ</w>
hap py</w>
appe ared</w>
o edin
tak aâ</w>
r an</w>
th -
am en
č ik</w>
a i
P age</w>
individu als</w>
ici ent</w>
nik to</w>
re view</w>
g -
kon dicion
ad vis
nov ʹ</w>
gra de</w>
bu ff
k uda</w>
proto kol
it ems</w>
P or
otd el</w>
0 s</w>
predstav iteli</w>
ass ess
tra ding</w>
ud ač
Pro f
O M
do j</w>
er živ
sur v
str ong
nomer ah</w>
regul âr
no č
v novʹ</w>
predlag aem</w>
aûŝ ego</w>
Ch urch</w>
num bers</w>
baz e</w>
y er</w>
T aj
W i-
C E
T al
Ch ar
mik ro
sk ills</w>
dis ci
W e
dekabr â</w>
parl ament
anal y
D S</w>
gener ation</w>
condit ion</w>
um ol
ca used</w>
comm and</w>
won der
defin ed</w>
zadač </w>
peredač i</w>
br ary</w>
avo id</w>
lûbo go</w>
po to
effici ency</w>
el ing</w>
čety re</w>
Direct or</w>
š ee</w>
it er
Pro du
bi ra
neobhodim ye</w>
Feder acii</w>
absol ût
L û
A C</w>
vlad elʹ
ž eniâ</w>
pris oedin
no w
play ing</w>
olog ii</w>
k anal
ho st</w>
otra sl
Kon fer
un it</w>
V V
l û</w>
perečis len
eep ing</w>
O P
car ds</w>
Bl ack</w>
den eg</w>
ी </w>
osto âtelʹ
g ress</w>
r enie</w>
smer t
Jes us</w>
ch urch</w>
sym bol
pod verg
procent ov</w>
a âsʹ</w>
advant age</w>
nacion alʹnyh</w>
п о
certi fic
bolʹš im</w>
èkonom ičeskih</w>
ear ch</w>
tab elʹ
neposred stvenno</w>
ezd y</w>
or g</w>
lin ii</w>
atel em</w>
F und</w>
Bo x</w>
obrazov anie</w>
mic ro
res h</w>
perv uû</w>
ra cion
atelʹ noj</w>
hous es</w>
b on</w>
La w</w>
atel lite</w>
kak oj</w>
ob vi
obrat itesʹ</w>
otnoš enie</w>
podderž ka</w>
zad erž
oč nyh</w>
P ublic</w>
Wi- Fi</w>
Ch ec
c over</w>
E ar
st able</w>
učast iâ</w>
kriz is</w>
pamât i</w>
hol ders</w>
an te
kak uû
predstav itelej</w>
E gyp
stven nogo</w>
govor ât</w>
ë m</w>
ect or</w>
sp ekt
e ë</w>
appl ied</w>
K ru
h rist
lûbo e</w>
pl âž
promot e</w>
kol l
gaz a</w>
s em</w>
vs ë</w>
ris ks</w>
t or</w>
cen e</w>
komfor tabelʹ
f air</w>
deliver y</w>
prot est
okt âbrâ</w>
kapit ala</w>
ec om
su d</w>
iv eness</w>
g id
naš e</w>
ch ance</w>
bolʹš uû</w>
ex tra
rash ody</w>
im per
re put
rest ric
na skolʹko</w>
dam age</w>
kor ot
t ing
poz it
nakon ec</w>
educ ational</w>
finansov oj</w>
tech ni
S in
desc ription</w>
vo obŝ
co ok
opin ion</w>
ar ab
pre vyš
I f</w>
d ivid
pun kt
pass ed</w>
obj ects</w>
m eni
Č er
out put</w>
DV D</w>
kompani ej</w>
ar -
o x</w>
J av
6 4</w>
legisl ation</w>
L t
S um
v ul
dan s</w>
ment ioned</w>
traff ic</w>
ʹ â
p ass</w>
rabot aût</w>
set ʹ</w>
6 5</w>
prič in
temperat ure</w>
vit sâ</w>
mod els</w>
stven nye</w>
world wide</w>
beh avi
compon ents</w>
rež im</w>
stran a</w>
mark eting</w>
3 8</w>
ani stan</w>
thous ands</w>
glav nym</w>
а н
nov uû</w>
ign or
l eniû</w>
Associ ation</w>
char ged</w>
sostoân iâ</w>
we ight</w>
priv esti</w>
zv on
po- prežnemu</w>
pon âtʹ</w>
3 9</w>
rel ess</w>
ičes komu</w>
li qu
nam ed</w>
osna ŝ
form u</w>
J SC</w>
konkur ent
F ree</w>
en -
L iv
S mo
instru ment</w>
charac ter</w>
pra vo
pro hod
con stitut
ub a</w>
ŝ el
atelʹ nye</w>
t am
rat ing</w>
p ast
call s</w>
ar ity</w>
et u</w>
obuč eniâ</w>
cer em
otno sit
S pa</w>
V ik
depart ment</w>
campa ign</w>
podgotov ki</w>
zaâv il</w>
N ikol
nalič ie</w>
Ac adem
ing u
bassej n</w>
re b
ey es</w>
guar ant
nat ur
ab solut
ess ential</w>
go es</w>
H rist
meropriât ij</w>
Ch r
dan nom</w>
k y</w>
extrem ely</w>
ex port</w>
T at
sostoân ie</w>
nazv anie</w>
ošib ku</w>
s ing
ot ov
er g
regar ding</w>
sam ol
ex erc
reas on
coun ter
ativ ely</w>
p .</w>
199 0</w>
Jap anese</w>
Saf ety</w>
nav ig
tar get</w>
Georg ia</w>
ves ʹma</w>
Mid dle</w>
v encii</w>
raz a</w>
author ity</w>
sved eniâ</w>
tur ist
hou se
pur su
St and
evid ence</w>
re pe
st i</w>
spe ak</w>
po ezd
nef ti</w>
bû ro</w>
reg ime</w>
dv um
kost i</w>
han ds</w>
stroitelʹ stva</w>
ne č
ar end
P red
pro ŝ
demon strat
S te
bolʹš ej</w>
tal k</w>
sobstven nosti</w>
fact ors</w>
neobhod imostʹ</w>
vzgl â
nem nogo</w>
mor ning</w>
kv i</w>
a rov
v klad
av es</w>
do h
me etings</w>
B as
Fran cii</w>
ra g
sub sc
Pol and</w>
in skoj</w>
G ent
kraj nej</w>
is es</w>
ug ro
posit ions</w>
funk ciû</w>
kak oj
p âtʹ</w>
car ry</w>
cor rup
količestv a</w>
i šʹ</w>
ânv arâ</w>
C re
et te</w>
stav ki</w>
borʹ be</w>
е р
B uš
fix ed</w>
izvest no</w>
P i
f arm
elect ronic</w>
s niz
y al</w>
B ush</w>
to ward</w>
leg č
te at
aci ous</w>
Sc ript</w>
biz nes</w>
er e
lear ning</w>
u k</w>
resol ution</w>
polit iku</w>
serv ers</w>
ess ion</w>
S il
J e
s na
guar ante
opis anie</w>
у </w>
oc k</w>
tain ing</w>
prim eč
per man
komand y</w>
č ika</w>
ag encies</w>
concer ning</w>
av to
weap ons</w>
ov om</w>
hoč et</w>
dovolʹ no</w>
dig ital</w>
ʹ še</w>
uč etom</w>
do kt
ustro jstva</w>
s ih</w>
par all
mom enta</w>
or ož
effor t</w>
numer ous</w>
pr en
earli er</w>
inst itu
g est</w>
o x
fl ex
S ej
I G
giv ing</w>
relation ship</w>
f low</w>
AN D</w>
hum an
rem ember</w>
S em
Po int</w>
pro vesti</w>
mot retʹ</w>
iv aût</w>
ryno č
re ality</w>
sm all
mast er</w>
I R
u stran
vo ice</w>
ad ed</w>
K os
valût y</w>
rem ov
sec ure</w>
ov any</w>
a id</w>
vy čaj
Joh n</w>
v nes
S E</w>
umol č
dvum â</w>
sov sem</w>
h op
ain ing</w>
con cent
kom bin
excep t</w>
iû lâ</w>
wom an</w>
agre ed</w>
voobŝ e</w>
1 000</w>
èffektiv nosti</w>
sotrudničestv o</w>
ič noj</w>
st ory</w>
nes -
anič es
norm al</w>
gre en</w>
bor der</w>
mor â</w>
kart inki</w>
predlož enie</w>
enc -
C y
ar i</w>
buil dings</w>
some one</w>
B reak
ud el
N on-
minist r</w>
Ki ev</w>
ic h
clo sed</w>
rezulʹt at</w>
prim ary</w>
vo k
cir cum
u ters</w>
at o</w>
air man</w>
­ </w>
Âpon ii</w>
sch edul
povyš eniâ</w>
sp ac
scho ols</w>
other wise</w>
g g.</w>
b ory</w>
on laj
toč no</w>
pom imo</w>
do k</w>
otra sli</w>
bolʹš ie</w>
op yt
199 5</w>
S i
st ability</w>
in valid
elect ric
auth or</w>
s mogut</w>
borʹ by</w>
pro z
mod elʹ</w>
R ights</w>
stan e</w>
accep t</w>
cle arly</w>
ploŝad i</w>
pro dav
A R</w>
P re
apre lâ</w>
199 6</w>
pol nyj</w>
y sk
intell ekt
umolč aniû</w>
IN G</w>
Dav id</w>
it ation</w>
beg in</w>
H P</w>
associ ated</w>
sam ostoâtelʹ
vyso koj</w>
otv or
nač atʹ</w>
l eniem</w>
M ass
ap er</w>
o pol
s .</w>
ʹû -
lûd ʹmi</w>
S up
pic ture</w>
nikak ih</w>
s men
3 7</w>
invest ments</w>
br and</w>
soverš en
lead ership</w>
it ch</w>
cap it
ne vozmožno</w>
M art
drug om</w>
lo g</w>
Ne w
uspeš no</w>
becom es</w>
serv is
V ar
dest ro
over all</w>
u etsâ</w>
raz mer</w>
complet ed</w>
ordin ary</w>
ra sp
v ej
e ar</w>
o th</w>
or us
gosudar stvo</w>
sett l
wh om</w>
zar ubež
pois ka</w>
obrabot ki</w>
C ur
M usl
I II</w>
ran ʹše</w>
v pol
sko -
intell ig
B en
fa ther</w>
SM I</w>
pro vis
bl ood</w>
poluč il</w>
famil ies</w>
vy e</w>
priv et
cop y</w>
z ony</w>
priv il
A -
aèro porta</w>
D E
âzy k</w>
zadač i</w>
soobŝ enie</w>
pa th</w>
dopolnitelʹ nyh</w>
c ros
th ers</w>
s ʺ
issu ed</w>
in du
sp a
guarant ee</w>
R el
Kom it
v vidu</w>
vpol ne</w>
komplek s</w>
program mnogo</w>
po š
e en</w>
op position</w>
manag ed</w>
âzy ke</w>
proekt y</w>
by stro
ib ility</w>
pr or
krup nyh</w>
rat itʹ</w>
res ist
t il
S an</w>
obno vleniâ</w>
soglaš eniâ</w>
bes ides</w>
m alo</w>
klient a</w>
kop irovanie</w>
ak es</w>
op t
S C
t ons</w>
ženŝ iny</w>
b rat
molod ež
concep t</w>
mest ah</w>
so žal
prodaž i</w>
vy bran
per form</w>
ib o</w>
ri d</w>
s možet</w>
Fi re
sw imming</w>
com b
R az
Cor por
k en</w>
čis la</w>
adop ted</w>
priv leč
sem ej
I is
pi š
proced ures</w>
no g
b our
lik vid
s ex
tel ephone</w>
Manag er</w>
appe ars</w>
aâ sâ</w>
fu el</w>
perform ed</w>
z i</w>
E astern</w>
sur face</w>
S S</w>
U K</w>
s ign</w>
is s</w>
I V
dviž enie</w>
oruž iâ</w>
appro xim
person nel</w>
iru ût</w>
det i</w>
D ol
gra d
ap y</w>
cas h</w>
lûd âm</w>
ič nye</w>
im ent
de ep</w>
ev ye</w>
no âbrâ</w>
al ed</w>
su s</w>
par ents</w>
in struct
der ed</w>
inici ativ
ak cion
ab road</w>
id ing</w>
reg ard</w>
mus ulʹ
for um</w>
Tech nolog
f ight</w>
ph as
So edin
K a
zar abot
e uro
M ot
fur n
ro man
posled nih</w>
plat form</w>
und ry</w>
IS O</w>
re form
sib ilities</w>
sobyt iâ</w>
ing dom</w>
dom ain</w>
ani an</w>
writ ing</w>
V ic
Ital ian</w>
avt ob
mo z
gosudarstven nogo</w>
sobyt ij</w>
El ect
ifik acii</w>
cont em
iz ing</w>
spo ko
ad equ
silʹ no</w>
h az
klûčev ym</w>
s quare</w>
differ ence</w>
ma inten
pleas ant</w>
P D
sim ul
resur sy</w>
integ rated</w>
doll ar</w>
no ted</w>
sn im
n ica</w>
crit ical</w>
fev ral
tun ately</w>
F on
znamen it
il ing</w>
tran spar
meropriât iâ</w>
kon f
pract ical</w>
met al</w>
len g
cu is
oper ativ
T ime</w>
ob stoâtelʹ
duma û</w>
prilož eniâ</w>
S .
eŝ ë</w>
pover ty</w>
F ront</w>
T re
glub ok
ag ency</w>
poz ici
manufact uring</w>
drugo e</w>
ras sčit
stru g
g rat
prinât iâ</w>
kakuû -libo</w>
н а
obâz an
učast niki</w>
S to
P L
off ic
i th</w>
mach ines</w>
ne arly</w>
pres ence</w>
any one</w>
ar ms</w>
ro žd
recog n
proper ties</w>
harakter ist
črez vyčaj
in ess</w>
5 5</w>
lûb om</w>
sekt ora</w>
mess ages</w>
ro li</w>
uslug am</w>
perem eŝ
ob z
we eks</w>
ež ednev
atelʹ nogo</w>
Wh at</w>
ter y</w>
èlekt r
Hum an</w>
plat u</w>
j e
nač alo</w>
kl et
âzy ka</w>
el se</w>
tys .</w>
st itution</w>
oŝ uŝ
av gu
g en</w>
nezavis im
gar den</w>
d am</w>
oz nakom
lo ad</w>
att ack</w>
pre byv
ug gage</w>
w in</w>
opredel itʹ</w>
vs â
ap preci
H y
znač it</w>
stud ies</w>
iv al</w>
v stret
prin t</w>
ne ar
qu et</w>
fer red</w>
mainten ance</w>
klim ata</w>
bl o
vnim aniâ</w>
Kyrgy z
ne ver
or al</w>
describ ed</w>
own ed</w>
soci alʹnoj</w>
м </w>
at om
av ec</w>
aim ed</w>
gosudarstven noj</w>
iss ions</w>
bolʹš ih</w>
dokum enty</w>
p sych
f ill</w>
proc e
anal iz</w>
d rev
c atʹ</w>
rev en
se em</w>
al ʹ</w>
res ort</w>
â pon
kommun ik
svob ody</w>
sovmest no</w>
b att
M ob
gener ally</w>
stan cii</w>
oc eni
detail ed</w>
gar ant
G O</w>
sk in</w>
econom ies</w>
oper ate</w>
ph rase</w>
razrabot ke</w>
recommen d
ispolʹzu ûtsâ</w>
per est
in ks</w>
H ost
challen ges</w>
blagod ar
nedost atoč
inter face</w>
fra g
mid dle</w>
um er
tain ment</w>
kost ʹ</w>
na sled
na pad
ach ing</w>
suŝestv uût</w>
ek u</w>
main tain</w>
ber g</w>
poluč ili</w>
S K
privil eg
In dust
Vaš ego</w>
Smo king</w>
ater al</w>
n -
v ne</w>
6 00</w>
qu ar
C ro
čety re
P rem
stra hov
pol noj</w>
porâd ke</w>
v an</w>
em ed</w>
K ing</w>
sl e
multi ple</w>
accoun ts</w>
pres s-
voz ra
vlast ʹ</w>
pos l
hudo ž
ar ii</w>
l ân
holid ay</w>
stran ami</w>
isklûč itelʹno</w>
K u
id em
od ob
disci pl
pod razdel
ob s</w>
ban king</w>
conduct ed</w>
Z av
s ion
B est</w>
combin ation</w>
pre podav
sp acious</w>
O ut</w>
ь </w>
iv aniâ</w>
it im
kotor omu</w>
f ine</w>
D u
sk lad
it an
programm es</w>
god ov</w>
ant y</w>
pur poses</w>
certain ly</w>
int ens
L ord</w>
met res</w>
hol ding</w>
foun ded</w>
uz natʹ</w>
oc k
rash odov</w>
slov om</w>
otdelʹ nyh</w>
stor e</w>
slov am</w>
ra m</w>
v ak
Prim e</w>
so krat
kom an
fin ance</w>
4 8</w>
rossij skih</w>
ass em
coll abor
podderživ aet</w>
Al l
vosh od
consum ption</w>
N ʹû-
predostav itʹ</w>
bre ak</w>
e es</w>
fac ilit
Ob ŝ
vy nužd
Moskv e</w>
h om</w>
ro sko
vyso kim</w>
en nomu</w>
mn eniû</w>
bed s</w>
si an</w>
mo ther</w>
priz na
ro de</w>
rev e
coff ee</w>
S im
col </w>
rezer v
int ended</w>
bes provod
z aj
z olot
sto od</w>
kaž dom</w>
sustain able</w>
P av
predotv raŝ
h ron
S U
at ora</w>
nač al</w>
er ies</w>
kur s</w>
nastroj ki</w>
establ ishment</w>
u â</w>
ut sâ</w>
suŝestv uûŝ
sm ysl
ud alosʹ</w>
trud no</w>
ish es</w>
ak i</w>
princi ple</w>
komplek s
ic ate</w>
prof it</w>
Pro ject</w>
De posit</w>
aut om
D iv
it ude</w>
eč naâ</w>
stroitelʹ stvo</w>
emer g
dou b
H o
199 1</w>
N Y
In formation</w>
ode ždy</w>
follow ed</w>
em phas
polit ičeskie</w>
tra ck</w>
poluč atʹ</w>
aûŝ aâ</w>
finansirov aniâ</w>
ispolʹz uet</w>
c ena</w>
vid y</w>
I .</w>
razviv aûŝihsâ</w>
t asks</w>
ek e</w>
Glob al</w>
pal est
teh niki</w>
riv er</w>
advert ising</w>
cuis ine</w>
cover ed</w>
ul ts</w>
199 2</w>
ex ce
perev od
intellekt u
n û</w>
C as
è p
zn atʹ</w>
z r
istor iâ</w>
Fl or
chan ging</w>
Vost očnoj</w>
kt -
A D</w>
osuŝest vleniâ</w>
proved enie</w>
bag aža</w>
l ant
D o</w>
re al
op rav
f our
10 .
vid om</w>
bl og</w>
4 ,
ti p
K h
hot ât</w>
St ation</w>
ra ilʹ
Kor ea</w>
main ly</w>
Peter bur
ens es</w>
eng ine</w>
war m</w>
stol ʹ</w>
učit yvaâ</w>
moun tain</w>
on t
alʹ no-
u be
wor th</w>
kom anda</w>
pre -
èkonom ičeskij</w>
po možet</w>
A ut
pred ic
ct ions</w>
8 00</w>
reli able</w>
alternat ive</w>
pozvol âût</w>
mor t
zav trak</w>
histor ic</w>
Ber lin</w>
isc al</w>
ri an</w>
sho wer</w>
analiz a</w>
gl ass</w>
ot men
deg ree</w>
Stre et</w>
zap as
D et
ar d
itelʹ stva</w>
F oundation</w>
thre at</w>
D -
kom is
ikol ep
experi enced</w>
ev e</w>
F ax</w>
Mus eum</w>
dr .</w>
vy raz
obʺ âv
lûby e</w>
ml n</w>
s û
For um</w>
ûŝ ij</w>
vy sot
en h
I C</w>
est er
H e</w>
vl ek
increas ingly</w>
ak cij</w>
pravilʹ no</w>
M O
situ aciâ</w>
En ter
podderž ke</w>
met ers</w>
sp end</w>
compreh ensive</w>
V ie
diag nost
or ders</w>
exp ensive</w>
p uŝ
commun ities</w>
pr âž
koll ektiv
4 0
opas nosti</w>
polit ike</w>
cif ro
im possible</w>
oper s</w>
D an
ic king</w>
L an
P C
finansov ye</w>
equ al</w>
sel l</w>
inform aciej</w>
po stanov
dis ease</w>
Ind ii</w>
t iâ</w>
struct ures</w>
rabot nikov</w>
St ar
pod ʺ
jo in</w>
U T
Jav a
ing i</w>
otnoš eniû</w>
uvelič enie</w>
vos polʹzovatʹsâ</w>
čuv stv
Ex press</w>
prez ent
exp ect</w>
y m
lû z
B ož
B C</w>
N at
oper acij</w>
big gest</w>
ot ric
Stor age</w>
rast uŝ
el im
bud ete</w>
Gos pod
ov uû</w>
proz rač
concer ned</w>
ič nyj</w>
irov any</w>
bezopas nostʹ</w>
VV P</w>
N az
kl in
iv noj</w>
osuŝestvlâ etsâ</w>
L ife</w>
establ ish</w>
vel ikolep
nak az
4 4</w>
nast olʹko</w>
smer ti</w>
gotov y</w>
čet ver
uro j</w>
an sw
di alog</w>
implement ed</w>
sčit aet</w>
govor â</w>
transpor tation</w>
stat ement</w>
gar an
A dv
vybor ov</w>
pat ter
de š
n icy</w>
SP ID
â la</w>
iv nogo</w>
leg itim
R am
st one</w>
kur âŝih</w>
mean ing
pri or</w>
w it
fevral â</w>
pre od
drugo go</w>
in ž
San kt-
ded icated</w>
ent ry</w>
pati ents</w>
it ual</w>
lim it</w>
Ear th</w>
F er
kit chen</w>
in ov</w>
nedost at
Afgh anistan</w>
im port</w>
ic ed</w>
tru th</w>
o žd
As sem
particip ate</w>
ag ree</w>
success fully</w>
spre ad</w>
zv uč
test ing</w>
drug a</w>
otlič ie</w>
for d</w>
uŝ er
otsut stvie</w>
širo kij</w>
soprovo žd
predus matriv
polit ics</w>
G DP</w>
Soû za</w>
Prez ident
respon d
ad just
х </w>
H a
v ac
E nerg
T or
storon u</w>
st ek
art icles</w>
Z em
J o
k u
S cho
iskus stva</w>
t our</w>
sp ut
lab or</w>
š i</w>
po h
f as
peri oda</w>
k ept</w>
l un
depend ing</w>
d il
‑ </w>
D e</w>
D ef
199 4</w>
osv obo
škol y</w>
pak et</w>
E X
ent e</w>
Me eting</w>
f iscal</w>
va h</w>
protiv or
na pit
in ary</w>
Inter n
sozdav atʹ</w>
bl og
th or
un less</w>
pro m
s atellite</w>
vic t
us ual</w>
vari ant</w>
Gent oo</w>
blag opriât
vyso kogo</w>
ni a</w>
Sw ed
ko d</w>
fo ot
kog da
sistem oj</w>
\ </w>
He ating</w>
cont ext</w>
f em
8 0
avgu sta</w>
direct or</w>
sohran itʹ</w>
c ov
b un
tri p</w>
w er
categ ory</w>
ip ed
vrem en
M en
N aj
exclus ive</w>
min i-
oc op
Sof tware</w>
net works</w>
ras stoân
Chr ist</w>
f raz
is ms</w>
ut tle</w>
go als</w>
posled stviâ</w>
4 2</w>
anal it
priv at
we ak
U p</w>
P lan
He alth</w>
post -
u re
look s</w>
lux ury</w>
tel evid
em entov</w>
aud io</w>
ra spor
spa pers</w>
O ld</w>
is č
sy r
v kus
dol g
wonder ful</w>
recommen ded</w>
con tain</w>
tra dic
at om</w>
publ ic
er ia</w>
or od
approv ed</w>
pervy m</w>
he at</w>
zak ona</w>
win ter</w>
set s</w>
te or
bo k</w>
sl ad
st ations</w>
izmen enie</w>
st ile</w>
v hodit</w>
len no</w>
up date</w>
on e-
sč eta</w>
pozvol âûŝ
lek ar
dv ad
.. ..
w on</w>
iz railʹ
vz rosl
sotrud niki</w>
Prof ess
ex act
proizvod itelej</w>
premʹ er-
Sej f</w>
fig ure</w>
k in</w>
novy m</w>
serd ce</w>
polʹz u</w>
S el
t ŝ
wh at
Turk ish</w>
par ag
c ami</w>
ogro mnogo</w>
g ain</w>
ho ždeniâ</w>
im press
ex ist</w>
sp a</w>
cont in
con sci
akt u
fakt ičeski</w>
Kom p
otnosâŝ iesâ</w>
t ick
rem ove</w>
20 -
qu ant
faj la</w>
ph il
pl ate</w>
prot ected</w>
tvor čes
i x</w>
mi x
I .
ne kurâŝih</w>
lučš ih</w>
l ou
e vogo</w>
harak ter</w>
fel t</w>
re forms</w>
circum stan
T R
chem ical</w>
ari o</w>
plat itʹ</w>
dec l
stra h
र </w>
improv ed</w>
èl ementov</w>
Con tro
- based</w>
Art icle</w>
ez ž
vstreč i</w>
e ur</w>
architect ure</w>
pro posed</w>
lo se</w>
acc es
instan ce</w>
vy god
l ers</w>
E D</w>
irov anii</w>
sp ent</w>
s čast
on ač
predstav itʹ</w>
S pan
eas es</w>
su itable</w>
klient am</w>
ry v
8 5</w>
Lat in</w>
ul tim
rem ent</w>
fail ure</w>
s even</w>
tar if
neg ative</w>
gol d</w>
speak ing</w>
administrat ive</w>
pl ays</w>
ru s</w>
v meš
introdu ced</w>
T im
c ars</w>
S ub
engine ering</w>
sur </w>
S quare</w>
cv eta</w>
beaut y</w>
A ir</w>
M .</w>
specif ied</w>
prav il</w>
suff icient</w>
determin e</w>
telev ision</w>
sozd anii</w>
us y</w>
by va
sub j
plan ned</w>
buduŝ ee</w>
zel en
g ig
finansov ogo</w>
os posob
Break fast</w>
kon fig
stor on</w>
C ust
kompʹû ter</w>
svo emu</w>
sred ot
th inking</w>
m ay
K O</w>
H im
sam bl
gu id
kat alog
pre kraŝ
hol od
C O</w>
Asi an</w>
y ers</w>
fundament al</w>
f ish</w>
Ph one</w>
ž itelej</w>
i ers</w>
V is
redu ction</w>
d j
K at
prošlo go</w>
us kor
Java Script</w>
sl yš
zem li</w>
pris on
ri be</w>
zav ed
streng th
sign al</w>
t ie</w>
sožal eniû</w>
punk t</w>
agre ements</w>
tel a</w>
approxim ately</w>
b ak
b s</w>
demokrat ii</w>
ver siâ</w>
C P</w>
sčit aût</w>
J or
docum ent
G O
L ev
wi reless</w>
combin ed</w>
tek st</w>
f resh</w>
re ference</w>
recommen d</w>
J ew
stv iem</w>
Pak istan</w>
rukovod stvo</w>
fur nit
F aks</w>
concer n</w>
m 2</w>
ac he</w>
ag ue</w>
t ra</w>
sleduûŝ ij</w>
bum ag
nezavis imo</w>
E du
t ill</w>
mov ing</w>
m âg
man age</w>
ste el</w>
reben ka</w>
Assem bly</w>
dejstv uûŝ
isklûč eniem</w>
ot ʺ
ect ives</w>
issledov atelʹ
kol on
rem ote</w>
serv ation</w>
otnosit sâ</w>
g ip
L in
aktiv no</w>
fl ight</w>
opredel eniâ</w>
no čʹ</w>
kon ca</w>
or er</w>
napravl enii</w>
st ated</w>
Velikobrit anii</w>
prop ag
G rup
g olʹ
fir ma</w>
H our</w>
oc cas
W ash
nat ions</w>
apart ament
por â
199 3</w>
E r
ko -
posled nee</w>
re alʹnoe</w>
in vent
becom ing</w>
stat ʹe</w>
laun ched</w>
prec ed
S en
Organiz ation</w>
dl ess</w>
rem ained</w>
recogniz ed</w>
N ok
ob a</w>
acion nye</w>
pract ices</w>
bûdž et
fri end</w>
soû za</w>
config uration</w>
determin ed</w>
ter race</w>
arm ed</w>
fer ences</w>
redu ced</w>
zak on</w>
wr ong</w>
ser o
specialist y</w>
ur ies</w>
inter net-
povyš enie</w>
proces sov</w>
F ind</w>
per vom</w>
Ukra ina</w>
â to
ž ilʹ
busin esses</w>
s načala</w>
ov an</w>
irov aniû</w>
cl aim</w>
lučš ie</w>
gl az
pan or
d ni</w>
pri ority</w>
b av
i ance</w>
oug h
aûŝ ee</w>
fe ar</w>
raz rabat
sû da</w>
E D
s ka
š </w>
m al</w>
primeč atelʹ
vid etʹ</w>
I E</w>
ocop ying</w>
E d
pass až
B e</w>
fl u
ar my</w>
st ol</w>
s kaž
k an</w>
ar bit
R ome</w>
emp ion
hel ps</w>
I sp
pos el
bes poko
he ard</w>
V ir
yv ali</w>
lûb ov
ug ht</w>
nost âh</w>
razd el</w>
&apos; d</w>
fail ed</w>
Academ y</w>
prinâ li</w>
istoč nikov</w>
л ь
sel y</w>
col d</w>
h air</w>
G -
s we
ak adem
1 st</w>
svâz ʹ</w>
defic it</w>
con clus
pre mi
challen ge</w>
u ût
seas on</w>
ban kov</w>
n els</w>
B each</w>
c ers</w>
kriz is
predel ah</w>
off ices</w>
sovet uem</w>
post ep
T om
dra w</w>
I Â</w>
c able</w>
len nyh</w>
col le
M ex
k rimin
M c
O d
knig i</w>
it arian</w>
Feder al</w>
met ody</w>
u vedom
w ine</w>
c el</w>
gor âč
Fin an
č at
obâzatelʹ no</w>
continu es</w>
glosutoč nyj</w>
pokaz yvaet</w>
tra g
ul a</w>
rež ima</w>
v klad</w>
near by</w>
ra d
pack ages</w>
is â</w>
važ nym</w>
vozdu ha</w>
dec ades</w>
A gre
at re</w>
ide i</w>
tvo ej</w>
maš iny</w>
accep ted</w>
R est
èkonom ičeskie</w>
na mnogo</w>
tur ns</w>
5 ,
zanim aet</w>
Ex pl
fac es</w>
fact ory</w>
za âvl
mun icip
comm itted</w>
mesâ ca</w>
wat ch</w>
pr it
n el
na gra
kompʹûter a</w>
La undry</w>
pro sp
L ab
interes ov</w>
naro da</w>
T ar
ol der</w>
let ter</w>
not ice</w>
Ag ency</w>
os en</w>
tradit ion</w>
nar kot
consist s</w>
ok na</w>
en om
Ex ecut
tri but
for est</w>
dipl om
plat a</w>
proek tirov
š em</w>
e ign
In n</w>
att acks</w>
k g</w>
âz v
ast ic</w>
predpriât ie</w>
sero kopirovanie</w>
ri ed</w>
exact ly</w>
so sredot
intell ect
an nymi</w>
t. e.</w>
h un
P ari
discus sion</w>
t yj</w>
P P</w>
re ag
vyso kij</w>
il li
Port ug
vot e</w>
j a</w>
US B</w>
sosto âl
as sum
ar ance</w>
y val
d &apos;
hrist ian
mast er
sek su
vo v</w>
so obŝestva</w>
sovrem ennyh</w>
K serokopirovanie</w>
asp ects</w>
topl enie</w>
zd aniâ</w>
overš en
su da</w>
pri bliz
achiev ed</w>
evol ution</w>
consequ ences</w>
ru ki</w>
P ok
ev ening</w>
prover ki</w>
smo king</w>
sko hozâj
D ist
т о
st rirov
kval ific
ig a</w>
obmen a</w>
tak imi</w>
irovan noj</w>
veduŝ ih</w>
partner ov</w>
stud ent</w>
ol û
ot eč
ren ov
u na</w>
invest icii</w>
Aust ral
w ants</w>
ev ent
compet itive</w>
os veŝ
at ah</w>
m as</w>
ep is
per voe</w>
obʺ em
život nyh</w>
G B</w>
su n</w>
Germ aniâ</w>
iv nyj</w>
oso ph
sup ports</w>
hous ing</w>
soglaš enie</w>
O toplenie</w>
hod ʹby</w>
prilož enij</w>
represent ative</w>
re čʹ</w>
rov atʹ</w>
en han
pod hod
po j</w>
han dl
is land</w>
P S
zn anij</w>
per vaâ</w>
- up</w>
nač ali</w>
sp ending</w>
zat rat
isl am
ion -
del aût</w>
act ual</w>
g ust
K ingdom</w>
Tur cii</w>
vis ited</w>
govern mental</w>
i kam</w>
0 9</w>
udov olʹ
9 9</w>
gov or</w>
par kov
A s</w>
Ar gent
concer ns</w>
and ing</w>
cre ative</w>
Evropej skogo</w>
b elʹ
vo ennyh</w>
do z
or u</w>
il ed</w>
v sâ</w>
b i</w>
pov re
pois k</w>
cl es</w>
Belarus i</w>
Pro to
um n</w>
D mit
Non- Smoking</w>
finan cing</w>
2 7
L eg
Arm enii</w>
mest or
sootvet stvenno</w>
ab oč
na vy
b oj</w>
instrument ov</w>
it alʹân
Centr alʹnoj</w>
dohod ov</w>
dosto primečatelʹ
stran u</w>
f all
technolog ical</w>
lic o</w>
primen enie</w>
elect ric</w>
proced ury</w>
Bo g</w>
nes- centr</w>
g ru
j obs</w>
do klad
dal eko</w>
Lat via</w>
Span ish</w>
mest nye</w>
protivor eč
Wi th</w>
sv ež
at ury</w>
osob ennosti</w>
re ver
S om
ñ ò
avail ability</w>
C R
H is</w>
rec overy</w>
Kon vencii</w>
interes y</w>
ek i</w>
sit ting</w>
em ym</w>
perv onač
A ff
pre vent
meždunarod nye</w>
comp at
prepar ation</w>
im ye</w>
ici ous</w>
r âs
Jew ish</w>
G i
peregov orov</w>
ver sions</w>
ka ût</w>
tru st</w>
pre t
paramet ers</w>
p es</w>
F am
inter es</w>
th ro
br itan
comp uters</w>
provod itʹ</w>
at ic</w>
red s</w>
A M</w>
im isâ</w>
circumstan ces</w>
ra skry
furnit ure</w>
Kit ae</w>
Pro kat</w>
tour ist</w>
con clud
dra mat
P ri
back ground</w>
s aying</w>
slož nosti</w>
zadač a</w>
ime ûtsâ</w>
st aro
no v</w>
Sk ype</w>
ne zakon
dlež aŝ
l od
Armeni an</w>
pass word</w>
b ri
crim inal</w>
ap pointed</w>
Pal ace</w>
nacion alʹnogo</w>
f illed</w>
Scho ol</w>
on ov</w>
improv ement</w>
komnat a</w>
prid etsâ</w>
de plo
raz rešeniâ</w>
er ror</w>
š ag</w>
L ift</w>
sh ared</w>
p ar</w>
paramet ry</w>
sled stvie</w>
sam o
har mon
P rač
ed ge</w>
imost ʹû</w>
ok e
af ter
r j
komp et
dan ger
read ing</w>
O l
ru ût</w>
Pro t
discus sed</w>
doll ars</w>
vul ner
pod hodâŝ
vybor a</w>
aûŝ uû</w>
ne ither</w>
pro dovolʹ
kom issii</w>
izbež atʹ</w>
h es</w>
Fir st</w>
u âzv
vaš ih</w>
gro w</w>
osnov anii</w>
ûŝ ej</w>
in struk
nov eniâ</w>
ten nis</w>
Prač ečnaâ</w>
no dorož
si a</w>
phot ograph
regul ations</w>
ugol ov
sotrudn ič
qu arter</w>
SS SR</w>
mig ration</w>
stv ah</w>
d al</w>
du t</w>
an tov</w>
inž ener
tran sit
podderživ atʹ</w>
ogranič eniâ</w>
pass eng
dost over
komplek sa</w>
Wash ington</w>
B ra
spir itual</w>
š aâ</w>
Cz ech</w>
voz duš
dv or
kon ec</w>
veŝ i</w>
det ʹmi</w>
každ aâ</w>
èlement y</w>
selʹ skohozâj
saj tov</w>
len nye</w>
En g
dest ru
kin ds</w>
2 50</w>
st rel
G ay</w>
sov eŝ
k ulʹt
hol ds</w>
âvlâ ûŝ
zam est
pât i</w>
ač e</w>
dav no</w>
vystav ki</w>
ič nogo</w>
mer ce</w>
ryn ki</w>
rem ar
zd anie</w>
oblad aet</w>
èkspluat acii</w>
re sear
buff et</w>
znač eniû</w>
negoti ations</w>
tan e
sh ar
fi re
ari at</w>
0 1</w>
In vest
R ev
L im
speci alʹno</w>
se ek
Lt d</w>
bra uz
Sov et
mean ing</w>
he ar</w>
priz nak
own er</w>
B rid
ustro jstv</w>
sp </w>
preod ol
W al
Y es</w>
Vaš </w>
ut e</w>
l &apos;
agricul tural</w>
dis eases</w>
Av str
regul irovaniâ</w>
smot r
th u
b ou
n âh</w>
soci alʹnyh</w>
Arab </w>
P A</w>
M ac
met od</w>
E go</w>
š estv
j d
O M</w>
č aŝ
Amer ike</w>
m ur
pro per</w>
M M
substan ti
an k</w>
ext ent</w>
provis ions</w>
acc ess
impl ement</w>
as ing</w>
Chec k-
Gar den</w>
zna et</w>
conn ect</w>
tam ož
v sk
ens ions</w>
kur sa</w>
stran am</w>
obuč enie</w>
mon um
ekt y</w>
sp ust
Am ster
veh icle</w>
blag o
Brit ain</w>
dis put
ch osen</w>
por až
ak cii</w>
U p
ser ii</w>
Christ ian</w>
ing ing</w>
independ ence</w>
we ek
minist ra</w>
prinim aet</w>
palest in
init ial</w>
c ast</w>
w o</w>
wa it</w>
G N
ro s</w>
ot ed</w>
E ston
č est
attract ive</w>
mem ber
ist in
sum mu</w>
obŝestv ennogo</w>
posled nij</w>
gu ide</w>
list ings</w>
ass ign
stvov ali</w>
inter n
sootvetstv uet</w>
Gre ece</w>
press y</w>
territ ori
segodnâš nij</w>
bi olog
predostav leniâ</w>
peac eful</w>
res ource</w>
mon ast
reš itʹ</w>
protiv o
cer kov
St rat
sect ors</w>
Ûž noj</w>
K iev
m b
m ân
adequ ate</w>
evropej skih</w>
re l</w>
vozrast e</w>
Bulg aria</w>
prodaž </w>
reserv es</w>
vosstanov leniâ</w>
Pro gram</w>
disc over
vot es</w>
thre at
spec ies</w>
ov ymi</w>
ur u</w>
perman ent</w>
person ala</w>
sol neč
D re
pre voshod
so -
S og
R en
ight ly</w>
ba th</w>
m ad
own ers</w>
an ge</w>
T our</w>
24- Hour</w>
c on</w>
itelʹ naâ</w>
In st
arran g
profession als</w>
Agre ement</w>
leng th</w>
claim s</w>
T ri
M r</w>
manag er</w>
A ud
I X</w>
lic ense</w>
lid ery</w>
f if
vy ig
r in
veg et
Kru glosutočnyj</w>
ispolʹzu ût</w>
k vy</w>
hard ware</w>
vel os
ly ž
e esâ</w>
očevid no</w>
zaŝ ite</w>
up akov
prič em</w>
v red
happ ened</w>
fin ished</w>
k illed</w>
sol d</w>
K amera</w>
želez nodorož
eth nic</w>
most ly</w>
Ar t</w>
hozâ jstva</w>
terror ism</w>
ë t
å </w>
Fri endly</w>
we alth</w>
Nok ia</w>
an nuû</w>
just ice</w>
b ass
exp an
P -
y k
infl ation</w>
a ware</w>
hel ped</w>
ge o
Econom ic</w>
Trans fer</w>
ŝel kn
miro vogo</w>
em aâ</w>
proizoš lo</w>
otmet itʹ</w>
6 ,
express ed</w>
and y</w>
S tra
emer ging</w>
vel ik
tri al</w>
F est
unfor tunately</w>
gorod ov</w>
s es
Ch amp
innov ative</w>
obj ective</w>
pow ers</w>
im mun
ent ered</w>
Braz il
sosredot oč
en na</w>
consum er</w>
sposob nostʹ</w>
trans form
cap able</w>
C IS</w>
râ da</w>
t .</w>
eleg ant</w>
cent ers</w>
you th</w>
tel ek
sid es</w>
go -
C li
h am</w>
ec ution</w>
sk id
hund reds</w>
Sp ain</w>
f al
prog ul
lûby h</w>
attemp t</w>
sov eta</w>
bez rabot
B on
s ex</w>
OO O</w>
fon d</w>
na bor</w>
and ed</w>
wh ere
r ent
man ner</w>
na pomin
oč ist
ič ʹ</w>
soderž anie</w>
M ik
Li thu
v hod
mo ej</w>
sp ital</w>
hoč u</w>
des k</w>
kl av
nik u</w>
m ac
w il
oč nye</w>
ap s</w>
E C</w>
iv ed</w>
4 3</w>
adv ice</w>
L O
podčer kn
mill ions</w>
god ah</w>
Op en</w>
dokum ent</w>
probl emu</w>
Sever noj</w>
čas a</w>
book ing</w>
N ot
V it
For eign</w>
sh ares</w>
ide â</w>
sootvetstvuûŝ ie</w>
mov ed</w>
profess or</w>
H ome</w>
gost i</w>
lo k</w>
pay ments</w>
sdel al</w>
ter ed</w>
kor rup
context ual</w>
neg ativ
K o
C le
sozd aniû</w>
id enci
el ines</w>
vid a</w>
commit ment</w>
Lat v
sk e</w>
h all</w>
the ory</w>
Net work</w>
gl u
ra y</w>
iv al
I g
sčit aetsâ</w>
compar ison</w>
tit le</w>
met al
kontro l
aliz ma</w>
Corpor ation</w>
v vod
u a</w>
cre te</w>
ay ed</w>
š a</w>
čaŝ e</w>
at tra
sev ere</w>
pre stup
T em
an skoj</w>
Acc ess</w>
nauč no-
blû da</w>
B li
istor iû</w>
l t;</w>
s s</w>
и т
èkonom ika</w>
& lt;</w>
stranic ami</w>
kon t
S red
oč nogo</w>
A h
bolʹšin stva</w>
produk t</w>
look ed</w>
streng th</w>
nau ki</w>
So edinennyh</w>
f le
par a</w>
kon stitu
pere hod
par ad
re turned</w>
Rad io</w>
vremen em</w>
oblast âh</w>
zna û</w>
c ation</w>
nut ʹsâ</w>
osnov nym</w>
spoko j
C ar</w>
dep ends</w>
rel atively</w>
H igh</w>
pro daže</w>
20 13</w>
dogovor a</w>
sleduûŝ ih</w>
happ en</w>
Execut ive</w>
upo mân
b ac
conf idence</w>
pisʹ men
re ci
ko k
M ul
met rov</w>
čis l
Naj ti</w>
eas ier</w>
res sa</w>
stab iliz
C al
cl in
tim s</w>
aj tesʹ</w>
spir it</w>
pr o</w>
irovan nyj</w>
E lev
čast nyh</w>
universit eta</w>
f ash
в о
sim pl
Izrail â</w>
em ot
nef te
M ember</w>
of is
C ath
produkt a</w>
spr ing</w>
po oŝ
T A</w>
4 1</w>
exp ect
sovrem ennoj</w>
prodolž aet</w>
ack ed</w>
dist in
plac ement</w>
oč nyj</w>
ač iv
exist ence</w>
širo ko</w>
SN G</w>
In tel</w>
adv ance</w>
sol e</w>
te a</w>
učrežd enij</w>
pl en
g one</w>
f low
ban ki</w>
fe eling</w>
pos ite</w>
poč it
D en
fraz oj</w>
ek tov</w>
ch ief</w>
/ /
ar ʹ</w>
E -
E T</w>
su me</w>
č iki</w>
soobŝ enij</w>
ra ise</w>
oh vat
vz im
mot ren
sem ʹ</w>
musulʹ man
arriv al</w>
perečislen nymi</w>
bolʹšin stve</w>
ub er
pol u
raz mere</w>
no ti
air -
mn enie</w>
atel âmi</w>
sred nego</w>
lid erov</w>
tur ning</w>
M oun
Energ y</w>
tysâč i</w>
st ʹ</w>
ic an</w>
magaz ine</w>
10 0
privod it</w>
wi fe</w>
р е
gos pod
t kan
org any</w>
po â
vy glâd
il es</w>
form a</w>
ob tain</w>
ent om</w>
pri byli</w>
Con gress</w>
ned al
c am</w>
j tesʹ</w>
ear th</w>
stan ds</w>
vy d
opy ta</w>
S ir
st op
uč eni
Islam ic</w>
dalʹ še</w>
vnutren nih</w>
corrup tion</w>
de posit</w>
prig otov
uč et
E gip
virt ual</w>
profil akt
8 6</w>
ner ship</w>
1 20</w>
Egyp t</w>
lo go</w>
voz glav
L uggage</w>
dem ands</w>
prič inoj</w>
scient ists</w>
eni or</w>
R iver</w>
rig er
. ru</w>
k ers</w>
ton n</w>
t ings</w>
meaning fully</w>
tov ar
trebov anij</w>
s qu
nef tʹ</w>
s ort</w>
uc k</w>
ap az
S ing
poz že</w>
avš ih</w>
des ire</w>
tekst am</w>
zaŝit u</w>
spac es</w>
porâd ka</w>
prihod itsâ</w>
ad ž
najd ete</w>
v lož
po vys
pomog aet</w>
cel l</w>
def ense</w>
ras č
su res</w>
integra cii</w>
Kon stitu
M an</w>
t ah</w>
Ser b
scen e</w>
enc- zal</w>
pre stupl
telef on</w>
prav il
Gruz ii</w>
expan sion</w>
aci âh</w>
wo od
contem porary</w>
198 9</w>
rosko š
i th
ob legč
ič nym</w>
Ap ple</w>
il iŝ
E N</w>
kak im</w>
al li
ir ing</w>
а т
typ ical</w>
condu ct</w>
kon cov</w>
raz nye</w>
au x</w>
enc ev</w>
v ruč
demon strirov
Bli ž
enci j</w>
furn ished</w>
. m.</w>
. org</w>
te bâ</w>
porâ dok</w>
živ opis
serv ing</w>
dr iver</w>
serv es</w>
na prâž
de al
і </w>
ci es</w>
grammat ičeski</w>
bel ong
recommend ations</w>
ali for
ec es</w>
grammat ically</w>
elim in
rout e</w>
pro d
èkonom ike</w>
B iz
dynam ic</w>
p u
mesâ c</w>
krit er
poluč aet</w>
nahod išʹ</w>
r ary</w>
ext ensive</w>
mlr d.</w>
re formy</w>
èksk ur
oteč estv
bran ch</w>
sut ki</w>
E dit
izvest nyh</w>
počt y</w>
Afg ani
ket nyj</w>
le g</w>
nor mat
pred polož
vrem ena</w>
slov o</w>
dejstv itelʹnosti</w>
P .</w>
list ingi</w>
heav y</w>
instru ments</w>
context ually</w>
ev re
kontekstu alʹnye</w>
ryn kah</w>
irov ali</w>
an on
z im
t ext
kontekstu alʹno</w>
minist er
nar âd
potrebl eniâ</w>
oper ator</w>
al leg
chan nel</w>
sho wed</w>
nasil iâ</w>
H an
p t
sovrem ennye</w>
kon cent
tw o-
vel i</w>
Bog a</w>
naznač eniâ</w>
K ir
vz âtʹ</w>
im ogo</w>
pro stor
c od
interv ʹû</w>
Can ada</w>
regist raciâ</w>
land sc
Americ ans</w>
grup pe</w>
obor ot</w>
Alex ander</w>
èffektiv no</w>
uničto ž
um in
ad or</w>
stat ʹâ</w>
klav iš
bir th</w>
consul t
iz es</w>
iz aciâ</w>
prer yv
cour ses</w>
present ation</w>
MV F</w>
gl as
M ore</w>
aff ected</w>
reason able</w>
S .</w>
l az
bor a</w>
Lat vi
Reg ist
se eing</w>
dis played</w>
glav nyj</w>
in ah</w>
mak ers</w>
deliver ed</w>
na ver
ic ej</w>
isč ez
Elev ator</w>
atelʹ nym</w>
.. ..</w>
5 1</w>
el ine</w>
im ent</w>
it em</w>
Pol icy</w>
èffektiv nostʹ</w>
she et</w>
L e</w>
m l</w>
C ul
fa ith</w>
partner ship</w>
va še</w>
zav od</w>
r on</w>
5 2</w>
anim als</w>
low -
brow ser</w>
Po wer</w>
or ed</w>
re a</w>
urov nem</w>
ube žd
E B
ploŝad ʹ</w>
opy tom</w>
i. e.</w>
journal ists</w>
prodolž atʹ</w>
ent ially</w>
s ž
fun d</w>
fir ms</w>
B olʹ
progno z
amerikan skih</w>
cy cle</w>
mat ch</w>
ou l
ok ru
sobstven noj</w>
inf ek
ul ation</w>
ch er</w>
improv ing</w>
Med ia</w>
O K</w>
gost âm</w>
ra dost
certific ate</w>
sv et</w>
su ite</w>
predstavlâ ût</w>
s ight</w>
f are</w>
izdel ij</w>
v olʹ
stud entov</w>
w indows</w>
M i
ac adem
psi hol
otmet il</w>
hot eli</w>
Su ite</w>
min e</w>
heal thy</w>
er ami</w>
el ev
C ode</w>
om p
it i</w>
what ever</w>
st en
pan eli</w>
nost âm</w>
estim ated</w>
represent ed</w>
est ra</w>
vic tims</w>
no mere</w>
4 9</w>
danger ous</w>
K ab
obâzatelʹ stv</w>
tou ch</w>
Ser g
uspe ha</w>
eff ectively</w>
pris e</w>
kov yh</w>
irovan nogo</w>
ig ra</w>
kraj ne</w>
dev el
S A</w>
initi ative</w>
ab on
K en
raj ona</w>
om n
m lad
rest i</w>
c af
tov ary</w>
poluč aût</w>
inter ior</w>
fact or</w>
G ran
w alls</w>
l isʹ</w>
consum ers</w>
dizaj n</w>
phil osoph
prof ile</w>
attract ions</w>
D ub
M el
važ nejš
Evro pa</w>
h it</w>
T y
b om</w>
exper t</w>
cust oms</w>
F it
r âz
consider ation</w>
nem ed
L og
zn anie</w>
Pa ul</w>
are st
nazv aniem</w>
N ic
ost ro
k top</w>
l ets</w>
prirod y</w>
coll ap
- to-
sol ve</w>
u è
O s
iz ob
Afric an</w>
atel âm</w>
pro vision</w>
Expl orer</w>
se ek</w>
wid ely</w>
g u</w>
I ron
vyso kie</w>
P en
di ed</w>
rav no</w>
ro te</w>
dob itʹsâ</w>
He ad</w>
polʹzovatel i</w>
s ac
gran icy</w>
âs no</w>
rail way</w>
m es</w>
Par liament</w>
ol a</w>
D ata</w>
allow ing</w>
funk cij</w>
sniž enie</w>
automat ic</w>
U M
hudo žestv
menʹ š
dost ičʹ</w>
k t</w>
I M</w>
wa iting</w>
id den</w>
le j
semin ar</w>
sposob om</w>
an itar
pre vention</w>
oblast ʹ</w>
c em</w>
rov aâ</w>
e kom</w>
en cial</w>
s ad</w>
fam ili
h et
nedal eko</w>
sub ʺ
advant ages</w>
sotrudničestv e</w>
aem yj</w>
tre h
Res ort</w>
4 7</w>
zam ed
A part
Con t
Bol gar
dol go</w>
sel ling</w>
ov ala</w>
previ ously</w>
th od
vliân iâ</w>
D .</w>
Palest inian</w>
it ut</w>
vozra sta</w>
ru m</w>
eur o</w>
za hvat
e ight</w>
Priv ate</w>
pro m</w>
B ir
è ner
wel l
w illing</w>
exam ples</w>
peregov ory</w>
iru ûtsâ</w>
k new</w>
nef tâ
k eeping</w>
Strat eg
kart e</w>
r ive</w>
multi -
commun ications</w>
ispolʹzov atʹsâ</w>
kateg or
G a
zap isʹ</w>
um p</w>
ustro jstvo</w>
vent il
U L
da č
raz ver
bed room</w>
ris ing</w>
pl ug
predu prežd
Ph il
vzglâ d</w>
do pus
gaz </w>
bloc k</w>
9 8</w>
u -
sam a</w>
v hodâŝ
6 0
dan naâ</w>
R A</w>
torg ovyh</w>
invalid ov</w>
ap ter</w>
zna ût</w>
ot t
qual ified</w>
ric h
o sof
uvelič itʹ</w>
vo sk
re porting</w>
prog ress
he ating</w>
mužč in</w>
appe arance</w>
inform ed</w>
al gor
pro mp
gro unds</w>
laun ch</w>
potreb nosti</w>
us ion</w>
pat ri
vypoln enie</w>
ig r</w>
di apaz
R S</w>
spe ech</w>
mar g
sam aâ</w>
aem ogo</w>
rež im
L -
nastoâŝ ij</w>
mot or
sozd aet</w>
irov ki</w>
š en
J ava</w>
t ut</w>
t rem
trans actions</w>
kuh ni</w>
in om</w>
Bal tic</w>
sred e</w>
av y</w>
sen sit
4 6</w>
Kazah stan</w>
b all
kup itʹ</w>
strug gle</w>
if ying</w>
Gre ek</w>
P O
pol â</w>
der ing</w>
ti ru
a is</w>
Pe ople</w>
compon ent</w>
ident ify</w>
P K</w>
class es</w>
specializ ed</w>
et ies</w>
pozici û</w>
signific antly</w>
V in
uspe h</w>
ka f
administ racii</w>
Ro yal</w>
obâzatelʹ stva</w>
is i</w>
ʹ âmi</w>
U ni
ur ities</w>
Sankt- Peterbur
zag râz
oun ds</w>
zap ust
yv atʹsâ</w>
н и
am az
sec ret</w>
ren ew
Res earch</w>
poluč enie</w>
fol der</w>
Mos kov
N .</w>
važ nyh</w>
fac ing</w>
5 6</w>
È S</w>
vypoln âtʹ</w>
prič in</w>
dis kus
el ected</w>
control led</w>
cel eb
fon da</w>
con c
èksper t
fun </w>
po l</w>
· </w>
fun ding</w>
av en
M ac</w>
os lov
art ists</w>
us ov</w>
vo k</w>
s outh</w>
rasšir eniâ</w>
constan tly</w>
f ee</w>
assess ment</w>
z ona</w>
ot klûč
VI S</w>
ned eli</w>
auth ent
bl ue</w>
hab it
atelʹ stvo</w>
w ater
ho spit
absolût no</w>
discus s</w>
mat ters</w>
st er</w>
ik ing</w>
small er</w>
Contro l</w>
prev raŝ
obŝ ij</w>
drug s</w>
râ d
do kl
t aste</w>
IM F</w>
M as
stv am</w>
ispolʹzu jte</w>
pi ece</w>
acces sible</w>
pop ad
žel anie</w>
è mo
poset itʹ</w>
aûŝ imi</w>
chan nels</w>
sk i
y ti
s aving</w>
raz ved
br e</w>
Y ear</w>
L oc
d aty</w>
dec ide</w>
psihol og
oč arov
po j
T O
konf idenci
ob e</w>
Tra de</w>
kon tin
g ers</w>
liter ature</w>
so z
es a</w>
meždunarod nym</w>
prev rat
sol di
direct ory</w>
dr ink</w>
obŝestv ennyh</w>
predel ami</w>
ryn kov</w>
âŝ ie</w>
bolʹš ogo</w>
S ist
itog e</w>
s meš
Kos ovo</w>
infra struktury</w>
A Z
sup porting</w>
w est</w>
val id</w>
pož el
ulučš eniâ</w>
D ogov
li brary</w>
act ing</w>
ra ised</w>
Isra eli</w>
stvov al</w>
ro ždeniâ</w>
neobhodim yh</w>
ne bolʹšoj</w>
dol l</w>
u hod
èksper tov</w>
ous ness</w>
mon etary</w>
univers al</w>
0 7</w>
koneč nom</w>
increas es</w>
M ih
glav noe</w>
struktur a</w>
ob stanov
gl aza</w>
secon d
ny a</w>
are st</w>
milliar dov</w>
feder al</w>
Dem oc
o hot
razvit ii</w>
Des ign</w>
sh are
dejstv ovatʹ</w>
i g</w>
o suŝestv
î </w>
us al
lar ation</w>
ra sk
U r
O tel
vy skaz
in ami</w>
i res</w>
pos motretʹ</w>
skor ost
15 -
ici an</w>
mogl a</w>
behavi or</w>
nauč nyh</w>
dis krimin
i ously</w>
vklûč aût</w>
priby lʹ</w>
me čt
po berež
1 60</w>
S D
Georg e</w>
vsk ore</w>
ošib ki</w>
usil ij</w>
liv ed</w>
ivers ary</w>
re present</w>
ok no</w>
es h
ž id
bolez n
D ry</w>
t ûr
Wh ite</w>
en for
amb res</w>
polʹzovatel ʹ</w>
K -
veh icles</w>
I -
ra mi</w>
im oe</w>
relig ion</w>
ob tained</w>
minist er</w>
zab ot
I l
vej car
cou ple</w>
sob yti
učre ždeniâ</w>
ed ed</w>
teach ers</w>
sex ual</w>
U A
nat ive</w>
del iver</w>
rel ax</w>
èt a
čin ov
sk lon
am y</w>
T -
aliz m</w>
stven nyj</w>
org an</w>
kol leg
raspolož eny</w>
R ental</w>
do čer
konstruk cii</w>
Iron ing</w>
čist ka</w>
12 .
w rote</w>
rassmot r
transpor ta</w>
uvelič eniâ</w>
tax es</w>
ro t
en ables</w>
dec ade</w>
Program me</w>
or ami</w>
н а</w>
P ro</w>
G ir
sosto âni
prost oj</w>
ro m
ris ka</w>
èt imi</w>
vo ennoj</w>
intellect ual</w>
raboč ej</w>
paramet rov</w>
na il
strateg ies</w>
pros ʹ
ro ot</w>
sluč aj
spust â</w>
el ement</w>
ev rej
o ples</w>
at e
vybor ah</w>
ga ther
manufactur ers</w>
mani pul
ul ly</w>
L U
comp ens
re presents</w>
mus eum</w>
È l
vopros u</w>
ig e</w>
Ver hov
ter p
tehn ičeskih</w>
7 00</w>
regist er</w>
mor al</w>
sobstven nyh</w>
K ry
sh ape</w>
P ress</w>
con crete</w>
potenci ala</w>
ent re
con vin
F rid
ex plo
raz v
skor ostʹ</w>
d on</w>
sdel ali</w>
z ala</w>
R ou
ch ambres</w>
great est</w>
st u
C P
ob od
e û</w>
besplat nyj</w>
f an
cle aning</w>
š est
V illa</w>
struktur u</w>
qu ick</w>
eh atʹ</w>
Engl and</w>
Chil dren</w>
D a
cerem on
pe š
ohran y</w>
tre e</w>
s form
obŝestv e</w>
cell s</w>
J er
prep are</w>
dev uš
on os
Ch airman</w>
sekt ore</w>
air craft</w>
zagruz ki</w>
industri es</w>
im migran
ra w</w>
ostrov a</w>
techni ques</w>
Pol ish</w>
teach ing</w>
In don
nau k</w>
bot tom</w>
maksim alʹno</w>
comm ents</w>
bûdž eta</w>
A G</w>
uč i</w>
Konfer enc-zal</w>
5 3</w>
c ab
prosmot ra</w>
el s
member ship</w>
sposob nosti</w>
vypoln itʹ</w>
l or
l ej</w>
im por
proizvod itelʹnosti</w>
razrabot ka</w>
obʺ âvl
nedel û</w>
prin os
S ta
fig ures</w>
potreb itelej</w>
predostav lenie</w>
mark ed</w>
dar k</w>
situ aciû</w>
ass or
dol gov
bl es</w>
s q
dob yč
aktiv ov</w>
met odov</w>
id ly</w>
N et</w>
ru bež
v stro
ind ex</w>
iro v</w>
se emed</w>
brid ge</w>
w aste</w>
sc ope</w>
rekomend acii</w>
en nostʹû</w>
y an</w>
promot ion</w>
ic ing</w>
Phot ocopying</w>
innov ation</w>
O ly
stat ements</w>
compl iance</w>
u j
služ aŝ
zas luž
ed a</w>
y b
ci âmi</w>
podob nye</w>
tem porary</w>
Ital ii</w>
ge ograf
So cial</w>
Spec i
programm noe</w>
pl ana</w>
I ON
8 ,
pot encial</w>
grupp u</w>
s low
Edu cation</w>
mnogo e</w>
dialog ue</w>
s in</w>
ad o</w>
uz na
preimuŝ estva</w>
bu h
u toč
mar t</w>
ras a</w>
audi ence</w>
p h</w>
N .
m ud
pod hodit</w>
ov ana</w>
un ion</w>
os novy
Pro c
ved et</w>
cer kvi</w>
è j
S ur
e ut
molod yh</w>
gum anitar
krupnejš ih</w>
in ače</w>
sub sequ
r ors</w>
w estern</w>
o platy</w>
rat ʹsâ</w>
v hodât</w>
su m</w>
e. g.</w>
hund red</w>
m on</w>
d voj
sledov atelʹno</w>
immedi ate</w>
a head</w>
otveč aet</w>
V as
pl â
cont acts</w>
èt n
T i
cv et</w>
Fl ash</w>
nail učš
requ ests</w>
t iv
ri j</w>
velos iped
stor one</w>
perer abot
6 2</w>
leč enie</w>
ter ap
der živ
rasšir enie</w>
Spec ial</w>
appar at
kon strukt
organiz ovan
head s</w>
pi eces</w>
manag ers</w>
ar ij</w>
3 D</w>
coun t
ʹ ev</w>
ca uses</w>
mo i</w>
Pet er</w>
op pon
lim its</w>
5 4</w>
A li
ion ality</w>
pres idential</w>
serv is</w>
con solid
mon itor</w>
sur viv
Wor d</w>
so protiv
HT ML</w>
B os
èff ekt</w>
š li</w>
Bl ue</w>
lab our</w>
kamp anii</w>
lin ked</w>
upd ated</w>
Mex ico</w>
C ard</w>
è leg
ʹ ej</w>
NE T</w>
Kon dicion
Ch am
f tel</w>
obvi ous</w>
H on
Sh are
bal con
an k
vo spit
ge ograph
aem oj</w>
sro ka</w>
we ather</w>
avtomob ilʹ
Ban ketnyj</w>
y st
dol â</w>
kno ws</w>
predstav lenie</w>
rubl ej</w>
rap id</w>
glav a</w>
posled uûŝ
B ash
din ner</w>
N ig
w ind</w>
gol o
stanov âtsâ</w>
gl ad
kar ʹ
s mogli</w>
polit ičeskogo</w>
gosudarstven nye</w>
awar ded</w>
st ars</w>
web -
rukovod stva</w>
ent it
of -
av kaz
proiz oj
princi py</w>
rasprostran eniâ</w>
7 ,
vystav ka</w>
е т
na gruz
četyre h</w>
Zav trak</w>
Je ws</w>
dol lar
des âtʹ</w>
bro ad</w>
Reg ion</w>
so- called</w>
ut iliz
T B</w>
vy bory</w>
sv âŝ
rov olʹ
graždan skogo</w>
I van
B ez
an om</w>
char ges</w>
instruct ions</w>
exerc ise</w>
pod ar
K l
narâd u</w>
acc ur
T here</w>
im ym</w>
e in
gar mon
irov an</w>
ič a</w>
c ast
h ur
bo x
topl iva</w>
vaš em</w>
ska ya</w>
contribut e</w>
do pust
prig ov
m ar</w>
podn im
Isl am</w>
al u</w>
i os</w>
smysl e</w>
settl ement</w>
Izrail ʹ</w>
region alʹnyh</w>
den s</w>
7 2</w>
al ty</w>
lear ned</w>
Ap pl
Med ved
kompʹûter e</w>
vi rus</w>
tehn ičeskoj</w>
prom ise</w>
dra ft</w>
ra dy</w>
s over
tour ism</w>
Wh en</w>
invest orov</w>
enter tainment</w>
produ cing</w>
le aving</w>
otnos âtsâ</w>
dest ination</w>
recogn ition</w>
e ye</w>
speci alʹnye</w>
AK VIS</w>
pati ent</w>
foc used</w>
iv atʹsâ</w>
ident ity</w>
sl eep</w>
len o</w>
meas ure</w>
èleg ant
nastoâŝ ego</w>
hy dro
ag og
W H
ep t
služ b</w>
Bu il
osuŝestvl âtʹ</w>
h es
organ is
stol et
6 6</w>
kor to
metall urg
DN S</w>
Pl at
spor ta</w>
opy right</w>
priz v
stabilʹ nosti</w>
develop ments</w>
H al
ch a
gen et
obj ectives</w>
prinâ l</w>
C ast
zakaz </w>
am in
0 8</w>
informacion nyh</w>
mass ive</w>
vo- pervyh</w>
podt verd
em issions</w>
obor ony</w>
de ep
in form</w>
de ad</w>
introdu ction</w>
ab at
ko š
Braz il</w>
set ej</w>
vned r
ent ran
predus motren
ŝelkn ite</w>
o st</w>
fik sirov
razmeŝ eniâ</w>
dra w
region ah</w>
1 1
direkt ora</w>
urb an</w>
obŝ ee</w>
s ver
at tribut
am es</w>
pokaz ateli</w>
W at
irov al</w>
s verh
dostup ny</w>
ved eniâ</w>
id er</w>
ist ana</w>
M D
tor a</w>
dec line</w>
statist ics</w>
pan el</w>
muzy ki</w>
c ennyh</w>
differ ences</w>
car rying</w>
prav da</w>
F rom</w>
doub t</w>
poluč ila</w>
otkry tʹ</w>
vyz yvaet</w>
u ûtsâ</w>
polit icians</w>
w ave</w>
min iat
pred ʺ
absolut ely</w>
н ы
ag enda</w>
I Z
ot ic</w>
investig ation</w>
ast er
v ast</w>
0 6</w>
bolʹš ee</w>
e o</w>
prič ine</w>
Fam ily</w>
zapreŝ eno</w>
e th</w>
X ML</w>
valu able</w>
tak om</w>
som n
t ests</w>
soderž aniâ</w>
S ud
č </w>
na dležaŝ
funct ional</w>
zakonodatelʹ stva</w>
lux ur
M -
l ayer</w>
konflik ta</w>
min i</w>
S t</w>
su žd
so oruž
termin al</w>
ub s</w>
for ec
on ic</w>
Fran c
regul ation</w>
Ky iv</w>
Stud io</w>
cel ebr
or m
h u</w>
no ise</w>
dum atʹ</w>
poluč ite</w>
byst ree</w>
b ab
ob men</w>
izobraž enie</w>
tro p
sh ot</w>
iz mom</w>
panor am
candid ates</w>
D ig
fil osof
predstav leniâ</w>
r ural</w>
sol n
otnoš eniâh</w>
izdel iâ</w>
d ry
voz dejstviâ</w>
ph ones</w>
i que</w>
ugh ter</w>
nad z
cent rov</w>
č empion
dro p</w>
D O
e at</w>
receiv ing</w>
sposob stvovatʹ</w>
provod itsâ</w>
Pl an</w>
new ly</w>
Mar k
sp aper</w>
meždunarod nyj</w>
prakt ike</w>
offic ers</w>
T eh
consider able</w>
L eb
vet er
An gl
id ity</w>
assor tim
mag nit
tak uû</w>
lo ans</w>
or az
pol y
tre es</w>
9 ,
demon stra
rap h</w>
plan et</w>
rukovod stvom</w>
Sain t</w>
sohran eniâ</w>
simul tane
ut ions</w>
už as
rezulʹtat om</w>
Mob ile</w>
ko ž
I R</w>
s vyše</w>
M A
execut ive</w>
h am
âder nogo</w>
različ nymi</w>
f air
restor ane</w>
cel er
pa th
vie wed</w>
rossij skoj</w>
inv est</w>
obno vlâ
mit ted</w>
G .</w>
res idence</w>
člen ami</w>
moun tains</w>
ul e</w>
È </w>
M ur
stre ets</w>
Pl ay
pro port
0 5</w>
M ach
š abl
stran ic</w>
raspolož enie</w>
vneš nej</w>
predsed atelʹ</w>
spon s
každ omu</w>
kontra kt
correspon ding</w>
n b
Pro per
K O
organizaci âmi</w>
glav noj</w>
te be</w>
Ros siej</w>
nic u</w>
E F
nasel enie</w>
tabl es</w>
express ion</w>
dav lenie</w>
stor ed</w>
polʹzovatel âm</w>
ot kro
vis ible</w>
kor abl
क े</w>
accoun ting</w>
Vie w</w>
IN T
car bon</w>
entre pren
zad ol
event ually</w>
kat astro
character istics</w>
high l
rez olû
L iber
ens uring</w>
S D</w>
US SR</w>
decl ared</w>
sled ovatʹ</w>
aliz aciâ</w>
na sla
gorod ah</w>
vy m</w>
y le</w>
H ung
jo ined</w>
gir ls</w>
is pravl
St al
ad er</w>
poset itelej</w>
d eni
soci alʹnogo</w>
revol ution</w>
or ing</w>
rossij skogo</w>
sred u</w>
at -
gra d</w>
irov atʹsâ</w>
mo â</w>
c at</w>
di j
T un
Mos kvy</w>
mechan ism</w>
govor il</w>
sty l
si bly</w>
an čiv
ger o
excep t
5 7</w>
Indi an</w>
hot el
C C
miro vyh</w>
5 8</w>
ident ified</w>
li ament
ez d</w>
Turk meni
K ub
pozic iâ</w>
arriv ed</w>
naro dov</w>
S un</w>
postep enno</w>
Belarus ian</w>
po dlin
počt e</w>
ight -
crit ic
aff ect</w>
vzaim o
Kondicion er</w>
N A
conn ections</w>
terror ist
kli ent</w>
Th at</w>
sv eta</w>
M .
im eli</w>
f aster</w>
de -
prim e</w>
M B</w>
ežegod no</w>
D ou
exp and</w>
succ e
en čes
acion nogo</w>
mechan isms</w>
respubl iki</w>
br ight</w>
er u</w>
mass ovoj</w>
nomer ami</w>
b ok
M it
gl až
potreb nostej</w>
ed ia</w>
tru ly</w>
obŝ ih</w>
no k</w>
ru t
f it</w>
Latv ii</w>
proper ly</w>
k oda</w>
En viron
streng then</w>
ag ent</w>
Minister stva</w>
oblig ations</w>
my self</w>
B P</w>
pro hib
p ion
l ect
v ne
surroun ded</w>
un iversity</w>
opredel enie</w>
Out look</w>
Secret ary</w>
kaki h
š ved
n one</w>
obŝ aâ</w>
² </w>
sh el
uča stvovatʹ</w>
rasprostran enie</w>
K er
2. 0</w>
mar ks</w>
F ra
â ciâ</w>
rel ation</w>
C iv
voj na</w>
ostav ka</w>
ne izbež
form ate</w>
demon str
C ON
itelʹ nuû</w>
per vo
w ers</w>
eng aged</w>
product ive</w>
re č
nacion alʹnye</w>
integ rirov
nalič ii</w>
zanim aetsâ</w>
sh aring</w>
f ighting</w>
š estʹ</w>
devel opers</w>
suŝestv enno</w>
G o</w>
op posite</w>
N A</w>
ekt a</w>
dob rovolʹ
d ens
recor ds</w>
recogniz e</w>
pro hodit</w>
Moskv a</w>
el et
tren ds</w>
ang el
D ra
Musl im</w>
ext ended</w>
recor ded</w>
čast ej</w>
cent rom</w>
At lant
SM S</w>
sost ave</w>
in put</w>
issledov anie</w>
trebu ût</w>
acc um
Sp ir
art ist</w>
th es
def ine</w>
constan t</w>
k ub
special ist</w>
onlaj n</w>
ann iversary</w>
gid ro
Un iversit
istoč nik</w>
g all
than k</w>
zan âto
Him čistka</w>
B -
crim e</w>
Fran ciâ</w>
wor se</w>
mod ified</w>
pl os
vy bro
en ciû</w>
proc vet
00 1</w>
vict ory</w>
resul ting</w>
Amster dam</w>
dv in
V ide
ch amp
prov ed</w>
ol et
р и
dob ro
for get</w>
pribliz itelʹno</w>
cent uries</w>
ass ist</w>
itelʹ stvo</w>
ost aûtsâ</w>
X X
konkurent osposob
pens ion
pos sibilities</w>
D ostavka</w>
ob šir
Russi ans</w>
contract s</w>
stv uûŝ
standart am</w>
occur </w>
ob og
nes et</w>
M ari
proizvod stve</w>
pl any</w>
pomn itʹ</w>
ph ase</w>
fir m
transit ion</w>
iv y</w>
produ cers</w>
au cas
âl isʹ</w>
prilož enie</w>
L ou
yv al</w>
ob e
3 0-
n ut</w>
vsem ir
redu cing</w>
samostoâtelʹ no</w>
ne žel
co hol
specif y</w>
Iran a</w>
zna em</w>
èt ap
D al
pris on</w>
vy bira
claim ed</w>
larg ely</w>
iv aûtsâ</w>
È n
zv ezdy</w>
ind ik
our selves</w>
avt onom
š kolʹ
con vent
j ki</w>
K ra
et er
R as
san k
ad ults</w>
a živ
Part ies</w>
suppl ies</w>
is k</w>
co ast</w>
c amera</w>
Sog laš
rap idly</w>
ab s
z u</w>
y ang</w>
cle an
faj l
P ot
kart u</w>
it age</w>
sro ki</w>
medic ine</w>
C .</w>
in sul
F al
Mon t
inter ʹ
ib ir
new spaper</w>
Pol it
pre me</w>
gran ted</w>
D L
èkonom iku</w>
tre at</w>
Re al</w>
f ar
D at
âŝ ij</w>
sum my</w>
million a</w>
remov ed</w>
flo ws</w>
us age</w>
ob osnov
an skogo</w>
or ah</w>
start s</w>
Rom an</w>
ast ron
equ ality</w>
lin ed</w>
buduŝ ego</w>
komit et</w>
S ite</w>
fac ility</w>
glu bo
electric ity</w>
divid ed</w>
proizvod itsâ</w>
pri eml
ver siû</w>
aud it
con v
ar rest
èksk lûz
activ ely</w>
naro d</w>
ok up
avt or</w>
prinadlež nosti</w>
ukra š
document ation</w>
region ov</w>
Belarus ʹ</w>
s enior</w>
va j
dre vn
rajon ah</w>
d ome</w>
6 3</w>
ch ron
bez uslov
v pered</w>
ik istan</w>
raz ʺ
svobod u</w>
tren d</w>
en abled</w>
em oe</w>
tre ated</w>
nalog ov</w>
č ud
vo en
6 7</w>
ry j</w>
coll ective</w>
V ami</w>
M aster</w>
г о</w>
c ry
S pe
konfer enciâ</w>
l ots</w>
no s</w>
s low</w>
sor ev
may be</w>
do govor</w>
stol kn
s pok
uû sâ</w>
sh ap
y es</w>
product ivity</w>
k s
G on
det ail</w>
P ac
az iat
ne preryv
os a</w>
pre krat
sle živ
D own</w>
E V
Rob ert</w>
ref ug
usl yš
iv o</w>
n is
š an
vozmož nym</w>
ion e</w>
po vs
tro ops</w>
otlič aetsâ</w>
t ise</w>
H ow</w>
ci âh</w>
glob alʹnoj</w>
obʺekt y</w>
ex ports</w>
out door</w>
vyso kih</w>
dis pos
u e
Syst ems</w>
glaž eniû</w>
s lov</w>
na pravleniâ</w>
E P</w>
expl ain</w>
los ses</w>
EN T
ed ition</w>
p ain</w>
fo ot</w>
tradit ions</w>
p u</w>
ex cit
seek ing</w>
B .</w>
flex ible</w>
dokum enta</w>
Bo ok</w>
l as</w>
mon opol
čast ično</w>
prakt iki</w>
is ol
tur n
sou thern</w>
stud io</w>
ûŝ ego</w>
nor th</w>
stranic u</w>
oun ge</w>
on to</w>
ris un
contain ing</w>
zag ruž
raz mest
E M</w>
Aleksand r</w>
voz dejstvie</w>
M A</w>
contain ed</w>
pleas ure</w>
B lo
ak h</w>
u i</w>
contra st</w>
Ban ka</w>
pl od
T ib
м о
M ah
K am
ro ck</w>
na pravlâ
poverh nosti</w>
encoura ge</w>
b ars</w>
d aût</w>
realiz e</w>
ri er</w>
pokol eniâ</w>
ud š
magaz in</w>
am ed</w>
horoš ij</w>
An al
pro dl
ic y
n ala</w>
ic on</w>
F un
care fully</w>
u ble</w>
h o</w>
upo trebl
f oundation</w>
modul e</w>
pozic ion
Meždunarod nogo</w>
gir l</w>
tûr ʹ
resist ance</w>
do ors</w>
ac compl
Austral ia</w>
pod čin
Ch ech
an te</w>
j es</w>
zat rat</w>
dan noe</w>
dopolnitelʹ nuû</w>
vysoko kačestv
reta il</w>
l ap
ch ain</w>
proš ed
nes posob
vo ennye</w>
at sâ</w>
komit eta</w>
itelʹ nymi</w>
apartament y</w>
M un
Ch er
N ik
G et</w>
rol l</w>
suŝestv uûŝih</w>
un employment</w>
rash od
prebyv aniâ</w>
Ira ke</w>
ad i</w>
k ir
cor ner</w>
vy pl
depend ent</w>
fol lows</w>
C op
m ulʹ
každo e</w>
na stup
T ok
t es</w>
obʺekt a</w>
tu rec
vy vod
5 9</w>
ra vitsâ</w>
vaš im</w>
L ive</w>
an na</w>
pro te
za âvlenie</w>
V P
tehnolog iâ</w>
poter i</w>
B y
ivš isʹ</w>
ut ionary</w>
manufact ure</w>
obʺ ema</w>
ot ing</w>
podob nyh</w>
ab ol
prov e</w>
p in
neob yč
ap art</w>
we ak</w>
pol nogo</w>
Aff airs</w>
s en</w>
Evropej skij</w>
ka ble</w>
glav nyh</w>
standar tov</w>
A j
tel o</w>
D oc
Prezident a</w>
upravl âtʹ</w>
priorit et
de als</w>
bud uči</w>
dem ar
pra vam</w>
tal ks</w>
6 8</w>
r ental</w>
na slad
poho že</w>
S ho
cion nyh</w>
atelʹ noe</w>
them e</w>
ra dik
iz ysk
n ičestv
emerg ency</w>
che ap</w>
res idents</w>
re alist
kl as
ock ta
vit ʹsâ</w>
op h
resp ective</w>
com pris
do stoj
doct or</w>
èkspor ta</w>
* *
cl assi
faktor ov</w>
produk ciû</w>
ament a</w>
charac ters</w>
ot pravl
fit ness</w>
Con n
razmer a</w>
krup nye</w>
služ ba</w>
invit ed</w>
mem or
de pos
nikak ogo</w>
druz ej</w>
pred skaz
at ami</w>
ther apy</w>
razviv aûŝ
pečat i</w>
1 1.
happ ens</w>
sp rav
vin ov
ver nul
una ble</w>
k to-to</w>
ub ij
irov ana</w>
C it
sum ma</w>
k art</w>
T own</w>
Sci ence</w>
sm ys
rel ative</w>
Z AO</w>
M ess
U l
r ikan
pozd nee</w>
min ing</w>
w ash
fru it</w>
igra et</w>
sostavlâ ût</w>
Afr iki</w>
hot im</w>
des er
festiv al</w>
raspolag aet</w>
exper tise</w>
collabor ation</w>
govern ance</w>
loc ations</w>
Chil d</w>
ig re</w>
me ant</w>
cont ribution</w>
confir med</w>
kok tej
W om
il legal</w>
ka fe</w>
osob oe</w>
fl ag
P RE
Sun day</w>
address es</w>
èt ape</w>
pe oples</w>
di amet
Su per
glob alʹnogo</w>
A rea</w>
por ters</w>
care er</w>
zatrat y</w>
th eless</w>
ex clud
C aucas
harakter a</w>
situ ations</w>
Med iter
thod ox</w>
on t</w>
il et</w>
E A</w>
n ate</w>
dejstv uet</w>
po int
a emsâ</w>
drug uû</w>
ph enom
nes omn
T imes</w>
h ov</w>
iz lož
8 8</w>
inter view</w>
mo e</w>
ost alʹnye</w>
d ry</w>
ob rabat
pol og
al es</w>
prived et</w>
port al</w>
za âvleniâ</w>
no vom</w>
sc ript</w>
l sâ</w>
ne udač
transm ission</w>
ह ै
k rest
vzim aetsâ</w>
ad ding</w>
rast et</w>
Host els
br inging</w>
v ess
vis iting</w>
bu kv
reserv ation</w>
y ment</w>
id er
clo sely</w>
ra di</w>
ocen ka</w>
parag raph</w>
vyš e
materi ala</w>
kon serv
ë r
g n
port fol
luxur ious</w>
frequ ently</w>
pak eta</w>
ilʹ nik</w>
cre ates</w>
L ake</w>
t ive</w>
priob resti</w>
fin ding</w>
y iel
l ot
cion nogo</w>
pered av
harakter iz
un like</w>
prim arily</w>
ro zn
mest nogo</w>
sot ni</w>
enti rely</w>
Krem lin</w>
Cur r
mov ie</w>
Gol den</w>
st s</w>
S lav
promot ing</w>
igh ted</w>
ver ždeniâ</w>
pred počt
Ger man
pol nuû</w>
control s</w>
Oly mp
zdorov ʹe</w>
deb ate</w>
pol noe</w>
T V
Buš a</w>
č len</w>
predlag aetsâ</w>
d as</w>
raboč ie</w>
Technolog y</w>
vaš a</w>
nikak oj</w>
-- --
stat e-
na protiv</w>
disc over</w>
sozd an</w>
st ress</w>
protiv osto
aud it</w>
lûb vi</w>
decor ated</w>
is ure</w>
tem at
orig in</w>
associ ation</w>
sčit atʹ</w>
me bel
C A</w>
podklûč eniâ</w>
spekt r</w>
ugro ž
under ground</w>
medi um</w>
E ur
re in
polʹzov atelʹ
c king</w>
Finan cial</w>
člen om</w>
povys itʹ</w>
dro p
bl ing</w>
lat ter</w>
pozvol itʹ</w>
vit al</w>
af rikan
sugg est
mon ta
sokraŝ enie</w>
sou l</w>
itel y</w>
problem oj</w>
ch am
C at
tehn ičeskogo</w>
C el
vzrosl yh</w>
lead s</w>
under stood</w>
bor ders</w>
ac celer
ex ecution</w>
agricul ture</w>
elʹ nyh</w>
obŝ ie</w>
direct ed</w>
H u
to e</w>
osnov naâ</w>
ob nov
D r.</w>
â toj</w>
elʹ no</w>
aliz e</w>
su red</w>
i Phone</w>
oš i
ra in</w>
experi ences</w>
dis hes</w>
out standing</w>
ploh o</w>
9 7</w>
H igh
v sledstvie</w>
sess ii</w>
po m</w>
ru ns</w>
sav ed</w>
us overšen
discover ed</w>
as a</w>
ov y</w>
vozmož nyh</w>
Hostels club</w>
M ay
otč et</w>
zakon om</w>
âv š
procent a</w>
pro demonstrirov
r s</w>
n on</w>
ran ean</w>
re ki</w>
ac king</w>
vopros a</w>
o zdorov
opredel ennyh</w>
C N
pro bu
B ay</w>
al cohol
prav itʹ</w>
eur s</w>
mut ual</w>
r is</w>
način aetsâ</w>
ul l</w>
nan es
iv aâ</w>
p av
sorev nov
nak opl
An ti
ok ne</w>
comm ission</w>
sput nik
amerikan skoj</w>
ir d</w>
pol icii</w>
cen nosti</w>
l ists</w>
let om</w>
iv anie</w>
lag er
r d</w>
èt až
S how</w>
prič iny</w>
kov oj</w>
značitelʹ noj</w>
prostran stva</w>
sovrem ennogo</w>
Bak u</w>
interfej s</w>
specif ically</w>
Mus ic</w>
postav ki</w>
način aet</w>
otkryt iâ</w>
sw itch</w>
spros a</w>
Avstr al
ri m</w>
kvart iry</w>
or -
prin ting</w>
sniž eniâ</w>
is pan
veŝ estv</w>
exp enses</w>
never theless</w>
ka etsâ</w>
res idential</w>
terror ist</w>
plast ic</w>
surroun ding</w>
S H
ru g
speci alʹnyh</w>
evalu ation</w>
6 1</w>
Èk s
dra wn</w>
reserv e</w>
prois hod
Ne ws</w>
ker nel</w>
ex press</w>
X -
obraz </w>
T an
cour ts</w>
Ros siû</w>
Prot ection</w>
ator om</w>
nov ej
din ing</w>
rej ting
maš in</w>
d é
tol er
rabot al</w>
bran ches</w>
B aš
cut ting</w>
Mon ey</w>
ûŝ im</w>
zna ete</w>
and -
tr ill
we ar</w>
otkry vaetsâ</w>
Per son
mo ego</w>
fe et</w>
v on
f ell</w>
raz vleč
sobstven nogo</w>
abs ence</w>
defin ition</w>
miss ions</w>
radi o
step enʹ</w>
kol ič
raspolož ennyj</w>
vic e-
nb sp</w>
char ming</w>
up grade</w>
su dov</w>
Reg ional</w>
n d</w>
stad ii</w>
hel ping</w>
fe at</w>
ch ers</w>
tal king</w>
š el</w>
v ig
enfor cement</w>
est er</w>
in skogo</w>
rep air</w>
h us
sent âbre</w>
komfor t
EC B</w>
iz irovatʹ</w>
ecom merce</w>
spon sor
igro kov</w>
New spapers</w>
dec re
pot râs
si x
strength ening</w>
ide olog
zav o
re fin
s h</w>
dorog i</w>
ul ice</w>
pozic ij</w>
col ors</w>
L L
cap abilities</w>
id o</w>
clo ser</w>
zav oda</w>
C am
f at
de aling</w>
A t</w>
less ons</w>
vy hoda</w>
dob ratʹsâ</w>
učast iem</w>
soedin eniâ</w>
pos yl
O ur</w>
Hol y</w>
th ly</w>
princi pov</w>
ân iâ</w>
v doh
ov -
G U
v ili</w>
B es
ye ar-
requ ested</w>
È ston
awar eness</w>
čast uû</w>
lâ etsâ</w>
p uz
obŝestv ennosti</w>
odin ak
pri kaz
do g
з а
tradic ii</w>
vystav ke</w>
A F
Christ mas</w>
UN ES
12 -
R ol
C -
igh ten
provid er</w>
obŝ em</w>
b est
class ic</w>
M u
Cust om
Št aty</w>
udob stva</w>
sobstven nyj</w>
L ic
avš ie</w>
komand u</w>
novost i</w>
È to</w>
k atʹ</w>
posledstv ij</w>
expect ations</w>
inst itution</w>
udob no</w>
èk sp
mogl o</w>
The y</w>
pred počit
dre am</w>
Pat ri
adres u</w>
Ex hib
m alʹ
f ans</w>
na il</w>
osuŝestvlâ et</w>
ri â</w>
opredel âet</w>
о б
driv ing</w>
adres a</w>
raz rešenie</w>
û n
na gražd
v .</w>
nedviž imostʹ</w>
On line</w>
E l</w>
el e</w>
quar ters</w>
podgotov ke</w>
pret ty</w>
dol go
sh ift</w>
ostav atʹsâ</w>
cir cul
s cor
v ec
ra š
in ts</w>
za byva
ba by</w>
obespeč eniû</w>
6 9</w>
a o</w>
extrem e</w>
pro ig
mlr d</w>
or ation</w>
d nev
sleduûŝ em</w>
entit led</w>
û b
tour ists</w>
thre ats</w>
as c
za častuû</w>
evropej skoj</w>
eff ect
en th</w>
im yj</w>
bo ot</w>
okaz atʹsâ</w>
S ong</w>
no vo
institut ional</w>
str ii</w>
dra j
act ors</w>
sdel ki</w>
bel orus
ûŝ aâ</w>
k isl
B .
0 2</w>
ma il
len nyj</w>
tab </w>
komp akt
â togo</w>
finansirov anie</w>
funct ionality</w>
sred nem</w>
dis ka</w>
âzy kah</w>
renov ated</w>
m ah</w>
skor osti</w>
ob uslov
ar gu
R ed
oši bok</w>
in ner</w>
dekabr e</w>
V ill
prinâ to</w>
Otel ʹ</w>
upo min
mach in
zanim atʹsâ</w>
soû z</w>
oper ational</w>
zak ančiv
am ing</w>
dopolnitelʹ noj</w>
obraŝ eniâ</w>
fra me</w>
amoun ts</w>
ed ine</w>
process y</w>
lo an</w>
f ast
equ ival
ill er</w>
r é
ab sor
Curr ency</w>
pravitelʹ stvom</w>
sozd ana</w>
sign s</w>
posled nego</w>
ul ated</w>
ev o</w>
zav tra
t ut
b aš
važ nye</w>
n ings</w>
R i
k i
saj ty</w>
st a
list en</w>
d ir
prekras no</w>
ustanov ka</w>
naruš eniâ</w>
ab </w>
labor at
prâm uû</w>
believ ed</w>
pokaz atʹ</w>
driv ers</w>
wn s</w>
198 0</w>
por uč
t ast
cont ents</w>
Inter net-
trans action</w>
už </w>
press ed</w>
ta bly</w>
g ender</w>
M P</w>
st ak
za âvlâ
pri em
t ver
publ ication</w>
Gol f</w>
okaz atʹ</w>
sur g
Dep uty</w>
R um
nor thern</w>
besprovod noj</w>
bereg u</w>
suŝestv ovaniâ</w>
otdelʹ nye</w>
uh udš
va ût</w>
mom ent
crim es</w>
crit eria</w>
_ _
A ct</w>
sp ek
ind icated</w>
l ying</w>
EN T</w>
in ev
call ing</w>
Ban quet</w>
vy stupl
arm ii</w>
n ine</w>
Soci ety</w>
kaf ed
vaš u</w>
fem ale</w>
dr inks</w>
initi atives</w>
drug aâ</w>
ig ru</w>
qu ip
j ur
let ters</w>
tra f
Sing ap
razmeŝ enii</w>
perf ect
x y</w>
regul arly</w>
E ver
imag ine</w>
ES KO</w>
Amer ika</w>
met rah</w>
uŝ ih</w>
ag ues</w>
propos als</w>
mnogočislen nye</w>
vosk res
sem ej</w>
um es</w>
h ir
co ol
M ov
stal kiv
s pros</w>
S m
sovrem ennyj</w>
applic able</w>
t one</w>
not es</w>
ig en
ut ility</w>
reš ili</w>
Gu ests</w>
b ound</w>
vent ure</w>
Po wer
kompet ent
u žd
soldi ers</w>
v ina</w>
particip ated</w>
priš losʹ</w>
Cle aning</w>
N a</w>
izvest nyj</w>
Ro ad</w>
nastoâŝ ej</w>
instrument y</w>
argum ent</w>
obsu ždeniâ</w>
IS A</w>
iz bav
trans ferred</w>
win ning</w>
popyt ki</w>
âz yč
seg ment
te ams</w>
© </w>
zabolev anij</w>
consid ering</w>
Dis abled</w>
bo j
for t</w>
funk ciâ</w>
sam ou
nor m</w>
enh ance</w>
fir st
sh ore</w>
Fin land</w>
ka bin
iz br
vved ite</w>
Kazah stana</w>
att itude</w>
Administ rat
telef ona</w>
surv ey</w>
pod razum
Lit tle</w>
ut il
dry er</w>
regulâr no</w>
psi h
prist up
four th</w>
bo y</w>
om er
ck et</w>
kompon entov</w>
podrazum ev
bl ed</w>
в и
Gaz prom</w>
dom ov</w>
tur istov</w>
ko fe</w>
th umb
obespečiv aût</w>
key s</w>
za ezda</w>
Cap ital</w>
ter a</w>
Ar ch
entran ce</w>
realiz ed</w>
well- known</w>
cep tion</w>
ther more</w>
f ers</w>
t emu</w>
refl ect</w>
M eks
tw ice</w>
S atur
krov i</w>
in ser
âs nâ
bud to</w>
br ings</w>
id y</w>
mob iliz
zaŝ ita</w>
demon stri
D ob
batt le</w>
kontro lʹ
Mediter ranean</w>
gener ated</w>
zak ony</w>
priv le
ag en</w>
filʹ m</w>
tr eni
fl at</w>
ob sud
uslug ami</w>
zem le</w>
komp ens
K ong
primer u</w>
Min sk</w>
Re port</w>
g ranič
implement ing</w>
spo t</w>
vnutren nego</w>
Georg ian</w>
sledov anie</w>
opredel ennye</w>
as y</w>
ŝ ikov</w>
ex ists</w>
proved enii</w>
Kyrgyz stan</w>
pro kur
b ing</w>
continu ing</w>
ÛN ESKO</w>
anglij skom</w>
B AN
C a
nasla žd
pak etov</w>
smys l</w>
zavo ev
Bi g</w>
proizvod stvu</w>
Sh op</w>
in cent
construct ed</w>
om a</w>
tekuŝ ego</w>
Administ ration</w>
su ites</w>
bu re
mn eniâ</w>
destru ction</w>
uč eta</w>
Meždunarod noj</w>
za pros</w>
gostin icy</w>
es -
ko ži</w>
sol id</w>
ot u</w>
š if
k h
9 6</w>
0 3</w>
all erg
L ar
refer endu
R od
th es</w>
fac ed</w>
St ar</w>
sokraŝ eniâ</w>
kommerčes kih</w>
ni ŝ
hol der</w>
te en</w>
em en</w>
Vaš i</w>
direkt orov</w>
ill ust
ab ilʹ
war ran
bra in</w>
oč ki</w>
Ham as</w>
S ek
sec urities</w>
B et
bir d</w>
1. 5</w>
Sw it
In c</w>
bon us</w>
stor es</w>
es cap
compl ex
zainteres ovan
mass age</w>
svâz ej</w>
g ained</w>
N ob
otd yh</w>
ty v
dist ingu
et ed</w>
po pros
lov ely</w>
struct ural</w>
obʺek t</w>
aci âm</w>
busin ess
Go od</w>
pl ag
konkur sa</w>
rim ination</w>
princi p</w>
inf o</w>
os la
up per</w>
con ferences</w>
Ne ther
dosto in
UNES CO</w>
ezd e</w>
poved eniâ</w>
uŝer b</w>
naz yvaetsâ</w>
Pra gue</w>
all -
črezvyčaj no</w>
Bolʹ š
suŝestv ov
ne pod
B ran
Fon da</w>
restric tions</w>
čuv stvo</w>
kaz ino</w>
styl ish</w>
pol l
vtor yh</w>
lûbov ʹ</w>
klûčev yh</w>
liament ary</w>
G rec
relax ing</w>
Aust ria</w>
garanti ruet</w>
l ake</w>
lic am</w>
meždunarod nom</w>
obnovl enie</w>
ak ov</w>
nač alʹ
ver nutʹsâ</w>
aci âmi</w>
f ishing</w>
peri or</w>
ul i</w>
lik ed</w>
dra wing</w>
e ast</w>
su ver
myš i</w>
ob lož
ver š
establ ishing</w>
na poln
v ille</w>
Ar my</w>
upd ates</w>
â losʹ</w>
ul i
distribut ed</w>
sred stvami</w>
ulučš itʹ</w>
Ser ge
G aza</w>
l ie</w>
pred šestv
sk ov
commit tee</w>
ën nyh</w>
z ale</w>
N ag
det al
As sambl
proš l
IC E
obo znač
b ad
orient ed</w>
candid ate</w>
stv ii</w>
sposob stvuet</w>
dis count</w>
vozni kaet</w>
kv ad
Pl ayer</w>
model ej</w>
expl ained</w>
H otel
organiz e</w>
GN U</w>
avtomobil ʹ</w>
l ing
hom es</w>
stil ʹ</w>
indu strii</w>
2 8
disc rimination</w>
amen ities</w>
intellig ence</w>
ežednev no</w>
for t
id ti</w>
ph arm
Proto col</w>
vzaimodejstv iâ</w>
prič ina</w>
ho spital</w>
re da</w>
dol ga</w>
approv al</w>
Con stitution</w>
vybro sov</w>
Fest ival</w>
gl ave</w>
o es</w>
ful l-
byv šij</w>
ti pov</w>
am bi
L un
p el
komnat y</w>
market ing
edinstven nyj</w>
ы </w>
dav atʹ</w>
manag ing</w>
3 000</w>
mat emat
avtomobil â</w>
pro of</w>
okonč aniâ</w>
ex plan
iv nym</w>
re di
mat y</w>
dev oted</w>
ip s</w>
ponim anie</w>
perspektiv y</w>
st ayed</w>
vi v</w>
e ous</w>
on om</w>
anim al</w>
fact ion</w>
I K</w>
prid erživ
žurnal ist
sob ir
g .
dohod y</w>
perev oda</w>
ref riger
A dob
ol ov
nesomn enno</w>
zaverš eniâ</w>
raboč ego</w>
pokaz atelej</w>
ic ity</w>
bi ot
in ians</w>
Stand ard</w>
y o</w>
g ory</w>
tehn ičeskie</w>
conclus ion</w>
struktur </w>
ag ents</w>
conflic ts</w>
ff s</w>
guarante es</w>
proizved eniâ</w>
blag otvor
partner ami</w>
iz bran
poho ž
ass et</w>
regul atory</w>
ent ities</w>
7 6</w>
ned elʹ</w>
inv ite</w>
r are</w>
li ft</w>
j un
Go od
w ed
п ро
pokup ki</w>
ugroz y</w>
isk atʹ</w>
Mar ket</w>
Lithu ania</w>
rem aining</w>
administrat or</w>
D A</w>
p alʹ
D C</w>
к а
् र
reš il</w>
sec ret
compat ible</w>
ugroz u</w>
monitor inga</w>
de voč
èk strem
Nether lands</w>
aim s</w>
div ision</w>
klient y</w>
so obŝestvo</w>
kompl ekt
balcon y</w>
the -
komp aniû</w>
finan sov</w>
UR L</w>
0 4</w>
cho os
cent res</w>
an ee</w>
mest om</w>
v stav
E sli</w>
7 7</w>
ocen itʹ</w>
rod stven
D a</w>
P E
š ou</w>
iru â</w>
portfol io</w>
k ni
sekt or</w>
s ar
C old</w>
st ages</w>
komis siâ</w>
U ser</w>
neigh b
neigh bor
det ali</w>
ko sroč
perek lûč
P ost
zav od
okaz alisʹ</w>
M E</w>
D I
iû ne</w>
nedel e</w>
do g</w>
molodež i</w>
tour na
é s</w>
fi x</w>
lo s</w>
vod oj</w>
B re
non- smoking</w>
b ought</w>
N i
do klad</w>
R C</w>
discus sions</w>
PD F</w>
vis a</w>
sred stvo</w>
S ah
predlag aût</w>
sfer y</w>
razmeŝ enie</w>
en emy</w>
E mp
acion nyj</w>
ow nership</w>
tak i</w>
ot klon
žur nala</w>
regar dless</w>
B ag
polic ej
propos al</w>
fer t
Share Point</w>
le isure</w>
provod it</w>
ar nyh</w>
del ovyh</w>
sho wing</w>
B y</w>
amerikan skie</w>
ad ays</w>
mul til
compl ain
ad vo
prinim aût</w>
p m</w>
sostav il</w>
ha el</w>
svâz ano</w>
cro w
agent stva</w>
long -
tem y</w>
diver si
ič noe</w>
Adob e</w>
Velikobrit aniâ</w>
B ut</w>
zakaz a</w>
D er
priv elo</w>
no mor
napravl enie</w>
sk on
l ah</w>
kakih -libo</w>
osvobo žd
vtor ogo</w>
Rest aur
Fin lân
gen der
prezident om</w>
j u
second ary</w>
poz nakom
ân ie</w>
g ift</w>
an no</w>
za h
substanti al</w>
20 15</w>
pros per
consist ent</w>
attemp ts</w>
C ir
ï </w>
osnov aniâ</w>
pro of
prover itʹ</w>
m ation</w>
poč uv
polož enii</w>
bolez ni</w>
a ward</w>
bezuslov no</w>
wh ol
en th
ma e</w>
torgov le</w>
cl ing</w>
stven nym</w>
л и
čast nogo</w>
sugg ested</w>
lučš ij</w>
ispolʹzov aniû</w>
razvit yh</w>
occur red</w>
elʹ nye</w>
parkov ka</w>
vosstanov lenie</w>
sam o</w>
ecom mun
cat i</w>
coun ter</w>
z on</w>
pol os
v in</w>
priv yč
horoš ie</w>
ra ising</w>
žest o
fash ion</w>
tw ent
neobhodim y</w>
okaz yvaet</w>
web sites</w>
sk ur
in her
en orm
si ru
od nomu</w>
bu ying</w>
naz yvaût</w>
L ux
pod got
id i
aŝ it
R ost
c m</w>
st olʹko</w>
respon d</w>
ogrom noe</w>
Kar ab
S ob
soobŝ il</w>
famili ar</w>
L E</w>
t. p.</w>
C B-</w>
osnov u</w>
perfect ly</w>
ukaz atʹ</w>
G old</w>
dol û</w>
sud ʹ
paramet r</w>
G ul
â -
s sy
Respubl ike</w>
Ot kry
ari um</w>
ev aâ</w>
Dž or
dan nymi</w>
gre w</w>
employ ed</w>
ad voc
driv en</w>
kakoj -libo</w>
cust om</w>
holid ays</w>
gro m
le -
finansov yj</w>
m g
šag i</w>
qu ot</w>
appe al</w>
i P
osv obod
vy âsn
muz ej</w>
do hod</w>
te orii</w>
now adays</w>
Enter prise</w>
act or</w>
ot pus
nezavis imosti</w>
uver eny</w>
n âmi</w>
yva ûŝih</w>
oruž ie</w>
realiz ation</w>
obŝ e
Afr ike</w>
tre vo
b os
д о
fa il</w>
in tim
dic tion</w>
ne ožid
conver s
re placed</w>
po vest
D A
va ûtsâ</w>
ob ed
lûb uû</w>
priv acy</w>
suff ering</w>
top ic</w>
manufactur er</w>
govor itsâ</w>
P .
t acii</w>
vz ry
where as</w>
zar anee</w>
prin es
every where</w>
sʺ em
human itarian</w>
nedostatoč no</w>
pere hod</w>
N av
reš eniem</w>
È r
op en
d ates</w>
stre am</w>
relation ships</w>
rez ko</w>
paro lʹ</w>
effect iveness</w>
K avkaz
rost u</w>
An d
ing redi
agent stvo</w>
reš enii</w>
ect ors</w>
ev t
kur or
om in
ress ed</w>
rec re
Direct ory</w>
r en</w>
s ila</w>
prostran stvo</w>
prinât ie</w>
cov ers</w>
fil i
okt âbre</w>
it ative</w>
ustro jstv
them at
N ero</w>
D E</w>
otčet nosti</w>
pro k
predstav itelʹ</w>
mer ely</w>
M ir
oper acionnoj</w>
vill a</w>
Or thodox</w>
Âpon iâ</w>
proced ur</w>
so ph
Soû z</w>
vit am
lâ ût</w>
pere živ
leg end
v eke</w>
ž enie</w>
Y oun
d uty</w>
okaz aniâ</w>
derev ân
c lock</w>
be ar</w>
zd anij</w>
O lim
qu i</w>
ot sleživ
B at
des ktop</w>
sčast liv
yva em</w>
it o</w>
Fran k
ye v</w>
tr ig
- nibudʹ</w>
ra vl
uslov ii</w>
st ip
v ag
9 2</w>
byv šego</w>
pust ʹ</w>
c red
bur g
hard ly</w>
ek sa</w>
Lan gu
vrem en</w>
pod ač
interes ah</w>
revolû cii</w>
ic ah</w>
collap se</w>
6 8
gl a</w>
dalʹnejš ego</w>
ov atʹsâ</w>
ocen ke</w>
G mb
Soedin ennye</w>
krat kosroč
fac ts</w>
buh gal
g rud
ext ension</w>
uhod u</w>
da či</w>
auth ors</w>
kontroli ru
M uz
den ly</w>
for th</w>
oper ators</w>
concer t</w>
âder noj</w>
âv no</w>
torg ovoj</w>
kontekst e</w>
soci alʹnye</w>
ra vn
vy hod</w>
na oborot</w>
polʹzov aniâ</w>
в а
al ists</w>
svo jstva</w>
proj ti</w>
V I</w>
sostoâni û</w>
korpor acii</w>
Št atov</w>
mehaniz m</w>
lid er</w>
re place</w>
lic om</w>
kl ub
fant astic</w>
iz ont
sc rip
lič no</w>
bor ro
S pr
rekomendu etsâ</w>
no âbre</w>
b and
k .</w>
e in</w>
f ing
administ raciâ</w>
bed nosti</w>
sleduûŝ im</w>
head ed</w>
al ities</w>
ide alʹno</w>
introdu ce</w>
Ob men</w>
ed ral</w>
udal eniâ</w>
s ending</w>
mart e</w>
mid -
t ance</w>
ip p
address ed</w>
answ ers</w>
maš ina</w>
S econ
subj ects</w>
Gam es</w>
et ah</w>
it i
po t</w>
process or</w>
ekt ive</w>
meždunarod naâ</w>
Len in
gener ate</w>
tra demar
mar ki</w>
compani ed</w>
el ej</w>
ovan o</w>
c ot
èp idem
ail and</w>
P ass
prest iž
nemed lenno</w>
est y</w>
vot re</w>
colle agues</w>
os vo
in clus
lim it
D J</w>
rossij skie</w>
bon ds</w>
mean while</w>
man ual</w>
š ah
typ ically</w>
iv ali</w>
thre e-
organ ami</w>
alʹ bom</w>
л о
um -
ो ं</w>
u rement</w>
J ud
èffektiv noj</w>
nest abilʹ
fut bol
per mission</w>
D am
po vor
zadač ej</w>
om b
ofici alʹno</w>
planirov aniâ</w>
dec reas
ogranič enij</w>
ocen ku</w>
atelʹ naâ</w>
pak ety</w>
e book</w>
prav ed
im el</w>
proizvod itelʹnostʹ</w>
b in</w>
t ours</w>
7 1</w>
kl ass</w>
indic ators</w>
Vi enna</w>
baz u</w>
dover iâ</w>
cru cial</w>
udal itʹ</w>
pos sibly</w>
L y
ost orož
Ba by
desâtilet iâ</w>
appro aches</w>
el ling</w>
bliz i</w>
sp alʹ
bro ken</w>
črez mer
povre žd
accur ate</w>
kapit al</w>
can cer</w>
gra v
pisʹ mo</w>
IP -
For ex</w>
beg ins</w>
mag net
B ah
end it
Con dit
host ing</w>
he ight</w>
p up
v on</w>
AT ION</w>
sleduûŝ ee</w>
za planirov
ulučš enie</w>
promyšlen nyh</w>
preimuŝ estv
nos itʹ</w>
konkret nyh</w>
po vli
put s</w>
s ne
Res er
tra ined</w>
Swed en</w>
P HP</w>
otel ej</w>
m az
miniat û
Gmb H</w>
vy pust
Bolgar ii</w>
fur thermore</w>
po trebuetsâ</w>
Caucas us</w>
L ov
ustojčiv ogo</w>
èk sport</w>
sosto itsâ</w>
medicin skih</w>
kru gl
Komit eta</w>
Con sul
Swit zer
reli ability</w>
ud erživ
Su preme</w>
z h
ess a</w>
stan ut</w>
sud denly</w>
col our</w>
prin ter</w>
cos y</w>
-R us
acqu ired</w>
dostup en</w>
sect ions</w>
tŝ atelʹno</w>
ust oron
fot o</w>
na ždy</w>
il ly</w>
bud u</w>
stven noe</w>
sensit ive</w>
M K
miss ii</w>
korto stan</w>
vz ât
Cli ent</w>
stop ped</w>
ok kup
Grec ii</w>
mil es</w>
cover age</w>
g an
sal on</w>
èta že</w>
zakon ov</w>
g un</w>
Argent ina</w>
pok er</w>
d ali</w>
direct ions</w>
pay ing</w>
Kras no
ne kotoroe</w>
gro wn</w>
out come</w>
iv no</w>
ion er</w>
sen sus</w>
e on</w>
arrest ed</w>
ot o</w>
skaz ala</w>
Frid ay</w>
J ust
form irovaniâ</w>
Op en
decre ase</w>
z ub
organiz aciû</w>
astron om
J os
S at
osuŝestvl enie</w>
g- n</w>
Pred sed
vo- vtoryh</w>
form al</w>
učeb nyh</w>
S o</w>
iru ûŝih</w>
E G
lič nosti</w>
posledstv ii</w>
obʺ ektiv
frag ment
Oper a</w>
do hoda</w>
K .</w>
dalʹnejš em</w>
an nom</w>
coun ts</w>
f illing</w>
Mic hael</w>
konsulʹt acii</w>
v u
po klon
pro pus
or am</w>
kommun ist
programm ing</w>
Switzer land</w>
rajon ov</w>
sh uttle</w>
E .</w>
F o
म े
H D
p ure</w>
vol û
pre fer</w>
inter nation
garan tirov
si m</w>
F -
ast ʹ</w>
prior ities</w>
sov et</w>
čelov ekom</w>
zvezdoč nyj</w>
sodejstv iâ</w>
end ar</w>
soci alʹno-
E ST
S ak
d at</w>
vide o
in corpor
f t
persp ective</w>
ser edine</w>
im s</w>
l asʹ</w>
važ noe</w>
pre ad</w>
N PO</w>
d ut
an c
â em</w>
Vaš im</w>
got ov</w>
čet ko</w>
R et
H all</w>
spo ke</w>
lic ens
S anta</w>
pus h
N ight</w>
n rav
if ts</w>
bil etov</w>
frequ ency</w>
p ace</w>
í </w>
Intern ete</w>
Char les</w>
7 8</w>
novy mi</w>
profession alʹnyh</w>
in yh</w>
T ak
Nor way</w>
razrabot ku</w>
A SP
a us
vy rabot
defin itely</w>
pro sto
ent ity</w>
sluča j</w>
f ü
sil oj</w>
os h
pro xim
my sli</w>
sodejstv ie</w>
me at</w>
denež nyh</w>
is ely</w>
zaklûč eniâ</w>
fil ter</w>
facilit ate</w>
Pod rob
vozmož nostʹû</w>
vnutren nej</w>
Pac ific</w>
po mogut</w>
mar ri
VI P</w>
bum ag</w>
is co</w>
ter ing</w>
po âvlâetsâ</w>
opredel âetsâ</w>
Eston ia</w>
gosudarstven nyj</w>
t û
ž iteli</w>
P ay
sov okup
av gust
plani ru
aff airs</w>
landsc ape</w>
pokaz yvaût</w>
sistem ah</w>
dep end</w>
irovan naâ</w>
dopoln enie</w>
priv erž
indic ate</w>
proizvod itʹ</w>
viz u
iû le</w>
Sof t</w>
Vost oke</w>
sob ran
ul es</w>
Tre aty</w>
config ure</w>
t at
г о
žd atʹ</w>
obŝ eniâ</w>
sess ions</w>
gran t</w>
ess ed</w>
z o
pre obrazov
ènerg iû</w>
za pro
kl ub</w>
N ow</w>
oh la
udiv itelʹno</w>
dav leniâ</w>
v blizi</w>
ident ifik
mot ion</w>
in qu
selʹ skogo</w>
è po
gaz ety</w>
od naždy</w>
â emyh</w>
cont rary</w>
thumb nail</w>
soph ist
fak ulʹt
N ame</w>
ris kov</w>
Gre en</w>
vy puŝ
važ nuû</w>
vyglâd it</w>
otʺ ezda</w>
P ric
car go</w>
att ended</w>
fe es</w>
sleduûŝ ej</w>
op âtʹ</w>
teach er</w>
amaz ing</w>
L os</w>
Ind iâ</w>
ot lož
dep th</w>
otkryt ie</w>
part iâ</w>
iver se</w>
deâtelʹ nostʹû</w>
Azerbajdž ana</w>
up gra
K r
o obraz
služ it</w>
or d
istoč niki</w>
elʹ nogo</w>
tra d
ir on</w>
Act ive</w>
9 00</w>
ožid aetsâ</w>
dver i</w>
Š vec
telefon u</w>
P ic
c .</w>
pl û
ol d
cerkov ʹ</w>
E .
cop ies</w>
kov ye</w>
He art</w>
lo p
r ii</w>
ovan noj</w>
èk zem
simultane ously</w>
sbor a</w>
M ater
n esti</w>
el ite</w>
ó n</w>
compl icated</w>
kar toč
n ur
vlast ej</w>
stv ovaniâ</w>
m ira
arrang ements</w>
rel and</w>
impress ive</w>
Sy ria</w>
ožid aniâ</w>
restor e</w>
ed itor</w>
sw it
clo thes</w>
r ale</w>
ul ât
posled nej</w>
institu cion
de ât
tvor č
arm ân
zanâto sti</w>
c opyright</w>
vozmož nye</w>
ostav itʹ</w>
ि क
vozmož nostâmi</w>
S or
del am</w>
rubež om</w>
d ress</w>
downlo ading</w>
ustanov len</w>
consul ting</w>
stro g
bliz osti</w>
reput ation</w>
produk ciâ</w>
na p
author ized</w>
b et</w>
več er
protivo polož
c ross</w>
apre le</w>
ka bel
ʹ ân
ra ciû</w>
ment ion</w>
raspolož ena</w>
pod hoda</w>
R iga</w>
coll ected</w>
osnov nymi</w>
poved enie</w>
l enij</w>
inst itut</w>
èksper ty</w>
su it</w>
L ight</w>
exper im
obvi ously</w>
Š vejcar
destro yed</w>
R evolution</w>
zad um
stv uûŝih</w>
L .</w>
IB M</w>
edinstven nym</w>
sl o</w>
k e
det ention</w>
priš li</w>
obrat no</w>
scen ari
dv ustoron
T en
schedul e</w>
put ting</w>
gre čes
značitelʹ nye</w>
dan ger</w>
D è
estestv enno</w>
bo ys</w>
Rep ubl
diplomat ic</w>
patter n</w>
ras čet
h idden</w>
dizaj ner
ver n
program moj</w>
govor ili</w>
pro mež
èffektiv nogo</w>
publik acii</w>
živ ut</w>
main taining</w>
ct ive</w>
exp endit
re fer</w>
C C</w>
continu ous</w>
gostin ica</w>
at i</w>
ploŝad ʹû</w>
ime ûŝih</w>
R aj
host els</w>
par liament</w>
jud g
act ed</w>
ed -
Isp anii</w>
poâ vitsâ</w>
ver h</w>
g est
prav e</w>
A ction</w>
ev il</w>
ub i
dek lar
c ockta
ë n</w>
im ena</w>
zal ož
s ights</w>
strateg iâ</w>
rov aniâ</w>
7 3</w>
vy vod</w>
X VI
pravitelʹ stv</w>
škol e</w>
izvest nye</w>
expl ore</w>
u proŝ
Ž en
sup posed</w>
K li
S T</w>
D ut
n esses</w>
istoč nikom</w>
miner al</w>
G all
pam âtʹ</w>
secon ds</w>
bumag i</w>
univers ities</w>
sy n</w>
im et
èl ement</w>
meždunarod noe</w>
n ravitsâ</w>
T am
á </w>
è volû
f an</w>
licenz ii</w>
post upl
obrat ite</w>
sl ightly</w>
L ike</w>
veŝ ej</w>
stor ies</w>
Nor veg
pro âvl
F OR
sem ʹe</w>
C T
urov nâh</w>
å ñ
pravl enie</w>
per ce
B ack</w>
V an</w>
ro ads</w>
len noj</w>
recor ding</w>
tot ally</w>
equival ent</w>
âŝ ej</w>
ent am</w>
C lin
Cent r</w>
in am</w>
Vide o</w>
ac companied</w>
high- quality</w>
cover ing</w>
el low</w>
prois hoždeniâ</w>
ostav š
èksper iment
kon cu</w>
smo g</w>
vn iz</w>
fre sh
gradu ally</w>
test ed</w>
standart y</w>
Exhib ition</w>
guarante ed</w>
en ʹû</w>
tu al
it ov</w>
on going</w>
paci entov</w>
Li brary</w>
ò </w>
ch apter</w>
Ch ann
iz em
mov ements</w>
atmosfer u</w>
or dered</w>
van noj</w>
vyso kuû</w>
č estʹ</w>
garant ii</w>
execut ed</w>
rast i</w>
pre ten
itel û</w>
mis es</w>
Pl aza</w>
P it
wood en</w>
col on
Sp ace</w>
amerikan skogo</w>
kras oty</w>
L .
achiev ements</w>
podgotov ka</w>
tur </w>
z lou
posledov atelʹ
poezd ki</w>
mig racii</w>
w are
Džor dž
i a
Bud ap
it ting</w>
depos its</w>
ple ased</w>
zabolev aniâ</w>
Cent ra</w>
ic it</w>
ek vat
be half</w>
nen av
č utʹ</w>
è m
pra vom</w>
Ak adem
8 2</w>
wid es
bel ief</w>
symbol </w>
h ftel</w>
w an</w>
i po
vo ploŝ
fil ms</w>
// www.
quant ity</w>
grup poj</w>
paramet er</w>
det âm</w>
voj ne</w>
Cer ti
ab stra
ex ts</w>
L ad
W el
I ST
vaš emu</w>
strong er</w>
Iis us</w>
for eign
ay a</w>
vopros ah</w>
mot or</w>
exc ess
ob st
L or
izuč eniâ</w>
prinim aâ</w>
s ounds</w>
ne čto</w>
èk sport
voj nu</w>
Restaur ant</w>
neobhodim ym</w>
assem bly</w>
difficul ties</w>
sokrat itʹ</w>
problem ami</w>
organis ations</w>
com position</w>
svo ev
ni um</w>
irovan nym</w>
rassmatriv atʹ</w>
re public</w>
norm ally</w>
let nij</w>
na sčit
punk tov</w>
C B
I reland</w>
F ol
v vesti</w>
advert is
progul ki</w>
3 rd</w>
par ka</w>
voz aŝit
dru ž
promis ed</w>
ri al</w>
C an</w>
aff ili
sav ings</w>
avi ak
Pet ro
wid th</w>
Finlân d
soobŝ aet</w>
exhib itions</w>
ukaz yvaet</w>
vozv rat
proč it
značitelʹ noe</w>
kandid atov</w>
ro g
Eur o</w>
konkur encii</w>
zn al</w>
Hol id
nov enie</w>
academ ic</w>
bat are
T adž
pod el
con vic
sna b
suppl iers</w>
c art
sposob ny</w>
pok in
by vaet</w>
enjo yed</w>
v raŝ
AP I</w>
b are</w>
J ac
r ali</w>
Kor olev
In form
cas ino</w>
sum m
F ed
lid er
kak oe</w>
nuž ny</w>
fo x</w>
derž atʹ</w>
Hrist a</w>
teor et
medicin skoj</w>
ent ering</w>
sč ete</w>
D or
vneš nih</w>
S iber
moŝ nosti</w>
komp aniâmi</w>
ad ekvat
cont est</w>
share holders</w>
pri bliž
izob ret
M es
spect ac
F ile</w>
p et</w>
ot ec</w>
E K
sion noe</w>
k us</w>
reven ue</w>
ras syl
r ik
obe ih</w>
v râd</w>
Civ il</w>
cvet ov</w>
particip ating</w>
Put ina</w>
Medved ev</w>
e ums</w>
civ il
tra s
na prâmuû</w>
osnov ana</w>
handl ing</w>
tar gets</w>
Èk skur
us i
9 3</w>
mag ist
pokaz atelʹ</w>
per ez
obrat itʹsâ</w>
kl assi
le aves</w>
c amp</w>
serv isa</w>
D ani
glav naâ</w>
po poln
yv aniâ</w>
acqu is
služ itʹ</w>
8 9</w>
coordin ation</w>
vtor aâ</w>
zem lû</w>
iz vleč
j s</w>
h ra
pass ing</w>
S ee</w>
Ter race</w>
suppl ied</w>
vypus k</w>
Fin ance</w>
न </w>
opas nostʹ</w>
ko al
oblad aût</w>
sh or
Ital iâ</w>
serʹez nye</w>
itelʹ nom</w>
č em
ʹ âm</w>
strong ly</w>
you n
su ti</w>
tur a</w>
Nʹû- Jor
rukovod itelʹ</w>
f one</w>
plat es</w>
stro ki</w>
tu red</w>
tem i</w>
smot retʹ</w>
organiz ovatʹ</w>
am end
T our
G L
rec ru
atel û</w>
persp ektive</w>
every body</w>
P R</w>
7 4</w>
b usy</w>
kompʹûter ov</w>
ad ver
uča ŝ
Č ist
P art</w>
correct ly</w>
važ nostʹ</w>
eng ines</w>
. 00</w>
profession alʹnoj</w>
s it</w>
kaz alosʹ</w>
provod âtsâ</w>
rat ions</w>
in sist
foot ball</w>
ob served</w>
lob by</w>
sv âž
br atʹ</w>
yva ûŝie</w>
prosp ects</w>
V tor
no ž
flow ers</w>
strem itsâ</w>
w ishes</w>
sin hron
po stra
s b
stven naâ</w>
al ition</w>
ari b
techni que</w>
2 nd</w>
b ess
ust up
č už
K as
kor ol
1, 5</w>
Au th
l ay</w>
tend encii</w>
kontroli rovatʹ</w>
rabot aûŝih</w>
coll ect</w>
Vaš ih</w>
f os
žil iŝ
graph ics</w>
p ik
postav ok</w>
dolž nosti</w>
per cent
Bulg arian</w>
klim at
ex it</w>
predlož enij</w>
podderž koj</w>
pričin am</w>
pomeŝ eniâ</w>
muzy ka</w>
equ ity</w>
z re
S av
G PS</w>
S aud
reš eniû</w>
S I</w>
enorm ous</w>
assign ed</w>
G .
D .
inter vention</w>
han dle</w>
comb at</w>
Wil li
pr inter
prin ted</w>
s vod
V il
ric k</w>
prirod nyh</w>
al d</w>
ânv are</w>
RA V
ra id</w>
ra s</w>
st ed</w>
in ym</w>
pod ver
F S</w>
baz a</w>
imen em</w>
potreb itelʹ
institu tov</w>
vstreč a</w>
there by</w>
vy j</w>
golo sov</w>
c i</w>
desc ribe</w>
for d
main tained</w>
al ia</w>
Le on
Ba by</w>
predotv ratitʹ</w>
A l</w>
C o</w>
cen u</w>
sv ad
sla by
arhitekt ury</w>
viol ations</w>
oprav d
up or
vos polʹzu
skor o</w>
serv ere</w>
H ong</w>
raj on</w>
Nacion alʹnogo</w>
t ami</w>
ab use</w>
meth od
E L</w>
ar y-
mil k</w>
F OR</w>
B A</w>
art if
ev ym</w>
v acc
ab and
upravl eniem</w>
eng ag
war ning</w>
del u</w>
pharm ac
li ability</w>
v ement</w>
ič naâ</w>
if ications</w>
h ire</w>
ed elʹ
n ike</w>
vulner able</w>
B ru
er rors</w>
ustanov ke</w>
bir atʹ</w>
ru kah</w>
Vis ual</w>
žurnal istov</w>
ne odno
P ap
sp her
8 3</w>
il er</w>
territ ories</w>
C L
igen ous</w>
kakoj -to</w>
ur s</w>
transpar ent</w>
Pok er</w>
gosudar stvom</w>
og o-
la id</w>
Com pl
ka p
der a</w>
t âž
ut a</w>
doct ors</w>
po prob
primen âetsâ</w>
plav atelʹnyj</w>
a ho
meždunarod nymi</w>
postav itʹ</w>
funct ioning</w>
L is
Program my</w>
du û</w>
oč naâ</w>
tret ij</w>
rabot od
za poved
wides pread</w>
arhitekt ur
otdel a</w>
e astern</w>
slož no</w>
svob odnogo</w>
subsid i
un known</w>
pra vozaŝit
sum mit</w>
upravl eniû</w>
strah ovaniâ</w>
nos it</w>
gl â
Prim eč
ed e</w>
organ isation</w>
conclud ed</w>
D lâ</w>
vklûč itʹ</w>
vosstanov itʹ</w>
prevyš aet</w>
press ing</w>
stud ied</w>
a ult</w>
I tak</w>
fe ed</w>
vol un
Po ol</w>
uk rep
el se
Cas ino</w>
Z e
des ired</w>
m -
natur ally</w>
f az
uvelič ennogo</w>
r ide</w>
u racii</w>
Nor thern</w>
im y</w>
Bl u
zak lad
OB SE</w>
acion naâ</w>
fe ed
el la</w>
W ill</w>
om mun
di ab
9 4</w>
proizvod it</w>
r ing
dizaj na</w>
avtor it
R K</w>
ÿ </w>
Bez opasnosti</w>
el led</w>
ispoln eniâ</w>
nastro itʹ</w>
th in</w>
t et
B M
zapus ka</w>
iz beg
dis kov</w>
prodolž aût</w>
ost alʹnyh</w>
Med ical</w>
infl âcii</w>
osv âz
plac ing</w>
Meždunarod nyj</w>
èkzem plâ
labor ator
kosm et
pre mises</w>
vyig ry
Podrob nee</w>
peri ods</w>
t uber
zaŝit itʹ</w>
provid ers</w>
pravitelʹ stvennyh</w>
gl es</w>
por tra
em ymi</w>
â jte</w>
Ter rasa</w>
institut a</w>
M est
aktiv nosti</w>
l u
en stva</w>
količ estvom</w>
per sist
s m</w>
Indust ry</w>
u dostover
zadol žen
gol f</w>
fal se</w>
m ale</w>
P V
resul ted</w>
Un ivers
conveni ence</w>
Ex cel</w>
sootvetstv ie</w>
f at</w>
an cy</w>
prakt ik
excep tion</w>
v posledstvii</w>
. NET</w>
v u</w>
vie wing</w>
vid el</w>
zakaz atʹ</w>
Al li
equ ally</w>
Vik tor</w>
con serv
id ej</w>
tor ture</w>
R -
kanal y</w>
t uda</w>
èlektro ènergii</w>
AR T
gran d
ne opredel
muzy ku</w>
L ʹ
ag a</w>
i ev</w>
vpečat lenie</w>
in dij
Èkskur sionnoe</w>
18 0</w>
Kur enie</w>
B rus
ch enko</w>
remar kable</w>
balan sirov
Edit ion</w>
iz z
soci eties</w>
com ment</w>
IT -
san ctions</w>
vklûč atʹ</w>
H om
Tal ib
con fron
Or der</w>
asp ir
m irov
ig ious</w>
buhgal ter
о т
ion ers</w>
ic als</w>
osla bl
vis ual</w>
borʹ ba</w>
istoč nika</w>
sh od
R ef
lûb aâ</w>
pra voj</w>
V an
bu g</w>
dav ajte</w>
Isl and</w>
cerem ony</w>
knig e</w>
povyš eniû</w>
izmer eniâ</w>
t rat
spok en</w>
dispos al</w>
bo at</w>
ženŝ ina</w>
evropej skie</w>
minist ry</w>
ostanov itʹ</w>
c asting</w>
roug h
ne ut
bloc ks</w>
ob it
rod itelej</w>
ishod â</w>
ris ki</w>
kov ogo</w>
im peri
n in
osob o</w>
mon thly</w>
manufact ured</w>
R ub
obz or</w>
a er
miniatû ru</w>
âzy kov</w>
magaz inov</w>
pain ting</w>
prizn atʹ</w>
poz von
vypus ka</w>
log ist
Emp ire</w>
tur y</w>
D ie</w>
okaz yvatʹ</w>
sk rip
iz ard</w>
ex pos
pyta etsâ</w>
aûŝ ijsâ</w>
s derživ
or et
s ah</w>
rekomendu em</w>
mo skov
n ite</w>
applic ant</w>
л а
Kon stan
vy jti</w>
b es</w>
Sci ent
re aching</w>
iz a</w>
ët sâ</w>
og a</w>
pri im
organiz aciej</w>
H us
k eep
Be ij
S ev
dostoprimečatelʹ nostej</w>
end ers</w>
klûč </w>
Dist rict</w>
O U
else where</w>
A n</w>
otčet ov</w>
G od
any where</w>
pro pri
tra cks</w>
int u
t end</w>
gen u
ail s</w>
l ounge</w>
ènerget iki</w>
lov ed</w>
š esti</w>
Frank fur
cl ubs</w>
H im</w>
pro voz
am entov</w>
pros ecut
vypus k
ser iously</w>
obâzan nosti</w>
Z a
Dom in
excit ing</w>
F ig
v sp
expl os
ti j
A re</w>
seg ment</w>
nak op
krovat i</w>
čeloveč estva</w>
sdel ok</w>
ен и
no body</w>
Biz nes-centr</w>
ʹ -
exam ination</w>
N ev
prinadlež aŝ
K ong</w>
Th er
primen âtʹ</w>
hotel osʹ</w>
absolut e</w>
ivš ih</w>
perform ing</w>
un ning</w>
iz nač
sobyt ie</w>
lež it</w>
voz dejstv
back up</w>
Tech nical</w>
B I
soedin enie</w>
kuh nâ</w>
bûdž et</w>
reklam y</w>
D own
Gen eva</w>
sleduûŝ ego</w>
ped agog
podob no</w>
ostan avliv
b ill</w>
èkran e</w>
zd anii</w>
or ate</w>
l est
C alifor
house hold</w>
W ay</w>
gruz ov</w>
as ser
koncep cii</w>
ad ob
win ner</w>
da ughter</w>
et o
rav no
ë z
im posed</w>
po prav
person ally</w>
âl sâ</w>
zamest itelʹ</w>
rel ating</w>
demonstrat ed</w>
N ider
gr âz
e able</w>
kat alog</w>
invol ving</w>
rezulʹtat am</w>
 </w>
abl ing</w>
V eng
icy cle</w>
menʹ šej</w>
aûŝ ejsâ</w>
5 0-
OS CE</w>
bil ateral</w>
cel yj</w>
asp ect</w>
consci ousness</w>
Z im
bat tery</w>
P in
tor žestv
ester day</w>
euro zone</w>
ac knowled
kur sy</w>
N ot</w>
S earch</w>
Spir it</w>
produ ces</w>
com mon
priât no</w>
č e</w>
count ry
meh aničes
k rep
T ick
rukovod itelej</w>
š ed
18 -
dek or
flo ors</w>
star in
be aches</w>
st ric
transpar ency</w>
Mar k</w>
con ce
ir s</w>
beg un</w>
li p
predostav lâtʹ</w>
punkt a</w>
ough ts</w>
ro me</w>
us er
kop ii</w>
fakt ory</w>
av en</w>
eč at
D on</w>
oznakom itʹsâ</w>
god om</w>
iv noe</w>
stat usa</w>
respubl ikan
bež encev</w>
farm ers</w>
ed it</w>
del ete</w>
interes no</w>
ou d</w>
č emu</w>
pos ad
cros s-
aud itor
liber al</w>
k m.</w>
prinadlež it</w>
in ations</w>
kal end
N GO
ograph y</w>
u ter
pl ant
soglas iâ</w>
fl ag</w>
commun icate</w>
l er
с </w>
3 50</w>
I van</w>
sil ver</w>
ot doh
9 1</w>
ogrom nyj</w>
sko p
Cer kvi</w>
p ick</w>
mag nific
invol vement</w>
198 8</w>
h ang
E s
R ic
ron ics</w>
p ev
C F
attra ct</w>
sy gr
jud icial</w>
mužč iny</w>
vy bros
O bl
sotrudničestv u</w>
resol ve</w>
associ acii</w>
stat ej</w>
žur nal</w>
trad ici
pokaz ali</w>
de ad
S ound
mehaniz mov</w>
convent ional</w>
kak ogo-
ar noj</w>
P M</w>
v čer
prepar ing</w>
po k</w>
po âvl
co ol</w>
co al</w>
rod ilsâ</w>
B ou
AN T
pa pers</w>
opl ač
B ill</w>
Slov ak
e et</w>
pro ph
kov a</w>
aviak omp
In te
ist ane</w>
različ iâ</w>
g in</w>
lučš ee</w>
vill ages</w>
over come</w>
nacion alʹnom</w>
ant iv
na imen
plani ruetsâ</w>
ap point
sl eva</w>
pod nâ
g as
reve aled</w>
bal ans</w>
predus motr
मे ं</w>
Bl ack
integ r
v atʹsâ</w>
bro ther</w>
vyso kaâ</w>
osob en
- S
E din
к </w>
stav ok</w>
st raž
A nat
reš atʹ</w>
mol it
ch air</w>
predstav itelâmi</w>
dolž nostʹ</w>
š la</w>
J our
Prez ident</w>
pro ud</w>
0 1.
Fire fox</w>
polit ičeskaâ</w>
prinât y</w>
en ever</w>
desât i</w>
g ov</w>
knig a</w>
ul ty</w>
su perior</w>
M aria</w>
ch ur
S M</w>
polož enij</w>
Zap ada</w>
reven ues</w>
zag olov
् य
avgust e</w>
u jte</w>
s ought</w>
con sent</w>
land ii</w>
sostoâl asʹ</w>
svobod no</w>
mnogočislen nyh</w>
rat io</w>
pri ezž
sk ani
kost ʹû</w>
mus ical</w>
Sh uttle</w>
re construction</w>
T ai
arran ged</w>
ã o</w>
purch ased</w>
Al maty</w>
virt ually</w>
S add
R ot
obo ih</w>
dut ies</w>
kon ver
priš el</w>
sm art
par liamentary</w>
4- star</w>
ira k
ukrepl eniâ</w>
f arm</w>
nan os
torgov ye</w>
NGO s</w>
dom oj</w>
neobhodim a</w>
niz kim</w>
Bel orus
agg ress
so il</w>
hir urg
A th
serd ca</w>
sposob ov</w>
t ii</w>
N T</w>
Ag ent
tick ets</w>
Lat inskoj</w>
èkspluat aciû</w>
1 10</w>
lun ch</w>
dol ʹ</w>
dokt or</w>
kredit noj</w>
som neniâ</w>
. m</w>
pon adob
A B</w>
pr ic
tar get
Youn g</w>
proek te</w>
hot ʹ</w>
kol eb
hus band</w>
min ent</w>
borʹ bu</w>
zer o</w>
pra vah</w>
obʺ âsnâ
compens ation</w>
ag ress
Un der
pract ically</w>
20 th</w>
fev rale</w>
Sci ences</w>
VP N</w>
pod vod
re li</w>
and in
sophist icated</w>
H z</w>
Beij ing</w>
ci âm</w>
miss ing</w>
ther mal</w>
Zapad noj</w>
prec isely</w>
el ed</w>
super vis
br illi
prizn anie</w>
iniciativ y</w>
aktiv y</w>
territor iû</w>
polit ičeskij</w>
offici ally</w>
l ay
el le</w>
Ver sion</w>
sh ad
T bil
am m
è r
p ension</w>
box es</w>
la v</w>
stran oj</w>
An t
vned reniâ</w>
pl enty</w>
O ce
as sume</w>
Par l
itog am</w>
tel ecommun
ign s</w>
ion a</w>
ap p
raz govor
pl eč
pro hodât</w>
eh nolog
s pos
de j
S P</w>
a us</w>
re alʹnogo</w>
A Z</w>
condit ioned</w>
služ bu</w>
distribut ors</w>
vstreč e</w>
vtor om</w>
k tov</w>
in habit
konfig uracii</w>
surpris e</w>
Afgani stane</w>
Eng ine
ad ult</w>
w ars</w>
š imi</w>
Col l
u byt
otkry t</w>
schedul ed</w>
log ical</w>
d û
H it
N ice</w>
čit atʹ</w>
part ij</w>
žd a</w>
Respubl ika</w>
princip al</w>
mest noj</w>
enc ry
proizvod stvennyh</w>
ver a</w>
CO 2</w>
sozd any</w>
prison ers</w>
vel a</w>
raz ry
s ʹ
s raž
st ilʹ
poâv ilisʹ</w>
èlektron nyh</w>
avš ij</w>
rubl es</w>
UA H</w>
ožid atʹ</w>
ban k
believ es</w>
de poz
peren os
učen yh</w>
tov ara</w>
ŝ e</w>
ro j</w>
pro âv
kredit ov</w>
v dolʹ</w>
stav ku</w>
otkaz </w>
reben ok</w>
otdelʹ no</w>
z er</w>
ro k</w>
Dut ch</w>
ot er
zakonodatelʹ stvom</w>
ne pravilʹ
učen ye</w>
mobilʹ nyh</w>
feat uring</w>
S V
kni g</w>
1 30</w>
ref used</w>
rast enij</w>
philosoph y</w>
pic tu
mo ih</w>
sdel ano</w>
ust er</w>
š ans</w>
is y</w>
D y
svobod nyh</w>
g el
ed ings</w>
b an</w>
sum mar
iru ûŝie</w>
st aying</w>
fall ing</w>
plan ov</w>
Iis usa</w>
k ids</w>
tick et</w>
izbir atelej</w>
n ights</w>
so per
ev od
otvet y</w>
tre aty</w>
glob alization</w>
server ov</w>
h uže</w>
hran iliŝ
T able</w>
ev ič</w>
re action</w>
dis plays</w>
èner go
ó </w>
occup ied</w>
bo ards</w>
Taj ikistan</w>
razrabot čikov</w>
ni kah</w>
proto col</w>
ro of</w>
navig ation</w>
st ih
necess ity</w>
vot ers</w>
K rist
graph ic</w>
u an</w>
na h</w>
n enie</w>
izobraž enij</w>
enc ing</w>
ovan nyj</w>
resur sami</w>
M oz
w is
sv ât
Bor is</w>
Ira q
Prin ce</w>
v rode</w>
m ouse</w>
pisʹ ma</w>
N T
compet ent</w>
gražd ane</w>
ef s</w>
F ather</w>
mani fest
n t</w>
rassmot retʹ</w>
priv âz
gorod skoj</w>
glav nogo</w>
ok on</w>
več erom</w>
po gib
ent ami</w>
B Y
K B</w>
m noj</w>
tradicion nyh</w>
festiv al
sch eme</w>
trans fers</w>
pre stupleniâ</w>
am -
M G</w>
man a</w>
rabot oj</w>
pros matriv
dolž nost
lin ej
d ar</w>
ûŝ ee</w>
bran d
pad eniâ</w>
Te am</w>
Kor ean</w>
em uû</w>
ultim ately</w>
econom ics</w>
un s</w>
Qu ality</w>
vl až
B ad
vstreč </w>
N ar
uz zi</w>
ter ras
produ cer</w>
B and</w>
du h</w>
ep idem
vyzv atʹ</w>
K P
veroât nostʹ</w>
P ur
bed nyh</w>
tan k</w>
Mon day</w>
comb ine</w>
ber em
âûŝ ij</w>
P ER
Califor nia</w>
čast nye</w>
ru ku</w>
ri ble</w>
Al b
appl ies</w>
horoš ee</w>
B ut
naž at
è r</w>
sam ymi</w>
in et</w>
Wh o</w>
potrebl enie</w>
l am
Secon d</w>
In tell
guid ance</w>
1 1-
povs ednev
origin ally</w>
choos ing</w>
predpolag aet</w>
ik on
h le
Minister stvo</w>
serʹez no</w>
patter ns</w>
F ar
t um
marri age</w>
n ish</w>
sozd aût</w>
ny ne</w>
tro uble</w>
zarubež nyh</w>
diver se</w>
elʹ nyj</w>
ok rest
Tran sl
ch en
- in</w>
ra stv
vnutren nie</w>
N um
pomn ite</w>
h at
im en</w>
hel l</w>
as king</w>
ress es</w>
satis fy</w>
bar ʹ
Ever y
ig ence</w>
Kom issii</w>
mus eums</w>
P ent
For ce</w>
Latvi an</w>
isk ren
ef ully</w>
Pl ace</w>
de gre
cen nostej</w>
for ests</w>
H il
9 001</w>
mak ro
stu ff</w>
be k</w>
Z el
str ing</w>
stol icy</w>
appreci ate</w>
v ež
jour ney</w>
glav y</w>
priz e</w>
R y
subsequ ent</w>
im omu</w>
chec k-
ûrid ičeskih</w>
tak t
centr alʹnoj</w>
kon tej
of is</w>
vys šego</w>
m atʹ</w>
utveržd aet</w>
S ad</w>
amerikan skij</w>
you t</w>
razum e
8 7</w>
prâ moj</w>
st eny</w>
prim eni
sootvetstvuûŝ ej</w>
class ical</w>
okaz alosʹ</w>
kulʹtur nyh</w>
vopro som</w>
ra c
realiz aciâ</w>
improv ements</w>
dvad catʹ</w>
d .
o wing</w>
akcion er
proš li</w>
resp ectively</w>
stud enty</w>
S mi
ommun ik
Profess or</w>
vari antov</w>
problem am</w>
represent ation</w>
cent ry</w>
col umn</w>
ponim aniâ</w>
Just ice</w>
Èks press</w>
len nium</w>
Air conditioning</w>
im ov</w>
human ity</w>
dover ie</w>
n ig
iz derž
škol a</w>
rezulʹt ata</w>
kontak t
gal er
val û
ex act</w>
Turkmeni stan</w>
škol </w>
jur is
att ached</w>
19 th</w>
poluč ennye</w>
pere hoda</w>
igra ût</w>
avt om
konflik t</w>
re turns</w>
ug od
init ially</w>
podgot ovku</w>
pokaz an</w>
dostiž enie</w>
S l
kaž ite</w>
all ing</w>
Vaš e</w>
bed rooms</w>
uro ž
čas y</w>
K ak</w>
relig ii</w>
v ra
tysâč elet
restor anov</w>
son t</w>
é e</w>
Commun ist</w>
t. k.</w>
roman t
N O</w>
passeng er</w>
mnog ost
vruč nuû</w>
top -
VO Z</w>
osnov y</w>
û min
ra spis
tretʹ ih</w>
dostup na</w>
obor on
ogrom nye</w>
resear chers</w>
kor pus
nastoâŝ emu</w>
obst ac
spra š
zased anii</w>
pl em
sohran enie</w>
achiev ing</w>
cre di
otkryt yj</w>
Sup port</w>
port u</w>
važ noj</w>
stra ight</w>
л е
T or</w>
w a</w>
mis s</w>
umenʹš itʹ</w>
na sy
sn ât
L ast</w>
ide ally</w>
dokument acii</w>
guid elines</w>
su ng</w>
lo š
is ions</w>
nahod itʹsâ</w>
rus h
form ing</w>
ʹ m
ear n</w>
predotvraŝ eniâ</w>
ošib ka</w>
percent age</w>
every day</w>
vis its</w>
otvet a</w>
deleg ation</w>
2. 5</w>
drug omu</w>
Komp anii</w>
postavŝ ikov</w>
dostav ki</w>
dokl ade</w>
ro se</w>
Û </w>
rasstoân ii</w>
cat alog
inter action</w>
f alls</w>
necess arily</w>
se at</w>
fl ights</w>
Musl ims</w>
nem nog
R a
di al</w>
machin ery</w>
P ek
rout es</w>
o sužd
Sek ret
spos oby</w>
8 1</w>
ar iv
B O
suŝestv ovanie</w>
pro vaj
vok zala</w>
t ob
gr and</w>
estim ates</w>
mi x</w>
ta ught</w>
dy h
Be aut
pol a</w>
každ ym</w>
do žd
kompon enty</w>
simil arly</w>
ul ate</w>
h ence</w>
except ional</w>
pictu res
U se</w>
C r
Sar ko
es h</w>
sm el
za ž
labor atory</w>
re vis
obŝ uû</w>
ov olʹ
j t
Č eh
sugg ests</w>
hozâ jstv
ul icy</w>
revol utionary</w>
Primeč anie</w>
ne izmen
odob r
I L</w>
otsut stviâ</w>
stan cij</w>
iru s</w>
nor my</w>
J ames</w>
kon g
bran ds</w>
r ine</w>
tro ubl
učast nikami</w>
refug ees</w>
V oz
8 4</w>
dik t
nazv atʹ</w>
h r
pack aging</w>
način aût</w>
form at
dist an
pip eline</w>
pol i
vod o
tur izma</w>
ok s</w>
prav ovoj</w>
ustanov leny</w>
T od
vo ennogo</w>
vklûč eny</w>
architect ural</w>
nacion alʹnyj</w>
associ ations</w>
ru ling</w>
cion nye</w>
uv š
žilʹ â</w>
C rim
ime â</w>
zat rud
pri ro
B ad</w>
R im
kart a</w>
a etesʹ</w>
F AO</w>
exp anding</w>
čelov eku</w>
neskolʹ kimi</w>
obes poko
iŝ a</w>
modul es</w>
k ill</w>
vn esti</w>
ri k</w>
rec ession</w>
suff ered</w>
advo kat
lučš im</w>
okaz alsâ</w>
passeng ers</w>
semin ars</w>
tirov aniâ</w>
stra š
k on</w>
voz meŝ
cl icking</w>
po glo
F lo
ot kuda</w>
â k
ostrov e</w>
poglo ŝ
wh enever</w>
w age</w>
Check- In</w>
Tw o</w>
St ep
imuŝ estva</w>
speak ers</w>
rat s</w>
ma themat
त </w>
k amer
kl avi
Vaš ing
speci ally</w>
ion ship</w>
Wom en</w>
cel ost
pad enie</w>
Tur ciâ</w>
stat i</w>
oc ket</w>
otraž aet</w>
diskrimin acii</w>
T ol
or k
W ol
us om</w>
garan tirovatʹ</w>
âg č
eg u
pož al
otkaz atʹsâ</w>
f ly</w>
priglaš aem</w>
instan tly</w>
âder nyh</w>
tra in
znak </w>
sch ol
ur s
Zem li</w>
occur s</w>
bystro go</w>
b oun
u nok</w>
ubed itesʹ</w>
pred stoâŝ
conver t</w>
cut s</w>
d iversity</w>
pro čem</w>
bl an
d h
nuž na</w>
relax ation</w>
sozd ali</w>
sec ut
exp anded</w>
d ated</w>
dict ionary</w>
duš i</w>
vy klûč
fer mer
Z olot
por az
ad re
W ater</w>
vy raŝ
her itage</w>
gl aš
prog ressa</w>
uslov iâmi</w>
depend ence</w>
bi ological</w>
pod zem
ime em</w>
dis aster</w>
dopoln itelʹno</w>
bor ot
ap t
sniz itʹ</w>
zaklûč enie</w>
Doc um
complet ion</w>
čuv stva</w>
raspor âženii</w>
parall el</w>
C ab
stran ge</w>
excess ive</w>
K A</w>
ext end</w>
obʺedin eniâ</w>
Custom er</w>
transport nyh</w>
ti py</w>
AR T</w>
mehaniz my</w>
WH O</w>
sear ching</w>
2 6
kon solid
pre do
važ nyj</w>
rem â</w>
fi k</w>
H D</w>
min ib
glob alʹnyh</w>
enth usi
Holid ay</w>
eng age</w>
trans fer
am ond</w>
K ieve</w>
pri eh
â lo</w>
197 0</w>
ukaz annyh</w>
S ection</w>
L on
R ej
po tok</w>
sovrem ennym</w>
ो </w>
W all</w>
Hung ary</w>
rem oval</w>
p as</w>
z ov
de č
H en
mest nosti</w>
or ial</w>
l uc
gu il
v rag
z ol
correspon d
T a
sobstven nuû</w>
ar rive</w>
contribut ions</w>
B R
v el</w>
le ase</w>
len nogo</w>
im aâ</w>
sil ami</w>
ag er</w>
lic ami</w>
S ony</w>
Europe ans</w>
ent -
sam ple</w>
vari anty</w>
slož nyh</w>
bir ds</w>
g ri
sv ete</w>
prednaznač en</w>
postra dav
pol nom</w>
raspor âž
konflik tov</w>
kačestv u</w>
in o
form ats</w>
lâ ûtsâ</w>
S ul
cen am</w>
aktiv nyh</w>
knop ki</w>
poâv ilasʹ</w>
ab ilit
pictures que</w>
sekret arʹ</w>
to wns</w>
živ et</w>
primer om</w>
telek ommunik
jo y</w>
pere jti</w>
requirem ent</w>
èkonom ikoj</w>
rassmot reniâ</w>
p ir
neobhodim uû</w>
op ens</w>
na so
constitut ional</w>
buduŝ ih</w>
sal le</w>
preimuŝ estvo</w>
obŝestv ennoj</w>
lab el</w>
obespečiv atʹ</w>
R ez
d voe</w>
194 5</w>
ident ification</w>
yvaûŝ ej</w>
big ger</w>
ispolʹzov any</w>
indo or</w>
È K
depart ments</w>
ht ml</w>
im it
tre as
uver en</w>
magnific ent</w>
certi fied</w>
razrabot atʹ</w>
Med ic
Af ter</w>
aut onom
Vsemir nogo</w>
electric al</w>
prof its</w>
interpre tation</w>
suŝestv uûŝie</w>
osna b
pit anie</w>
satis fied</w>
degre es</w>
for uma</w>
vyso koe</w>
il lû
gol os</w>
pos luž
kvart ale</w>
strukt ure</w>
Prav itelʹstva</w>
naslad itʹsâ</w>
okaz yvaetsâ</w>
Con fig
me g
podderživ aût</w>
graždan skoj</w>
vos priât
fin ish</w>
L uc
kor ob
mass až
legisl ative</w>
ю </w>
ploŝad ka</w>
K ot
kaž duû</w>
temperat ury</w>
postoân nogo</w>
The atre</w>
refl ects</w>
B ack
cal endar</w>
per mit</w>
prot est</w>
2 3
Ir anian</w>
napravl enij</w>
f i</w>
aktiv nogo</w>
fav or</w>
top ics</w>
osuŝestv itʹ</w>
lin iâ</w>
th oughts</w>
desâtilet ij</w>
zer k
a ešʹ</w>
ʹ em</w>
ru k</w>
wat ers</w>
y esterday</w>
gener alʹnyj</w>
wor st</w>
mest nyj</w>
un ited</w>
otkryt ym</w>
predusmatriv aet</w>
naruš enie</w>
rossij skij</w>
ik es</w>
d ast</w>
ob ez
l j
m at</w>
B ug
lič nyh</w>
fab r
mer t
M uh
priv eli</w>
kur ort
oblast ej</w>
vol umes</w>
refl ected</w>
plat formy</w>
trans formation</w>
S har
EC T
ct s</w>
radi ation</w>
de a
J ork</w>
int ensive</w>
Vost oka</w>
wil d</w>
r .
ag on
gener ations</w>
ugl er
k id
fiz ičeskih</w>
invest or</w>
širo kogo</w>
P y
lû bl
televiz or</w>
âŝ ego</w>
očered noj</w>
tri ps</w>
L uk
C amp
gl ad</w>
ð î
vyz ov
stabilʹ nostʹ</w>
certi fication</w>
ch airman</w>
D U
pred stoit</w>
dr ives</w>
great ly</w>
к и
trud nosti</w>
u plo
L os
èkonom ičeskoe</w>
pus h</w>
bezrabot icy</w>
An n
aem oe</w>
b al</w>
gran ic</w>
ren a</w>
publ ications</w>
ne priât
Grup py</w>
chec ked</w>
otvet itʹ</w>
smer tʹ</w>
prekras nyj</w>
otkry to</w>
nade ûsʹ</w>
log ot
kontak ty</w>
Mart in</w>
E E</w>
pomog aût</w>
Serg ej</w>
e ply</w>
les a</w>
oz aboč
sootvetstvuûŝ ego</w>
Inter net
U kr
igh ter</w>
âûŝ ih</w>
S L
aûŝ imsâ</w>
tel e
assortim ent</w>
inhabit ants</w>
bur den</w>
Cath ol
oper ates</w>
G P
red ko</w>
7 9</w>
optim al</w>
O x
bli že</w>
dol g</w>
vid im</w>
leč eb
phenom en
ô tel</w>
svob odnoj</w>
prakt ika</w>
predlag aûtsâ</w>
ment a</w>
design s</w>
ssyl ku</w>
s ized</w>
tre j
Dec laration</w>
aem osti</w>
jud ge</w>
a ire</w>
ož iv
ime ûŝie</w>
kač estvom</w>
polit ičeskim</w>
gar dens</w>
zat ra
harakterist iki</w>
suff er</w>
nužd aetsâ</w>
care ful</w>
re kor
Ch ief</w>
Ob amy</w>
W ed
od erž
v ʺ
syr ʹâ</w>
B L
v voda</w>
sy mp
gu ŝ
čelovečes kogo</w>
lo ading</w>
adop tion</w>
flex ibility</w>
publ ishing</w>
it ter</w>
se ats</w>
na c
Langu age</w>
represent ing</w>
konfig ura
Cro at
lid era</w>
aem aâ</w>
s me
ov oŝ
la ure
St an
Commun ity</w>
AT A</w>
razmer ov</w>
kvad rat
ar nye</w>
att end</w>
surro und
oč nom</w>
voj sk</w>
nade emsâ</w>
Ira ka</w>
su pr
ani ej</w>
prodaž u</w>
suppl ier</w>
ol ig
ez e</w>
nut rit
n ight
gen oc
proživ anie</w>
sto ât</w>
spas ibo</w>
es âč
nam ely</w>
soveršen stvov
M I</w>
v pročem</w>
Mil an</w>
c redit
contin ental</w>
the atre</w>
Saud i</w>
trebov aniâmi</w>
polit ičeskuû</w>
p ag
b as</w>
I er
Mer c
z e
zakonodatelʹ stvo</w>
kor rekt
pr </w>
extra ordinary</w>
sm âgč
mest o
satis faction</w>
dis cre
rus skij</w>
ey s</w>
vide os</w>
Vic tor
C up</w>
u el</w>
ž eny</w>
krovat âh</w>
Ex per
hol e</w>
over looking</w>
glubok o</w>
Dou ble</w>
es ia</w>
tra m
privleč ʹ</w>
bolʹš ego</w>
ram ki</w>
te ach</w>
golos a</w>
premʹer- ministr</w>
wed ding</w>
vert ik
se as</w>
organ ic</w>
kvart ira</w>
son s</w>
end or
stro ke</w>
komp aniâm</w>
M T
Pe ace</w>
An na</w>
em bra
iv naâ</w>
SPID a</w>
ne arest</w>
mnog im</w>
el abor
depart ure</w>
16 -
bibliot eki</w>
un ity</w>
predsed atelâ</w>
un likely</w>
po dlež
prois hodâŝ
akt or</w>
na cel
ras h</w>
liqu id</w>
Sy n
Satur day</w>
pris vo
D ne
ogov or
00 0
èkonom ičeskaâ</w>
Check- Out</w>
P ubl
a ug
v ary</w>
intellektu alʹnoj</w>
mor skoj</w>
èkran a</w>
â ciû</w>
l u</w>
ec ological</w>
vozglav lâ
emp ty</w>
moderniz acii</w>
plani ruet</w>
vne zap
pon rav
velosiped ov</w>
shar p</w>
ën nye</w>
an gle</w>
ud es</w>
surround ings</w>
predstavlâ etsâ</w>
oz era</w>
pron ik
urov nej</w>
promis es</w>
upomân ut
me als</w>
na bor
provin cii</w>
ob serv
im ymi</w>
contribut ed</w>
Intern eta</w>
zn ali</w>
ti que</w>
post ed</w>
ost rov</w>
obʺâsn itʹ</w>
Mag az
svidetelʹ stvuet</w>
Cl ass
del icious</w>
st ag
lid erom</w>
promis ing</w>
g ap</w>
è š
elect oral</w>
F TP</w>
anglij skij</w>
to- nibudʹ</w>
K im</w>
d uration</w>
Cy pr
el ings</w>
fotograf ij</w>
utveržd aût</w>
priz y
i o
proce edings</w>
ex posed</w>
stor ona</w>
blag oslov
spra voč
ast ed</w>
com man
kak im
tem a</w>
P op
ko èff
concent ration</w>
ponim atʹ</w>
los ing</w>
korporativ nyh</w>
A ra
razviv atʹ</w>
ud erž
F S
perevoz ki</w>
O slo</w>
sobstven nostʹ</w>
kogda -libo</w>
soderž atʹ</w>
Evro pu</w>
R iv
Com put
v verh</w>
T est
k ut
au to
pri ema</w>
d z
pres c
âni em</w>
wor thy</w>
rav nov
viv al
en sures</w>
mov ies</w>
lič nye</w>
bližaj šie</w>
algor it
el i
alʹ -
privlek atelʹ
1 40</w>
sočet anii</w>
unik alʹnyj</w>
sol ar</w>
in skij</w>
èk vival
thes is</w>
Hotel s</w>
it om</w>
n enij</w>
p ij
Man h
lûby m</w>
ann ually</w>
prest igious</w>
initi ated</w>
zastav itʹ</w>
protiv odejstv
th row</w>
vnutren nij</w>
l amp
eto oth</w>
iv e-
vy âvl
target ed</w>
poberež ʹe</w>
pred ely</w>
postro itʹ</w>
svâŝ en
To ol</w>
oth odov</w>
vy hodit</w>
vyz ov</w>
T org
rost om</w>
C os
otlič aûtsâ</w>
и н
sc an
anal yt
v end
učast nikam</w>
nazv aniâ</w>
balan sa</w>
t an</w>
cion noj</w>
T ot
Produ ct</w>
ka belʹ
Y outh</w>
tra kt
art istic</w>
prazd nov
1. 2</w>
mel od
mnog olet
san itar
l ina</w>
chil d
2 9
respon sibilities</w>
Sw iss</w>
end y</w>
stv ij</w>
konfer encij</w>
per mitted</w>
Bol iv
reli ef</w>
stav ka</w>
Č eč
e au</w>
S aj
M oh
part ly</w>
du pl
wel fare</w>
pro -
enʹ e</w>
strem lenie</w>
Cypr us</w>
ot ver
demonstr ate</w>
podderž atʹ</w>
opredel ennoj</w>
vypoln âet</w>
az er
ž ar
dom ena</w>
vyso ko</w>
estim ate</w>
treat ments</w>
prosper ity</w>
s el</w>
vynužd eny</w>
- členov</w>
rukovod iteli</w>
Mach ine</w>
V os
al ûmin
sistem at
B aj
mal yh</w>
ser deč
pre lim
Prin ci
imeûŝ ihsâ</w>
èk ran</w>
R ock</w>
bal anced</w>
F .</w>
dis abled</w>
P A
M and
k stati</w>
larg e-
destro y</w>
H ill</w>
l ig
ul ic</w>
sem ʹâ</w>
c ev
ux e</w>
kre post
transl ated</w>
occas ion</w>
sč et
zanât iâ</w>
kl uba</w>
Gospod ʹ</w>
naš emu</w>
restor ed</w>
d va
oper ated</w>
rasšir itʹ</w>
p ack</w>
Ch ange</w>
ne pre
bo ost</w>
ser ebr
M eg
dr o</w>
sertifik at</w>
rel atives</w>
prov en</w>
asp ekty</w>
č ikom</w>
van naâ</w>
proizoj det</w>
ber t</w>
proj det</w>
jo int
mechan ical</w>
eni a</w>
con stra
t ona</w>
polov iny</w>
se es</w>
ak kum
Ã </w>
o kaž
proš la</w>
soblûd eniâ</w>
rod iteli</w>
access ories</w>
L T
purch asing</w>
ž u</w>
pis atʹ</w>
vol os
K L
writ er</w>
drug u</w>
og en
sovrem ennom</w>
acqu ain
jo ining</w>
Kom is
conn ecting</w>
urg ent</w>
nar row</w>
wor ry</w>
neodno krat
od ni</w>
voznik noveniâ</w>
D ek
R .</w>
appl ying</w>
avš isʹ</w>
aèro port</w>
Con tract
work shop</w>
le ather</w>
har m
â na</w>
upo m</w>
s our
n eleg
ess ing</w>
s au
predstav lâtʹ</w>
kru glosutoč
ic ide</w>
t exts</w>
o pros
M ain</w>
prov el</w>
E as
pri bor
ner aven
to x
borot ʹsâ</w>
neobhodim oe</w>
plan ety</w>
prisut stvie</w>
ob oz
ch i</w>
B ab
D ok
M G
pro pose</w>
vov leč
mi rom</w>
investicion nyh</w>
byst ryj</w>
iz aciû</w>
roman tic</w>
de eply</w>
whe el</w>
v kus</w>
ra ge</w>
ren cies</w>
sred nij</w>
È tot</w>
det ained</w>
n ul</w>
Sain t-
w ill
v al</w>
člen am</w>
bron irovaniâ</w>
ne zabyva
blago poluč
otprav itʹ</w>
baz </w>
z ones</w>
surg ery</w>
nuž en</w>
pro veli</w>
ð à
N e</w>
di al
ispoln enie</w>
èffektiv nyh</w>
t ân
read ers</w>
с я</w>
razume etsâ</w>
Tbil isi</w>
zapis ej</w>
c ad
kak ih</w>
certain ty</w>
Gir l</w>
stven nymi</w>
pro por
ug olʹ
nalog o
vozni ka
igro k</w>
ा र
n ʹ</w>
em ies</w>
universit et</w>
uz i</w>
obʺ eme</w>
м и</w>
ro sli</w>
mnog om</w>
acc ue
t act
pri rode</w>
insp ired</w>
vy gody</w>
1. 1</w>
at ak
pri em</w>
obraŝ enie</w>
scen ario</w>
podderž aniâ</w>
zamed l
poprob ovatʹ</w>
ok o</w>
količestv e</w>
s bor</w>
Egyp ti
sčit aû</w>
Rom ania</w>
gather ed</w>
l ak
zapro sov</w>
iskus stvo</w>
uûŝ ij</w>
reci pi
Profess ional</w>
kontak tov</w>
ne x</w>
èmo cion
ner az
alcohol </w>
ž il</w>
faktor om</w>
c z
Tat ar
rynoč noj</w>
s and
। </w>
minist rov</w>
š in</w>
ri ers</w>
en abling</w>
institut e</w>
bu b
ct u
no on</w>
Do ct
wat ching</w>
d ay
7 0
g ains</w>
en it
èffektiv nym</w>
čt eniâ</w>
udovolʹ stvie</w>
lâ â</w>
proš el</w>
- taki</w>
po mest
os novoj</w>
. net</w>
pr y
krov atʹ</w>
magnet ic</w>
u nex
rus skom</w>
Secret ariat</w>
tradicion nye</w>
em ic</w>
korrup cii</w>
pravitelʹ stvu</w>
C I
Institut a</w>
D ays</w>
E lena</w>
F ood</w>
št at</w>
ic ks</w>
raz vlek
fa x</w>
Democ ratic</w>
Bash kortostan</w>
napravl ennyh</w>
žert v</w>
Im per
Angl ii</w>
šag om</w>
rosl a</w>
vtor oe</w>
ž ili</w>
address ing</w>
Bliž nem</w>
e za</w>
bi o
prodaž a</w>
golos ovaniâ</w>
H istory</w>
irovan nymi</w>
sluča i</w>
k ino</w>
pod rost
cast le</w>
Nʹû- Jork</w>
Technolog ies</w>
bolʹ nyh</w>
Sc ot
ost at
ug a</w>
Pl ay</w>
op pozicii</w>
veŝ estva</w>
al ph
An ton
škol u</w>
nezavis imostʹ</w>
ë ž
ed on
nablûd aetsâ</w>
v ice</w>
pos ing</w>
of ic
å ê
L AN</w>
F A
cur rencies</w>
tell s</w>
mix ed</w>
dollar a</w>
a qu
Evropej skoj</w>
mat ic</w>
ch -
proekt u</w>
vklûč ite</w>
ste am</w>
kad rov</w>
nasil ie</w>
integr ity</w>
sol ved</w>
sled itʹ</w>
star yh</w>
att le</w>
P ort</w>
emphas is</w>
medicin skogo</w>
bankov skih</w>
As sist
ident if
drev es
zapros y</w>
oblig acij</w>
obâz any</w>
sočet anie</w>
tim edia</w>
refer ences</w>
Su ites</w>
rad ical</w>
monum ents</w>
prav ami</w>
Le ague</w>
ent u</w>
i et
ug s</w>
irovan noe</w>
fon dov</w>
raz mery</w>
Th ailand</w>
regar ded</w>
pos sess
Ven ez
agg reg
prim ere</w>
indic ator</w>
soz nat
vy glâ
confir mation</w>
l ights</w>
year- old</w>
k ass
di et</w>
prinâ la</w>
ne u
bass y</w>
ka š
dev ât
T .</w>
aem ym</w>
Cul ture</w>
edin oj</w>
K N
cul tiv
prelim inary</w>
O G
narkot ikov</w>
dialog a</w>
soderž at</w>
ti red</w>
Apart ments</w>
m elʹ
nebolʹš ih</w>
tru bo
pot entially</w>
golov u</w>
po probu
well ness</w>
gu ber
so č
cion nyj</w>
concep ts</w>
vot ing</w>
re alʹnoj</w>
§ </w>
no ut
C ho
muz eâ</w>
municip al</w>
prim ery</w>
adop t</w>
c ennye</w>
St art</w>
priv lečeniâ</w>
in spir
im pression</w>
know ing</w>
proiz volʹ
win ners</w>
zagruz itʹ</w>
met ro
m outh</w>
K ap
short -term</w>
zap uŝ
Set up</w>
vod e</w>
traff icking</w>
niz koj</w>
е с
O -
kan al</w>
on ed</w>
podrob no</w>
L ist</w>
veni rs</w>
Olymp ic</w>
1 4.
substan ces</w>
क ी</w>
vid eli</w>
otmeč aet</w>
nahodâŝ ihsâ</w>
v š
stak e
org ana</w>
inostran nye</w>
st rict</w>
Sw imming</w>
vybor e</w>
podčerkn ul</w>
ustanov leniâ</w>
at u</w>
SS L</w>
ri ru
ân â</w>
star ye</w>
5 00
ut rom</w>
J ust</w>
neobhodim oj</w>
lin ij</w>
âbr ʹ</w>
l ingu
mov es</w>
mac ro
bolez nej</w>
Ven ice</w>
klûčev ye</w>
novost ej</w>
partner y</w>
न े</w>
del ovoj</w>
sh emy</w>
pooŝ r
diag no
obŝ im</w>
sostav a</w>
po or
unt ary</w>
subsc rib
T ype</w>
plâž a</w>
raz gov
arend u</w>
employ ee</w>
Mik h
har m</w>
an u</w>
O ther</w>
uvid ite</w>
r ight-
min or</w>
P E</w>
viz ita</w>
v stupl
evre ev</w>
Bi bl
install ing</w>
ra k
konkret nye</w>
min ority</w>
èksp ed
n ii</w>
evropej skogo</w>
ge omet
li br
Jer usal
sp are</w>
toč ku</w>
vned renie</w>
f ok
å í
otdel eniâ</w>
F O
milliar da</w>
gra in</w>
mnogost oron
različ nym</w>
kak o
vystup aet</w>
Blu etooth</w>
nač alasʹ</w>
mar ried</w>
y .
bogat yh</w>
Invest ment</w>
prin ud
co alition</w>
j ac
mg nov
au f</w>
nast a
ê </w>
as ion</w>
dum al</w>
K lin
vov se</w>
ohran e</w>
tabl icy</w>
instruk cii</w>
ob er
K in
first -
K ad
kogda -to</w>
mater i</w>
Gl av
kat er
zak up
ič nymi</w>
kontrol em</w>
miss ed</w>
kur sov</w>
irovan o</w>
comp are</w>
inf ection</w>
G ab
BAN K</w>
Sh ine</w>
ostan etsâ</w>
P as
stud ying</w>
li fer
Dig ital</w>
sistem ami</w>
soobŝ itʹ</w>
Minist ers</w>
televiz ion
vzaim osvâz
n ity</w>
All ah</w>
e ating</w>
včer a</w>
c ache</w>
tran z
š af
priobret eniâ</w>
accor d
g in
C all</w>
akcion erov</w>
ind igenous</w>
Def ense</w>
F T
Mul ti
plû s</w>
piš et</w>
viol ent</w>
viol ation</w>
cul tures</w>
B E
Èl ekt
ter ror</w>
po b
cal m</w>
exce ed</w>
legitim ate</w>
dopolnitelʹ naâ</w>
ob uv
not iced</w>
naver noe</w>
prem ii</w>
p air</w>
dr inking</w>
ocen kam</w>
teh nika</w>
raspredel eniâ</w>
accep tance</w>
ant icip
sdel aet</w>
ne kotorym</w>
S A
De ath</w>
addit ionally</w>
Fra mework</w>
al lies</w>
instan t</w>
vypoln enii</w>
W ater
v plot
do gs</w>
al it
v stupleniâ</w>
combin es</w>
dat a-
oŝ ut
pre va
stol k
sover eign
st ones</w>
kulʹtur </w>
modul ʹ</w>
izmen âtʹ</w>
vneš nij</w>
u polnomoč
calcul ated</w>
ement ary</w>
potenci alʹnyh</w>
new spapers</w>
nad cat
W TO</w>
Èston ii</w>
slow ly</w>
gor no
promyšlen nostʹ</w>
to ilet</w>
napravl ennye</w>
tradicion no</w>
horoš im</w>
C ra
w ines</w>
ed va</w>
stvov ala</w>
Prem ier</w>
exclus ively</w>
skaz ali</w>
2 5-
alli ance</w>
prot ecting</w>
con firm</w>
appar ently</w>
sekret arâ</w>
Tran sport</w>
feed back</w>
al umin
navy ki</w>
ir an
con stru
occup ation</w>
del ay</w>
zad atʹ</w>
j ka</w>
S id
IP O</w>
è st
publ ish</w>
bl e-
ur i</w>
bri ef</w>
oper ative</w>
P on
ivš ihsâ</w>
torgov lâ</w>
z ii</w>
ko gol
INT ER
Čist ka</w>
na g
id ut</w>
enhan ced</w>
provin ce</w>
certific ates</w>
rekomend acij</w>
bassej na</w>
sp am</w>
igro ki</w>
m am</w>
op ust
vzgl âd
D H
м а
fe elings</w>
con sensus</w>
acc used</w>
primen âûtsâ</w>
ta il
bure au
Jerusal em</w>
prostran stve</w>
rasprostran âetsâ</w>
cook ies</w>
5 th</w>
re hab
nout bu
host s</w>
vy živ
In f
s berež
Cr ime
duš u</w>
hran itʹ</w>
kro t
dorog e</w>
up raž
oč iŝ
bath rooms</w>
û rist
desât ki</w>
cho ices</w>
imper ii</w>
âd ra</w>
voj ska</w>
O ver
prec ise</w>
acc ura
acc ident</w>
got ten</w>
Elect ric</w>
consul tation</w>
consci ous</w>
osnov noe</w>
ter ra
predstav len</w>
televid enie</w>
centr alʹnogo</w>
engine ers</w>
učit yvatʹ</w>
ca using</w>
ak tov</w>
e ev</w>
n en</w>
ro t</w>
wid er</w>
ko izol
soci alist
a post
t ech</w>
id ency</w>
air dryer</w>
hy per
Mon gol
dis ke</w>
Palest inians</w>
test irovaniâ</w>
s us
ʹ et
ofici alʹnyh</w>
âûŝ ie</w>
graždan skih</w>
t ap
sk ept
h in
sred nej</w>
f ing</w>
dokument e</w>
t age</w>
kam ery</w>
Tick et</w>
D iz
nasy ŝ
popul ations</w>
nepod al
st en</w>
Nacion alʹnoj</w>
qu e
log in</w>
sootvetstv uût</w>
stra h</w>
dokaz atelʹ
hol odnoj</w>
vid ami</w>
Reser ve</w>
u stav
oborudov aniem</w>
ost a</w>
dostign u
escap e</w>
id es
emer ged</w>
ej nye</w>
Ang el
R T
r ender</w>
el â</w>
sostav ila</w>
198 6</w>
proč ih</w>
opredel ennyj</w>
me ets</w>
ad just</w>
d ating</w>
stroitelʹ nyh</w>
K T
ter ov</w>
old est</w>
vac ation</w>
mestor ožd
kas aûŝiesâ</w>
Qu een</w>
un usual</w>
or row</w>
No .</w>
syst emat
o h</w>
N as
kv .m.</w>
dim ensions</w>
svâz atʹsâ</w>
pro xy</w>
mnog imi</w>
De ad</w>
potreb nostʹ</w>
toč ka</w>
zatra giv
gl ing</w>
obʺem ov</w>
Polʹ še</w>
ne gl
s mart</w>
med lenno</w>
û ris
gu ided</w>
exp ense</w>
l uš
podač i</w>
vli âet</w>
gl az</w>
a ev</w>
ch ose</w>
Lond one</w>
region alʹnye</w>
M EN
su rely</w>
Sovet skogo</w>
obvin eniâ</w>
pokaz al</w>
speci alʹnyj</w>
vy p
pri hodit</w>
K od
he aring</w>
ot sûda</w>
CD -R
kako e-
osnov an</w>
vyso kom</w>
host el</w>
h ect
α </w>
ved ut</w>
volun te
commit ments</w>
farm ac
s d
z o</w>
inost ro
z ara
En d</w>
enjo ys</w>
acquis ition</w>
F C</w>
ran o</w>
citiz en</w>
èt ap</w>
otč ety</w>
cen nostʹ</w>
t ag
s izes</w>
present ations</w>
N AS
osnov nogo</w>
ost alosʹ</w>
met oda</w>
otrasl ej</w>
polov ine</w>
G M
sam ih</w>
per el
otč eta</w>
rez </w>
um y</w>
nej tr
Brazil ii</w>
bliz ko</w>
ub or
W o
config ured</w>
domaš nih</w>
S Y
ar iâ</w>
prâ žen
post s</w>
al kogol
V se</w>
aff ir
tech n
af raid</w>
žizn ʹû</w>
irov aniem</w>
mol č
Ter min
s or</w>
sovmest noj</w>
bu žd
ot ca</w>
j um
mass y</w>
keep s</w>
filʹ ma</w>
Buš </w>
profession alʹnogo</w>
ved enie</w>
likvid acii</w>
U pak
fü r</w>
Vi et
nade ždy</w>
Cham ber</w>
L av
vos ʹ
pril ag
Ser ies</w>
Environ ment</w>
ul yb
rasstoân ie</w>
vy čisl
all ed</w>
proizvod iteli</w>
indic ates</w>
sootvetstvuûŝ im</w>
širo koj</w>
protokol </w>
bel ong</w>
ak uzi</w>
andin av
uh a</w>
e voe</w>
cat ch</w>
H ab
râ de</w>
ponât no</w>
.... ....
proŝ e</w>
t s
ov y
l on</w>
coll ections</w>
al ive</w>
ostav lâet</w>
amerikan cev</w>
izuč enie</w>
opin ions</w>
L et</w>
hal f-
ou stro
b one</w>
ispolʹzov ali</w>
š uû</w>
ultim ate</w>
uŝer ba</w>
K op
vneš nego</w>
hor se</w>
स े</w>
G ame</w>
particip ant</w>
y p
gram ot
B elʹ
Tel ev
legč e</w>
pokaz ano</w>
Associ acii</w>
chur ches</w>
est ry</w>
knig u</w>
B ible</w>
р у
UN AIDS</w>
Gener alʹnoj</w>
raboč ij</w>
lež aŝ
pen et
neighb ors</w>
Ar ts</w>
l em</w>
mist ake</w>
def end</w>
upravl enii</w>
к и</w>
lo č
l asting</w>
dost upom</w>
E X</w>
decis ion-
značitelʹ nyj</w>
žel aniâ</w>
zad av
temperat ura</w>
pobed u</w>
explan ation</w>
aktiv noe</w>
dob ro</w>
ill -
key board</w>
Sh ak
sniž eniû</w>
pop y
zased aniâ</w>
pravilʹ nyj</w>
ski y</w>
napit ki</w>
vol os</w>
Is poln
šved skij</w>
i kah</w>
v raž
clo sing</w>
l y-
pol ot
incre di
s and</w>
E kater
polʹzovatel em</w>
itelʹ nostʹû</w>
2. 1</w>
ar range</w>
phenomen on</w>
pozvol ilo</w>
b id</w>
kom nate</w>
čer p
rid ge</w>
Di rekt
ि य
invest ory</w>
deput y</w>
èkonom ičeskim</w>
psych ological</w>
der eva</w>
uč red
ovan nogo</w>
ot ov</w>
pyta ûtsâ</w>
vz no
k es</w>
vari able</w>
tru dov
N I
oblig ation</w>
koordin acii</w>
S ER
cir cu
fire wall</w>
R O</w>
profession alʹnye</w>
m ²</w>
v est</w>
स ्
interfej sa</w>
ivš ij</w>
P il
design er</w>
it -
rehab ilit
Coun try</w>
Alli ance</w>
ot ive</w>
U č
n .
ti h
dem anding</w>
re alʹnye</w>
sved enij</w>
super vision</w>
prodolž itʹ</w>
ra d</w>
st ic</w>
whol es
F el
em es</w>
nastoâŝ im</w>
S ibir
at ri
m âs
mod ify</w>
K re
strateg iû</w>
âŝ ihsâ</w>
sozd al</w>
tov ar</w>
form irovanie</w>
vo semʹ</w>
ect ion
Mar ina</w>
stol a</w>
1 3.
sv eč
es el</w>
naučno- issledovatelʹ
C lic
sposob en</w>
čet vert
Th urs
O h</w>
Anat ol
no š
ž ena</w>
prik lad
invol ves</w>
uslov iâm</w>
rece ives</w>
describ es</w>
ing e</w>
kulʹtur nogo</w>
nablûd eniâ</w>
algor ith
oc curr
raz nica</w>
poluč it</w>
н о</w>
A U
Mo on</w>
B ot
R ail
expos ure</w>
mom ents</w>
fun ded</w>
ry b
C ome</w>
Vaš em</w>
R ap
rem in
sfer ah</w>
de ar</w>
podklûč enie</w>
de fl
otvet il</w>
Kor ei</w>
hon or</w>
org aničes
genu ine</w>
tem py</w>
otdoh nutʹ</w>
na bora</w>
sem i</w>
ustanavliv atʹ</w>
t ension</w>
polnomoč ij</w>
ten nis
Bro thers</w>
с о
ne hvat
podob nogo</w>
L and</w>
Na rod
è s</w>
s now</w>
i en</w>
3 00
maš ine</w>
Sa udov
signific ance</w>
sc ar
nalogo oblož
j det</w>
polit ikoj</w>
lo aded</w>
finansov uû</w>
b ility</w>
Set tings</w>
i x
ograph ic</w>
t oms</w>
X IX</w>
Št atah</w>
Mass až</w>
Lim ited</w>
ofici alʹnyj</w>
ž an
un iverse</w>
ul ations</w>
tr id
irov ala</w>
ind ex
l d
or an
men âtʹ</w>
fon d
M ary</w>
L ong</w>
g rip
vel i
vid no</w>
vy biratʹ</w>
par u</w>
ras poz
Y er
vstreč u</w>
ess ence</w>
k en
religioz nyh</w>
ispolʹzu emyh</w>
služaŝ ih</w>
golʹ fa</w>
activ ists</w>
pil ot</w>
H R</w>
ij skogo</w>
Cath edral</w>
lič noj</w>
č eč
cap ture</w>
inter rup
druz ʹâ</w>
é es</w>
L ine</w>
т и
en emies</w>
sodejstv ovatʹ</w>
Zap ad</w>
za â
premi um</w>
Dar k</w>
grup po
ov ki</w>
20 20</w>
kanal ov</w>
re či</w>
sim p
har a</w>
tourna ment</w>
log ic</w>
civil ian</w>
azer bajdž
nov omu</w>
bu yers</w>
pered atʹ</w>
pravo slav
vy platy</w>
inc ident
ang er</w>
ugroz oj</w>
elimin ate</w>
me al</w>
im perat
dvad cat
pomeŝ enij</w>
ide û</w>
ik o</w>
at ura</w>
on ing</w>
ou red</w>
obʺ emy</w>
capit alism</w>
N E</w>
W M
ship ping</w>
p um
comman ds</w>
Kal in
iz y</w>
sk illed</w>
Act iv
pro minent</w>
bl e
mal ogo</w>
minim al</w>
iss ance</w>
weap on</w>
B il
To ols</w>
komment arii</w>
consider ably</w>
man n</w>
polic y
com po
konfidenci alʹnosti</w>
cir cle</w>
polʹzu ûtsâ</w>
tru b
P P
compet it
part ition</w>
P om
Baby sitting</w>
ob o</w>
Russi an-
mul t
O il</w>
Ru kovod
P un
stven nuû</w>
gen etic</w>
198 7</w>
T CP</w>
yva jte</w>
re placement</w>
sho w
insp ection</w>
amerikan cy</w>
as ide</w>
praved liv
Swed ish</w>
198 5</w>
rej ting</w>
favor able</w>
k it</w>
no či</w>
On ly</w>
w ages</w>
invol ve</w>
process ed</w>
ST V
sign als</w>
platež ej</w>
for ume</w>
nebolʹš ie</w>
predvar itelʹnogo</w>
J ack
acqu ire</w>
i ff
fik acii</w>
199 0s</w>
ec om</w>
sol i</w>
roug h</w>
Ad d</w>
âŝ aâ</w>
otkryt yh</w>
Ex po</w>
S W
detal ej</w>
offic er</w>
un ions</w>
rough ly</w>
am i-
M iro
bu l</w>
pro dvig
design ers</w>
riv ers</w>
es i</w>
čuv stvovatʹ</w>
chec k
land šaf
be ings</w>
be er</w>
obespeč enii</w>
problem e</w>
rem em
eg ip
fif th</w>
Gener alʹnogo</w>
oun ded</w>
uni or</w>
9 0
sobr aniâ</w>
ič nosti</w>
rel ʹ
tax i</w>
h ud
obyč nyh</w>
at ures</w>
ch er
tw enty</w>
Ang el</w>
happ ening</w>
im prison
pad aet</w>
dea ths</w>
L CD</w>
simvol ov</w>
predostavlâ ûtsâ</w>
ther ap
pharmac eut
podob noe</w>
populâr nyh</w>
pož ert
evro zony</w>
uver ennostʹ</w>
mar ine</w>
kval ifikacii</w>
UN DP</w>
iru jte</w>
èkran om</w>
2- 3</w>
e ars</w>
Mic hel
otd al
trans it</w>
Sum mit</w>
fl ash</w>
uz </w>
fair ly</w>
c ue</w>
informacion noj</w>
gost e
sub bot
or ts</w>
Q U
åñ í
restor ana</w>
bu st
L ing
Sam sung</w>
ispyt aniâ</w>
razver tyv
ûŝ imi</w>
Polʹ ši</w>
proek tom</w>
pro kat</w>
rabot niki</w>
million y</w>
qu eries</w>
zapros u</w>
convers ation</w>
ukrepl enie</w>
soglaš enij</w>
region alʹnogo</w>
R aboč
sol ving</w>
with draw
ot verg
Sou thern</w>
achiev ement</w>
pro âvlâ
zapros a</w>
ara ŝ
obʺedin enie</w>
sett led</w>
Web money</w>
telefon ov</w>
popul arity</w>
Wor d
izem nomor
tes no</w>
ka -
S luž
r ite</w>
remon t</w>
it y-
wel s</w>
ožid aet</w>
dol i</w>
nač alom</w>
el d</w>
len ding</w>
po jti</w>
ver sij</w>
Komit et</w>
S AP</w>
iP od</w>
prig las
IT Y</w>
d ent
s formul
d id
encoura ged</w>
raz bir
develop er</w>
incent ives</w>
K el
au k
po âvleniâ</w>
4 th</w>
rezolû cii</w>
Avstral ii</w>
Pl ant</w>
opis aniâ</w>
determin ation</w>
o ws</w>
fin ds</w>
L et
P o</w>
ass es</w>
Tai wan</w>
napravl eny</w>
nor ms</w>
s son</w>
mor skih</w>
commun ic
ast ers</w>
pod aro
È J
predlož il</w>
organiz ing</w>
saf egu
spl it</w>
sug ar</w>
k alʹ
promyšlen nogo</w>
Ira k</w>
Gu ide</w>
h em
nezavis imyh</w>
èlement a</w>
âŝ im</w>
ë l</w>
otsut stvuet</w>
Stal in</w>
polʹzovatel û</w>
kaz ah
rabot ali</w>
Hol ding</w>
won der</w>
import a</w>
ir t</w>
N ef
sosto âlosʹ</w>
Nider land
skaž em</w>
soderž itsâ</w>
O .
č ikami</w>
ric ts</w>
is lands</w>
W ik
Atlant ic</w>
vost očnoj</w>
t- in</w>
Oce an</w>
sl i
k illing</w>
poseŝ eniâ</w>
restor ation</w>
le ge</w>
bl u
v hod</w>
lin ing</w>
predstav itelʹ
ex cur
т а
some what</w>
u regul
promyšlen noj</w>
svob oda</w>
accep table</w>
sel s</w>
pal it
sootvetstvuûŝ ij</w>
con dem
character ized</w>
predostav lenii</w>
zaâv ki</w>
expl ains</w>
pro poved
neigh bour
zadač u</w>
predyduŝ ih</w>
symbol s</w>
premʹer- ministra</w>
prinim aûtsâ</w>
v hoda</w>
dejstv uût</w>
ost alisʹ</w>
uvedom leniâ</w>
vozdu h</w>
comp an
Co operation</w>
so postav
í î
syn chron
partner stva</w>
ent ries</w>
teč enii</w>
N ânâ</w>
nacion alʹnym</w>
konkur s</w>
struct uring</w>
torgov ogo</w>
ud ar
neobhod im</w>
wh el
San -
ї </w>
instrument a</w>
udovletvor itʹ</w>
G A</w>
M iss
y ellow</w>
import ed</w>
D ance</w>
podo zre
tradit ionally</w>
èkonom ičeskuû</w>
organiz ma</w>
appoint ment</w>
ci a</w>
af ford
ne ž
iz luč
col ours</w>
re port
ver nutʹ</w>
soglas ie</w>
ik s</w>
civiliz ation</w>
ani um</w>
Palest ine</w>
law yers</w>
h r</w>
bro š
heal th
ov ič</w>
ud ar</w>
T .
nepodal eku</w>
belong s</w>
maršru t
pol naâ</w>
št ata</w>
Kazah stane</w>
f alʹ
kom and</w>
dor og</w>
poset ite</w>
pereč enʹ</w>
LL C</w>
udovletvor eniâ</w>
g ifts</w>
ir u</w>
speci alʹnoj</w>
answ ered</w>
An dro
invest ici
ess entially</w>
parlament a</w>
A ward</w>
Alʹ -
Mad rid</w>
om as</w>
he art
co ast
ura mi</w>
af ford</w>
ro les</w>
ak ing</w>
int ent
autom ated</w>
ras skazal</w>
irov ka</w>
bol ʹ</w>
the oret
territor ial</w>
kar to
soobŝ ili</w>
en de
E K</w>
S O</w>
rel a</w>
AR E</w>
Finlând ii</w>
pro dviženiâ</w>
con version</w>
ob servers</w>
člen a</w>
migran tov</w>
ʹ tesʹ</w>
3. 0</w>
er i
specialist ami</w>
str ike</w>
N ext</w>
Konstitu cii</w>
iznač alʹno</w>
Kit aem</w>
g ad
procent nye</w>
smo oth</w>
ch a</w>
P acked</w>
ar ray</w>
predostavlâ ût</w>
To wer</w>
gradu ate</w>
 </w>
an n</w>
convin ced</w>
an on</w>
vess els</w>
ter min</w>
un t</w>
pon iž
ha i</w>
su la</w>
ca ught</w>
t in</w>
Rum yn
F ire</w>
lan či</w>
em om</w>
P RAV
com posed</w>
paramet ra</w>
predmet y</w>
Wor ks</w>
polʹzov anie</w>
set up</w>
Kyrgy z</w>
qu ery</w>
bližaj šee</w>
O leg</w>
R ight</w>
dva ždy</w>
tit ude</w>
po âvlenie</w>
T it
P ack</w>
he arts</w>
nauč nye</w>
st unning</w>
she ets</w>
tem plate</w>
T om</w>
A li</w>
zak repl
horoš ej</w>
analy z
gaz ov</w>
bukv alʹno</w>
by -
bû ro
na cii</w>
P ack
week end</w>
K art
Thurs day</w>
ba g</w>
razviv aûŝiesâ</w>
ŝ ik</w>
hospit ality</w>
protokol a</w>
Fit ness</w>
C ry
em bar
pered viž
ar gue</w>
es oobraz
ar rest</w>
aut omob
už in</w>
sž at
happ iness</w>
obsu ždenie</w>
D in
Ban g
Lû ks</w>
1 ,000</w>
Evro soûza</w>
T rav
spectac ular</w>
passaž irov</w>
knop koj</w>
proved eniû</w>
R og
arch y</w>
contin ent</w>
star šego</w>
I A
se zon
spravedliv osti</w>
n iâ</w>
kommerčes koj</w>
war ming</w>
in ye</w>
B ath
́ </w>
pe ak</w>
a wards</w>
izvest ny</w>
az z</w>
čist oj</w>
so j</w>
s j
dan o</w>
razdel a</w>
liqu idity</w>
vy stupleniâ</w>
an nomu</w>
pon edelʹ
m ic</w>
ʹ âh</w>
moderniz ation</w>
Pan el</w>
hop es</w>
vin ogra
Vaš emu</w>
p ig
veduŝ ie</w>
blû d</w>
l om
accura cy</w>
datab ases</w>
â lʹ
character istic</w>
P T
ig ation</w>
iz ʺ
mo go</w>
Val ent
op pozicion
sign ing</w>
re al-
kon sal
F O</w>
mo guŝ
Indust rial</w>
St ran
druz ʹâmi</w>
farmac evt
under taken</w>
break ing</w>
va č
tretʹ ej</w>
kas aûŝihsâ</w>
over whel
Config uration</w>
ran ging</w>
zapad noj</w>
te plo
poâv ilsâ</w>
VIČ -
compl y</w>
iv nymi</w>
žilʹ e</w>
V eg
gi bl
molod ye</w>
ov alo</w>
tehn ičeskoe</w>
formul a</w>
2, 5</w>
uslug a</w>
a w</w>
okaz alasʹ</w>
hvat aet</w>
clo sure</w>
N ast
ser vi
finansov ym</w>
bre ad</w>
e at
sup er</w>
sp us
W W
O bu
bot t
raz ve</w>
D rag
R T</w>
otkry vaet</w>
vopros ami</w>
nâ ka</w>
aut umn</w>
polov inu</w>
ič nostʹ</w>
euro s</w>
2 2
n araŝ
repe at
197 9</w>
be at</w>
obŝ iny</w>
vyš el</w>
voz le</w>
resol ved</w>
toč ek</w>
ck ets</w>
.S .
olog ičeskih</w>
ofici alʹnye</w>
p .
deplo yment</w>
cik la</w>
g ate</w>
ran k</w>
anon ym
vypus ka
as i</w>
at am</w>
C H</w>
loc ate</w>
uŝ ie</w>
svâz ana</w>
partner a</w>
t ub</w>
tkan i</w>
con stitution</w>
sam uû</w>
gu ard</w>
yk nov
di a</w>
vooruž ennyh</w>
lo y
sup porters</w>
sam im</w>
ustanovlen a</w>
pre serve</w>
bro thers</w>
Inte g
garanti ru
part ial</w>
strateg ij</w>
os kor
sp a-
Wor king</w>
na stra
swe et</w>
hum ans</w>
Ab out</w>
R .
S we
zaŝiŝ atʹ</w>
magaz iny</w>
st on</w>
en ue</w>
sluš atʹ</w>
ry m</w>
Re ad</w>
aûŝ egosâ</w>
inc ident</w>
zv ezd
stolet iâ</w>
è ko
HT TP</w>
dû j
fot o
NO ST
t ual</w>
internation ally</w>
s is</w>
kak aâ</w>
pos mot
ivš ie</w>
prig od
k repl
pre ždeniâ</w>
neodnokrat no</w>
st are
zamen itʹ</w>
T op</w>
ICE cat</w>
er ii</w>
s balansirov
per epis
leg ally</w>
on- line</w>
Čer no
pursu e</w>
proekt ah</w>
èkolog ičeski</w>
primen eniem</w>
v -
sovrem ennymi</w>
besplat naâ</w>
pre ferred</w>
statist ic</w>
Z h
raznoobraz nye</w>
P N
opredel ennogo</w>
, 00</w>
sostoâl sâ</w>
istor ičeskih</w>
h at</w>
s možem</w>
zarabot noj</w>
svâz an</w>
ustanov ite</w>
pokup atelej</w>
accoun t
S ter
con grat
inter active</w>
V TO</w>
inten si
razno glas
Engine ering</w>
si âh</w>
Univers al</w>
analy sts</w>
kommunik acii</w>
d nem</w>
accord ingly</w>
duš </w>
raz y</w>
D r</w>
cris es</w>
ah a</w>
н я</w>
di rov
ov ich</w>
Al ek
ij nyh</w>
l or</w>
T all
os mot
inst vom</w>
ER S</w>
bol gar
fol k</w>
mini- bar</w>
Fig ure</w>
f et
Ab u</w>
bar riers</w>
proš lo</w>
so obraž
èl it
gi per
učast nik</w>
suggest ions</w>
uspeš noj</w>
k upl
vplot ʹ</w>
bum až
Moun tain</w>
na b
ÈJ DS</w>
Des ign
ativ ity</w>
v drug</w>
con qu
gradu ated</w>
Adv is
frequ ent</w>
byv ših</w>
spra vitʹsâ</w>
hor on
komfortabelʹ nyj</w>
5 000</w>
stan ciâ</w>
ass ess</w>
tretʹ ego</w>
Obʺ edin
Frankfur t</w>
por ter</w>
monast yr
gosudarstven nym</w>
Upak ovannye</w>
avtomob ili</w>
surpris ed</w>
popyt ka</w>
deš ev
з </w>
pec uli
t ari
atelʹ nuû</w>
gig ant
up -to-
predmet ov</w>
obŝestv u</w>
realist ic</w>
S auna</w>
zapad nyh</w>
rece ip
ar ch</w>
bûro krat
196 7</w>
dist ricts</w>
Val ley</w>
in ka</w>
ator ami</w>
osuŝestvl enii</w>
oŝuŝ enie</w>
imp ulʹ
M ail</w>
Iraq i</w>
ak kredit
preci ous</w>
id ov</w>
tran zak
otobraž aetsâ</w>
obâz an</w>
char m</w>
perev odov</w>
sk rom
kra â</w>
gostin ice</w>
Out door</w>
tan ks</w>
izvest nogo</w>
ovan naâ</w>
symp toms</w>
3- zvezdoč
cool ing</w>
vmeš atelʹstva</w>
ic it
deni ed</w>
avi ation</w>
put ej</w>
referendu m</w>
Direct ors</w>
by e</w>
proced ura</w>
stil â</w>
Mass age</w>
Flor ence</w>
econom ists</w>
zainteres ovannyh</w>
ot krov
institut y</w>
od i
ан и
g ul
kv .</w>
campa igns</w>
rej ected</w>
B en</w>
ÛN ÈJDS</w>
izgotov leniâ</w>
ц и
S he</w>
kat ol
kl u
bour g</w>
ras slab
pow ered</w>
P u
princi pi
v sel
re struktur
Res idence</w>
17 -
pol is</w>
čet yr
P ocket</w>
pat ent</w>
mand ate</w>
Adv anced</w>
st ops</w>
su tʹ</w>
stroitelʹ stve</w>
. com
plat forms</w>
ar nogo</w>
ŝ iki</w>
vse -taki</w>
kost û
D ave</w>
napis al</w>
youn ger</w>
ac o</w>
edinstven naâ</w>
W C</w>
A way</w>
fig ur
sovmest nogo</w>
sek und</w>
l ad</w>
mest nymi</w>
port ion</w>
optim izacii</w>
ŝ ika</w>
emot ional</w>
klet ok</w>
nalič iâ</w>
tran qu
in ity</w>
nežel i</w>
ot oj</w>
ar ding</w>
F ar</w>
osnaŝ eny</w>
f ying</w>
1 4-
Ag ricul
large- scale</w>
strateg ičeskih</w>
m its</w>
kontej ner
pog aš
Mil lennium</w>
ne ogranič
svoev rem
X X</w>
inostran noj</w>
arrang ement</w>
fall en</w>
organizaci âm</w>
d em</w>
uz el</w>
sol dat</w>
Smi th</w>
less on</w>
minist ers</w>
T ek
F ond</w>
interes nyh</w>
ren owned</w>
nejš ih</w>
respon ses</w>
O m
kak uû</w>
PRO ON</w>
olog iâ</w>
izd anie</w>
stv uûŝie</w>
Prov ider</w>
S he
ili ans</w>
re konstrukcii</w>
mist akes</w>
va il
filʹ mov</w>
raznoobraz ie</w>
clin ical</w>
t verd
s ers</w>
k red
prim ir
ed iting</w>
obnov itʹ</w>
prepar atov</w>
zapust itʹ</w>
H ez
prof itable</w>
Bel gi
O k
Fre e
man ually</w>
filʹ t
ul isʹ</w>
S uv
Manh att
comp ete</w>
let nego</w>
im ports</w>
4- zvezdoč
ai res</w>
A vi
pra voohran
repe ated</w>
terror ists</w>
T ire</w>
disput e</w>
čast noj</w>
obstoâtelʹ stvah</w>
est vah</w>
atmosfer a</w>
polit ikov</w>
upo k</w>
ben z
em esâč
Indon esia</w>
de feat</w>
Bu re
employ ers</w>
regul ât
Met ro
N ad
journal ist</w>
podčer k
ustanovlen o</w>
P G</w>
u ne
vol at
Fin nish</w>
Den mark</w>
p -
tem ple</w>
preodol etʹ</w>
ned or
am o</w>
pra g
lo j</w>
B elov
reak cii</w>
S ab
Serb ia</w>
gotov a</w>
serʹez nyh</w>
obŝ atʹsâ</w>
conveni ently</w>
predu preždeniâ</w>
bolʹš ij</w>
en ov</w>
ugl ubl
treni rov
e ine</w>
design ing</w>
tekuŝ ij</w>
punk te</w>
k ent</w>
ch at</w>
nal ož
bes koneč
C redit</w>
3 2-
yval isʹ</w>
vak u
SP A</w>
proof ed</w>
comm iss
miro vom</w>
re alʹnostʹ</w>
д а
os lab
dat u</w>
ustanov ok</w>
èpo hi</w>
fru kt
bir th
universit ete</w>
drop ped</w>
Leb anon</w>
N ever</w>
rassmot renie</w>
regist ry</w>
a .</w>
dobyč i</w>
Wi Fi</w>
Ad am</w>
poluč ennyh</w>
op posed</w>
rov er
fre ely</w>
pol nym</w>
per or</w>
de pres
co operate</w>
PR O</w>
ist ry</w>
Amer ikan
common ly</w>
bolʹš imi</w>
B ath</w>
cos met
ʹ ût
ul tra
acc o</w>
žd et</w>
mysl ʹ</w>
po gibl
sek und
at iv</w>
obraŝ atʹsâ</w>
služ be</w>
k niž
yvaûŝ ij</w>
učast ii</w>
ap pet
S ac
re m</w>
M E
ut ʹsâ</w>
con servation</w>
moz ga</w>
fot ogra
W .</w>
otč a
-f aj
dec laration</w>
princi pe</w>
ve ill
d vo
Fac ebook</w>
p ine</w>
en gl
conduct ing</w>
em an</w>
po tepl
simp tom
not re</w>
U M</w>
izvest en</w>
uvelič eniû</w>
f on</w>
t out</w>
ukaz annye</w>
teat ra</w>
trubo provod
ric s</w>
it ar</w>
čast nyj</w>
go od
Indon ez
bu st</w>
det ʹ</w>
Dž ej
realiz ovatʹ</w>
speci alʹnogo</w>
M am
O JSC</w>
at lant
Vtor oj</w>
maš inostro
po ols</w>
f ost
partner om</w>
Mer k
ion aries</w>
C asp
ak ka
vyraž eniâ</w>
molod oj</w>
Č </w>
prodolž aetsâ</w>
arend y</w>
W est
h ill</w>
K har
int ention</w>
M aster
peredač a</w>
nov er</w>
infek cii</w>
ho ždenie</w>
f r
wi e</w>
T ig
s core</w>
û go-
adjust ment</w>
dostup nyh</w>
sh oul
goste priim
ev ich</w>
vid imomu</w>
gre en
množestv a</w>
b ah
in k
B all
ak an</w>
dam aged</w>
for war
benef icial</w>
Rom a</w>
ènerg iâ</w>
Isra el
Bolʹš oj</w>
ish ments</w>
unfor get
otlič no</w>
but tons</w>
pl ed</w>
Venez u
ü </w>
pl it
re turning</w>
každ ye</w>
Sa ak
raz b
rus skih</w>
ex e</w>
urov nû</w>
š iny</w>
l âtʹsâ</w>
K ov
mir ror</w>
Sho e</w>
cre w</w>
Appl ication</w>
rec over
ist skoj</w>
u ete</w>
požal ovatʹ</w>
C uba</w>
н е
sootvetstv ovatʹ</w>
K em
on ʹ</w>
F ut
s at</w>
hoč etsâ</w>
3 5
sec ured</w>
co- operation</w>
kulʹtur a</w>
ov skoj</w>
Ier usal
Mot or
K K</w>
sp ite</w>
predprinim atelej</w>
l an</w>
sohran âtʹ</w>
Vsemir noj</w>
Ste el</w>
dalʹnejš ee</w>
s by
commun ist</w>
prohod itʹ</w>
wis dom</w>
kakie- libo</w>
na prâžen
mesâ ce</w>
Brus sels</w>
lifer ation</w>
p est
c il
per pet
15 00</w>
Sum mer</w>
Zak ona</w>
avtor a</w>
horoš aâ</w>
g om
ster e
nalog a</w>
tuber kul
house holds</w>
priz yvaet</w>
l ever
te eth</w>
predpolag aetsâ</w>
entrepren eurs</w>
P rod
f ate</w>
dolgosroč noj</w>
transl ations</w>
pap ki</w>
di an</w>
G E</w>
jud ges</w>
capac ities</w>
H aj
Arm eniâ</w>
P H
20 14</w>
mehaniz ma</w>
da ûtsâ</w>
ot opl
is kop
storon ami</w>
pri ko
fiz ičeskoj</w>
libr aries</w>
ič nom</w>
fir men
l ighting</w>
fra k
ul p
vozni kaût</w>
on al</w>
CE O</w>
or nyh</w>
stro itʹ</w>
p in</w>
EN IÂ</w>
innov ations</w>
putešestv ie</w>
M TS</w>
sobstven nym</w>
por tov</w>
g aining</w>
naruš enij</w>
consist ing</w>
por a</w>
polit an</w>
corpor ations</w>
emer ge</w>
pass es</w>
prost yh</w>
G et
um u</w>
dis ki</w>
inst v</w>
afford able</w>
uspeš nogo</w>
N ur
pot om
realiz aciû</w>
iment ary</w>
re viv
U K
A mn
RA M</w>
ust are
rub .</w>
očist ki</w>
T on
per ception</w>
ma uè
ir o</w>
4 50</w>
separ at
u hoda</w>
forec ast</w>
sred nih</w>
dramat ic</w>
mo šen
od ing</w>
B az
avtomat iz
chec king</w>
č ikam</w>
iz mu</w>
nost oron
th r
ponim aût</w>
territor ij</w>
proiz vesti</w>
gall ery</w>
la yout</w>
obog aŝ
postro en</w>
nalog i</w>
pokry tiâ</w>
for moj</w>
vy nes
raspolož ennyh</w>
ubed itʹsâ</w>
mort gage</w>
pl ot</w>
E ura
D un
consult ations</w>
prestupl enij</w>
standar t</w>
smotr ite</w>
surv ive</w>
zem elʹ</w>
Manhatt an</w>
pro let
B B
pan elʹ</w>
tim ely</w>
razvit iem</w>
Nor w
prevent ing</w>
yiel d</w>
soderž imoe</w>
R M</w>
V isa</w>
polit ically</w>
èffektiv noe</w>
B ase</w>
èffektiv nye</w>
mo od</w>
G T
v ez
competit iveness</w>
li k</w>
ssy lok</w>
iv nuû</w>
zased anie</w>
nasled iâ</w>
Bog u</w>
or ities</w>
prof it
constitut e</w>
il ers</w>
ass ur
be aring</w>
dver ʹ</w>
prednaznač ena</w>
bl ok</w>
otel em</w>
S how
er al</w>
re stav
6 4-
ež emesâč
hy po
prezent acii</w>
ie w</w>
sty les</w>
Gre en
i en
peres mot
ad ian</w>
âzy kom</w>
ap h
pos olʹ
stav it</w>
glob alizacii</w>
rat ional</w>
bak ter
Casp ian</w>
pož il
tri um
pravo sud
nužd aûtsâ</w>
nic ht</w>
vladelʹ cev</w>
mun ici
Am bass
anglij skogo</w>
mag ic</w>
part n
Certi fic
т </w>
arch ive</w>
a pl
podrazdel eniâ</w>
Otkry tyj</w>
-Rus sian</w>
učast ok</w>
prošlo j</w>
konstruk ciâ</w>
â emye</w>
prover ka</w>
inter medi
vol untary</w>
ber ed</w>
to wer</w>
sč etov</w>
ac es</w>
sk y
Lt d.</w>
Comput er</w>
amend ments</w>
SPID om</w>
0 3.
T ou
E ff
exam ine</w>
ne otʺ
nos ât</w>
elect ro
Hez bol
obraz a</w>
ign ed</w>
d ot
èk ip
el ig
2. 2</w>
korpor aciâ</w>
èkonom ii</w>
dviž enii</w>
diskus sii</w>
Os set
ID E</w>
ob man
quest ion
rov a</w>
S ad
prirod nogo</w>
pre fer
svâž itesʹ</w>
fant ast
aggress ive</w>
sever o-
ho go</w>
comp act</w>
B û
tu k</w>
fak ty</w>
ko smo
V ilʹ
kor respond
postoân noe</w>
le voj</w>
19 60</w>
L az
unforget table</w>
vy mi</w>
an ʹ</w>
svo jstv</w>
ozdorov itelʹnyj</w>
obsud itʹ</w>
shap ed</w>
Gul f</w>
reserv ed</w>
ko sv
oform leniâ</w>
ev an</w>
Christ ians</w>
tel ling</w>
v et</w>
vent ions</w>
T ex
P ush
Sto ck</w>
lûb itelej</w>
3 60</w>
obʺ eml
meropriât ie</w>
ak er</w>
Kor eâ</w>
vypoln âetsâ</w>
û ge</w>
Budap est</w>
trebov anie</w>
concer ts</w>
tend enciâ</w>
C S</w>
otsut stvii</w>
p ug
p ist
E yes</w>
Komp aniâ</w>
15 .
re gl
Andre j</w>
pobed y</w>
repe at</w>
B ec
Person al</w>
vy ros</w>
proxim ity</w>
re alʹnosti</w>
f ish
otel i</w>
raz očarov
speak er</w>
ut ra</w>
dis h</w>
Tu al
list ening</w>
sy na</w>
Belgi um</w>
statist ical</w>
j lj
ne -
Dž on</w>
artif icial</w>
under lying</w>
pred met</w>
m â
prâm yh</w>
uč itʹsâ</w>
ful f
V se
prof soûz
ra ciej</w>
ê î
nes pravedliv
st ir
op ira
maš inu</w>
succe ed</w>
ned ovolʹ
Sir ii</w>
Z am
oc ean</w>
asp ekt
zar abat
S ource</w>
del iber
moŝ nostʹ</w>
[...]
