{
  "eos": 0, 
  "UNK": 1, 
  "the": 2, 
  ",": 3, 
  ".": 4, 
  "of": 5, 
  "and": 6, 
  "to": 7, 
  "in": 8, 
  "a": 9, 
  "is": 10, 
  "for": 11, 
  "that": 12, 
  "you": 13, 
  "with": 14, 
  "as": 15, 
  "on": 16, 
  "are": 17, 
  "by": 18, 
  "it": 19, 
  "-RRB-": 20, 
  "be": 21, 
  "-LRB-": 22, 
  "this": 23, 
  "&apos;&apos;": 24, 
  "or": 25, 
  "&apos;s": 26, 
  "``": 27, 
  "from": 28, 
  "not": 29, 
  "have": 30, 
  "at": 31, 
  "was": 32, 
  "we": 33, 
  "-": 34, 
  ":": 35, 
  "can": 36, 
  "will": 37, 
  "an": 38, 
  "has": 39, 
  "if": 40, 
  "your": 41, 
  "all": 42, 
  "I": 43, 
  "which": 44, 
  "but": 45, 
  "our": 46, 
  "their": 47, 
  "its": 48, 
  "they": 49, 
  "lyrics": 50, 
  "one": 51, 
  "them": 52, 
  "more": 53, 
  "any": 54, 
  "there": 55, 
  "also": 56, 
  "he": 57, 
  "other": 58, 
  ";": 59, 
  "were": 60, 
  "@/@": 61, 
  "us": 62, 
  "his": 63, 
  "new": 64, 
  "only": 65, 
  "been": 66, 
  "about": 67, 
  "make": 68, 
  "when": 69, 
  "time": 70, 
  "do": 71, 
  "who": 72, 
  "so": 73, 
  "free": 74, 
  "?": 75, 
  "...": 76, 
  "than": 77, 
  "no": 78, 
  "these": 79, 
  "people": 80, 
  "such": 81, 
  "would": 82, 
  "use": 83, 
  "most": 84, 
  "into": 85, 
  "however": 86, 
  "had": 87, 
  "possible": 88, 
  "up": 89, 
  "some": 90, 
  "out": 91, 
  "first": 92, 
  "after": 93, 
  "what": 94, 
  "should": 95, 
  "world": 96, 
  "very": 97, 
  "The": 98, 
  "may": 99, 
  "many": 100, 
  "information": 101, 
  "please": 102, 
  "!": 103, 
  "well": 104, 
  "years": 105, 
  "hotel": 106, 
  "system": 107, 
  "brought": 108, 
  "%": 109, 
  "work": 110, 
  "over": 111, 
  "two": 112, 
  "feel": 113, 
  "countries": 114, 
  "now": 115, 
  "even": 116, 
  "then": 117, 
  "like": 118, 
  "n&apos;t": 119, 
  "tried": 120, 
  "correct": 121, 
  "Lyrics-Keeper": 122, 
  "my": 123, 
  "where": 124, 
  "between": 125, 
  "Russia": 126, 
  "year": 127, 
  "submit": 128, 
  "just": 129, 
  "Russian": 130, 
  "how": 131, 
  "could": 132, 
  "through": 133, 
  "used": 134, 
  "see": 135, 
  "company": 136, 
  "corrections": 137, 
  "1": 138, 
  "because": 139, 
  "2": 140, 
  "during": 141, 
  "development": 142, 
  "-@@": 143, 
  "international": 144, 
  "those": 145, 
  "made": 146, 
  "way": 147, 
  "business": 148, 
  "services": 149, 
  "under": 150, 
  "each": 151, 
  "must": 152, 
  "country": 153, 
  "part": 154, 
  "need": 155, 
  "service": 156, 
  "same": 157, 
  "&apos;": 158, 
  "number": 159, 
  "own": 160, 
  "take": 161, 
  "place": 162, 
  "both": 163, 
  "good": 164, 
  "market": 165, 
  "while": 166, 
  "including": 167, 
  "said": 168, 
  "room": 169, 
  "being": 170, 
  "form": 171, 
  "get": 172, 
  "right": 173, 
  "support": 174, 
  "list": 175, 
  "does": 176, 
  "different": 177, 
  "3": 178, 
  "her": 179, 
  "before": 180, 
  "without": 181, 
  "within": 182, 
  "day": 183, 
  "s": 184, 
  "find": 185, 
  "much": 186, 
  "economic": 187, 
  "since": 188, 
  "government": 189, 
  "data": 190, 
  "high": 191, 
  "using": 192, 
  "life": 193, 
  "order": 194, 
  "set": 195, 
  "available": 196, 
  "public": 197, 
  "state": 198, 
  "power": 199, 
  "present": 200, 
  "US": 201, 
  "every": 202, 
  "here": 203, 
  "important": 204, 
  "against": 205, 
  "city": 206, 
  "me": 207, 
  "European": 208, 
  "area": 209, 
  "Europe": 210, 
  "did": 211, 
  "help": 212, 
  "best": 213, 
  "him": 214, 
  "she": 215, 
  "political": 216, 
  "last": 217, 
  "access": 218, 
  "products": 219, 
  "able": 220, 
  "un@@": 221, 
  "per": 222, 
  "great": 223, 
  "production": 224, 
  "de": 225, 
  "want": 226, 
  "process": 227, 
  "10": 228, 
  "&amp;": 229, 
  "5": 230, 
  "financial": 231, 
  "three": 232, 
  "quality": 233, 
  "level": 234, 
  "add": 235, 
  "another": 236, 
  "today": 237, 
  "4": 238, 
  "national": 239, 
  "project": 240, 
  "provide": 241, 
  "still": 242, 
  "United": 243, 
  "children": 244, 
  "site": 245, 
  "main": 246, 
  "long": 247, 
  "Ukraine": 248, 
  "know": 249, 
  "end": 250, 
  "companies": 251, 
  "example": 252, 
  "real": 253, 
  "case": 254, 
  "located": 255, 
  "according": 256, 
  "back": 257, 
  "offers": 258, 
  "change": 259, 
  "local": 260, 
  "water": 261, 
  "Hotel": 262, 
  "rooms": 263, 
  "China": 264, 
  "human": 265, 
  "shall": 266, 
  "`": 267, 
  "small": 268, 
  "based": 269, 
  "become": 270, 
  "page": 271, 
  "global": 272, 
  "go": 273, 
  "$": 274, 
  "ing": 275, 
  "name": 276, 
  "control": 277, 
  "following": 278, 
  "large": 279, 
  "around": 280, 
  "create": 281, 
  "among": 282, 
  "i": 283, 
  "security": 284, 
  "in@@": 285, 
  "es": 286, 
  "less": 287, 
  "special": 288, 
  "experience": 289, 
  "rights": 290, 
  "working": 291, 
  "program": 292, 
  "re@@": 293, 
  "group": 294, 
  "A": 295, 
  "social": 296, 
  "already": 297, 
  "pages": 298, 
  "T@@": 299, 
  "come": 300, 
  "means": 301, 
  "policy": 302, 
  "ed": 303, 
  "several": 304, 
  "offer": 305, 
  "next": 306, 
  "S@@": 307, 
  "always": 308, 
  "down": 309, 
  "law": 310, 
  "systems": 311, 
  "collection": 312, 
  "region": 313, 
  "foreign": 314, 
  "International": 315, 
  "Windows": 316, 
  "management": 317, 
  "modern": 318, 
  "open": 319, 
  "few": 320, 
  "growth": 321, 
  "too": 322, 
  "A@@": 323, 
  "States": 324, 
  "er": 325, 
  "energy": 326, 
  "course": 327, 
  "second": 328, 
  "man": 329, 
  "B@@": 330, 
  "necessary": 331, 
  "view": 332, 
  "due": 333, 
  "million": 334, 
  "days": 335, 
  "English": 336, 
  "future": 337, 
  "President": 338, 
  "building": 339, 
  "C@@": 340, 
  "current": 341, 
  "members": 342, 
  "stay": 343, 
  "problems": 344, 
  "activities": 345, 
  "related": 346, 
  "o": 347, 
  "given": 348, 
  "keyword": 349, 
  "old": 350, 
  "found": 351, 
  "result": 352, 
  "private": 353, 
  "full": 354, 
  "G@@": 355, 
  "2009": 356, 
  "Internet": 357, 
  "staff": 358, 
  "album": 359, 
  "person": 360, 
  "equipment": 361, 
  "customers": 362, 
  "above": 363, 
  "money": 364, 
  "away": 365, 
  "fact": 366, 
  "health": 367, 
  "P@@": 368, 
  "location": 369, 
  "often": 370, 
  "software": 371, 
  "centre": 372, 
  "point": 373, 
  "2008": 374, 
  "period": 375, 
  "needs": 376, 
  "Moscow": 377, 
  "/": 378, 
  "-LSB-": 379, 
  "D@@": 380, 
  "conditions": 381, 
  "en": 382, 
  "price": 383, 
  "better": 384, 
  "file": 385, 
  "value": 386, 
  "--": 387, 
  "home": 388, 
  "20": 389, 
  "why": 390, 
  "further": 391, 
  "problem": 392, 
  "K@@": 393, 
  "-RSB-": 394, 
  "6": 395, 
  "account": 396, 
  "give": 397, 
  "design": 398, 
  "close": 399, 
  "H@@": 400, 
  "ers": 401, 
  "economy": 402, 
  "E@@": 403, 
  "F@@": 404, 
  "songs": 405, 
  "L@@": 406, 
  "think": 407, 
  "30": 408, 
  "say": 409, 
  "N@@": 410, 
  "together": 411, 
  "once": 412, 
  "various": 413, 
  "provided": 414, 
  "areas": 415, 
  "women": 416, 
  "song": 417, 
  "M@@": 418, 
  "network": 419, 
  "trade": 420, 
  "off": 421, 
  "called": 422, 
  "click": 423, 
  "State": 424, 
  "am": 425, 
  "others": 426, 
  "family": 427, 
  "line": 428, 
  "times": 429, 
  "major": 430, 
  "7": 431, 
  "little": 432, 
  "oil": 433, 
  "World": 434, 
  "key": 435, 
  "results": 436, 
  "again": 437, 
  "range": 438, 
  "far": 439, 
  "Republic": 440, 
  "held": 441, 
  "increase": 442, 
  "industry": 443, 
  "favorite": 444, 
  "2007": 445, 
  "might": 446, 
  "God": 447, 
  "language": 448, 
  "t@@": 449, 
  "yet": 450, 
  "technology": 451, 
  "put": 452, 
  "y@@": 453, 
  "American": 454, 
  "meeting": 455, 
  "include": 456, 
  "having": 457, 
  "never": 458, 
  "history": 459, 
  "ch@@": 460, 
  "2010": 461, 
  "projects": 462, 
  "computer": 463, 
  "interest": 464, 
  "America": 465, 
  "making": 466, 
  "provides": 467, 
  "type": 468, 
  "military": 469, 
  "left": 470, 
  "R@@": 471, 
  "look": 472, 
  "general": 473, 
  "start": 474, 
  "until": 475, 
  "resources": 476, 
  "15": 477, 
  "e": 478, 
  "air": 479, 
  "users": 480, 
  "al": 481, 
  "whether": 482, 
  "application": 483, 
  ".@@": 484, 
  "c@@": 485, 
  "W@@": 486, 
  "thus": 487, 
  "developed": 488, 
  "field": 489, 
  "s@@": 490, 
  "legal": 491, 
  "works": 492, 
  "war": 493, 
  "user": 494, 
  "education": 495, 
  "took": 496, 
  "issues": 497, 
  "natural": 498, 
  "product": 499, 
  "investment": 500, 
  "capital": 501, 
  "especially": 502, 
  "total": 503, 
  "New": 504, 
  "i@@": 505, 
  "research": 506, 
  "Bank": 507, 
  "rate": 508, 
  "etc": 509, 
  "facilities": 510, 
  "e@@": 511, 
  "whole": 512, 
  "things": 513, 
  "Service": 514, 
  "created": 515, 
  "changes": 516, 
  "least": 517, 
  "known": 518, 
  "property": 519, 
  "version": 520, 
  "y": 521, 
  "food": 522, 
  "t": 523, 
  "terms": 524, 
  "content": 525, 
  "personal": 526, 
  "8": 527, 
  "taken": 528, 
  "almost": 529, 
  "body": 530, 
  "prices": 531, 
  "address": 532, 
  "National": 533, 
  "age": 534, 
  "upon": 535, 
  "EU": 536, 
  "construction": 537, 
  "training": 538, 
  "technical": 539, 
  "gas": 540, 
  "later": 541, 
  "reviews": 542, 
  "side": 543, 
  "12": 544, 
  "really": 545, 
  "server": 546, 
  "ate": 547, 
  "team": 548, 
  "restaurant": 549, 
  "TV": 550, 
  "regional": 551, 
  "particular": 552, 
  "show": 553, 
  "crisis": 554, 
  "men": 555, 
  "minutes": 556, 
  "role": 557, 
  "report": 558, 
  "visit": 559, 
  "unique": 560, 
  "let": 561, 
  "al@@": 562, 
  "position": 563, 
  "going": 564, 
  "situation": 565, 
  "certain": 566, 
  "h@@": 567, 
  "common": 568, 
  "groups": 569, 
  "something": 570, 
  "cooperation": 571, 
  "rather": 572, 
  "game": 573, 
  "activity": 574, 
  "itself": 575, 
  "individual": 576, 
  "easy": 577, 
  "leading": 578, 
  "house": 579, 
  "land": 580, 
  "additional": 581, 
  "Union": 582, 
  "society": 583, 
  "Germany": 584, 
  "hours": 585, 
  "er@@": 586, 
  "century": 587, 
  "*": 588, 
  "m": 589, 
  "living": 590, 
  "basis": 591, 
  "markets": 592, 
  "below": 593, 
  "environment": 594, 
  "ation": 595, 
  "features": 596, 
  "J@@": 597, 
  "50": 598, 
  "past": 599, 
  "center": 600, 
  "near": 601, 
  "materials": 602, 
  "professional": 603, 
  "space": 604, 
  "required": 605, 
  "ia": 606, 
  "months": 607, 
  "higher": 608, 
  "therefore": 609, 
  "member": 610, 
  "events": 611, 
  "files": 612, 
  "100": 613, 
  "O@@": 614, 
  "became": 615, 
  "community": 616, 
  "media": 617, 
  "ic": 618, 
  "developing": 619, 
  "lot": 620, 
  "hand": 621, 
  "action": 622, 
  "e-@@": 623, 
  "ensure": 624, 
  "heart": 625, 
  "four": 626, 
  "play": 627, 
  "light": 628, 
  "protection": 629, 
  "top": 630, 
  "g@@": 631, 
  "central": 632, 
  "music": 633, 
  "la": 634, 
  "cost": 635, 
  "website": 636, 
  "risk": 637, 
  "makes": 638, 
  "Council": 639, 
  "costs": 640, 
  "contact": 641, 
  "though": 642, 
  "care": 643, 
  "non-@@": 644, 
  "car": 645, 
  "big": 646, 
  "single": 647, 
  "amount": 648, 
  "live": 649, 
  "cases": 650, 
  "2006": 651, 
  "organizations": 652, 
  "although": 653, 
  "9": 654, 
  "young": 655, 
  "km": 656, 
  "dis@@": 657, 
  "performance": 658, 
  "office": 659, 
  "early": 660, 
  "specific": 661, 
  "allows": 662, 
  "bank": 663, 
  "book": 664, 
  "search": 665, 
  "keep": 666, 
  "effective": 667, 
  "established": 668, 
  "enjoy": 669, 
  "en@@": 670, 
  "question": 671, 
  "event": 672, 
  "share": 673, 
  "complex": 674, 
  "night": 675, 
  "came": 676, 
  "size": 677, 
  "clients": 678, 
  "standard": 679, 
  "authorities": 680, 
  "call": 681, 
  "either": 682, 
  "run": 683, 
  "guests": 684, 
  "designed": 685, 
  "started": 686, 
  "taking": 687, 
  "breakfast": 688, 
  "recent": 689, 
  "knowledge": 690, 
  "third": 691, 
  "head": 692, 
  "party": 693, 
  "population": 694, 
  "institutions": 695, 
  "everything": 696, 
  "along": 697, 
  "complete": 698, 
  "done": 699, 
  "issue": 700, 
  "V@@": 701, 
  "You": 702, 
  "continue": 703, 
  "sector": 704, 
  "treatment": 705, 
  "wide": 706, 
  "et": 707, 
  "online": 708, 
  "enough": 709, 
  "received": 710, 
  "short": 711, 
  "hard": 712, 
  "f@@": 713, 
  "download": 714, 
  "addition": 715, 
  "clear": 716, 
  "town": 717, 
  "&apos;re": 718, 
  "image": 719, 
  "11": 720, 
  "nuclear": 721, 
  "requirements": 722, 
  "ar": 723, 
  "low": 724, 
  "leaders": 725, 
  "In": 726, 
  "select": 727, 
  "rates": 728, 
  "C": 729, 
  "receive": 730, 
  "Company": 731, 
  "strong": 732, 
  "l@@": 733, 
  "sub-categories": 734, 
  "d@@": 735, 
  "j@@": 736, 
  "pay": 737, 
  "includes": 738, 
  "k@@": 739, 
  "I@@": 740, 
  "Group": 741, 
  "station": 742, 
  "allow": 743, 
  "a@@": 744, 
  "choose": 745, 
  "potential": 746, 
  "function": 747, 
  "five": 748, 
  "organization": 749, 
  "official": 750, 
  "beautiful": 751, 
  "kind": 752, 
  "article": 753, 
  "2005": 754, 
  "former": 755, 
  "states": 756, 
  "sure": 757, 
  "programs": 758, 
  "needed": 759, 
  "words": 760, 
  "Ukrainian": 761, 
  "Central": 762, 
  "force": 763, 
  "believe": 764, 
  "card": 765, 
  "ago": 766, 
  "w@@": 767, 
  "fully": 768, 
  "school": 769, 
  "plan": 770, 
  "standards": 771, 
  "measures": 772, 
  "included": 773, 
  "billion": 774, 
  "attention": 775, 
  "contains": 776, 
  "traditional": 777, 
  "el": 778, 
  "themselves": 779, 
  "comfortable": 780, 
  "video": 781, 
  "turn": 782, 
  "students": 783, 
  "check": 784, 
  "parts": 785, 
  "Z@@": 786, 
  "material": 787, 
  "art": 788, 
  "try": 789, 
  "web": 790, 
  "bar": 791, 
  "opportunity": 792, 
  "decision": 793, 
  "source": 794, 
  "m@@": 795, 
  "exchange": 796, 
  "&apos;ll": 797, 
  "true": 798, 
  "capacity": 799, 
  "parties": 800, 
  "25": 801, 
  "connection": 802, 
  "meet": 803, 
  "increased": 804, 
  "similar": 805, 
  "ability": 806, 
  "child": 807, 
  "Committee": 808, 
  "sh@@": 809, 
  "ated": 810, 
  "got": 811, 
  "built": 812, 
  "love": 813, 
  "beginning": 814, 
  "nature": 815, 
  "directly": 816, 
  "South": 817, 
  "documents": 818, 
  "read": 819, 
  "Y@@": 820, 
  "note": 821, 
  "simply": 822, 
  "24": 823, 
  "press": 824, 
  "difficult": 825, 
  "efforts": 826, 
  "huge": 827, 
  "technologies": 828, 
  "situated": 829, 
  "thing": 830, 
  "September": 831, 
  "ever": 832, 
  "3@@": 833, 
  "implementation": 834, 
  "June": 835, 
  "sites": 836, 
  "4@@": 837, 
  "questions": 838, 
  "banks": 839, 
  "agreement": 840, 
  "says": 841, 
  "led": 842, 
  "solution": 843, 
  "guest": 844, 
  "•": 845, 
  "z@@": 846, 
  "approach": 847, 
  "at@@": 848, 
  "quite": 849, 
  "reason": 850, 
  "applications": 851, 
  "demand": 852, 
  "an@@": 853, 
  "face": 854, 
  "relations": 855, 
  "style": 856, 
  "March": 857, 
  "sea": 858, 
  "popular": 859, 
  "simple": 860, 
  "model": 861, 
  "date": 862, 
  "largest": 863, 
  "tax": 864, 
  "existing": 865, 
  "looking": 866, 
  "client": 867, 
  "el@@": 868, 
  "ar@@": 869, 
  "policies": 870, 
  "phone": 871, 
  "b@@": 872, 
  "table": 873, 
  "German": 874, 
  "General": 875, 
  "half": 876, 
  "n@@": 877, 
  "p@@": 878, 
  "December": 879, 
  "U@@": 880, 
  "2003": 881, 
  "goods": 882, 
  "ways": 883, 
  "across": 884, 
  "Israel": 885, 
  "excellent": 886, 
  "Rooms": 887, 
  "Chinese": 888, 
  "University": 889, 
  "develop": 890, 
  "France": 891, 
  "considered": 892, 
  "indeed": 893, 
  "Soviet": 894, 
  "began": 895, 
  "section": 896, 
  "conference": 897, 
  "May": 898, 
  "direct": 899, 
  "im@@": 900, 
  "Japan": 901, 
  "Asia": 902, 
  "East": 903, 
  "instead": 904, 
  "text": 905, 
  "basic": 906, 
  "nothing": 907, 
  "October": 908, 
  "credit": 909, 
  "code": 910, 
  "cultural": 911, 
  "added": 912, 
  "levels": 913, 
  "views": 914, 
  "famous": 915, 
  "idea": 916, 
  "class": 917, 
  "types": 918, 
  "return": 919, 
  "seen": 920, 
  "2000": 921, 
  "operation": 922, 
  "active": 923, 
  "industrial": 924, 
  "outside": 925, 
  "providing": 926, 
  "u@@": 927, 
  "study": 928, 
  "likely": 929, 
  "rules": 930, 
  "2004": 931, 
  "forces": 932, 
  "transport": 933, 
  "pool": 934, 
  "understand": 935, 
  "via": 936, 
  "is@@": 937, 
  "Minister": 938, 
  "effect": 939, 
  "percent": 940, 
  "workers": 941, 
  "French": 942, 
  "significant": 943, 
  "Centre": 944, 
  "persons": 945, 
  "solutions": 946, 
  "walk": 947, 
  "Ministry": 948, 
  "drive": 949, 
  "submitted": 950, 
  "status": 951, 
  "participants": 952, 
  "supply": 953, 
  "subject": 954, 
  "Western": 955, 
  "medical": 956, 
  "success": 957, 
  "le": 958, 
  "longer": 959, 
  "bring": 960, 
  "culture": 961, 
  "operating": 962, 
  "interests": 963, 
  "particularly": 964, 
  "currently": 965, 
  "death": 966, 
  "5@@": 967, 
  "18": 968, 
  "purpose": 969, 
  "domestic": 970, 
  "points": 971, 
  "th@@": 972, 
  "internet": 973, 
  "week": 974, 
  "16": 975, 
  "Microsoft": 976, 
  "14": 977, 
  "month": 978, 
  "it@@": 979, 
  "soon": 980, 
  "structure": 981, 
  "growing": 982, 
  "sales": 983, 
  "Kazakhstan": 984, 
  "April": 985, 
  "request": 986, 
  "partners": 987, 
  "box": 988, 
  "Nations": 989, 
  "comes": 990, 
  "term": 991, 
  "rest": 992, 
  "safety": 993, 
  "January": 994, 
  "choice": 995, 
  "pictures": 996, 
  "lead": 997, 
  "original": 998, 
  "West": 999, 
  "Iran": 1000, 
  "recently": 1001, 
  "operations": 1002, 
  "40": 1003, 
  "o@@": 1004, 
  "Center": 1005, 
  "&apos;ve": 1006, 
  "Ch@@": 1007, 
  "independent": 1008, 
  "peace": 1009, 
  "written": 1010, 
  "Sh@@": 1011, 
  "successful": 1012, 
  "improve": 1013, 
  "regions": 1014, 
  "July": 1015, 
  "photos": 1016, 
  "commercial": 1017, 
  "India": 1018, 
  "Government": 1019, 
  "base": 1020, 
  "told": 1021, 
  "_@@": 1022, 
  "u": 1023, 
  "D": 1024, 
  "send": 1025, 
  "move": 1026, 
  "usually": 1027, 
  "series": 1028, 
  "es@@": 1029, 
  "stage": 1030, 
  "matter": 1031, 
  "Al@@": 1032, 
  "reports": 1033, 
  "customer": 1034, 
  "North": 1035, 
  "scientific": 1036, 
  "went": 1037, 
  "throughout": 1038, 
  "November": 1039, 
  "places": 1040, 
  "message": 1041, 
  "whose": 1042, 
  "news": 1043, 
  "payment": 1044, 
  "takes": 1045, 
  "step": 1046, 
  "ic@@": 1047, 
  "appropriate": 1048, 
  "cause": 1049, 
  "towards": 1050, 
  "governments": 1051, 
  "enter": 1052, 
  "Web": 1053, 
  "13": 1054, 
  "Server": 1055, 
  "relate": 1056, 
  "document": 1057, 
  "uses": 1058, 
  "actually": 1059, 
  "assistance": 1060, 
  "shown": 1061, 
  "values": 1062, 
  "Belarus": 1063, 
  "easily": 1064, 
  "mind": 1065, 
  "entire": 1066, 
  "ating": 1067, 
  "respect": 1068, 
  "moment": 1069, 
  "ations": 1070, 
  "reach": 1071, 
  "citizens": 1072, 
  "option": 1073, 
  "&#124;": 1074, 
  "et@@": 1075, 
  "HIV": 1076, 
  "or@@": 1077, 
  "sometimes": 1078, 
  "ready": 1079, 
  "despite": 1080, 
  "&gt;": 1081, 
  "clean": 1082, 
  "B": 1083, 
  "sense": 1084, 
  "Development": 1085, 
  "hope": 1086, 
  "plant": 1087, 
  "analysis": 1088, 
  "shows": 1089, 
  "lower": 1090, 
  "administration": 1091, 
  "mobile": 1092, 
  "installation": 1093, 
  "transfer": 1094, 
  "practice": 1095, 
  "over@@": 1096, 
  "actions": 1097, 
  "on@@": 1098, 
  "exhibition": 1099, 
  "build": 1100, 
  "UN": 1101, 
  "police": 1102, 
  "remain": 1103, 
  "Room": 1104, 
  "friends": 1105, 
  "experts": 1106, 
  "k": 1107, 
  "We": 1108, 
  "test": 1109, 
  "stop": 1110, 
  "everyone": 1111, 
  "equipped": 1112, 
  "U.S.": 1113, 
  "Mr.": 1114, 
  "consider": 1115, 
  "learn": 1116, 
  "limited": 1117, 
  "poor": 1118, 
  "details": 1119, 
  "thought": 1120, 
  "average": 1121, 
  "ies": 1122, 
  "ca": 1123, 
  "machine": 1124, 
  "highly": 1125, 
  "son": 1126, 
  "friendly": 1127, 
  "leave": 1128, 
  "physical": 1129, 
  "representatives": 1130, 
  "greater": 1131, 
  "carried": 1132, 
  "territory": 1133, 
  "civil": 1134, 
  "serious": 1135, 
  "em@@": 1136, 
  "bed": 1137, 
  "strategy": 1138, 
  "front": 1139, 
  "ad@@": 1140, 
  "device": 1141, 
  "d": 1142, 
  "progress": 1143, 
  "creation": 1144, 
  "methods": 1145, 
  "nice": 1146, 
  "apartment": 1147, 
  "interesting": 1148, 
  "rich": 1149, 
  "method": 1150, 
  "impact": 1151, 
  "floor": 1152, 
  "income": 1153, 
  "ant": 1154, 
  "previous": 1155, 
  "doing": 1156, 
  "rule": 1157, 
  "It": 1158, 
  "responsible": 1159, 
  "coming": 1160, 
  "E": 1161, 
  "budget": 1162, 
  "August": 1163, 
  "sent": 1164, 
  "currency": 1165, 
  "presented": 1166, 
  "funds": 1167, 
  "6@@": 1168, 
  "president": 1169, 
  "ist": 1170, 
  "r@@": 1171, 
  "published": 1172, 
  "ly": 1173, 
  "Institute": 1174, 
  "expected": 1175, 
  "tools": 1176, 
  "ine": 1177, 
  "perfect": 1178, 
  "Federation": 1179, 
  "ac@@": 1180, 
  "referred": 1181, 
  "leader": 1182, 
  "forms": 1183, 
  "7@@": 1184, 
  "plans": 1185, 
  "processing": 1186, 
  "am@@": 1187, 
  "ask": 1188, 
  "con@@": 1189, 
  "paid": 1190, 
  "require": 1191, 
  "asked": 1192, 
  "Commission": 1193, 
  "listed": 1194, 
  "Africa": 1195, 
  "database": 1196, 
  "seems": 1197, 
  "charge": 1198, 
  "as@@": 1199, 
  "summer": 1200, 
  "cities": 1201, 
  "communication": 1202, 
  "word": 1203, 
  "latest": 1204, 
  "running": 1205, 
  "environmental": 1206, 
  "Security": 1207, 
  "offered": 1208, 
  "distribution": 1209, 
  "February": 1210, 
  "climate": 1211, 
  "steps": 1212, 
  "sound": 1213, 
  "Turkey": 1214, 
  "In@@": 1215, 
  "deal": 1216, 
  "remains": 1217, 
  "0": 1218, 
  "sky": 1219, 
  "package": 1220, 
  "buy": 1221, 
  "options": 1222, 
  "debt": 1223, 
  "il@@": 1224, 
  "safe": 1225, 
  "setting": 1226, 
  "processes": 1227, 
  "corporate": 1228, 
  "employees": 1229, 
  "conflict": 1230, 
  "board": 1231, 
  "produced": 1232, 
  "lost": 1233, 
  "th": 1234, 
  "reduce": 1235, 
  "hold": 1236, 
  "st@@": 1237, 
  "final": 1238, 
  "six": 1239, 
  "behind": 1240, 
  "ones": 1241, 
  "n": 1242, 
  "17": 1243, 
  "g": 1244, 
  "2@@": 1245, 
  "probably": 1246, 
  "participation": 1247, 
  "players": 1248, 
  "involved": 1249, 
  "Iraq": 1250, 
  "Convention": 1251, 
  "influence": 1252, 
  "menu": 1253, 
  "freedom": 1254, 
  "continued": 1255, 
  "b": 1256, 
  "responsibility": 1257, 
  "mode": 1258, 
  "ie": 1259, 
  "ro@@": 1260, 
  "creating": 1261, 
  "Court": 1262, 
  "London": 1263, 
  "completely": 1264, 
  "screen": 1265, 
  "highest": 1266, 
  "laws": 1267, 
  "Office": 1268, 
  "Facilities": 1269, 
  "focus": 1270, 
  "accommodation": 1271, 
  "internal": 1272, 
  "pressure": 1273, 
  "ab@@": 1274, 
  "ian": 1275, 
  "positive": 1276, 
  "connected": 1277, 
  "historical": 1278, 
  "himself": 1279, 
  "�": 1280, 
  "opened": 1281, 
  "Party": 1282, 
  "decided": 1283, 
  "ten": 1284, 
  "finally": 1285, 
  "benefits": 1286, 
  "moreover": 1287, 
  "lines": 1288, 
  "elements": 1289, 
  "booking.com": 1290, 
  "relevant": 1291, 
  "lack": 1292, 
  "installed": 1293, 
  "increasing": 1294, 
  "road": 1295, 
  "registration": 1296, 
  "tell": 1297, 
  "powerful": 1298, 
  "possibility": 1299, 
  "All": 1300, 
  "welcome": 1301, 
  "perhaps": 1302, 
  "white": 1303, 
  "court": 1304, 
  "release": 1305, 
  "photo": 1306, 
  "de@@": 1307, 
  "officials": 1308, 
  "enterprises": 1309, 
  "War": 1310, 
  "link": 1311, 
  "competition": 1312, 
  "ism": 1313, 
  "atmosphere": 1314, 
  "opportunities": 1315, 
  "insurance": 1316, 
  "advanced": 1317, 
  "follow": 1318, 
  "Exchange": 1319, 
  "job": 1320, 
  "City": 1321, 
  "answer": 1322, 
  "gives": 1323, 
  "quickly": 1324, 
  "response": 1325, 
  "purchase": 1326, 
  "8@@": 1327, 
  "accordance": 1328, 
  "Guest": 1329, 
  "variety": 1330, 
  "enable": 1331, 
  "&apos;m": 1332, 
  "speed": 1333, 
  "changed": 1334, 
  "daily": 1335, 
  "Department": 1336, 
  "player": 1337, 
  "R": 1338, 
  "allowed": 1339, 
  "feature": 1340, 
  "devices": 1341, 
  "election": 1342, 
  "window": 1343, 
  "wish": 1344, 
  "anything": 1345, 
  "ates": 1346, 
  "goal": 1347, 
  "distance": 1348, 
  "ideal": 1349, 
  "Business": 1350, 
  "os": 1351, 
  "infrastructure": 1352, 
  "button": 1353, 
  "XP": 1354, 
  "separate": 1355, 
  "lives": 1356, 
  "religious": 1357, 
  "ground": 1358, 
  "il": 1359, 
  "majority": 1360, 
  "apply": 1361, 
  "p": 1362, 
  "self-@@": 1363, 
  "annual": 1364, 
  "To": 1365, 
  "21": 1366, 
  "Vista": 1367, 
  "produce": 1368, 
  "tool": 1369, 
  "supported": 1370, 
  "apartments": 1371, 
  "M": 1372, 
  "un": 1373, 
  "airport": 1374, 
  "registered": 1375, 
  "est": 1376, 
  "Putin": 1377, 
  "units": 1378, 
  "nor": 1379, 
  "act": 1380, 
  "T": 1381, 
  "maximum": 1382, 
  "Desk": 1383, 
  "prevent": 1384, 
  "thousand": 1385, 
  "l": 1386, 
  "save": 1387, 
  "2002": 1388, 
  "This": 1389, 
  "movement": 1390, 
  "larger": 1391, 
  "external": 1392, 
  "science": 1393, 
  "village": 1394, 
  "democracy": 1395, 
  "x": 1396, 
  "selected": 1397, 
  "se": 1398, 
  "long-term": 1399, 
  "late": 1400, 
  "default": 1401, 
  "Paris": 1402, 
  "automatically": 1403, 
  "THE": 1404, 
  "Services": 1405, 
  "22": 1406, 
  "color": 1407, 
  "games": 1408, 
  "organized": 1409, 
  "travel": 1410, 
  "v@@": 1411, 
  "sources": 1412, 
  "interested": 1413, 
  "strategic": 1414, 
  "framework": 1415, 
  "Board": 1416, 
  "00": 1417, 
  "inside": 1418, 
  "planning": 1419, 
  "X@@": 1420, 
  "parking": 1421, 
  "9@@": 1422, 
  "violence": 1423, 
  "joint": 1424, 
  "2001": 1425, 
  "protect": 1426, 
  "ors": 1427, 
  "loss": 1428, 
  "functions": 1429, 
  "St.": 1430, 
  "mass": 1431, 
  "Of": 1432, 
  "starting": 1433, 
  "requires": 1434, 
  "immediately": 1435, 
  "reached": 1436, 
  "worked": 1437, 
  "paper": 1438, 
  "bit": 1439, 
  "memory": 1440, 
  "ra@@": 1441, 
  "OF": 1442, 
  "suggest": 1443, 
  "reported": 1444, 
  "offering": 1445, 
  "c": 1446, 
  "elections": 1447, 
  "ists": 1448, 
  "principles": 1449, 
  "achieve": 1450, 
  "task": 1451, 
  "languages": 1452, 
  "19": 1453, 
  "ideas": 1454, 
  "district": 1455, 
  "IP": 1456, 
  "born": 1457, 
  "per@@": 1458, 
  "60": 1459, 
  "effects": 1460, 
  "visitors": 1461, 
  "met": 1462, 
  "red": 1463, 
  "assets": 1464, 
  "bad": 1465, 
  "se@@": 1466, 
  "double": 1467, 
  "ings": 1468, 
  "reasons": 1469, 
  "turned": 1470, 
  "prepared": 1471, 
  "ics": 1472, 
  "ul@@": 1473, 
  "beach": 1474, 
  "understanding": 1475, 
  "programme": 1476, 
  "Italy": 1477, 
  "thanks": 1478, 
  "street": 1479, 
  "signed": 1480, 
  "display": 1481, 
  "importance": 1482, 
  "investors": 1483, 
  "sub@@": 1484, 
  "record": 1485, 
  "Airport": 1486, 
  "opening": 1487, 
  "e-mail": 1488, 
  "h": 1489, 
  "beyond": 1490, 
  ".com": 1491, 
  "getting": 1492, 
  "direction": 1493, 
  "volume": 1494, 
  "specialists": 1495, 
  "useful": 1496, 
  "saw": 1497, 
  "ed@@": 1498, 
  "na": 1499, 
  "sale": 1500, 
  "yourself": 1501, 
  "mean": 1502, 
  "British": 1503, 
  "Azerbaijan": 1504, 
  "bathroom": 1505, 
  "released": 1506, 
  "rise": 1507, 
  "S": 1508, 
  "ag@@": 1509, 
  "partner": 1510, 
  "extra": 1511, 
  "democratic": 1512, 
  "fast": 1513, 
  "round": 1514, 
  "inter@@": 1515, 
  "enterprise": 1516, 
  "gave": 1517, 
  "appear": 1518, 
  "compared": 1519, 
  "X": 1520, 
  "ancient": 1521, 
  "object": 1522, 
  "decisions": 1523, 
  "names": 1524, 
  "install": 1525, 
  "trying": 1526, 
  "fields": 1527, 
  "announced": 1528, 
  "And": 1529, 
  "Con@@": 1530, 
  "200": 1531, 
  "placed": 1532, 
  "balance": 1533, 
  "restaurants": 1534, 
  "benefit": 1535, 
  "contract": 1536, 
  "fall": 1537, 
  "Linux": 1538, 
  "settings": 1539, 
  "и": 1540, 
  "storage": 1541, 
  "Sea": 1542, 
  "forward": 1543, 
  "individuals": 1544, 
  "z": 1545, 
  "ts": 1546, 
  "Armenia": 1547, 
  "é@@": 1548, 
  "reform": 1549, 
  "caused": 1550, 
  "black": 1551, 
  "AIDS": 1552, 
  "estate": 1553, 
  "avoid": 1554, 
  "Conference": 1555, 
  "map": 1556, 
  "с@@": 1557, 
  "trading": 1558, 
  "links": 1559, 
  "regular": 1560, 
  "numbers": 1561, 
  "als": 1562, 
  "items": 1563, 
  "film": 1564, 
  "s-@@": 1565, 
  "Director": 1566, 
  "re-@@": 1567, 
  "&apos;@@": 1568, 
  "images": 1569, 
  "risks": 1570, 
  "um": 1571, 
  "selection": 1572, 
  "unit": 1573, 
  "On": 1574, 
  "command": 1575, 
  "applied": 1576, 
  "promote": 1577, 
  "Park": 1578, 
  "legislation": 1579, 
  "skills": 1580, 
  "delivery": 1581, 
  "objects": 1582, 
  "damage": 1583, 
  "hour": 1584, 
  "session": 1585, 
  "é": 1586, 
  "reception": 1587, 
  "educational": 1588, 
  "Fund": 1589, 
  "II": 1590, 
  "bodies": 1591, 
  "efficiency": 1592, 
  "opinion": 1593, 
  "23": 1594, 
  "Management": 1595, 
  "chance": 1596, 
  "stock": 1597, 
  "components": 1598, 
  "church": 1599, 
  "models": 1600, 
  "pre@@": 1601, 
  "output": 1602, 
  "generation": 1603, 
  "monitoring": 1604, 
  "plants": 1605, 
  "campaign": 1606, 
  "ent": 1607, 
  "PC": 1608, 
  "worldwide": 1609, 
  "calls": 1610, 
  "eyes": 1611, 
  "named": 1612, 
  "evidence": 1613, 
  "ice": 1614, 
  "thousands": 1615, 
  "export": 1616, 
  "der": 1617, 
  "department": 1618, 
  "qu@@": 1619, 
  "description": 1620, 
  "anti-@@": 1621, 
  "port": 1622, 
  "Law": 1623, 
  "translation": 1624, 
  "essential": 1625, 
  "factors": 1626, 
  "authority": 1627, 
  "Ar@@": 1628, 
  "regarding": 1629, 
  "le@@": 1630, 
  "efficient": 1631, 
  "meetings": 1632, 
  "Safety": 1633, 
  "served": 1634, 
  "hotels": 1635, 
  "email": 1636, 
  "id@@": 1637, 
  "procedure": 1638, 
  "regime": 1639, 
  "character": 1640, 
  "hands": 1641, 
  "review": 1642, 
  "Great": 1643, 
  "ec@@": 1644, 
  "traffic": 1645, 
  "cards": 1646, 
  "carry": 1647, 
  "x@@": 1648, 
  "target": 1649, 
  "write": 1650, 
  "Georgia": 1651, 
  "shopping": 1652, 
  "For": 1653, 
  "cut": 1654, 
  "toward": 1655, 
  "ap@@": 1656, 
  "weapons": 1657, 
  "ch": 1658, 
  "condition": 1659, 
  "concerning": 1660, 
  "books": 1661, 
  "Bush": 1662, 
  "us@@": 1663, 
  "USA": 1664, 
  "1.@@": 1665, 
  "electronic": 1666, 
  "Jesus": 1667, 
  "agencies": 1668, 
  "fire": 1669, 
  "quiet": 1670, 
  "ol@@": 1671, 
  "fixed": 1672, 
  "comfort": 1673, 
  "1@@": 1674, 
  "relationship": 1675, 
  "sports": 1676, 
  "remember": 1677, 
  "Poland": 1678, 
  "effort": 1679, 
  "talk": 1680, 
  "80": 1681, 
  "Public": 1682, 
  "Church": 1683, 
  "reality": 1684, 
  "hot": 1685, 
  "Middle": 1686, 
  "agreed": 1687, 
  "System": 1688, 
  "ted": 1689, 
  "advantage": 1690, 
  "earlier": 1691, 
  "ya": 1692, 
  "giving": 1693, 
  "serve": 1694, 
  "om@@": 1695, 
  "ex@@": 1696, 
  "stability": 1697, 
  "wanted": 1698, 
  "numerous": 1699, 
  "à": 1700, 
  "ter@@": 1701, 
  "ting": 1702, 
  "al-@@": 1703, 
  "Association": 1704, 
  "happy": 1705, 
  "investments": 1706, 
  "integration": 1707, 
  "resolution": 1708, 
  "bus": 1709, 
  "My": 1710, 
  "associated": 1711, 
  "woman": 1712, 
  "digital": 1713, 
  "ent@@": 1714, 
  "leadership": 1715, 
  "clearly": 1716, 
  "primary": 1717, 
  "alone": 1718, 
  "27": 1719, 
  "becomes": 1720, 
  "buildings": 1721, 
  "train": 1722, 
  "defined": 1723, 
  "Japanese": 1724, 
  "whom": 1725, 
  "passed": 1726, 
  "accept": 1727, 
  "except": 1728, 
  "otherwise": 1729, 
  "cover": 1730, 
  "charged": 1731, 
  "begin": 1732, 
  "completed": 1733, 
  "aid": 1734, 
  "ical": 1735, 
  "schools": 1736, 
  "sl@@": 1737, 
  "issued": 1738, 
  "Page": 1739, 
  "story": 1740, 
  "te": 1741, 
  "ir@@": 1742, 
  "blood": 1743, 
  "guarantee": 1744, 
  "picture": 1745, 
  "opposition": 1746, 
  "someone": 1747, 
  "park": 1748, 
  "ina": 1749, 
  "families": 1750, 
  "28": 1751, 
  "perform": 1752, 
  "в": 1753, 
  "Re@@": 1754, 
  "Box": 1755, 
  "+": 1756, 
  "House": 1757, 
  "York": 1758, 
  "procedures": 1759, 
  "performed": 1760, 
  "fuel": 1761, 
  "P": 1762, 
  "500": 1763, 
  "adopted": 1764, 
  "speak": 1765, 
  "besides": 1766, 
  "goes": 1767, 
  "concept": 1768, 
  "copy": 1769, 
  "ur@@": 1770, 
  "mm": 1771, 
  "managed": 1772, 
  "walking": 1773, 
  "brand": 1774, 
  "surface": 1775, 
  "green": 1776, 
  "houses": 1777, 
  "cent": 1778, 
  "Rights": 1779, 
  "IT": 1780, 
  "mentioned": 1781, 
  "abroad": 1782, 
  "author": 1783, 
  "telephone": 1784, 
  "ad": 1785, 
  "poverty": 1786, 
  "path": 1787, 
  "overall": 1788, 
  "format": 1789, 
  "fight": 1790, 
  "deep": 1791, 
  "f": 1792, 
  "manufacturing": 1793, 
  "noted": 1794, 
  "integrated": 1795, 
  "/@@": 1796, 
  "critical": 1797, 
  "presence": 1798, 
  "secure": 1799, 
  "weight": 1800, 
  "employment": 1801, 
  "machines": 1802, 
  "26": 1803, 
  "properties": 1804, 
  "domain": 1805, 
  "cash": 1806, 
  "sign": 1807, 
  "playing": 1808, 
  "attack": 1809, 
  "agency": 1810, 
  "aimed": 1811, 
  "economies": 1812, 
  "practical": 1813, 
  "messages": 1814, 
  "nearly": 1815, 
  "extremely": 1816, 
  "ski": 1817, 
  "O": 1818, 
  "challenges": 1819, 
  "18@@": 1820, 
  "weeks": 1821, 
  "described": 1822, 
  "maintenance": 1823, 
  "di@@": 1824, 
  "studies": 1825, 
  "Bar": 1826, 
  "detailed": 1827, 
  "y-@@": 1828, 
  "net": 1829, 
  "helpful": 1830, 
  "ity": 1831, 
  "maintain": 1832, 
  "morning": 1833, 
  "learning": 1834, 
  "normal": 1835, 
  "ets": 1836, 
  "writing": 1837, 
  "10@@": 1838, 
  "parents": 1839, 
  "ans": 1840, 
  "door": 1841, 
  "conducted": 1842, 
  "di": 1843, 
  "Eastern": 1844, 
  "programmes": 1845, 
  "played": 1846, 
  "accounts": 1847, 
  "consumption": 1848, 
  "marketing": 1849, 
  "skin": 1850, 
  "appears": 1851, 
  "anyone": 1852, 
  "phrase": 1853, 
  "F": 1854, 
  "radio": 1855, 
  "multiple": 1856, 
  "Front": 1857, 
  "purposes": 1858, 
  "ons": 1859, 
  "else": 1860, 
  "principle": 1861, 
  "founded": 1862, 
  "personnel": 1863, 
  "V": 1864, 
  "combination": 1865, 
  "generally": 1866, 
  "stand": 1867, 
  "ir": 1868, 
  "interface": 1869, 
  "pass": 1870, 
  "nation": 1871, 
  "regard": 1872, 
  "tasks": 1873, 
  "des": 1874, 
  "G": 1875, 
  "certainly": 1876, 
  "tip": 1877, 
  "aim": 1878, 
  "father": 1879, 
  "seem": 1880, 
  "era": 1881, 
  "establishment": 1882, 
  "banking": 1883, 
  "temperature": 1884, 
  "followed": 1885, 
  "square": 1886, 
  "Italian": 1887, 
  "Deposit": 1888, 
  "swimming": 1889, 
  "convenient": 1890, 
  "31": 1891, 
  "scale": 1892, 
  "advertising": 1893, 
  "increasingly": 1894, 
  "Korea": 1895, 
  "mission": 1896, 
  "threat": 1897, 
  "holiday": 1898, 
  "Prime": 1899, 
  "equal": 1900, 
  "bl@@": 1901, 
  "mainly": 1902, 
  "Your": 1903, 
  "L": 1904, 
  "disease": 1905, 
  "Petersburg": 1906, 
  "middle": 1907, 
  "70": 1908, 
  "Fax": 1909, 
  "po@@": 1910, 
  "degree": 1911, 
  "ing@@": 1912, 
  "out@@": 1913, 
  "Day": 1914, 
  "difference": 1915, 
  "alternative": 1916, 
  "store": 1917, 
  "establish": 1918, 
  "communities": 1919, 
  "NATO": 1920, 
  "implemented": 1921, 
  "patients": 1922, 
  "border": 1923, 
  "concerned": 1924, 
  "minimum": 1925, 
  "statement": 1926, 
  "post": 1927, 
  "St@@": 1928, 
  "biggest": 1929, 
  "engine": 1930, 
  "zone": 1931, 
  "glass": 1932, 
  "If": 1933, 
  "truth": 1934, 
  "appeared": 1935, 
  "garden": 1936, 
  "comprehensive": 1937, 
  "300": 1938, 
  "GDP": 1939, 
  "die": 1940, 
  "impossible": 1941, 
  "participate": 1942, 
  "labor": 1943, 
  "intended": 1944, 
  "join": 1945, 
  "successfully": 1946, 
  "spend": 1947, 
  "stable": 1948, 
  "Afghanistan": 1949, 
  "meters": 1950, 
  "resort": 1951, 
  "depending": 1952, 
  "spread": 1953, 
  "1999": 1954, 
  "sc@@": 1955, 
  "testing": 1956, 
  "dedicated": 1957, 
  "les": 1958, 
  "band": 1959, 
  "Human": 1960, 
  "metal": 1961, 
  "Heating": 1962, 
  "politics": 1963, 
  "na@@": 1964, 
  "fl@@": 1965, 
  "prior": 1966, 
  "mountain": 1967, 
  "Lord": 1968, 
  "®": 1969, 
  "goals": 1970, 
  "networks": 1971, 
  "director": 1972, 
  "voice": 1973, 
  "Storage": 1974, 
  "approved": 1975, 
  "firm": 1976, 
  "a-@@": 1977, 
  "ally": 1978, 
  "ized": 1979, 
  "cl@@": 1980, 
  "Mar@@": 1981, 
  "Obama": 1982, 
  "contain": 1983, 
  "finance": 1984, 
  "unless": 1985, 
  "context": 1986, 
  "fiscal": 1987, 
  "ot@@": 1988, 
  "formed": 1989, 
  "fair": 1990, 
  "RE@@": 1991, 
  "articles": 1992, 
  "sp@@": 1993, 
  "fine": 1994, 
  "closed": 1995, 
  "Google": 1996, 
  "um@@": 1997, 
  "worth": 1998, 
  "Article": 1999, 
  "An@@": 2000, 
  "Meeting": 2001, 
  "Christ": 2002, 
  "da": 2003, 
  "reforms": 2004, 
  "heat": 2005, 
  "covered": 2006, 
  "John": 2007, 
  "proposed": 2008, 
  "instance": 2009, 
  "remove": 2010, 
  "transportation": 2011, 
  "expect": 2012, 
  "winter": 2013, 
  "entry": 2014, 
  "core": 2015, 
  "kept": 2016, 
  "exclusive": 2017, 
  "improved": 2018, 
  "wood": 2019, 
  "USD": 2020, 
  "failure": 2021, 
  "reliable": 2022, 
  "No": 2023, 
  "experienced": 2024, 
  "planned": 2025, 
  "Y": 2026, 
  "recommended": 2027, 
  "determine": 2028, 
  "mother": 2029, 
  "changing": 2030, 
  "specified": 2031, 
  "ness": 2032, 
  "administrative": 2033, 
  "exist": 2034, 
  "ous": 2035, 
  "seven": 2036, 
  "90": 2037, 
  "platform": 2038, 
  "fundamental": 2039, 
  "#": 2040, 
  "engineering": 2041, 
  "negative": 2042, 
  "cars": 2043, 
  "introduced": 2044, 
  "host": 2045, 
  "Museum": 2046, 
  "structures": 2047, 
  "thinking": 2048, 
  "holding": 2049, 
  "Information": 2050, 
  "Vladimir": 2051, 
  "He": 2052, 
  "spent": 2053, 
  "metres": 2054, 
  "update": 2055, 
  "reduction": 2056, 
  "Asian": 2057, 
  "concern": 2058, 
  "ka": 2059, 
  "practices": 2060, 
  "ion": 2061, 
  "Turkish": 2062, 
  "manage": 2063, 
  "television": 2064, 
  "steel": 2065, 
  "que": 2066, 
  "gold": 2067, 
  "warm": 2068, 
  "becoming": 2069, 
  "launched": 2070, 
  "determined": 2071, 
  "Assembly": 2072, 
  "category": 2073, 
  "r": 2074, 
  "disk": 2075, 
  "ov": 2076, 
  "approximately": 2077, 
  "nations": 2078, 
  "moving": 2079, 
  "sell": 2080, 
  "sustainable": 2081, 
  "stated": 2082, 
  "beauty": 2083, 
  "&apos;d": 2084, 
  "EUR": 2085, 
  "ig@@": 2086, 
  "kitchen": 2087, 
  "priority": 2088, 
  "ator": 2089, 
  "в@@": 2090, 
  "tour": 2091, 
  "combined": 2092, 
  "fear": 2093, 
  "configuration": 2094, 
  "businesses": 2095, 
  "reduced": 2096, 
  "remained": 2097, 
  "Organization": 2098, 
  "coffee": 2099, 
  "won": 2100, 
  "beds": 2101, 
  "reference": 2102, 
  "Moldova": 2103, 
  "Club": 2104, 
  "recognized": 2105, 
  "acts": 2106, 
  "mis@@": 2107, 
  "av@@": 2108, 
  "wrong": 2109, 
  "forced": 2110, 
  "offices": 2111, 
  "remote": 2112, 
  "drug": 2113, 
  "failed": 2114, 
  "challenge": 2115, 
  "CD": 2116, 
  "os@@": 2117, 
  "decades": 2118, 
  "protected": 2119, 
  "U": 2120, 
  "continues": 2121, 
  "Laundry": 2122, 
  "UK": 2123, 
  "historic": 2124, 
  "agree": 2125, 
  "35": 2126, 
  "attacks": 2127, 
  "29": 2128, 
  "accepted": 2129, 
  "ra": 2130, 
  "ä@@": 2131, 
  "consequences": 2132, 
  "committed": 2133, 
  "packages": 2134, 
  "achieved": 2135, 
  "trip": 2136, 
  "id": 2137, 
  "architecture": 2138, 
  "helps": 2139, 
  "ically": 2140, 
  "felt": 2141, 
  "heard": 2142, 
  "hair": 2143, 
  "AND": 2144, 
  "club": 2145, 
  "Health": 2146, 
  "od@@": 2147, 
  "season": 2148, 
  "Uzbekistan": 2149, 
  "Latin": 2150, 
  "win": 2151, 
  "ut@@": 2152, 
  "discussion": 2153, 
  "suitable": 2154, 
  "consists": 2155, 
  "45": 2156, 
  "notice": 2157, 
  "representative": 2158, 
  "N": 2159, 
  "till": 2160, 
  "ive": 2161, 
  "Breakfast": 2162, 
  "Non-Smoking": 2163, 
  "Academy": 2164, 
  "competitive": 2165, 
  "Federal": 2166, 
  "ri@@": 2167, 
  "flight": 2168, 
  "concerns": 2169, 
  "Earth": 2170, 
  "flow": 2171, 
  "be@@": 2172, 
  "ob@@": 2173, 
  "spending": 2174, 
  "wants": 2175, 
  "figure": 2176, 
  "forest": 2177, 
  "fresh": 2178, 
  "aspects": 2179, 
  "ak": 2180, 
  "limit": 2181, 
  "ak@@": 2182, 
  "ite": 2183, 
  "luxury": 2184, 
  "exactly": 2185, 
  "wireless": 2186, 
  "technological": 2187, 
  "supports": 2188, 
  "wine": 2189, 
  "agreements": 2190, 
  "co@@": 2191, 
  "ment": 2192, 
  "creative": 2193, 
  "€": 2194, 
  "Find": 2195, 
  "preparation": 2196, 
  "visited": 2197, 
  "Foundation": 2198, 
  "break": 2199, 
  "actual": 2200, 
  "Ex@@": 2201, 
  "parameters": 2202, 
  "2012": 2203, 
  "re": 2204, 
  "op@@": 2205, 
  "track": 2206, 
  "circumstances": 2207, 
  "to@@": 2208, 
  "trust": 2209, 
  "ions": 2210, 
  "availability": 2211, 
  "versions": 2212, 
  "satellite": 2213, 
  "Agency": 2214, 
  "criminal": 2215, 
  "sets": 2216, 
  "est@@": 2217, 
  "positions": 2218, 
  "watch": 2219, 
  "discussed": 2220, 
  "grow": 2221, 
  "king": 2222, 
  "improvement": 2223, 
  "Pro@@": 2224, 
  "regulations": 2225, 
  "for@@": 2226, 
  "Jewish": 2227, 
  "recovery": 2228, 
  "shops": 2229, 
  "computers": 2230, 
  "www.@@": 2231, 
  "neither": 2232, 
  "claim": 2233, 
  "Project": 2234, 
  "spiritual": 2235, 
  "Q@@": 2236, 
  "о@@": 2237, 
  "dollars": 2238, 
  "Latvia": 2239, 
  "saying": 2240, 
  "negotiations": 2241, 
  "pre-@@": 2242, 
  "jobs": 2243, 
  "stone": 2244, 
  "cold": 2245, 
  "spacious": 2246, 
  "island": 2247, 
  "gain": 2248, 
  "agricultural": 2249, 
  "shower": 2250, 
  "Armenian": 2251, 
  "river": 2252, 
  "mark": 2253, 
  "letter": 2254, 
  "provisions": 2255, 
  "no@@": 2256, 
  "implement": 2257, 
  "housing": 2258, 
  "background": 2259, 
  "error": 2260, 
  "recommend": 2261, 
  "diseases": 2262, 
  "su@@": 2263, 
  "w": 2264, 
  "ph@@": 2265, 
  "+@@": 2266, 
  "IN": 2267, 
  "chemical": 2268, 
  "terrace": 2269, 
  "kinds": 2270, 
  "-based": 2271, 
  "quarter": 2272, 
  "One": 2273, 
  "wonderful": 2274, 
  "listings": 2275, 
  "shared": 2276, 
  "vehicle": 2277, 
  "Love": 2278, 
  "sectors": 2279, 
  "Arab": 2280, 
  "24-Hour": 2281, 
  "sauna": 2282, 
  "looks": 2283, 
  "nearby": 2284, 
  "reserves": 2285, 
  "independence": 2286, 
  "army": 2287, 
  "extent": 2288, 
  "chosen": 2289, 
  "species": 2290, 
  "fish": 2291, 
  "meaning": 2292, 
  "Britain": 2293, 
  "Kingdom": 2294, 
  "inflation": 2295, 
  "initial": 2296, 
  "financing": 2297, 
  "password": 2298, 
  "IN@@": 2299, 
  "electric": 2300, 
  "armed": 2301, 
  "happened": 2302, 
  "emerging": 2303, 
  "по@@": 2304, 
  "objective": 2305, 
  "resource": 2306, 
  "His": 2307, 
  "claims": 2308, 
  "length": 2309, 
  "sphere": 2310, 
  "sold": 2311, 
  "permanent": 2312, 
  "2011": 2313, 
  "license": 2314, 
  "expressed": 2315, 
  "ship": 2316, 
  "Black": 2317, 
  "ks": 2318, 
  "Greece": 2319, 
  "Agreement": 2320, 
  "furniture": 2321, 
  "killed": 2322, 
  "OS": 2323, 
  "hardware": 2324, 
  "consumer": 2325, 
  "professionals": 2326, 
  "shop": 2327, 
  "contextual": 2328, 
  "aware": 2329, 
  "Global": 2330, 
  "Free": 2331, 
  "powers": 2332, 
  "youth": 2333, 
  "ne": 2334, 
  "cable": 2335, 
  "manner": 2336, 
  "16@@": 2337, 
  "cuisine": 2338, 
  "payments": 2339, 
  "star": 2340, 
  "ization": 2341, 
  "stations": 2342, 
  "evening": 2343, 
  "commitment": 2344, 
  "innovative": 2345, 
  "wo": 2346, 
  "entered": 2347, 
  "shares": 2348, 
  "17@@": 2349, 
  "sun": 2350, 
  "unfortunately": 2351, 
  "centers": 2352, 
  "Me": 2353, 
  "theory": 2354, 
  "hear": 2355, 
  "owner": 2356, 
  "UN@@": 2357, 
  "helped": 2358, 
  "ta": 2359, 
  "Economic": 2360, 
  "hundreds": 2361, 
  "millions": 2362, 
  "reading": 2363, 
  "mostly": 2364, 
  "depends": 2365, 
  "pl@@": 2366, 
  "ion@@": 2367, 
  "Spain": 2368, 
  "happen": 2369, 
  "attempt": 2370, 
  "Forum": 2371, 
  "Christian": 2372, 
  "ages": 2373, 
  "strength": 2374, 
  "2.@@": 2375, 
  "ds": 2376, 
  "En@@": 2377, 
  "up@@": 2378, 
  "ach@@": 2379, 
  "Per@@": 2380, 
  "profit": 2381, 
  "raise": 2382, 
  "ber@@": 2383, 
  "vote": 2384, 
  "pleasant": 2385, 
  "guide": 2386, 
  "Czech": 2387, 
  "Red": 2388, 
  "attractive": 2389, 
  "sides": 2390, 
  "advice": 2391, 
  "lies": 2392, 
  "meaningfully": 2393, 
  "spirit": 2394, 
  "tourist": 2395, 
  "servers": 2396, 
  "Luggage": 2397, 
  "ana": 2398, 
  "Member": 2399, 
  "scientists": 2400, 
  "returned": 2401, 
  "demands": 2402, 
  "-f@@": 2403, 
  "Yes": 2404, 
  "á@@": 2405, 
  "wall": 2406, 
  "Islamic": 2407, 
  "pro@@": 2408, 
  "easier": 2409, 
  "obtain": 2410, 
  "moved": 2411, 
  "ethnic": 2412, 
  "ology": 2413, 
  "orders": 2414, 
  "0@@": 2415, 
  "у@@": 2416, 
  "relatively": 2417, 
  "H": 2418, 
  "master": 2419, 
  "desire": 2420, 
  "title": 2421, 
  "au": 2422, 
  "grammatically": 2423, 
  "spaces": 2424, 
  "plus": 2425, 
  "conduct": 2426, 
  "Grand": 2427, 
  "mon@@": 2428, 
  "earth": 2429, 
  "Washington": 2430, 
  "deposit": 2431, 
  "Bulgaria": 2432, 
  "contextually": 2433, 
  "advance": 2434, 
  "older": 2435, 
  "Debian": 2436, 
  "par@@": 2437, 
  "CIS": 2438, 
  "http": 2439, 
  "dollar": 2440, 
  "vision": 2441, 
  "feeling": 2442, 
  "expensive": 2443, 
  "terrorism": 2444, 
  "speaking": 2445, 
  "Egypt": 2446, 
  "expansion": 2447, 
  "000": 2448, 
  "ay@@": 2449, 
  "Foreign": 2450, 
  "recommendations": 2451, 
  "peaceful": 2452, 
  "instruments": 2453, 
  "Bar@@": 2454, 
  "ended": 2455, 
  "Rome": 2456, 
  "branch": 2457, 
  "tradition": 2458, 
  "he@@": 2459, 
  "affected": 2460, 
  "wife": 2461, 
  "partnership": 2462, 
  "journalists": 2463, 
  "Elevator": 2464, 
  "Square": 2465, 
  "im": 2466, 
  "ance": 2467, 
  "log": 2468, 
  "rent": 2469, 
  "firms": 2470, 
  "presentation": 2471, 
  "com@@": 2472, 
  "virtual": 2473, 
  "delivered": 2474, 
  "faith": 2475, 
  "improving": 2476, 
  "animals": 2477, 
  "print": 2478, 
  "victims": 2479, 
  "displayed": 2480, 
  "certificate": 2481, 
  "sex": 2482, 
  "consumers": 2483, 
  "trial": 2484, 
  "finished": 2485, 
  "item": 2486, 
  "i.e.": 2487, 
  "1998": 2488, 
  "initiative": 2489, 
  "Program": 2490, 
  "Congress": 2491, 
  "ov@@": 2492, 
  "Americans": 2493, 
  "gets": 2494, 
  "dynamic": 2495, 
  "School": 2496, 
  "typical": 2497, 
  "connect": 2498, 
  "channel": 2499, 
  "confidence": 2500, 
  "0.@@": 2501, 
  "heavy": 2502, 
  "whatever": 2503, 
  "man@@": 2504, 
  "consideration": 2505, 
  "Kiev": 2506, 
  "dangerous": 2507, 
  "manager": 2508, 
  "ile": 2509, 
  "spa": 2510, 
  "32": 2511, 
  "ru@@": 2512, 
  "represented": 2513, 
  "hall": 2514, 
  "provision": 2515, 
  "effectively": 2516, 
  "customs": 2517, 
  "King": 2518, 
  "extensive": 2519, 
  "iv@@": 2520, 
  "expert": 2521, 
  "lose": 2522, 
  "factor": 2523, 
  "lo@@": 2524, 
  "under@@": 2525, 
  "seek": 2526, 
  "driver": 2527, 
  "owners": 2528, 
  "browser": 2529, 
  "fill": 2530, 
  "existence": 2531, 
  "te@@": 2532, 
  "proper": 2533, 
  "е": 2534, 
  "died": 2535, 
  "allowing": 2536, 
  "ant@@": 2537, 
  "eight": 2538, 
  "ators": 2539, 
  "prevention": 2540, 
  "factory": 2541, 
  "What": 2542, 
  "rising": 2543, 
  "ica": 2544, 
  "match": 2545, 
  "elegant": 2546, 
  "soft": 2547, 
  "Parliament": 2548, 
  "automatic": 2549, 
  "Spanish": 2550, 
  "minute": 2551, 
  "reporting": 2552, 
  "ens": 2553, 
  "ish": 2554, 
  "African": 2555, 
  "Executive": 2556, 
  "previously": 2557, 
  "justice": 2558, 
  "courses": 2559, 
  "A.": 2560, 
  "mail": 2561, 
  "examples": 2562, 
  "transactions": 2563, 
  "keeping": 2564, 
  "identify": 2565, 
  "defense": 2566, 
  "IC@@": 2567, 
  "showed": 2568, 
  "communications": 2569, 
  "significantly": 2570, 
  "corruption": 2571, 
  "friend": 2572, 
  "contemporary": 2573, 
  "W": 2574, 
  "funding": 2575, 
  "du": 2576, 
  "knew": 2577, 
  "oc@@": 2578, 
  "assessment": 2579, 
  "chief": 2580, 
  "™": 2581, 
  "ik@@": 2582, 
  "launch": 2583, 
  "struggle": 2584, 
  "Manager": 2585, 
  "component": 2586, 
  "Express": 2587, 
  "qualified": 2588, 
  "folder": 2589, 
  "informed": 2590, 
  "constantly": 2591, 
  "tons": 2592, 
  "drugs": 2593, 
  "La": 2594, 
  "ence": 2595, 
  "capable": 2596, 
  "well-@@": 2597, 
  "discuss": 2598, 
  "matters": 2599, 
  "monetary": 2600, 
  "widely": 2601, 
  "mo@@": 2602, 
  "arms": 2603, 
  "IMF": 2604, 
  "multi-@@": 2605, 
  "decide": 2606, 
  "increases": 2607, 
  "secret": 2608, 
  "sort": 2609, 
  "interior": 2610, 
  "Inter@@": 2611, 
  "ev@@": 2612, 
  "Alexander": 2613, 
  "supporting": 2614, 
  "furnished": 2615, 
  "specialized": 2616, 
  "formation": 2617, 
  "der@@": 2618, 
  "behavior": 2619, 
  "raised": 2620, 
  "ah": 2621, 
  "route": 2622, 
  "obtained": 2623, 
  "classes": 2624, 
  "sexual": 2625, 
  "ter": 2626, 
  "arrival": 2627, 
  "federal": 2628, 
  "Ironing": 2629, 
  "booking": 2630, 
  "Street": 2631, 
  "vehicles": 2632, 
  "на": 2633, 
  "Canada": 2634, 
  "student": 2635, 
  "minister": 2636, 
  "fee": 2637, 
  "touch": 2638, 
  "taxes": 2639, 
  "ou@@": 2640, 
  "religion": 2641, 
  "directory": 2642, 
  "decade": 2643, 
  "taste": 2644, 
  "si@@": 2645, 
  "manufacturers": 2646, 
  "represent": 2647, 
  "ai": 2648, 
  "deliver": 2649, 
  "healthy": 2650, 
  "smaller": 2651, 
  "block": 2652, 
  "ee": 2653, 
  "euro": 2654, 
  "channels": 2655, 
  "Car": 2656, 
  "strategies": 2657, 
  "tea": 2658, 
  "concrete": 2659, 
  "library": 2660, 
  "ч@@": 2661, 
  "к@@": 2662, 
  "blue": 2663, 
  "facing": 2664, 
  "cells": 2665, 
  "Policy": 2666, 
  "First": 2667, 
  "enables": 2668, 
  "artists": 2669, 
  "Photocopying": 2670, 
  "speech": 2671, 
  "Old": 2672, 
  "membership": 2673, 
  "aircraft": 2674, 
  "Private": 2675, 
  "intellectual": 2676, 
  "Chairman": 2677, 
  "element": 2678, 
  "teachers": 2679, 
  "Dry": 2680, 
  "industries": 2681, 
  "hit": 2682, 
  "car@@": 2683, 
  "universal": 2684, 
  "TO": 2685, 
  "ver@@": 2686, 
  "figures": 2687, 
  "wrote": 2688, 
  "statements": 2689, 
  "prepare": 2690, 
  "shape": 2691, 
  "ry": 2692, 
  "innovation": 2693, 
  "bottom": 2694, 
  "Rental": 2695, 
  "San": 2696, 
  "Pakistan": 2697, 
  "dialogue": 2698, 
  "elected": 2699, 
  "estimated": 2700, 
  "desk": 2701, 
  "ES": 2702, 
  "Software": 2703, 
  "solve": 2704, 
  "з@@": 2705, 
  "south": 2706, 
  "ative": 2707, 
  "audience": 2708, 
  "Wi-Fi": 2709, 
  "Tour": 2710, 
  "ins": 2711, 
  "greatest": 2712, 
  "bath": 2713, 
  "ne@@": 2714, 
  "load": 2715, 
  "cycle": 2716, 
  "Palestinian": 2717, 
  "sufficient": 2718, 
  "techniques": 2719, 
  "presidential": 2720, 
  "race": 2721, 
  "waste": 2722, 
  "comments": 2723, 
  "represents": 2724, 
  "register": 2725, 
  "ce": 2726, 
  "limits": 2727, 
  "birth": 2728, 
  "3.@@": 2729, 
  "Israeli": 2730, 
  "labour": 2731, 
  "museum": 2732, 
  "causes": 2733, 
  "li@@": 2734, 
  "promotion": 2735, 
  "and@@": 2736, 
  "looked": 2737, 
  "Code": 2738, 
  "windows": 2739, 
  "managers": 2740, 
  "David": 2741, 
  "Greek": 2742, 
  "1990": 2743, 
  "contacts": 2744, 
  "obvious": 2745, 
  "drink": 2746, 
  "hundred": 2747, 
  "ars": 2748, 
  "England": 2749, 
  "ahead": 2750, 
  "tree": 2751, 
  "spring": 2752, 
  "teaching": 2753, 
  "ti@@": 2754, 
  "linked": 2755, 
  "import": 2756, 
  "As": 2757, 
  "heating": 2758, 
  "railway": 2759, 
  "ist@@": 2760, 
  "ary": 2761, 
  "awarded": 2762, 
  "contribute": 2763, 
  "l&apos;@@": 2764, 
  "so-called": 2765, 
  "Th@@": 2766, 
  "ma": 2767, 
  "Trade": 2768, 
  "settlement": 2769, 
  "rapid": 2770, 
  "ha": 2771, 
  "objectives": 2772, 
  "couple": 2773, 
  "requests": 2774, 
  "em": 2775, 
  "Un@@": 2776, 
  "Cor@@": 2777, 
  "Berlin": 2778, 
  "measure": 2779, 
  "immediate": 2780, 
  "producing": 2781, 
  "index": 2782, 
  "controlled": 2783, 
  "advantages": 2784, 
  "@": 2785, 
  "relax": 2786, 
  "Air": 2787, 
  "learned": 2788, 
  "cell": 2789, 
  "Station": 2790, 
  "knows": 2791, 
  "exercise": 2792, 
  "developments": 2793, 
  "focused": 2794, 
  "Year": 2795, 
  "quick": 2796, 
  "politicians": 2797, 
  "identity": 2798, 
  "cleaning": 2799, 
  "lived": 2800, 
  "emissions": 2801, 
  "Jews": 2802, 
  "Energy": 2803, 
  "K": 2804, 
  "instructions": 2805, 
  "men@@": 2806, 
  "patient": 2807, 
  "e.g.": 2808, 
  "differences": 2809, 
  "Mr": 2810, 
  "draft": 2811, 
  "investigation": 2812, 
  "carrying": 2813, 
  "fun": 2814, 
  "regulation": 2815, 
  "doubt": 2816, 
  "agenda": 2817, 
  "updated": 2818, 
  "seemed": 2819, 
  "selling": 2820, 
  "decline": 2821, 
  "reasonable": 2822, 
  "candidates": 2823, 
  "in-@@": 2824, 
  "JSC": 2825, 
  "saving": 2826, 
  "Palace": 2827, 
  "eg@@": 2828, 
  "rating": 2829, 
  "io": 2830, 
  "tests": 2831, 
  "leaving": 2832, 
  "wealth": 2833, 
  "Brazil": 2834, 
  "ale": 2835, 
  "marked": 2836, 
  "compliance": 2837, 
  "panel": 2838, 
  "weather": 2839, 
  "receiving": 2840, 
  "tourism": 2841, 
  "statistics": 2842, 
  "walls": 2843, 
  "के": 2844, 
  "vast": 2845, 
  "í@@": 2846, 
  "operate": 2847, 
  "Is": 2848, 
  "draw": 2849, 
  "ep@@": 2850, 
  "forum": 2851, 
  "corresponding": 2852, 
  "moral": 2853, 
  "destination": 2854, 
  "audio": 2855, 
  "officers": 2856, 
  "eye": 2857, 
  "Mexico": 2858, 
  "Garden": 2859, 
  "1997": 2860, 
  "union": 2861, 
  "layer": 2862, 
  "ensuring": 2863, 
  "dark": 2864, 
  "introduction": 2865, 
  "ich": 2866, 
  "serves": 2867, 
  "Kyiv": 2868, 
  "rural": 2869, 
  "recognition": 2870, 
  "comparison": 2871, 
  "mechanism": 2872, 
  "high-@@": 2873, 
  "buffet": 2874, 
  "stored": 2875, 
  "characteristics": 2876, 
  "co-@@": 2877, 
  "д@@": 2878, 
  "gone": 2879, 
  "ise": 2880, 
  "т@@": 2881, 
  "DVD": 2882, 
  "mechanisms": 2883, 
  "obligations": 2884, 
  "affect": 2885, 
  "waiting": 2886, 
  "OR": 2887, 
  "strengthen": 2888, 
  "400": 2889, 
  "н@@": 2890, 
  "Polish": 2891, 
  "raw": 2892, 
  "declared": 2893, 
  "considerable": 2894, 
  "Region": 2895, 
  "faster": 2896, 
  "Social": 2897, 
  "trees": 2898, 
  "Education": 2899, 
  "loans": 2900, 
  "expression": 2901, 
  "scope": 2902, 
  "fund": 2903, 
  "dead": 2904, 
  "eventually": 2905, 
  "sk@@": 2906, 
  "broad": 2907, 
  "engaged": 2908, 
  "res@@": 2909, 
  "piece": 2910, 
  "expand": 2911, 
  "Spa": 2912, 
  "executive": 2913, 
  "appointed": 2914, 
  "joined": 2915, 
  "Secretary": 2916, 
  "charges": 2917, 
  "o-@@": 2918, 
  "entertainment": 2919, 
  "trends": 2920, 
  "define": 2921, 
  "recognize": 2922, 
  "profile": 2923, 
  "на@@": 2924, 
  "developers": 2925, 
  "reducing": 2926, 
  "constant": 2927, 
  "resulting": 2928, 
  "specify": 2929, 
  "cor@@": 2930, 
  "Muslim": 2931, 
  "occur": 2932, 
  "residence": 2933, 
  "anniversary": 2934, 
  "massive": 2935, 
  "si": 2936, 
  "Research": 2937, 
  "People": 2938, 
  "contracts": 2939, 
  "producers": 2940, 
  "categories": 2941, 
  "worse": 2942, 
  "м": 2943, 
  "victory": 2944, 
  "sharing": 2945, 
  "ge": 2946, 
  "absolutely": 2947, 
  "mountains": 2948, 
  "connections": 2949, 
  "ni@@": 2950, 
  "Car@@": 2951, 
  "crime": 2952, 
  "university": 2953, 
  "az@@": 2954, 
  "prison": 2955, 
  "ING": 2956, 
  "transition": 2957, 
  "granted": 2958, 
  "possibilities": 2959, 
  "phase": 2960, 
  "Belarusian": 2961, 
  "accounting": 2962, 
  "appearance": 2963, 
  "truly": 2964, 
  "Art": 2965, 
  "ourselves": 2966, 
  "150": 2967, 
  "ev": 2968, 
  "do@@": 2969, 
  "proved": 2970, 
  "records": 2971, 
  "gl@@": 2972, 
  "revolution": 2973, 
  "largely": 2974, 
  "sk": 2975, 
  "girls": 2976, 
  "ordinary": 2977, 
  "streets": 2978, 
  "native": 2979, 
  "Bel@@": 2980, 
  "actively": 2981, 
  "centuries": 2982, 
  "Head": 2983, 
  "collective": 2984, 
  "properly": 2985, 
  "ard": 2986, 
  "recorded": 2987, 
  "assist": 2988, 
  "ton": 2989, 
  "newspaper": 2990, 
  "myself": 2991, 
  "rapidly": 2992, 
  "productivity": 2993, 
  "AT@@": 2994, 
  "input": 2995, 
  "extended": 2996, 
  "Special": 2997, 
  "accessible": 2998, 
  "documentation": 2999, 
  "ing-@@": 3000, 
  "stars": 3001, 
  "Baltic": 3002, 
  "dinner": 3003, 
  "non@@": 3004, 
  "ST@@": 3005, 
  "none": 3006, 
  "exports": 3007, 
  "River": 3008, 
  "Children": 3009, 
  "western": 3010, 
  "starts": 3011, 
  "supplies": 3012, 
  "adults": 3013, 
  "divided": 3014, 
  "losses": 3015, 
  "removed": 3016, 
  "forget": 3017, 
  "encourage": 3018, 
  "fighting": 3019, 
  "ID": 3020, 
  "enabled": 3021, 
  "willing": 3022, 
  "camera": 3023, 
  "Indian": 3024, 
  "standing": 3025, 
  "contrast": 3026, 
  "explain": 3027, 
  "Parties": 3028, 
  "heads": 3029, 
  "unemployment": 3030, 
  "bright": 3031, 
  "Best": 3032, 
  "attractions": 3033, 
  "senior": 3034, 
  "sport": 3035, 
  "realize": 3036, 
  "detail": 3037, 
  "electricity": 3038, 
  "temporary": 3039, 
  "sum": 3040, 
  "d&apos;@@": 3041, 
  "ul": 3042, 
  "manufacture": 3043, 
  "15@@": 3044, 
  "blog": 3045, 
  "foundation": 3046, 
  "st": 3047, 
  "stands": 3048, 
  "containing": 3049, 
  "retail": 3050, 
  "Sch@@": 3051, 
  "conditioning": 3052, 
  "Programme": 3053, 
  "follows": 3054, 
  "carefully": 3055, 
  "newly": 3056, 
  "Network": 3057, 
  "ser@@": 3058, 
  "Corporation": 3059, 
  "du@@": 3060, 
  "75": 3061, 
  "pain": 3062, 
  "IS": 3063, 
  "bar@@": 3064, 
  "thank": 3065, 
  "High": 3066, 
  "identified": 3067, 
  "we@@": 3068, 
  "resistance": 3069, 
  "seeking": 3070, 
  "coast": 3071, 
  "flexible": 3072, 
  "°": 3073, 
  "filled": 3074, 
  "prove": 3075, 
  "traditions": 3076, 
  "USSR": 3077, 
  "pleasure": 3078, 
  "contribution": 3079, 
  "George": 3080, 
  "Be@@": 3081, 
  "а@@": 3082, 
  "izing": 3083, 
  "invited": 3084, 
  "eat": 3085, 
  "ding": 3086, 
  "doctor": 3087, 
  "Control": 3088, 
  "min@@": 3089, 
  "wait": 3090, 
  "governance": 3091, 
  "happens": 3092, 
  "facility": 3093, 
  "emergency": 3094, 
  "bedroom": 3095, 
  "ize": 3096, 
  "opposite": 3097, 
  "onto": 3098, 
  "so@@": 3099, 
  "SQL": 3100, 
  "talks": 3101, 
  "maybe": 3102, 
  "surrounded": 3103, 
  "illegal": 3104, 
  "weak": 3105, 
  "Mon@@": 3106, 
  "paragraph": 3107, 
  "expertise": 3108, 
  "characters": 3109, 
  "collaboration": 3110, 
  "peoples": 3111, 
  "transmission": 3112, 
  "Paul": 3113, 
  "ex": 3114, 
  "therapy": 3115, 
  "AR@@": 3116, 
  "ge@@": 3117, 
  "addresses": 3118, 
  "relative": 3119, 
  "promoting": 3120, 
  "confirmed": 3121, 
  "southern": 3122, 
  "theme": 3123, 
  "votes": 3124, 
  "grounds": 3125, 
  "controls": 3126, 
  "signal": 3127, 
  "creates": 3128, 
  "ER": 3129, 
  "slow": 3130, 
  "closely": 3131, 
  "interview": 3132, 
  "outdoor": 3133, 
  "career": 3134, 
  "festival": 3135, 
  "Affairs": 3136, 
  "situations": 3137, 
  "frequently": 3138, 
  "adding": 3139, 
  "rental": 3140, 
  "ents": 3141, 
  "Kremlin": 3142, 
  "ро@@": 3143, 
  "Dr.": 3144, 
  "Australia": 3145, 
  "execution": 3146, 
  "Islam": 3147, 
  "leads": 3148, 
  "valid": 3149, 
  "debate": 3150, 
  "ny": 3151, 
  "north": 3152, 
  "dry": 3153, 
  "troops": 3154, 
  "mer@@": 3155, 
  "и@@": 3156, 
  "chain": 3157, 
  "unable": 3158, 
  "root": 3159, 
  "borders": 3160, 
  "entirely": 3161, 
  "latter": 3162, 
  "ps": 3163, 
  "meant": 3164, 
  "unlike": 3165, 
  "inform": 3166, 
  "finding": 3167, 
  "mutual": 3168, 
  "sch@@": 3169, 
  "association": 3170, 
  "bi@@": 3171, 
  "De@@": 3172, 
  "El@@": 3173, 
  "ik": 3174, 
  "agriculture": 3175, 
  "Do": 3176, 
  "adequate": 3177, 
  "pe@@": 3178, 
  "commission": 3179, 
  "sleep": 3180, 
  "experiences": 3181, 
  "monitor": 3182, 
  "ling": 3183, 
  "expenses": 3184, 
  "discovered": 3185, 
  "evaluation": 3186, 
  "usual": 3187, 
  "apart": 3188, 
  "la@@": 3189, 
  "saved": 3190, 
  "dialog": 3191, 
  "medium": 3192, 
  "strengthening": 3193, 
  "planet": 3194, 
  "vital": 3195, 
  "treated": 3196, 
  "arrived": 3197, 
  "ot": 3198, 
  "Newspapers": 3199, 
  "rock": 3200, 
  "nevertheless": 3201, 
  "discover": 3202, 
  "Com@@": 3203, 
  "absence": 3204, 
  "Design": 3205, 
  "cutting": 3206, 
  "ast@@": 3207, 
  "origin": 3208, 
  "sw@@": 3209, 
  "Beach": 3210, 
  "за@@": 3211, 
  "contained": 3212, 
  "1,@@": 3213, 
  "artist": 3214, 
  "ho@@": 3215, 
  "ping": 3216, 
  "primarily": 3217, 
  "courts": 3218, 
  "plastic": 3219, 
  "soul": 3220, 
  "dishes": 3221, 
  "runs": 3222, 
  "reserve": 3223, 
  "mat@@": 3224, 
  "fruit": 3225, 
  "branches": 3226, 
  "trend": 3227, 
  "tennis": 3228, 
  "urban": 3229, 
  "repair": 3230, 
  "specifically": 3231, 
  "awareness": 3232, 
  "ur": 3233, 
  "pieces": 3234, 
  "express": 3235, 
  "corner": 3236, 
  "printing": 3237, 
  "one-@@": 3238, 
  "IS@@": 3239, 
  "iz@@": 3240, 
  "residents": 3241, 
  "colors": 3242, 
  "institution": 3243, 
  "threats": 3244, 
  "fit": 3245, 
  "institutional": 3246, 
  "switch": 3247, 
  "usage": 3248, 
  "definition": 3249, 
  "valuable": 3250, 
  "deals": 3251, 
  "cheap": 3252, 
  "dealing": 3253, 
  "Access": 3254, 
  "Russians": 3255, 
  "lists": 3256, 
  "entitled": 3257, 
  "tables": 3258, 
  "reservation": 3259, 
  "There": 3260, 
  "feet": 3261, 
  "ash@@": 3262, 
  "lots": 3263, 
  "\\@@": 3264, 
  "ised": 3265, 
  "closer": 3266, 
  "ities": 3267, 
  "foot": 3268, 
  "com": 3269, 
  "ou": 3270, 
  "residential": 3271, 
  "helping": 3272, 
  "Regional": 3273, 
  "wind": 3274, 
  "sa": 3275, 
  "operational": 3276, 
  "extreme": 3277, 
  "fell": 3278, 
  "yang": 3279, 
  "Currency": 3280, 
  "ships": 3281, 
  "amounts": 3282, 
  "alization": 3283, 
  "Deputy": 3284, 
  "terrorist": 3285, 
  "provider": 3286, 
  "Banquet": 3287, 
  "believed": 3288, 
  "girl": 3289, 
  "я": 3290, 
  "initiatives": 3291, 
  "driving": 3292, 
  "й": 3293, 
  "transaction": 3294, 
  "Power": 3295, 
  "proposals": 3296, 
  "ms": 3297, 
  "eb@@": 3298, 
  "outstanding": 3299, 
  "Guests": 3300, 
  "Area": 3301, 
  "bars": 3302, 
  "talking": 3303, 
  "expectations": 3304, 
  "v": 3305, 
  "Cleaning": 3306, 
  "Roman": 3307, 
  "crimes": 3308, 
  "functionality": 3309, 
  "1995": 3310, 
  "Par@@": 3311, 
  "capabilities": 3312, 
  "visiting": 3313, 
  "1996": 3314, 
  "shift": 3315, 
  "dream": 3316, 
  "publication": 3317, 
  "participated": 3318, 
  "applicable": 3319, 
  "criteria": 3320, 
  "indicated": 3321, 
  "Disabled": 3322, 
  "fans": 3323, 
  "transferred": 3324, 
  "Ver@@": 3325, 
  "я@@": 3326, 
  "ini": 3327, 
  "dec@@": 3328, 
  "den": 3329, 
  "signs": 3330, 
  "module": 3331, 
  "tourists": 3332, 
  "severe": 3333, 
  "frame": 3334, 
  "fitness": 3335, 
  "calling": 3336, 
  "regularly": 3337, 
  "imagine": 3338, 
  "prime": 3339, 
  "enhance": 3340, 
  "ino": 3341, 
  "realized": 3342, 
  "listen": 3343, 
  "cur@@": 3344, 
  "1st": 3345, 
  "instrument": 3346, 
  "More": 3347, 
  "script": 3348, 
  "bringing": 3349, 
  "ses": 3350, 
  "magazine": 3351, 
  "implementing": 3352, 
  "12@@": 3353, 
  "survey": 3354, 
  "Man@@": 3355, 
  "ring": 3356, 
  "er-@@": 3357, 
  "teams": 3358, 
  "surrounding": 3359, 
  "Ab@@": 3360, 
  "soldiers": 3361, 
  "13@@": 3362, 
  "ner": 3363, 
  "understood": 3364, 
  "contents": 3365, 
  "securities": 3366, 
  "nine": 3367, 
  "fourth": 3368, 
  "notes": 3369, 
  "destruction": 3370, 
  "exists": 3371, 
  "ED": 3372, 
  "ko": 3373, 
  "t-@@": 3374, 
  "continuing": 3375, 
  "battle": 3376, 
  "brings": 3377, 
  "acting": 3378, 
  "Family": 3379, 
  "owned": 3380, 
  "operator": 3381, 
  "upgrade": 3382, 
  "dan": 3383, 
  "gender": 3384, 
  "reflect": 3385, 
  "underground": 3386, 
  "solid": 3387, 
  "Time": 3388, 
  "structural": 3389, 
  "all@@": 3390, 
  "alized": 3391, 
  "ci@@": 3392, 
  "kan": 3393, 
  "brain": 3394, 
  "generated": 3395, 
  "ill@@": 3396, 
  "well-known": 3397, 
  "restrictions": 3398, 
  "faced": 3399, 
  "Holy": 3400, 
  "gained": 3401, 
  "tab": 3402, 
  "ol": 3403, 
  "female": 3404, 
  "conferences": 3405, 
  "directed": 3406, 
  "ja": 3407, 
  "northern": 3408, 
  "-L@@": 3409, 
  "..": 3410, 
  "discrimination": 3411, 
  "Science": 3412, 
  "Ltd": 3413, 
  "drivers": 3414, 
  "Mediterranean": 3415, 
  "considering": 3416, 
  "attitude": 3417, 
  "rec@@": 3418, 
  "requested": 3419, 
  "When": 3420, 
  "establishing": 3421, 
  "decorated": 3422, 
  "classic": 3423, 
  "RO@@": 3424, 
  "air@@": 3425, 
  "Mal@@": 3426, 
  "noise": 3427, 
  "Open": 3428, 
  "approval": 3429, 
  "33": 3430, 
  "committee": 3431, 
  "Georgian": 3432, 
  "drop": 3433, 
  "regulatory": 3434, 
  "s.@@": 3435, 
  "Constitution": 3436, 
  "ess": 3437, 
  "Suite": 3438, 
  "homes": 3439, 
  "Peter": 3440, 
  "conflicts": 3441, 
  "updates": 3442, 
  "guarantees": 3443, 
  "distributed": 3444, 
  "conclusion": 3445, 
  "ants": 3446, 
  "ement": 3447, 
  "entities": 3448, 
  "Life": 3449, 
  "explained": 3450, 
  "ering": 3451, 
  "candidate": 3452, 
  "managing": 3453, 
  "Administration": 3454, 
  "ISO": 3455, 
  "ко@@": 3456, 
  "har@@": 3457, 
  "Dis@@": 3458, 
  "devoted": 3459, 
  "ib@@": 3460, 
  "hospital": 3461, 
  "mental": 3462, 
  "е@@": 3463, 
  "organize": 3464, 
  "twice": 3465, 
  "lessons": 3466, 
  "og@@": 3467, 
  "4.@@": 3468, 
  "une": 3469, 
  "animal": 3470, 
  "20@@": 3471, 
  "ments": 3472, 
  "ful": 3473, 
  "intelligence": 3474, 
  "ang@@": 3475, 
  "Sunday": 3476, 
  "ten@@": 3477, 
  "loan": 3478, 
  "agents": 3479, 
  "und": 3480, 
  "aims": 3481, 
  "stores": 3482, 
  "ра@@": 3483, 
  "remaining": 3484, 
  "а": 3485, 
  "ownership": 3486, 
  "Protection": 3487, 
  "Finland": 3488, 
  "relation": 3489, 
  "proposal": 3490, 
  "bu@@": 3491, 
  "locations": 3492, 
  "che": 3493, 
  "enforcement": 3494, 
  "can@@": 3495, 
  "IP@@": 3496, 
  "flows": 3497, 
  "regardless": 3498, 
  "ke": 3499, 
  "af@@": 3500, 
  "discussions": 3501, 
  "functional": 3502, 
  "AL@@": 3503, 
  "ends": 3504, 
  "stages": 3505, 
  "ON": 3506, 
  "letters": 3507, 
  "For@@": 3508, 
  "drinks": 3509, 
  "baby": 3510, 
  "massage": 3511, 
  "bought": 3512, 
  "dining": 3513, 
  "AC@@": 3514, 
  "sur@@": 3515, 
  "34": 3516, 
  "ви@@": 3517, 
  "showing": 3518, 
  "del": 3519, 
  "raising": 3520, 
  "substantial": 3521, 
  "upper": 3522, 
  "enemy": 3523, 
  "ines": 3524, 
  "CO@@": 3525, 
  "IT@@": 3526, 
  "ered": 3527, 
  "Society": 3528, 
  "invest": 3529, 
  "discount": 3530, 
  "entrance": 3531, 
  "occurred": 3532, 
  "respond": 3533, 
  "attempts": 3534, 
  "suggested": 3535, 
  "ek@@": 3536, 
  "ung": 3537, 
  "non-smoking": 3538, 
  "р@@": 3539, 
  "UNESCO": 3540, 
  "realization": 3541, 
  "carbon": 3542, 
  "secondary": 3543, 
  "studio": 3544, 
  "dance": 3545, 
  "centres": 3546, 
  "Netherlands": 3547, 
  "effectiveness": 3548, 
  "nowadays": 3549, 
  "fail": 3550, 
  "humanitarian": 3551, 
  "ye": 3552, 
  "flat": 3553, 
  "appeal": 3554, 
  "buying": 3555, 
  "grew": 3556, 
  "holds": 3557, 
  "whereas": 3558, 
  "fishing": 3559, 
  "ud@@": 3560, 
  "Qu@@": 3561, 
  "14@@": 3562, 
  "ó@@": 3563, 
  "Ber@@": 3564, 
  "у": 3565, 
  "doors": 3566, 
  "manufacturer": 3567, 
  "Act": 3568, 
  "Lithuania": 3569, 
  "Bo@@": 3570, 
  "driven": 3571, 
  "suffering": 3572, 
  "ending": 3573, 
  "ler": 3574, 
  "del@@": 3575, 
  "literature": 3576, 
  "ж@@": 3577, 
  "rare": 3578, 
  "relationships": 3579, 
  "pretty": 3580, 
  "award": 3581, 
  "Plan": 3582, 
  "medicine": 3583, 
  "gift": 3584, 
  "yan": 3585, 
  "row": 3586, 
  "Q": 3587, 
  "merely": 3588, 
  "enko": 3589, 
  "ide": 3590, 
  "ova": 3591, 
  "2-@@": 3592, 
  "mar@@": 3593, 
  "bear": 3594, 
  "With": 3595, 
  "websites": 3596, 
  "suite": 3597, 
  "luxurious": 3598, 
  "fashion": 3599, 
  "US@@": 3600, 
  "IC": 3601, 
  "operators": 3602, 
  "mining": 3603, 
  "kernel": 3604, 
  "wh@@": 3605, 
  "Austria": 3606, 
  "end@@": 3607, 
  "invite": 3608, 
  "addressed": 3609, 
  "bo@@": 3610, 
  "custom": 3611, 
  "duty": 3612, 
  "collapse": 3613, 
  "Data": 3614, 
  "movie": 3615, 
  "AC": 3616, 
  "Financial": 3617, 
  "1991": 3618, 
  "colleagues": 3619, 
  "facts": 3620, 
  "asset": 3621, 
  "36": 3622, 
  "ties": 3623, 
  "è": 3624, 
  "Prague": 3625, 
  "ek": 3626, 
  "meanwhile": 3627, 
  "EC@@": 3628, 
  "approaches": 3629, 
  "indicators": 3630, 
  "holidays": 3631, 
  "м@@": 3632, 
  "introduce": 3633, 
  "generate": 3634, 
  "Radio": 3635, 
  "edge": 3636, 
  "furthermore": 3637, 
  "ut": 3638, 
  "crucial": 3639, 
  "topic": 3640, 
  "AD@@": 3641, 
  "hardly": 3642, 
  "sending": 3643, 
  "tra@@": 3644, 
  "cast": 3645, 
  "cancer": 3646, 
  "permission": 3647, 
  "answers": 3648, 
  "ang": 3649, 
  "me@@": 3650, 
  "replaced": 3651, 
  "б@@": 3652, 
  "begins": 3653, 
  "presents": 3654, 
  "bonds": 3655, 
  "extension": 3656, 
  "concert": 3657, 
  "ier": 3658, 
  "Child": 3659, 
  "Site": 3660, 
  "1992": 3661, 
  "covers": 3662, 
  "replace": 3663, 
  "Mor@@": 3664, 
  "outcome": 3665, 
  "phones": 3666, 
  "reliability": 3667, 
  "ect@@": 3668, 
  "mine": 3669, 
  "decrease": 3670, 
  "CH@@": 3671, 
  "suddenly": 3672, 
  "acquired": 3673, 
  "privacy": 3674, 
  "grown": 3675, 
  "й@@": 3676, 
  "priorities": 3677, 
  "sensitive": 3678, 
  "Lake": 3679, 
  "AS": 3680, 
  "shot": 3681, 
  "3-@@": 3682, 
  "headed": 3683, 
  "trained": 3684, 
  "Kh@@": 3685, 
  "post-@@": 3686, 
  "sections": 3687, 
  "za": 3688, 
  "SP@@": 3689, 
  "authors": 3690, 
  "agent": 3691, 
  "typically": 3692, 
  "ality": 3693, 
  "Up": 3694, 
  "height": 3695, 
  "arrested": 3696, 
  "subjects": 3697, 
  "ley": 3698, 
  "stopped": 3699, 
  "Protocol": 3700, 
  "ER@@": 3701, 
  "How": 3702, 
  "coverage": 3703, 
  "sitting": 3704, 
  "Se@@": 3705, 
  "division": 3706, 
  "colour": 3707, 
  "1-@@": 3708, 
  "terminal": 3709, 
  "frequency": 3710, 
  "800": 3711, 
  "lake": 3712, 
  "charming": 3713, 
  "facilitate": 3714, 
  "Sweden": 3715, 
  "perspective": 3716, 
  "depend": 3717, 
  "Saint": 3718, 
  "Technology": 3719, 
  "ore": 3720, 
  "modified": 3721, 
  "Royal": 3722, 
  "View": 3723, 
  "affairs": 3724, 
  "serving": 3725, 
  "thumbnail": 3726, 
  "possibly": 3727, 
  "5-@@": 3728, 
  "perfectly": 3729, 
  "Ad@@": 3730, 
  "ation@@": 3731, 
  "manual": 3732, 
  "ble": 3733, 
  "formal": 3734, 
  "everywhere": 3735, 
  "White": 3736, 
  "meat": 3737, 
  "Syria": 3738, 
  "Caucasus": 3739, 
  "ches": 3740, 
  "contrary": 3741, 
  "Orthodox": 3742, 
  "programming": 3743, 
  "ters": 3744, 
  "prefer": 3745, 
  "fees": 3746, 
  "her@@": 3747, 
  "Report": 3748, 
  "EN@@": 3749, 
  "Or@@": 3750, 
  "drawing": 3751, 
  "simultaneously": 3752, 
  "Supreme": 3753, 
  "Le@@": 3754, 
  "cre@@": 3755, 
  "visible": 3756, 
  "elite": 3757, 
  "paying": 3758, 
  "complicated": 3759, 
  "detention": 3760, 
  "indicate": 3761, 
  "authorized": 3762, 
  "Festival": 3763, 
  "600": 3764, 
  "до@@": 3765, 
  "sal@@": 3766, 
  "cargo": 3767, 
  "copies": 3768, 
  "lands": 3769, 
  "USB": 3770, 
  "restore": 3771, 
  "maintaining": 3772, 
  "configure": 3773, 
  "plays": 3774, 
  "tours": 3775, 
  "landscape": 3776, 
  "Switzerland": 3777, 
  "ational": 3778, 
  "respective": 3779, 
  "destroyed": 3780, 
  "1994": 3781, 
  "diplomatic": 3782, 
  "filter": 3783, 
  "ery": 3784, 
  "arts": 3785, 
  "relaxing": 3786, 
  "Di@@": 3787, 
  "hostels": 3788, 
  "continuous": 3789, 
  "collected": 3790, 
  "Treaty": 3791, 
  "95": 3792, 
  "danger": 3793, 
  "co": 3794, 
  "42": 3795, 
  "arrangements": 3796, 
  "putting": 3797, 
  "drawn": 3798, 
  "keys": 3799, 
  "Inn": 3800, 
  "seeing": 3801, 
  "JavaScript": 3802, 
  "reputation": 3803, 
  "visa": 3804, 
  "ball": 3805, 
  "accompanied": 3806, 
  "achievements": 3807, 
  "Our": 3808, 
  "universities": 3809, 
  "//www.@@": 3810, 
  "Media": 3811, 
  "obviously": 3812, 
  "chapter": 3813, 
  "ged": 3814, 
  "48": 3815, 
  "renovated": 3816, 
  "alism": 3817, 
  "leisure": 3818, 
  "guaranteed": 3819, 
  "AN@@": 3820, 
  "behalf": 3821, 
  "stress": 3822, 
  "br@@": 3823, 
  "parameter": 3824, 
  "ongoing": 3825, 
  "stronger": 3826, 
  "л@@": 3827, 
  "gradually": 3828, 
  "teacher": 3829, 
  "parliament": 3830, 
  "Kar@@": 3831, 
  "cross": 3832, 
  "ging": 3833, 
  "schedule": 3834, 
  "ey": 3835, 
  "directions": 3836, 
  "ded": 3837, 
  "refer": 3838, 
  "tested": 3839, 
  "quantity": 3840, 
  "ii": 3841, 
  "deposits": 3842, 
  "mention": 3843, 
  "clothes": 3844, 
  "ay": 3845, 
  "forth": 3846, 
  "amenities": 3847, 
  "composition": 3848, 
  "ö@@": 3849, 
  "pure": 3850, 
  "assembly": 3851, 
  "supposed": 3852, 
  "high-quality": 3853, 
  "ma@@": 3854, 
  "ads": 3855, 
  "suites": 3856, 
  "suppliers": 3857, 
  "movements": 3858, 
  "ta@@": 3859, 
  "inner": 3860, 
  "broken": 3861, 
  "miles": 3862, 
  "evil": 3863, 
  "shareholders": 3864, 
  "Ro@@": 3865, 
  "migration": 3866, 
  "pattern": 3867, 
  "consulting": 3868, 
  "equivalent": 3869, 
  "organisations": 3870, 
  "spot": 3871, 
  "copyright": 3872, 
  "hidden": 3873, 
  "stylish": 3874, 
  "roads": 3875, 
  "low-@@": 3876, 
  "exhibitions": 3877, 
  "proof": 3878, 
  "savings": 3879, 
  "38": 3880, 
  "mineral": 3881, 
  "difficulties": 3882, 
  "65": 3883, 
  "covering": 3884, 
  "ich@@": 3885, 
  "participating": 3886, 
  "Gentoo": 3887, 
  "ped": 3888, 
  "Norway": 3889, 
  "balcony": 3890, 
  "Sal@@": 3891, 
  "symbol": 3892, 
  "desktop": 3893, 
  "ve": 3894, 
  "Estonia": 3895, 
  "iron": 3896, 
  "revenue": 3897, 
  "ü@@": 3898, 
  "ty": 3899, 
  "scene": 3900, 
  "recording": 3901, 
  "targets": 3902, 
  "coordination": 3903, 
  "on-@@": 3904, 
  "wooden": 3905, 
  "republic": 3906, 
  "q@@": 3907, 
  "Min@@": 3908, 
  "ст@@": 3909, 
  "leaves": 3910, 
  "ren@@": 3911, 
  "Golf": 3912, 
  "ordered": 3913, 
  "entering": 3914, 
  "*@@": 3915, 
  "prospects": 3916, 
  "Minsk": 3917, 
  "observed": 3918, 
  "normally": 3919, 
  "i-@@": 3920, 
  "Her@@": 3921, 
  "ш@@": 3922, 
  "MS": 3923, 
  "1000": 3924, 
  "turning": 3925, 
  "contest": 3926, 
  "handling": 3927, 
  "combat": 3928, 
  "55": 3929, 
  "editor": 3930, 
  "-R@@": 3931, 
  "belief": 3932, 
  "impressive": 3933, 
  "micro@@": 3934, 
  "enc@@": 3935, 
  "wishes": 3936, 
  "des@@": 3937, 
  "Gu@@": 3938, 
  "ill": 3939, 
  "violations": 3940, 
  "executed": 3941, 
  "pa@@": 3942, 
  "Friday": 3943, 
  "engines": 3944, 
  "academic": 3945, 
  "consistent": 3946, 
  "spoke": 3947, 
  "Terrace": 3948, 
  "hor@@": 3949, 
  "att@@": 3950, 
  "thereby": 3951, 
  "treat": 3952, 
  "pleased": 3953, 
  "ns": 3954, 
  "assigned": 3955, 
  "films": 3956, 
  "supplied": 3957, 
  "totally": 3958, 
  "om": 3959, 
  "faces": 3960, 
  "passing": 3961, 
  "vulnerable": 3962, 
  "strongly": 3963, 
  "enormous": 3964, 
  "equity": 3965, 
  "ka@@": 3966, 
  "AM@@": 3967, 
  "ial": 3968, 
  "User": 3969, 
  "collect": 3970, 
  "ians": 3971, 
  "seconds": 3972, 
  "uk@@": 3973, 
  "everybody": 3974, 
  "Home": 3975, 
  "concluded": 3976, 
  "ro": 3977, 
  "Systems": 3978, 
  "kg": 3979, 
  "Exhibition": 3980, 
  "slightly": 3981, 
  "mid-@@": 3982, 
  "printed": 3983, 
  "doctors": 3984, 
  "icon": 3985, 
  "AS@@": 3986, 
  "ata": 3987, 
  "transparent": 3988, 
  "technique": 3989, 
  "Am@@": 3990, 
  "abuse": 3991, 
  "1993": 3992, 
  "summit": 3993, 
  "gu@@": 3994, 
  "Word": 3995, 
  "functioning": 3996, 
  "dog": 3997, 
  "territories": 3998, 
  "ological": 3999, 
  "intervention": 4000, 
  "ef@@": 4001, 
  "Christmas": 4002, 
  "Ireland": 4003, 
  "44": 4004, 
  "els": 4005, 
  "stories": 4006, 
  "turns": 4007, 
  "desired": 4008, 
  "warning": 4009, 
  "liability": 4010, 
  "ade": 4011, 
  "torture": 4012, 
  "naturally": 4013, 
  "describe": 4014, 
  "sanctions": 4015, 
  "wing": 4016, 
  "cm": 4017, 
  "Town": 4018, 
  "ah@@": 4019, 
  "football": 4020, 
  "societies": 4021, 
  "camp": 4022, 
  "But": 4023, 
  "premises": 4024, 
  "attended": 4025, 
  "familiar": 4026, 
  "ure": 4027, 
  "e.@@": 4028, 
  "equally": 4029, 
  "mal@@": 4030, 
  "errors": 4031, 
  "ty@@": 4032, 
  "reg@@": 4033, 
  "Sp@@": 4034, 
  "ind@@": 4035, 
  "explore": 4036, 
  "ceremony": 4037, 
  "manufactured": 4038, 
  "handle": 4039, 
  "disposal": 4040, 
  "III": 4041, 
  "ब@@": 4042, 
  "providers": 4043, 
  "periods": 4044, 
  "graphics": 4045, 
  "applicant": 4046, 
  "pol@@": 4047, 
  "studied": 4048, 
  "00@@": 4049, 
  "laid": 4050, 
  "deficit": 4051, 
  "resulted": 4052, 
  "ish@@": 4053, 
  "Kyrgyzstan": 4054, 
  "actors": 4055, 
  "Library": 4056, 
  "ously": 4057, 
  "skaya": 4058, 
  "unknown": 4059, 
  "Games": 4060, 
  "edition": 4061, 
  "pi@@": 4062, 
  "sounds": 4063, 
  "A-@@": 4064, 
  "wear": 4065, 
  "portfolio": 4066, 
  "red@@": 4067, 
  "productive": 4068, 
  "ran@@": 4069, 
  "widespread": 4070, 
  "Explorer": 4071, 
  "maintained": 4072, 
  "sel@@": 4073, 
  "monthly": 4074, 
  "eurozone": 4075, 
  "examination": 4076, 
  "seriously": 4077, 
  "ва@@": 4078, 
  "demonstrated": 4079, 
  "consciousness": 4080, 
  "bilateral": 4081, 
  "imposed": 4082, 
  "household": 4083, 
  "eastern": 4084, 
  "battery": 4085, 
  "winning": 4086, 
  "Ros@@": 4087, 
  "war@@": 4088, 
  "organisation": 4089, 
  "OSCE": 4090, 
  "elsewhere": 4091, 
  "Bulgarian": 4092, 
  "feed": 4093, 
  "Vienna": 4094, 
  "dates": 4095, 
  "ani@@": 4096, 
  "=": 4097, 
  "amazing": 4098, 
  "produces": 4099, 
  "с": 4100, 
  "transparency": 4101, 
  "exit": 4102, 
  "ste@@": 4103, 
  "constructed": 4104, 
  "Golden": 4105, 
  "farmers": 4106, 
  "Shop": 4107, 
  "V.": 4108, 
  "involving": 4109, 
  "milk": 4110, 
  "hal@@": 4111, 
  "tor@@": 4112, 
  "performing": 4113, 
  "virus": 4114, 
  "rem@@": 4115, 
  "è@@": 4116, 
  "relating": 4117, 
  "sessions": 4118, 
  "compatible": 4119, 
  "Resort": 4120, 
  "में": 4121, 
  "involvement": 4122, 
  "grant": 4123, 
  "preparing": 4124, 
  "overcome": 4125, 
  "cat@@": 4126, 
  "nobody": 4127, 
  "resolve": 4128, 
  "painting": 4129, 
  "attract": 4130, 
  "ger": 4131, 
  "winner": 4132, 
  "coal": 4133, 
  "personally": 4134, 
  "audit": 4135, 
  "A.@@": 4136, 
  "parliamentary": 4137, 
  "4-@@": 4138, 
  "Pol@@": 4139, 
  "kin": 4140, 
  "begun": 4141, 
  "ech@@": 4142, 
  "revenues": 4143, 
  "an-@@": 4144, 
  "bridge": 4145, 
  "absolute": 4146, 
  "revealed": 4147, 
  "ingly": 4148, 
  "Euro@@": 4149, 
  "Gay": 4150, 
  "ional": 4151, 
  "metro": 4152, 
  "remarkable": 4153, 
  "boot": 4154, 
  "boy": 4155, 
  "3D": 4156, 
  "consent": 4157, 
  "duties": 4158, 
  "NGOs": 4159, 
  "sought": 4160, 
  "म@@": 4161, 
  "Ne@@": 4162, 
  "про@@": 4163, 
  "aspect": 4164, 
  "ion-@@": 4165, 
  "reconstruction": 4166, 
  "daughter": 4167, 
  "bound": 4168, 
  "Finance": 4169, 
  "IM@@": 4170, 
  "brother": 4171, 
  "Amsterdam": 4172, 
  "motor": 4173, 
  "exception": 4174, 
  "east": 4175, 
  "precisely": 4176, 
  "art@@": 4177, 
  "accurate": 4178, 
  "comment": 4179, 
  "ratio": 4180, 
  "entity": 4181, 
  "tend": 4182, 
  "bill": 4183, 
  "mu@@": 4184, 
  "ug@@": 4185, 
  "Shuttle": 4186, 
  "virtually": 4187, 
  "proud": 4188, 
  "Action": 4189, 
  "rubles": 4190, 
  "believes": 4191, 
  "sit": 4192, 
  "purchased": 4193, 
  "practically": 4194, 
  "voters": 4195, 
  "casino": 4196, 
  "globalization": 4197, 
  "prisoners": 4198, 
  "Charles": 4199, 
  "ports": 4200, 
  "utility": 4201, 
  "communicate": 4202, 
  "sing": 4203, 
  "compensation": 4204, 
  "fer@@": 4205, 
  "Show": 4206, 
  "liberal": 4207, 
  "wars": 4208, 
  "pour": 4209, 
  "ре@@": 4210, 
  "backup": 4211, 
  "musical": 4212, 
  "ly@@": 4213, 
  "delete": 4214, 
  "necessity": 4215, 
  "boat": 4216, 
  "39": 4217, 
  "cosy": 4218, 
  "і": 4219, 
  "min": 4220, 
  "reaction": 4221, 
  "exciting": 4222, 
  "scheduled": 4223, 
  "wave": 4224, 
  "VI@@": 4225, 
  "displays": 4226, 
  "blocks": 4227, 
  "64": 4228, 
  "adult": 4229, 
  "Ser@@": 4230, 
  "producer": 4231, 
  "News": 4232, 
  "ль@@": 4233, 
  "37": 4234, 
  "philosophy": 4235, 
  "1.5": 4236, 
  "Northern": 4237, 
  "tickets": 4238, 
  "thermal": 4239, 
  "scheme": 4240, 
  "Master": 4241, 
  "Client": 4242, 
  "Civil": 4243, 
  "ultimately": 4244, 
  "Technical": 4245, 
  "Pool": 4246, 
  "of@@": 4247, 
  "arranged": 4248, 
  "aries": 4249, 
  "falling": 4250, 
  "sheet": 4251, 
  "во@@": 4252, 
  "П@@": 4253, 
  "silver": 4254, 
  "false": 4255, 
  "pr@@": 4256, 
  "ç@@": 4257, 
  "assume": 4258, 
  "5.@@": 4259, 
  "count": 4260, 
  "но@@": 4261, 
  "Tajikistan": 4262, 
  "ti": 4263, 
  "ily": 4264, 
  "pur@@": 4265, 
  "patterns": 4266, 
  "economics": 4267, 
  "west": 4268, 
  "guidance": 4269, 
  "vi@@": 4270, 
  "officially": 4271, 
  "applies": 4272, 
  "to-@@": 4273, 
  "Airconditioning": 4274, 
  "transfers": 4275, 
  "protocol": 4276, 
  "ip@@": 4277, 
  "combine": 4278, 
  "ticket": 4279, 
  "subsequent": 4280, 
  "pension": 4281, 
  "ada": 4282, 
  "ub@@": 4283, 
  "choosing": 4284, 
  "EL@@": 4285, 
  "if@@": 4286, 
  "Skype": 4287, 
  "tracks": 4288, 
  "representation": 4289, 
  "RA@@": 4290, 
  "owing": 4291, 
  "edit": 4292, 
  "ably": 4293, 
  "back@@": 4294, 
  "improvements": 4295, 
  "स@@": 4296, 
  "villages": 4297, 
  "marks": 4298, 
  "mel@@": 4299, 
  "Industry": 4300, 
  "humanity": 4301, 
  "returns": 4302, 
  "researchers": 4303, 
  "S-@@": 4304, 
  "Val@@": 4305, 
  "respectively": 4306, 
  "satisfy": 4307, 
  "farm": 4308, 
  "refused": 4309, 
  "delegation": 4310, 
  "fantastic": 4311, 
  "principal": 4312, 
  "Pl@@": 4313, 
  "missing": 4314, 
  "achieving": 4315, 
  "Sciences": 4316, 
  "male": 4317, 
  "hy@@": 4318, 
  "forests": 4319, 
  "beaches": 4320, 
  "seminar": 4321, 
  "anywhere": 4322, 
  "post@@": 4323, 
  "Co@@": 4324, 
  "column": 4325, 
  "guidelines": 4326, 
  "prize": 4327, 
  "floors": 4328, 
  "Muslims": 4329, 
  "sm@@": 4330, 
  "exact": 4331, 
  "estimates": 4332, 
  "res": 4333, 
  "interaction": 4334, 
  "Order": 4335, 
  "lunch": 4336, 
  "visual": 4337, 
  "marriage": 4338, 
  "Friendly": 4339, 
  "­@@": 4340, 
  "Tra@@": 4341, 
  "oriented": 4342, 
  "passenger": 4343, 
  "husband": 4344, 
  "lift": 4345, 
  "Riga": 4346, 
  "ez@@": 4347, 
  "similarly": 4348, 
  "trans@@": 4349, 
  "sight": 4350, 
  "appreciate": 4351, 
  "ruling": 4352, 
  "percentage": 4353, 
  "machinery": 4354, 
  "refugees": 4355, 
  "Sun": 4356, 
  "mouse": 4357, 
  "suit": 4358, 
  "recession": 4359, 
  "hire": 4360, 
  "laboratory": 4361, 
  "suggests": 4362, 
  "pick": 4363, 
  "Army": 4364, 
  "diverse": 4365, 
  "surprise": 4366, 
  "pipeline": 4367, 
  "Check-In": 4368, 
  "ious": 4369, 
  "ched": 4370, 
  "Michael": 4371, 
  "packaging": 4372, 
  "Market": 4373, 
  "seminars": 4374, 
  "ñ@@": 4375, 
  "ning": 4376, 
  "sophisticated": 4377, 
  "ran": 4378, 
  "attached": 4379, 
  "lobby": 4380, 
  "visits": 4381, 
  "Z": 4382, 
  "suffered": 4383, 
  "passengers": 4384, 
  "treaty": 4385, 
  "initially": 4386, 
  "associations": 4387, 
  "Ma@@": 4388, 
  "expanding": 4389, 
  "hence": 4390, 
  "claimed": 4391, 
  "stood": 4392, 
  "cool": 4393, 
  "asking": 4394, 
  "AL": 4395, 
  "clicking": 4396, 
  "District": 4397, 
  "biological": 4398, 
  "Beijing": 4399, 
  "Fl@@": 4400, 
  "navigation": 4401, 
  "seat": 4402, 
  "zero": 4403, 
  "golf": 4404, 
  "hand@@": 4405, 
  "liked": 4406, 
  "journey": 4407, 
  "Im@@": 4408, 
  "ен@@": 4409, 
  "occurs": 4410, 
  "lie": 4411, 
  "routes": 4412, 
  "straight": 4413, 
  "classical": 4414, 
  "uc@@": 4415, 
  "å@@": 4416, 
  "expanded": 4417, 
  "lovely": 4418, 
  "Latvian": 4419, 
  "two-@@": 4420, 
  "diversity": 4421, 
  "excessive": 4422, 
  "ders": 4423, 
  "Villa": 4424, 
  "250": 4425, 
  "Hong": 4426, 
  "tw@@": 4427, 
  "That": 4428, 
  "contributions": 4429, 
  "द@@": 4430, 
  "Europeans": 4431, 
  "Geneva": 4432, 
  "engage": 4433, 
  "Intel": 4434, 
  "Communist": 4435, 
  "Nokia": 4436, 
  "Bal@@": 4437, 
  "Cold": 4438, 
  "completion": 4439, 
  "extend": 4440, 
  "heritage": 4441, 
  "specialist": 4442, 
  "flowers": 4443, 
  "identification": 4444, 
  "brands": 4445, 
  "correctly": 4446, 
  "super@@": 4447, 
  "architectural": 4448, 
  "legislative": 4449, 
  "Mer@@": 4450, 
  "parallel": 4451, 
  "constitutional": 4452, 
  "departments": 4453, 
  "ching": 4454, 
  "Korean": 4455, 
  "opens": 4456, 
  "Apple": 4457, 
  "shuttle": 4458, 
  "Cal@@": 4459, 
  "profits": 4460, 
  "From": 4461, 
  "FOR": 4462, 
  "Justice": 4463, 
  "judicial": 4464, 
  "rat@@": 4465, 
  "Restaurant": 4466, 
  "De": 4467, 
  "Iranian": 4468, 
  "originally": 4469, 
  "interpretation": 4470, 
  "requirement": 4471, 
  "ny@@": 4472, 
  "trouble": 4473, 
  "flights": 4474, 
  "Father": 4475, 
  "sample": 4476, 
  "modules": 4477, 
  "whenever": 4478, 
  "reflects": 4479, 
  "20th": 4480, 
  "ently": 4481, 
  "alize": 4482, 
  "sa@@": 4483, 
  "lounge": 4484, 
  "Medical": 4485, 
  "removal": 4486, 
  "yesterday": 4487, 
  "specially": 4488, 
  "SC@@": 4489, 
  "taught": 4490, 
  "all-@@": 4491, 
  "soil": 4492, 
  "plane": 4493, 
  "certified": 4494, 
  "chairman": 4495, 
  "busy": 4496, 
  "disaster": 4497, 
  "everyday": 4498, 
  "reflected": 4499, 
  "rose": 4500, 
  "At": 4501, 
  "19th": 4502, 
  "thoughts": 4503, 
  "pers": 4504, 
  "EN": 4505, 
  "ed-@@": 4506, 
  "aged": 4507, 
  "work@@": 4508, 
  "Java": 4509, 
  "1989": 4510, 
  "Professor": 4511, 
  "museums": 4512, 
  "transformation": 4513, 
  "intensive": 4514, 
  "string": 4515, 
  "St": 4516, 
  "towns": 4517, 
  "WHO": 4518, 
  "electrical": 4519, 
  "UAH": 4520, 
  "degrees": 4521, 
  "bet": 4522, 
  "त@@": 4523, 
  "burden": 4524, 
  "ue": 4525, 
  "m2": 4526, 
  "permit": 4527, 
  "certification": 4528, 
  "strange": 4529, 
  "AN": 4530, 
  "They": 4531, 
  "loved": 4532, 
  "finish": 4533, 
  "Table": 4534, 
  "drives": 4535, 
  "suffer": 4536, 
  "enjoyed": 4537, 
  "plenty": 4538, 
  "searching": 4539, 
  "superior": 4540, 
  "San@@": 4541, 
  "Declaration": 4542, 
  "Mobile": 4543, 
  "Har@@": 4544, 
  "inhabitants": 4545, 
  "revolutionary": 4546, 
  "go@@": 4547, 
  "supplier": 4548, 
  "ber": 4549, 
  "adoption": 4550, 
  "united": 4551, 
  "kids": 4552, 
  "wi@@": 4553, 
  "judge": 4554, 
  "sin@@": 4555, 
  "Standard": 4556, 
  "Hall": 4557, 
  "waters": 4558, 
  "lay": 4559, 
  "careful": 4560, 
  "Spirit": 4561, 
  "ara": 4562, 
  "Him": 4563, 
  "п@@": 4564, 
  "Capital": 4565, 
  "namely": 4566, 
  "volumes": 4567, 
  "flexibility": 4568, 
  "Kong": 4569, 
  "generations": 4570, 
  "optimal": 4571, 
  "istic": 4572, 
  "kill": 4573, 
  "Empire": 4574, 
  "Check-Out": 4575, 
  "publications": 4576, 
  "logical": 4577, 
  "wild": 4578, 
  "Su@@": 4579, 
  "Pacific": 4580, 
  "unlikely": 4581, 
  "Hungary": 4582, 
  "ising": 4583, 
  "formats": 4584, 
  "seats": 4585, 
  "graphic": 4586, 
  "Saudi": 4587, 
  "conventional": 4588, 
  "instantly": 4589, 
  "Chief": 4590, 
  "cont@@": 4591, 
  "argument": 4592, 
  "d-@@": 4593, 
  "bedrooms": 4594, 
  "ret@@": 4595, 
  "ry@@": 4596, 
  "topics": 4597, 
  "greatly": 4598, 
  "51": 4599, 
  "pan@@": 4600, 
  "electoral": 4601, 
  "push": 4602, 
  "dra@@": 4603, 
  "ecological": 4604, 
  "aya": 4605, 
  "unity": 4606, 
  "ively": 4607, 
  "designs": 4608, 
  "extraordinary": 4609, 
  "Ag@@": 4610, 
  "ko@@": 4611, 
  "bigger": 4612, 
  "С@@": 4613, 
  "arrive": 4614, 
  "proceedings": 4615, 
  "M.": 4616, 
  "pointed": 4617, 
  "Monday": 4618, 
  "the@@": 4619, 
  "glad": 4620, 
  "liquid": 4621, 
  "exposed": 4622, 
  "organic": 4623, 
  "worst": 4624, 
  "roof": 4625, 
  "concentration": 4626, 
  "120": 4627, 
  "Win@@": 4628, 
  "promised": 4629, 
  "2013": 4630, 
  "bonus": 4631, 
  "ash": 4632, 
  "calendar": 4633, 
  "inf@@": 4634, 
  "Euro": 4635, 
  "stayed": 4636, 
  "annually": 4637, 
  "exceptional": 4638, 
  "occupied": 4639, 
  "ther@@": 4640, 
  "hosting": 4641, 
  "vo@@": 4642, 
  "portal": 4643, 
  "ws": 4644, 
  "initiated": 4645, 
  "contributed": 4646, 
  "favor": 4647, 
  "Support": 4648, 
  "col@@": 4649, 
  "mix": 4650, 
  "definitely": 4651, 
  "gap": 4652, 
  "ac": 4653, 
  "41": 4654, 
  "то@@": 4655, 
  "targeted": 4656, 
  "ensures": 4657, 
  "relaxation": 4658, 
  "promise": 4659, 
  "Kosovo": 4660, 
  "duration": 4661, 
  "prosperity": 4662, 
  "solar": 4663, 
  "EM@@": 4664, 
  "publishing": 4665, 
  "bel@@": 4666, 
  "Pal@@": 4667, 
  "sharp": 4668, 
  "Customer": 4669, 
  "responsibilities": 4670, 
  "kov": 4671, 
  "fix": 4672, 
  "AM": 4673, 
  "lin@@": 4674, 
  "welfare": 4675, 
  "indoor": 4676, 
  "demonstrate": 4677, 
  "SE@@": 4678, 
  "ki": 4679, 
  "Flash": 4680, 
  "85": 4681, 
  "representing": 4682, 
  "evolution": 4683, 
  "destroy": 4684, 
  "ours": 4685, 
  "competent": 4686, 
  "Mac": 4687, 
  "EX@@": 4688, 
  "Revolution": 4689, 
  "theatre": 4690, 
  "employed": 4691, 
  "ow@@": 4692, 
  "relief": 4693, 
  "papers": 4694, 
  "eng@@": 4695, 
  "nearest": 4696, 
  "ites": 4697, 
  "lets": 4698, 
  "43": 4699, 
  "necessarily": 4700, 
  "poly@@": 4701, 
  "ी@@": 4702, 
  "mechanical": 4703, 
  "detained": 4704, 
  "pressing": 4705, 
  "treatments": 4706, 
  "purchasing": 4707, 
  "Hamas": 4708, 
  "Studio": 4709, 
  "permitted": 4710, 
  "boost": 4711, 
  "li": 4712, 
  "workshop": 4713, 
  "chair": 4714, 
  "2nd": 4715, 
  "sol@@": 4716, 
  "х": 4717, 
  "Section": 4718, 
  "applying": 4719, 
  "Card": 4720, 
  "equality": 4721, 
  "ick": 4722, 
  "व@@": 4723, 
  "dependent": 4724, 
  "AP@@": 4725, 
  "Online": 4726, 
  "artistic": 4727, 
  "sed": 4728, 
  "prestigious": 4729, 
  "scenario": 4730, 
  "ano": 4731, 
  "zones": 4732, 
  "Argentina": 4733, 
  "forming": 4734, 
  "र@@": 4735, 
  "wedding": 4736, 
  "deeply": 4737, 
  "Island": 4738, 
  "urgent": 4739, 
  "IF@@": 4740, 
  "empty": 4741, 
  "OK": 4742, 
  "departure": 4743, 
  "trips": 4744, 
  "ли@@": 4745, 
  "Be": 4746, 
  "Bi@@": 4747, 
  "convenience": 4748, 
  "ни@@": 4749, 
  "leather": 4750, 
  "ides": 4751, 
  "attend": 4752, 
  "Secretariat": 4753, 
  "proven": 4754, 
  "alcohol": 4755, 
  "tank": 4756, 
  "staying": 4757, 
  "Bashkortostan": 4758, 
  "relatives": 4759, 
  "addressing": 4760, 
  "ire": 4761, 
  "worry": 4762, 
  "surgery": 4763, 
  "Music": 4764, 
  "Women": 4765, 
  "magnificent": 4766, 
  "Man": 4767, 
  "Dutch": 4768, 
  "AT": 4769, 
  "tur@@": 4770, 
  "Sub@@": 4771, 
  "ats": 4772, 
  "partly": 4773, 
  "teach": 4774, 
  "enabling": 4775, 
  "leg@@": 4776, 
  "administrator": 4777, 
  "мо@@": 4778, 
  "ari@@": 4779, 
  "As@@": 4780, 
  "Cyprus": 4781, 
  "tim@@": 4782, 
  "Le": 4783, 
  "reaching": 4784, 
  "gains": 4785, 
  "gra@@": 4786, 
  "speakers": 4787, 
  "accessories": 4788, 
  "AR": 4789, 
  "ys": 4790, 
  "voting": 4791, 
  "picturesque": 4792, 
  "52": 4793, 
  "wheel": 4794, 
  "DNS": 4795, 
  "integrity": 4796, 
  "radical": 4797, 
  "Democratic": 4798, 
  "gathered": 4799, 
  "01": 4800, 
  "की": 4801, 
  "ala": 4802, 
  "adopt": 4803, 
  "ग@@": 4804, 
  "preliminary": 4805, 
  "Second": 4806, 
  "Real": 4807, 
  "ls": 4808, 
  "currencies": 4809, 
  "indicator": 4810, 
  "trafficking": 4811, 
  "ger@@": 4812, 
  "hom@@": 4813, 
  "short-term": 4814, 
  "substances": 4815, 
  "label": 4816, 
  "mer": 4817, 
  "Vol@@": 4818, 
  "bul@@": 4819, 
  "El": 4820, 
  "winners": 4821, 
  "47": 4822, 
  "clubs": 4823, 
  "depth": 4824, 
  "steam": 4825, 
  "makers": 4826, 
  "potentially": 4827, 
  "inspired": 4828, 
  "regarded": 4829, 
  "ok": 4830, 
  "Gaza": 4831, 
  "meals": 4832, 
  "boards": 4833, 
  "readers": 4834, 
  "restored": 4835, 
  "rely": 4836, 
  "Road": 4837, 
  "mixed": 4838, 
  "stream": 4839, 
  "fre@@": 4840, 
  "tells": 4841, 
  "posted": 4842, 
  "moves": 4843, 
  "Use": 4844, 
  ",000": 4845, 
  "municipal": 4846, 
  "ell@@": 4847, 
  "segment": 4848, 
  "vary": 4849, 
  "radiation": 4850, 
  "concepts": 4851, 
  "by@@": 4852, 
  "knowing": 4853, 
  "watching": 4854, 
  "pen@@": 4855, 
  "indigenous": 4856, 
  "Ministers": 4857, 
  "infection": 4858, 
  "clock": 4859, 
  "gardens": 4860, 
  "videos": 4861, 
  "sole": 4862, 
  "strict": 4863, 
  "harm": 4864, 
  "3rd": 4865, 
  "6-@@": 4866, 
  "installing": 4867, 
  "न": 4868, 
  "coalition": 4869, 
  "exceed": 4870, 
  "ID@@": 4871, 
  "year-old": 4872, 
  "SS@@": 4873, 
  "occasion": 4874, 
  "क@@": 4875, 
  "Robert": 4876, 
  "bug": 4877, 
  "employee": 4878, 
  "emphasis": 4879, 
  "spare": 4880, 
  "ric@@": 4881, 
  "grain": 4882, 
  "violation": 4883, 
  "disabled": 4884, 
  "ena": 4885, 
  "narrow": 4886, 
  "texts": 4887, 
  "violent": 4888, 
  "protecting": 4889, 
  "Er@@": 4890, 
  "Romania": 4891, 
  "acceptance": 4892, 
  "confirmation": 4893, 
  "printer": 4894, 
  "·": 4895, 
  "ane": 4896, 
  "certificates": 4897, 
  "calculated": 4898, 
  "boxes": 4899, 
  "slowly": 4900, 
  "allies": 4901, 
  "Product": 4902, 
  "accused": 4903, 
  "Thailand": 4904, 
  "consensus": 4905, 
  "minority": 4906, 
  "Palestinians": 4907, 
  "additionally": 4908, 
  "Community": 4909, 
  "wines": 4910, 
  "married": 4911, 
  "ong": 4912, 
  "700": 4913, 
  "I.": 4914, 
  "Swimming": 4915, 
  "ying": 4916, 
  "Gar@@": 4917, 
  "diet": 4918, 
  "newspapers": 4919, 
  "movies": 4920, 
  "engineers": 4921, 
  "ess@@": 4922, 
  "99": 4923, 
  "ideally": 4924, 
  "delay": 4925, 
  "stuff": 4926, 
  "consultation": 4927, 
  "30@@": 4928, 
  "enhanced": 4929, 
  "Gazprom": 4930, 
  "causing": 4931, 
  "pe": 4932, 
  "accident": 4933, 
  "AG": 4934, 
  "alliance": 4935, 
  "drinking": 4936, 
  "ium": 4937, 
  "ban@@": 4938, 
  "satisfied": 4939, 
  "confirm": 4940, 
  "compare": 4941, 
  "feelings": 4942, 
  "sub-@@": 4943, 
  "ok@@": 4944, 
  "occupation": 4945, 
  "den@@": 4946, 
  "rated": 4947, 
  "46": 4948, 
  "Ge@@": 4949, 
  "abilities": 4950, 
  "MB": 4951, 
  "ba@@": 4952, 
  "publish": 4953, 
  "commitments": 4954, 
  "ан@@": 4955, 
  "spoken": 4956, 
  "1980": 4957, 
  "wider": 4958, 
  "adjust": 4959, 
  "ल@@": 4960, 
  "exclusively": 4961, 
  "province": 4962, 
  "lo": 4963, 
  "No.": 4964, 
  "writer": 4965, 
  "lock": 4966, 
  "feedback": 4967, 
  "cultures": 4968, 
  "Nov@@": 4969, 
  "dimensions": 4970, 
  "romantic": 4971, 
  "ло@@": 4972, 
  "precise": 4973, 
  "uk": 4974, 
  "ass@@": 4975, 
  "hearing": 4976, 
  "emerged": 4977, 
  "filling": 4978, 
  "populations": 4979, 
  "ast": 4980, 
  "&lt;": 4981, 
  "configured": 4982, 
  "apparently": 4983, 
  "PL@@": 4984, 
  "से": 4985, 
  "Name": 4986, 
  "satisfaction": 4987, 
  "delicious": 4988, 
  "Press": 4989, 
  "losing": 4990, 
  "VIP": 4991, 
  "My@@": 4992, 
  "Saturday": 4993, 
  "surely": 4994, 
  "expense": 4995, 
  "meets": 4996, 
  "citizen": 4997, 
  "ée": 4998, 
  "ey@@": 4999, 
  "07": 5000, 
  "acquisition": 5001, 
  "translated": 5002, 
  "ani": 5003, 
  "2,@@": 5004, 
  "ni": 5005, 
  "deputy": 5006, 
  "Culture": 5007, 
  "49": 5008, 
  "opinions": 5009, 
  "m²": 5010, 
  "presentations": 5011, 
  "Olympic": 5012, 
  "neighbors": 5013, 
  "zh@@": 5014, 
  "ked": 5015, 
  "4-star": 5016, 
  "tro@@": 5017, 
  "HTML": 5018, 
  "balanced": 5019, 
  "indicates": 5020, 
  "participant": 5021, 
  "sizes": 5022, 
  "6.@@": 5023, 
  "mor@@": 5024, 
  "RA": 5025, 
  "defend": 5026, 
  "Times": 5027, 
  "TH@@": 5028, 
  "int@@": 5029, 
  "es-@@": 5030, 
  "brief": 5031, 
  "eh@@": 5032, 
  "impression": 5033, 
  "ush@@": 5034, 
  "RF": 5035, 
  "со@@": 5036, 
  "ika": 5037, 
  "studying": 5038, 
  "Pro": 5039, 
  "receives": 5040, 
  "2.0": 5041, 
  "dogs": 5042, 
  "ATION": 5043, 
  "AB@@": 5044, 
  "earn": 5045, 
  "Chamber": 5046, 
  "unusual": 5047, 
  "afraid": 5048, 
  "Opera": 5049, 
  "ese": 5050, 
  "oldest": 5051, 
  "exposure": 5052, 
  "UNAIDS": 5053, 
  "alist": 5054, 
  "psychological": 5055, 
  "Bur@@": 5056, 
  "supervision": 5057, 
  "XML": 5058, 
  "involves": 5059, 
  "=@@": 5060, 
  "equ@@": 5061, 
  "cuts": 5062, 
  "monuments": 5063, 
  "belong": 5064, 
  "ê@@": 5065, 
  "hol@@": 5066, 
  "significance": 5067, 
  "mistake": 5068, 
  "choices": 5069, 
  "ain@@": 5070, 
  "modify": 5071, 
  "ð@@": 5072, 
  "k-@@": 5073, 
  "stones": 5074, 
  "keeps": 5075, 
  "explanation": 5076, 
  "universe": 5077, 
  "featuring": 5078, 
  "non": 5079, 
  "cal@@": 5080, 
  "DC": 5081, 
  "Jerusalem": 5082, 
  "lights": 5083, 
  "Col@@": 5084, 
  "closing": 5085, 
  "ES@@": 5086, 
  "dear": 5087, 
  "obligation": 5088, 
  "53": 5089, 
  "М@@": 5090, 
  "honor": 5091, 
  "ultimate": 5092, 
  "gar@@": 5093, 
  "churches": 5094, 
  "variable": 5095, 
  "Now": 5096, 
  "demanding": 5097, 
  "estimate": 5098, 
  "surroundings": 5099, 
  "escape": 5100, 
  "je": 5101, 
  "Babysitting": 5102, 
  "arrange": 5103, 
  "my@@": 5104, 
  "buyers": 5105, 
  "joy": 5106, 
  "Ticket": 5107, 
  "describes": 5108, 
  "activists": 5109, 
  "TB": 5110, 
  "capitalism": 5111, 
  "essence": 5112, 
  "cer@@": 5113, 
  "civilian": 5114, 
  "tournament": 5115, 
  "au@@": 5116, 
  "processed": 5117, 
  "ky": 5118, 
  "wages": 5119, 
  "considerably": 5120, 
  "convert": 5121, 
  "head@@": 5122, 
  "pace": 5123, 
  "weapon": 5124, 
  "downloading": 5125, 
  "viewing": 5126, 
  "eliminate": 5127, 
  "phenomenon": 5128, 
  "genuine": 5129, 
  "California": 5130, 
  "involve": 5131, 
  "skiy": 5132, 
  "enemies": 5133, 
  "che@@": 5134, 
  "inspection": 5135, 
  "governmental": 5136, 
  "vacation": 5137, 
  "minor": 5138, 
  "commands": 5139, 
  "О@@": 5140, 
  "deaths": 5141, 
  "eating": 5142, 
  "castle": 5143, 
  "Quality": 5144, 
  "genetic": 5145, 
  "He@@": 5146, 
  "mouth": 5147, 
  "beings": 5148, 
  "net@@": 5149, 
  "acquire": 5150, 
  "ives": 5151, 
  "Ter@@": 5152, 
  "logo": 5153, 
  "skilled": 5154, 
  "Player": 5155, 
  "combines": 5156, 
  "sin": 5157, 
  "self": 5158, 
  "Blue": 5159, 
  "EC": 5160, 
  "calm": 5161, 
  "Enterprise": 5162, 
  "nya": 5163, 
  "replacement": 5164, 
  "к": 5165, 
  "Swiss": 5166, 
  "snow": 5167, 
  "Bible": 5168, 
  "horse": 5169, 
  "uring": 5170, 
  "fa@@": 5171, 
  "fin@@": 5172, 
  "Defense": 5173, 
  "â": 5174, 
  "achievement": 5175, 
  "Outlook": 5176, 
  "officer": 5177, 
  "Prince": 5178, 
  "shipping": 5179, 
  "are@@": 5180, 
  "circle": 5181, 
  "Cup": 5182, 
  "aside": 5183, 
  "designers": 5184, 
  "happening": 5185, 
  "posts": 5186, 
  "vous": 5187, 
  "designer": 5188, 
  "fifth": 5189, 
  "logic": 5190, 
  "roughly": 5191, 
  "operated": 5192, 
  "solving": 5193, 
  "го@@": 5194, 
  "hel@@": 5195, 
  "loading": 5196, 
  "norms": 5197, 
  "con": 5198, 
  "rel@@": 5199, 
  "ker": 5200, 
  "Gold": 5201, 
  "At@@": 5202, 
  "1990s": 5203, 
  "pair": 5204, 
  "Web@@": 5205, 
  "act@@": 5206, 
  "E-@@": 5207, 
  "98": 5208, 
  "bur@@": 5209, 
  "twenty": 5210, 
  "sees": 5211, 
  "SMS": 5212, 
  "capture": 5213, 
  "partition": 5214, 
  "160": 5215, 
  "popularity": 5216, 
  "î@@": 5217, 
  "Bay": 5218, 
  "incentives": 5219, 
  "collections": 5220, 
  "checked": 5221, 
  "signals": 5222, 
  "ach": 5223, 
  "â@@": 5224, 
  "instant": 5225, 
  "Peace": 5226, 
  "minimal": 5227, 
  "imported": 5228, 
  "lawyers": 5229, 
  "finds": 5230, 
  "killing": 5231, 
  "motion": 5232, 
  "Mag@@": 5233, 
  "ff@@": 5234, 
  "characterized": 5235, 
  "falls": 5236, 
  "prominent": 5237, 
  "Book": 5238, 
  "loaded": 5239, 
  "connecting": 5240, 
  "professor": 5241, 
  "Light": 5242, 
  "vis@@": 5243, 
  "ри@@": 5244, 
  "tri@@": 5245, 
  "Ba@@": 5246, 
  "Packed": 5247, 
  "keyboard": 5248, 
  "wage": 5249, 
  "observers": 5250, 
  "pat@@": 5251, 
  "ы": 5252, 
  "overlooking": 5253, 
  "explains": 5254, 
  "transit": 5255, 
  "wellness": 5256, 
  "sugar": 5257, 
  "territorial": 5258, 
  "प@@": 5259, 
  "restoration": 5260, 
  "organizing": 5261, 
  "tu@@": 5262, 
  "convinced": 5263, 
  "ening": 5264, 
  "eness": 5265, 
  "vessels": 5266, 
  "continental": 5267, 
  "civilization": 5268, 
  "50@@": 5269, 
  "pro-@@": 5270, 
  "lending": 5271, 
  "56": 5272, 
  "arrest": 5273, 
  "wonder": 5274, 
  "UNDP": 5275, 
  "viewed": 5276, 
  "atory": 5277, 
  "da@@": 5278, 
  "sights": 5279, 
  "5th": 5280, 
  "League": 5281, 
  "roles": 5282, 
  "ю": 5283, 
  "Cooperation": 5284, 
  "settled": 5285, 
  "SH@@": 5286, 
  "J": 5287, 
  "ges": 5288, 
  "Maria": 5289, 
  "warming": 5290, 
  "happiness": 5291, 
  "afford": 5292, 
  "beer": 5293, 
  "automated": 5294, 
  "modernization": 5295, 
  "undertaken": 5296, 
  "traditionally": 5297, 
  "encouraged": 5298, 
  "grade": 5299, 
  "Mel@@": 5300, 
  "yellow": 5301, 
  "ease": 5302, 
  "q": 5303, 
  "alive": 5304, 
  ".org": 5305, 
  "essentially": 5306, 
  "info": 5307, 
  "Taiwan": 5308, 
  "ned": 5309, 
  "liquidity": 5310, 
  "char@@": 5311, 
  "smooth": 5312, 
  "comply": 5313, 
  "gifts": 5314, 
  "Turkmenistan": 5315, 
  "caught": 5316, 
  "missions": 5317, 
  "File": 5318, 
  "islands": 5319, 
  "Water": 5320, 
  "ý@@": 5321, 
  "Gal@@": 5322, 
  "template": 5323, 
  "nights": 5324, 
  "chose": 5325, 
  "AKVIS": 5326, 
  "Al": 5327, 
  "Sa@@": 5328, 
  "ost@@": 5329, 
  "ces": 5330, 
  "ज@@": 5331, 
  "Can@@": 5332, 
  "composed": 5333, 
  "sand": 5334, 
  "answered": 5335, 
  "By": 5336, 
  "holder": 5337, 
  "ures": 5338, 
  "sy@@": 5339, 
  "catch": 5340, 
  "analysts": 5341, 
  "symbols": 5342, 
  "wise": 5343, 
  "colours": 5344, 
  "mini": 5345, 
  "preserve": 5346, 
  "smart": 5347, 
  "і@@": 5348, 
  "Shine": 5349, 
  "humans": 5350, 
  "continent": 5351, 
  "crises": 5352, 
  "and-@@": 5353, 
  "venture": 5354, 
  "ा@@": 5355, 
  "Environment": 5356, 
  "constitution": 5357, 
  "Mo@@": 5358, 
  "conversion": 5359, 
  "hopes": 5360, 
  "strike": 5361, 
  "autumn": 5362, 
  "conversation": 5363, 
  "supporters": 5364, 
  "об@@": 5365, 
  "operates": 5366, 
  "ely": 5367, 
  "peak": 5368, 
  "pursue": 5369, 
  "7.@@": 5370, 
  "ain": 5371, 
  "accuracy": 5372, 
  "deployment": 5373, 
  "birds": 5374, 
  "awards": 5375, 
  "mem@@": 5376, 
  "developer": 5377, 
  "assess": 5378, 
  "eni@@": 5379, 
  "accordingly": 5380, 
  "न@@": 5381, 
  "unions": 5382, 
  "isation": 5383, 
  "breaking": 5384, 
  "barriers": 5385, 
  "Kyrgyz": 5386, 
  "moments": 5387, 
  "proxy": 5388, 
  "arch@@": 5389, 
  "brothers": 5390, 
  "economists": 5391, 
  "7-@@": 5392, 
  "signing": 5393, 
  "62": 5394, 
  "meal": 5395, 
  "ff": 5396, 
  "enjoys": 5397, 
  "acceptable": 5398, 
  "characteristic": 5399, 
  "promises": 5400, 
  "Plant": 5401, 
  "ा": 5402, 
  "symptoms": 5403, 
  "cu@@": 5404, 
  "belongs": 5405, 
  "OR@@": 5406, 
  "graduated": 5407, 
  "54": 5408, 
  "pack": 5409, 
  "rejected": 5410, 
  "ij@@": 5411, 
  "internationally": 5412, 
  "query": 5413, 
  "Mat@@": 5414, 
  "cul@@": 5415, 
  "Casino": 5416, 
  "ct@@": 5417, 
  "Directors": 5418, 
  "emotional": 5419, 
  "anti@@": 5420, 
  "ory": 5421, 
  "sy": 5422, 
  "fat": 5423, 
  "eva": 5424, 
  "precious": 5425, 
  "denied": 5426, 
  "Outdoor": 5427, 
  "Massage": 5428, 
  "aff@@": 5429, 
  "campaigns": 5430, 
  "C-@@": 5431, 
  "firewall": 5432, 
  "somewhat": 5433, 
  "06": 5434, 
  "sem@@": 5435, 
  "argue": 5436, 
  "tanks": 5437, 
  "imports": 5438, 
  "ministers": 5439, 
  "large-scale": 5440, 
  "Iraqi": 5441, 
  "HP": 5442, 
  "hole": 5443, 
  "aw@@": 5444, 
  "ita": 5445, 
  "aviation": 5446, 
  "terrorists": 5447, 
  "three-@@": 5448, 
  "Space": 5449, 
  "compete": 5450, 
  "manually": 5451, 
  "clinical": 5452, 
  "Food": 5453, 
  "T-@@": 5454, 
  "Sy@@": 5455, 
  "ises": 5456, 
  "ки": 5457, 
  "arm": 5458, 
  "CON@@": 5459, 
  "Fitness": 5460, 
  "mere": 5461, 
  "fi@@": 5462, 
  "legitimate": 5463, 
  "dispute": 5464, 
  "responses": 5465, 
  "Figure": 5466, 
  "mistakes": 5467, 
  "History": 5468, 
  "preferred": 5469, 
  "databases": 5470, 
  "repeated": 5471, 
  "Swedish": 5472, 
  "bathrooms": 5473, 
  "roll": 5474, 
  "platforms": 5475, 
  "Green": 5476, 
  "cooperate": 5477, 
  "ø@@": 5478, 
  "designing": 5479, 
  "Fre@@": 5480, 
  "thin": 5481, 
  "IA": 5482, 
  "4th": 5483, 
  "Star": 5484, 
  "cooling": 5485, 
  "OJSC": 5486, 
  "ska": 5487, 
  "array": 5488, 
  "districts": 5489, 
  "conducting": 5490, 
  "но": 5491, 
  "Cathedral": 5492, 
  "å": 5493, 
  "AG@@": 5494, 
  "fo@@": 5495, 
  "holders": 5496, 
  "OM@@": 5497, 
  "не@@": 5498, 
  "portion": 5499, 
  "suggestions": 5500, 
  "conservation": 5501, 
  "toilet": 5502, 
  "sun@@": 5503, 
  "Indonesia": 5504, 
  "declaration": 5505, 
  "counter": 5506, 
  "poker": 5507, 
  "ISA": 5508, 
  "Summit": 5509, 
  "Lebanon": 5510, 
  "arrangement": 5511, 
  "journalist": 5512, 
  "Reserve": 5513, 
  "freely": 5514, 
  "08": 5515, 
  "sheets": 5516, 
  "por@@": 5517, 
  "adjustment": 5518, 
  "kl@@": 5519, 
  "capacities": 5520, 
  "tel@@": 5521, 
  "To@@": 5522, 
  "employers": 5523, 
  "beneficial": 5524, 
  "temple": 5525, 
  "co-operation": 5526, 
  "mandate": 5527, 
  "Investment": 5528, 
  "noticed": 5529, 
  "fil@@": 5530, 
  "entrepreneurs": 5531, 
  "Hol@@": 5532, 
  "ap": 5533, 
  "dating": 5534, 
  "wisdom": 5535, 
  "households": 5536, 
  "fan": 5537, 
  "fallen": 5538, 
  "met@@": 5539, 
  "intention": 5540, 
  "judges": 5541, 
  "57": 5542, 
  "split": 5543, 
  "terror": 5544, 
  "х@@": 5545, 
  "58": 5546, 
  "lesson": 5547, 
  "defeat": 5548, 
  "Del@@": 5549, 
  "dictionary": 5550, 
  "Youth": 5551, 
  "AD": 5552, 
  "innovations": 5553, 
  "a.@@": 5554, 
  "dropped": 5555, 
  "Bl@@": 5556, 
  "ron@@": 5557, 
  "IV": 5558, 
  "Shoe": 5559, 
  "damaged": 5560, 
  "frequent": 5561, 
  "tr@@": 5562, 
  "bro@@": 5563, 
  "ON@@": 5564, 
  "han@@": 5565, 
  "processor": 5566, 
  "WTO": 5567, 
  "hot@@": 5568, 
  "corporations": 5569, 
  "competitiveness": 5570, 
  "younger": 5571, 
  "Big": 5572, 
  "dans": 5573, 
  "surprised": 5574, 
  "interactive": 5575, 
  "det@@": 5576, 
  "consultations": 5577, 
  "stra@@": 5578, 
  "Serbia": 5579, 
  "Theatre": 5580, 
  "buttons": 5581, 
  "Sam@@": 5582, 
  "libraries": 5583, 
  "ades": 5584, 
  "entries": 5585, 
  "ride": 5586, 
  "investor": 5587, 
  "sweet": 5588, 
  "Denmark": 5589, 
  "-up": 5590, 
  "preventing": 5591, 
  "politically": 5592, 
  "fairly": 5593, 
  "protest": 5594, 
  "ths": 5595, 
  "perception": 5596, 
  "amendments": 5597, 
  "consisting": 5598, 
  "2.5": 5599, 
  "villa": 5600, 
  "examine": 5601, 
  "Alliance": 5602, 
  "forecast": 5603, 
  "bread": 5604, 
  "bearing": 5605, 
  "yield": 5606, 
  "beat": 5607, 
  "dramatic": 5608, 
  "voluntary": 5609, 
  "spectacular": 5610, 
  "aj@@": 5611, 
  "ri": 5612, 
  "setup": 5613, 
  "Ap@@": 5614, 
  "nat@@": 5615, 
  "Search": 5616, 
  "James": 5617, 
  "commonly": 5618, 
  "Transport": 5619, 
  "//@@": 5620, 
  "Ak@@": 5621, 
  "ы@@": 5622, 
  "IL@@": 5623, 
  "aggressive": 5624, 
  "fate": 5625, 
  "Southern": 5626, 
  "Mos@@": 5627, 
  "passes": 5628, 
  "constitute": 5629, 
  "Kal@@": 5630, 
  "Bath": 5631, 
  "returning": 5632, 
  "hospitality": 5633, 
  "timely": 5634, 
  "dev@@": 5635, 
  "guard": 5636, 
  "IR@@": 5637, 
  "ear@@": 5638, 
  "editing": 5639, 
  "ft": 5640, 
  "ка@@": 5641, 
  "teeth": 5642, 
  "Venice": 5643, 
  "Mas@@": 5644, 
  "ce@@": 5645, 
  "opposed": 5646, 
  "joining": 5647, 
  "boys": 5648, 
  "hospitals": 5649, 
  "और": 5650, 
  "1,000": 5651, 
  "La@@": 5652, 
  "Baku": 5653, 
  "vice": 5654, 
  "measured": 5655, 
  "gen@@": 5656, 
  "registry": 5657, 
  "URL": 5658, 
  "don@@": 5659, 
  "ama": 5660, 
  "9.@@": 5661, 
  "succeed": 5662, 
  "09": 5663, 
  "underlying": 5664, 
  "iPhone": 5665, 
  "Me@@": 5666, 
  "smoking": 5667, 
  "gallery": 5668, 
  "Inc": 5669, 
  "Thursday": 5670, 
  "survive": 5671, 
  "mood": 5672, 
  "Team": 5673, 
  "ens@@": 5674, 
  "shaped": 5675, 
  "iz": 5676, 
  "len@@": 5677, 
  "72": 5678, 
  "sovereignty": 5679, 
  "artificial": 5680, 
  "inc@@": 5681, 
  "settlements": 5682, 
  "Medvedev": 5683, 
  "Cuba": 5684, 
  "Ban@@": 5685, 
  "mas@@": 5686, 
  "mirror": 5687, 
  "Bor@@": 5688, 
  "Go": 5689, 
  "Bicycle": 5690, 
  "IG@@": 5691, 
  "ā@@": 5692, 
  "murder": 5693, 
  "gro@@": 5694, 
  "Part": 5695, 
  "iss@@": 5696, 
  "8-@@": 5697, 
  "ea": 5698, 
  "Christians": 5699, 
  "repeat": 5700, 
  "statistical": 5701, 
  "lighting": 5702, 
  "temperatures": 5703, 
  "та@@": 5704, 
  "invested": 5705, 
  "arian": 5706, 
  "charm": 5707, 
  "ez": 5708, 
  "disputes": 5709, 
  "arise": 5710, 
  "hi": 5711, 
  "archive": 5712, 
  "repeatedly": 5713, 
  "threatened": 5714, 
  "stakeholders": 5715, 
  "fe@@": 5716, 
  "measurement": 5717, 
  "pm": 5718, 
  "dial": 5719, 
  "concerts": 5720, 
  "civilians": 5721, 
  "ि@@": 5722, 
  "proportion": 5723, 
  "bag": 5724, 
  "Cher@@": 5725, 
  "telling": 5726, 
  "mortgage": 5727, 
  "Main": 5728, 
  "pilot": 5729, 
  "Wall": 5730, 
  "guided": 5731, 
  "migrants": 5732, 
  "ora": 5733, 
  "Mc@@": 5734, 
  "SO@@": 5735, 
  "ment@@": 5736, 
  "ी": 5737, 
  "Other": 5738, 
  "та": 5739, 
  "Working": 5740, 
  "ura": 5741, 
  "environments": 5742, 
  "Video": 5743, 
  "Pan@@": 5744, 
  "ré@@": 5745, 
  "kilometers": 5746, 
  "An": 5747, 
  "aging": 5748, 
  "funded": 5749, 
  "width": 5750, 
  "measuring": 5751, 
  "magic": 5752, 
  "judgment": 5753, 
  "flash": 5754, 
  "built-in": 5755, 
  "th-@@": 5756, 
  "unforgettable": 5757, 
  "Tur@@": 5758, 
  "г@@": 5759, 
  "promising": 5760, 
  "OS@@": 5761, 
  "Machine": 5762, 
  "publicly": 5763, 
  "Chechnya": 5764, 
  "flying": 5765, 
  "fly": 5766, 
  "loc@@": 5767, 
  "stunning": 5768, 
  "implies": 5769, 
  "CE": 5770, 
  "Т@@": 5771, 
  "Los": 5772, 
  "favorable": 5773, 
  "crew": 5774, 
  "rehabilitation": 5775, 
  "hosted": 5776, 
  "pal@@": 5777, 
  "compact": 5778, 
  "styles": 5779, 
  "yes": 5780, 
  "withdrawal": 5781, 
  "folk": 5782, 
  "layout": 5783, 
  "Good": 5784, 
  "off@@": 5785, 
  "plot": 5786, 
  "criticism": 5787, 
  "sovereign": 5788, 
  "Force": 5789, 
  "qualities": 5790, 
  "references": 5791, 
  "headquarters": 5792, 
  "defence": 5793, 
  "ids": 5794, 
  "Gulf": 5795, 
  "founder": 5796, 
  "reduces": 5797, 
  "Pre@@": 5798, 
  "harmony": 5799, 
  "up-to-date": 5800, 
  "fellow": 5801, 
  "protests": 5802, 
  "Po@@": 5803, 
  "placing": 5804, 
  "Caspian": 5805, 
  "strictly": 5806, 
  "gun": 5807, 
  "ecommerce": 5808, 
  "gross": 5809, 
  "stops": 5810, 
  "immigration": 5811, 
  "pollution": 5812, 
  "12.@@": 5813, 
  "40@@": 5814, 
  "prohibited": 5815, 
  "person@@": 5816, 
  "premium": 5817, 
  "comprises": 5818, 
  "Kor@@": 5819, 
  "organs": 5820, 
  "spectrum": 5821, 
  "weekend": 5822, 
  "conclusions": 5823, 
  "burning": 5824, 
  "Ger@@": 5825, 
  "dress": 5826, 
  "11.@@": 5827, 
  "consequently": 5828, 
  "spite": 5829, 
  "counter@@": 5830, 
  "difficulty": 5831, 
  "stake": 5832, 
  "Dec@@": 5833, 
  "grand": 5834, 
  "roots": 5835, 
  "commodity": 5836, 
  "dem@@": 5837, 
  "signature": 5838, 
  "pay@@": 5839, 
  "Live": 5840, 
  "hosts": 5841, 
  "Read": 5842, 
  "We@@": 5843, 
  "capability": 5844, 
  "unlimited": 5845, 
  "workshops": 5846, 
  "ha@@": 5847, 
  "backed": 5848, 
  "downloaded": 5849, 
  "calculation": 5850, 
  "Santa": 5851, 
  "Industrial": 5852, 
  "ле@@": 5853, 
  "schemes": 5854, 
  "fax": 5855, 
  "ин@@": 5856, 
  "para": 5857, 
  "organised": 5858, 
  "ECB": 5859, 
  "decision-making": 5860, 
  "obtaining": 5861, 
  "ocean": 5862, 
  "unto": 5863, 
  "limitations": 5864, 
  "selecting": 5865, 
  "Oil": 5866, 
  "acc@@": 5867, 
  "CEO": 5868, 
  "meter": 5869, 
  "ban": 5870, 
  "excess": 5871, 
  "foods": 5872, 
  "ministry": 5873, 
  "VAT": 5874, 
  "Belgium": 5875, 
  "likewise": 5876, 
  "win@@": 5877, 
  "celebrated": 5878, 
  "sentenced": 5879, 
  "controller": 5880, 
  "rivers": 5881, 
  "checking": 5882, 
  "heavily": 5883, 
  "euros": 5884, 
  "ited": 5885, 
  "sen@@": 5886, 
  "shooting": 5887, 
  "flag": 5888, 
  "DE@@": 5889, 
  "differ": 5890, 
  "Em@@": 5891, 
  "Brussels": 5892, 
  "broader": 5893, 
  "ils": 5894, 
  "After": 5895, 
  "Finnish": 5896, 
  "№": 5897, 
  "ves": 5898, 
  "council": 5899, 
  "Hostelsclub": 5900, 
  "ranging": 5901, 
  "Li@@": 5902, 
  "run@@": 5903, 
  "preserved": 5904, 
  "integrate": 5905, 
  "Technologies": 5906, 
  "earned": 5907, 
  "deeper": 5908, 
  "summary": 5909, 
  "witness": 5910, 
  "sustained": 5911, 
  "berg": 5912, 
  "imp@@": 5913, 
  "partnerships": 5914, 
  "ere": 5915, 
  "listening": 5916, 
  "opponents": 5917, 
  "refers": 5918, 
  "DS": 5919, 
  "logistics": 5920, 
  "arguments": 5921, 
  "Don@@": 5922, 
  "jurisdiction": 5923, 
  "metals": 5924, 
  "allocated": 5925, 
  "pools": 5926, 
  "stocks": 5927, 
  "alizing": 5928, 
  "dreams": 5929, 
  "Han@@": 5930, 
  "apparent": 5931, 
  "dust": 5932, 
  "ode": 5933, 
  "Arabia": 5934, 
  "waves": 5935, 
  "investing": 5936, 
  "ell": 5937, 
  "tone": 5938, 
  "competitions": 5939, 
  "Sol@@": 5940, 
  "reserved": 5941, 
  "distributors": 5942, 
  "ham@@": 5943, 
  "placement": 5944, 
  "Р@@": 5945, 
  "LE@@": 5946, 
  "ification": 5947, 
  "59": 5948, 
  "profitable": 5949, 
  "List": 5950, 
  "tomorrow": 5951, 
  "checks": 5952, 
  "Change": 5953, 
  "Tool": 5954, 
  "passport": 5955, 
  "maps": 5956, 
  "Panel": 5957, 
  "dated": 5958, 
  "tariff": 5959, 
  "mod@@": 5960, 
  "Tor@@": 5961, 
  "observe": 5962, 
  "und@@": 5963, 
  "affordable": 5964, 
  "BC": 5965, 
  "tower": 5966, 
  "circulation": 5967, 
  "alarm": 5968, 
  "controlling": 5969, 
  "hydro@@": 5970, 
  "Mac@@": 5971, 
  "Arts": 5972, 
  "rain": 5973, 
  "pres@@": 5974, 
  "en-@@": 5975, 
  "detection": 5976, 
  "victim": 5977, 
  "ened": 5978, 
  "focusing": 5979, 
  "fewer": 5980, 
  "chat": 5981, 
  "SM@@": 5982, 
  "200@@": 5983, 
  "mankind": 5984, 
  "ei": 5985, 
  "buyer": 5986, 
  "dynamics": 5987, 
  "ene": 5988, 
  "rarely": 5989, 
  "throw": 5990, 
  "invitation": 5991, 
  "solved": 5992, 
  "consequence": 5993, 
  "ices": 5994, 
  "individually": 5995, 
  "hum@@": 5996, 
  "Ol@@": 5997, 
  "adds": 5998, 
  "frames": 5999, 
  "ти@@": 6000, 
  "Egyptian": 6001, 
  "80@@": 6002, 
  "informal": 6003, 
  "alleged": 6004, 
  "transformed": 6005, 
  "separated": 6006, 
  "competitors": 6007, 
  "worker": 6008, 
  "ab": 6009, 
  "ware": 6010, 
  "D.": 6011, 
  "Met@@": 6012, 
  "Sc@@": 6013, 
  "és": 6014, 
  "Nor@@": 6015, 
  "renewed": 6016, 
  "Ph@@": 6017, 
  "spheres": 6018, 
  "Contracting": 6019, 
  "refuse": 6020, 
  "Mil@@": 6021, 
  "reverse": 6022, 
  "bases": 6023, 
  "orientation": 6024, 
  "Sk@@": 6025, 
  "compromise": 6026, 
  "wire": 6027, 
  "Co": 6028, 
  "Tar@@": 6029, 
  "parent": 6030, 
  "announce": 6031, 
  "त": 6032, 
  "or-@@": 6033, 
  "empire": 6034, 
  "folders": 6035, 
  "low@@": 6036, 
  "Settings": 6037, 
  "set@@": 6038, 
  "mut@@": 6039, 
  "p.m.": 6040, 
  "lawyer": 6041, 
  "sons": 6042, 
  "parks": 6043, 
  "Terms": 6044, 
  "lowest": 6045, 
  "nbsp": 6046, 
  "ер@@": 6047, 
  "discovery": 6048, 
  "Pet@@": 6049, 
  "multilateral": 6050, 
  "ements": 6051, 
  "sentence": 6052, 
  "ruled": 6053, 
  "ं@@": 6054, 
  "binding": 6055, 
  "cap@@": 6056, 
  "gather": 6057, 
  "personality": 6058, 
  "findings": 6059, 
  "play@@": 6060, 
  "25@@": 6061, 
  "akan": 6062, 
  "handed": 6063, 
  "ali": 6064, 
  "amongst": 6065, 
  "una": 6066, 
  "miss": 6067, 
  "Milan": 6068, 
  "broadcast": 6069, 
  "ace": 6070, 
  "cocktail": 6071, 
  "Bas@@": 6072, 
  "B.": 6073, 
  "reportedly": 6074, 
  "bra@@": 6075, 
  "subscription": 6076, 
  "mln": 6077, 
  "determination": 6078, 
  "Millennium": 6079, 
  "moderate": 6080, 
  "66": 6081, 
  "Portugal": 6082, 
  "о": 6083, 
  "S.": 6084, 
  "ris@@": 6085, 
  "directors": 6086, 
  "basically": 6087, 
  "confident": 6088, 
  "subscribers": 6089, 
  "evident": 6090, 
  "complexity": 6091, 
  "laser": 6092, 
  "Directory": 6093, 
  "mi": 6094, 
  "ioned": 6095, 
  "skiing": 6096, 
  "solely": 6097, 
  "notification": 6098, 
  "decreased": 6099, 
  "les@@": 6100, 
  "existed": 6101, 
  "feels": 6102, 
  "IB@@": 6103, 
  "perceived": 6104, 
  "valley": 6105, 
  "Scientific": 6106, 
  "ET@@": 6107, 
  "efficiently": 6108, 
  "releases": 6109, 
  "8.@@": 6110, 
  "Charter": 6111, 
  "verify": 6112, 
  "24@@": 6113, 
  "substance": 6114, 
  "panoramic": 6115, 
  "Clinton": 6116, 
  "speaker": 6117, 
  "water@@": 6118, 
  "ton@@": 6119, 
  "minds": 6120, 
  "ck@@": 6121, 
  "trillion": 6122, 
  "complaints": 6123, 
  "tion": 6124, 
  "filters": 6125, 
  "organizational": 6126, 
  "herself": 6127, 
  "fulfill": 6128, 
  "intense": 6129, 
  "S.@@": 6130, 
  "hunting": 6131, 
  "mid@@": 6132, 
  "queries": 6133, 
  "talent": 6134, 
  "Award": 6135, 
  "NE@@": 6136, 
  "ram@@": 6137, 
  "harmful": 6138, 
  "GB": 6139, 
  "So": 6140, 
  "Bureau": 6141, 
  "integral": 6142, 
  "op": 6143, 
  "carries": 6144, 
  "ì@@": 6145, 
  "educated": 6146, 
  "somewhere": 6147, 
  "va@@": 6148, 
  "ми": 6149, 
  "wn": 6150, 
  "exploitation": 6151, 
  "lan@@": 6152, 
  "inter-@@": 6153, 
  "enjoying": 6154, 
  "assumed": 6155, 
  "ona": 6156, 
  "Singapore": 6157, 
  "regards": 6158, 
  "refined": 6159, 
  "auto@@": 6160, 
  "kh@@": 6161, 
  "def@@": 6162, 
  "reveal": 6163, 
  "attracted": 6164, 
  "weekly": 6165, 
  "ga": 6166, 
  "arising": 6167, 
  "governing": 6168, 
  "ка": 6169, 
  "³@@": 6170, 
  "considers": 6171, 
  "Catholic": 6172, 
  "az": 6173, 
  "I.@@": 6174, 
  "heated": 6175, 
  "ф@@": 6176, 
  "disc": 6177, 
  "tips": 6178, 
  "bags": 6179, 
  "skill": 6180, 
  "LLC": 6181, 
  "surprising": 6182, 
  "restructuring": 6183, 
  "ible": 6184, 
  "pharmaceutical": 6185, 
  "gs": 6186, 
  "ania": 6187, 
  "telecommunications": 6188, 
  "actor": 6189, 
  "renowned": 6190, 
  "respondents": 6191, 
  "да@@": 6192, 
  "ba": 6193, 
  "ь": 6194, 
  "organizers": 6195, 
  "ze": 6196, 
  "healing": 6197, 
  "prayer": 6198, 
  "bid": 6199, 
  "Add": 6200, 
  "Fin@@": 6201, 
  "63": 6202, 
  "Pat@@": 6203, 
  "при@@": 6204, 
  "TS": 6205, 
  "forever": 6206, 
  "plate": 6207, 
  "survival": 6208, 
  "illness": 6209, 
  "UR@@": 6210, 
  "bat@@": 6211, 
  "alongside": 6212, 
  "Building": 6213, 
  "ò@@": 6214, 
  "PDF": 6215, 
  "damages": 6216, 
  "ries": 6217, 
  "Language": 6218, 
  "fruits": 6219, 
  "PRO@@": 6220, 
  "yt@@": 6221, 
  "E.": 6222, 
  "policymakers": 6223, 
  "vol@@": 6224, 
  "10.@@": 6225, 
  "tiny": 6226, 
  "sat": 6227, 
  "half-@@": 6228, 
  "din@@": 6229, 
  "reader": 6230, 
  "Ivan": 6231, 
  "deficits": 6232, 
  "log@@": 6233, 
  "Not": 6234, 
  "Azerbaijani": 6235, 
  "camps": 6236, 
  "ado": 6237, 
  "immigrants": 6238, 
  "Out": 6239, 
  "Jacuzzi": 6240, 
  "posed": 6241, 
  "bor@@": 6242, 
  "execute": 6243, 
  "sequence": 6244, 
  "obstacles": 6245, 
  "dimension": 6246, 
  "boom": 6247, 
  "chances": 6248, 
  "converted": 6249, 
  "implications": 6250, 
  "ner@@": 6251, 
  "dozens": 6252, 
  "uncertainty": 6253, 
  "magnetic": 6254, 
  "designated": 6255, 
  "adapted": 6256, 
  "tendency": 6257, 
  "Labour": 6258, 
  "Yerevan": 6259, 
  "AF@@": 6260, 
  "our@@": 6261, 
  "cat": 6262, 
  "3,@@": 6263, 
  "The@@": 6264, 
  "geographical": 6265, 
  "profiles": 6266, 
  "experiment": 6267, 
  "Adobe": 6268, 
  "SharePoint": 6269, 
  "varied": 6270, 
  "Valley": 6271, 
  "67": 6272, 
  "Start": 6273, 
  "non-governmental": 6274, 
  "engagement": 6275, 
  "60@@": 6276, 
  "static": 6277, 
  "अ@@": 6278, 
  "layers": 6279, 
  "prompt": 6280, 
  "rank": 6281, 
  "ingredients": 6282, 
  "GNU": 6283, 
  "vertical": 6284, 
  "mus@@": 6285, 
  "concentrated": 6286, 
  "ideology": 6287, 
  "halls": 6288, 
  "score": 6289, 
  "Sergey": 6290, 
  "samples": 6291, 
  "prospect": 6292, 
  "bas@@": 6293, 
  "stick": 6294, 
  ".ru": 6295, 
  "ю@@": 6296, 
  "a.m.": 6297, 
  "scripts": 6298, 
  "physics": 6299, 
  "Net": 6300, 
  "coordinated": 6301, 
  "unprecedented": 6302, 
  "Young": 6303, 
  "chart": 6304, 
  "AP": 6305, 
  "W.": 6306, 
  "C.": 6307, 
  "aut@@": 6308, 
  "ca@@": 6309, 
  "Account": 6310, 
  "Fed": 6311, 
  "turnover": 6312, 
  "outcomes": 6313, 
  "musicians": 6314, 
  "epidemic": 6315, 
  "-LCB-": 6316, 
  "SC": 6317, 
  "recover": 6318, 
  "Br@@": 6319, 
  "Afghan": 6320, 
  "chemicals": 6321, 
  "pride": 6322, 
  "traders": 6323, 
  "propose": 6324, 
  "punishment": 6325, 
  "evaluate": 6326, 
  "adaptation": 6327, 
  "introducing": 6328, 
  "holy": 6329, 
  "Guide": 6330, 
  "Cultural": 6331, 
  "iness": 6332, 
  "key@@": 6333, 
  "dramatically": 6334, 
  "К@@": 6335, 
  "etic": 6336, 
  "ों": 6337, 
  "sick": 6338, 
  "ron": 6339, 
  "separately": 6340, 
  "lev@@": 6341, 
  "terrible": 6342, 
  "emerge": 6343, 
  "economically": 6344, 
  "shortly": 6345, 
  "themes": 6346, 
  "ining": 6347, 
  "paint": 6348, 
  "mi@@": 6349, 
  "console": 6350, 
  "radi@@": 6351, 
  "cookies": 6352, 
  "Te@@": 6353, 
  "Hel@@": 6354, 
  "patent": 6355, 
  "rail": 6356, 
  "derived": 6357, 
  "vegetables": 6358, 
  "See": 6359, 
  "paintings": 6360, 
  "tru@@": 6361, 
  "NGO": 6362, 
  "Engineering": 6363, 
  "taxi": 6364, 
  "warranty": 6365, 
  "ह@@": 6366, 
  "arbitrary": 6367, 
  "codes": 6368, 
  "giant": 6369, 
  "puts": 6370, 
  "impose": 6371, 
  "installations": 6372, 
  "l-@@": 6373, 
  "login": 6374, 
  "Cl@@": 6375, 
  "solidarity": 6376, 
  "2015": 6377, 
  "undertake": 6378, 
  "fleet": 6379, 
  "Strategy": 6380, 
  "Division": 6381, 
  "Premier": 6382, 
  "SE": 6383, 
  "liable": 6384, 
  "Trans@@": 6385, 
  "Ram@@": 6386, 
  "Plaza": 6387, 
  "Croatia": 6388, 
  "CD@@": 6389, 
  "PA": 6390, 
  "surveillance": 6391, 
  "ied": 6392, 
  "acid": 6393, 
  "let@@": 6394, 
  "Gor@@": 6395, 
  "PHP": 6396, 
  "seller": 6397, 
  "subsequently": 6398, 
  "argued": 6399, 
  "ann@@": 6400, 
  "semi-@@": 6401, 
  "tens": 6402, 
  "cher": 6403, 
  "Go@@": 6404, 
  "stressed": 6405, 
  "emotions": 6406, 
  "Bill": 6407, 
  "hide": 6408, 
  "Republican": 6409, 
  "oral": 6410, 
  "Place": 6411, 
  "от@@": 6412, 
  "tan@@": 6413, 
  "Nero": 6414, 
  "par": 6415, 
  "corporation": 6416, 
  "factories": 6417, 
  "resident": 6418, 
  "licenses": 6419, 
  "Mikhail": 6420, 
  "performances": 6421, 
  "matches": 6422, 
  "á": 6423, 
  "chronic": 6424, 
  "sister": 6425, 
  "ION": 6426, 
  "GmbH": 6427, 
  "19@@": 6428, 
  "encouraging": 6429, 
  "Type": 6430, 
  "ide@@": 6431, 
  "riding": 6432, 
  "intelligent": 6433, 
  "voltage": 6434, 
  "celebration": 6435, 
  "hearts": 6436, 
  "commit": 6437, 
  "sur": 6438, 
  "adapt": 6439, 
  "mounted": 6440, 
  "van": 6441, 
  "-to-@@": 6442, 
  "creature": 6443, 
  "ico": 6444, 
  "sit@@": 6445, 
  "subsidiary": 6446, 
  "tariffs": 6447, 
  "admitted": 6448, 
  "gym": 6449, 
  "theoretical": 6450, 
  "ô@@": 6451, 
  "investigations": 6452, 
  "resolved": 6453, 
  "generating": 6454, 
  "Who": 6455, 
  "А@@": 6456, 
  "conservative": 6457, 
  "Bridal": 6458, 
  "land@@": 6459, 
  "worthy": 6460, 
  "CE@@": 6461, 
  "Hotels": 6462, 
  "tough": 6463, 
  "Rules": 6464, 
  "anger": 6465, 
  "distinct": 6466, 
  "incomes": 6467, 
  "clothing": 6468, 
  "inevitable": 6469, 
  "ave": 6470, 
  "full-@@": 6471, 
  "plain": 6472, 
  "gathering": 6473, 
  "cy@@": 6474, 
  "clo@@": 6475, 
  "avec": 6476, 
  "welcomed": 6477, 
  "container": 6478, 
  "silence": 6479, 
  "photographs": 6480, 
  "ography": 6481, 
  "masters": 6482, 
  "obliged": 6483, 
  "jointly": 6484, 
  "challenging": 6485, 
  "authentication": 6486, 
  "Property": 6487, 
  "profound": 6488, 
  "spam": 6489, 
  "Ambassador": 6490, 
  "yev": 6491, 
  "02": 6492, 
  "LCD": 6493, 
  "missile": 6494, 
  "ust@@": 6495, 
  "penalty": 6496, 
  "bin": 6497, 
  "10-@@": 6498, 
  "Lo@@": 6499, 
  "ase": 6500, 
  "golden": 6501, 
  "Secretary-General": 6502, 
  "combining": 6503, 
  "instruction": 6504, 
  "liabilities": 6505, 
  "realistic": 6506, 
  "foreigners": 6507, 
  "maker": 6508, 
  "P.@@": 6509, 
  "PR@@": 6510, 
  "Active": 6511, 
  "т": 6512, 
  "है": 6513, 
  "stimulus": 6514, 
  "Can": 6515, 
  "Land": 6516, 
  "69": 6517, 
  "Estonian": 6518, 
  "ने": 6519, 
  "purchases": 6520, 
  "inventory": 6521, 
  "demonstration": 6522, 
  "Environmental": 6523, 
  "appointment": 6524, 
  "bond": 6525, 
  "Reg@@": 6526, 
  "Oh": 6527, 
  "uz@@": 6528, 
  "Resources": 6529, 
  "Gra@@": 6530, 
  "Joint": 6531, 
  "vulnerability": 6532, 
  "Double": 6533, 
  "expenditures": 6534, 
  "-RCB-": 6535, 
  "dominant": 6536, 
  "Economy": 6537, 
  "discounts": 6538, 
  "exercises": 6539, 
  "multi@@": 6540, 
  "rescue": 6541, 
  "ple@@": 6542, 
  "strengthened": 6543, 
  "blind": 6544, 
  "Warsaw": 6545, 
  "ine@@": 6546, 
  "boasts": 6547, 
  "catalogue": 6548, 
  "pin@@": 6549, 
  "vessel": 6550, 
  "welcoming": 6551, 
  "ette": 6552, 
  "shock": 6553, 
  "Down": 6554, 
  "recreation": 6555, 
  "belonging": 6556, 
  "wholesale": 6557, 
  "Edition": 6558, 
  "Atlantic": 6559, 
  "consist": 6560, 
  "य@@": 6561, 
  "translations": 6562, 
  "Boris": 6563, 
  "restricted": 6564, 
  "dignity": 6565, 
  "conveniently": 6566, 
  "modes": 6567, 
  "dy": 6568, 
  "18th": 6569, 
  "sacred": 6570, 
  "well-being": 6571, 
  "ec": 6572, 
  "В@@": 6573, 
  "distinguished": 6574, 
  "PC@@": 6575, 
  "D-@@": 6576, 
  "Poker": 6577, 
  "1970": 6578, 
  "taxation": 6579, 
  "ck": 6580, 
  "legitimacy": 6581, 
  "Nice": 6582, 
  "akh@@": 6583, 
  "ian@@": 6584, 
  "marine": 6585, 
  "transmitted": 6586, 
  "truck": 6587, 
  "I-@@": 6588, 
  "Series": 6589, 
  "part@@": 6590, 
  "ру@@": 6591, 
  "trademark": 6592, 
  "impacts": 6593, 
  "Barack": 6594, 
  "Vietnam": 6595, 
  "proceed": 6596, 
  "filed": 6597, 
  "Members": 6598, 
  "Char@@": 6599, 
  "requiring": 6600, 
  "Pa@@": 6601, 
  "ovich": 6602, 
  "tender": 6603, 
  "ди@@": 6604, 
  "proximity": 6605, 
  "med@@": 6606, 
  "afternoon": 6607, 
  "creativity": 6608, 
  "M.@@": 6609, 
  "ari": 6610, 
  "monument": 6611, 
  "ag": 6612, 
  "Universal": 6613, 
  "MA": 6614, 
  "rid": 6615, 
  "100@@": 6616, 
  "form@@": 6617, 
  "Country": 6618, 
  "ED@@": 6619, 
  "Tower": 6620, 
  "Lunches": 6621, 
  "Av@@": 6622, 
  "formula": 6623, 
  "68": 6624, 
  "donors": 6625, 
  "forums": 6626, 
  "auto": 6627, 
  "debts": 6628, 
  "upcoming": 6629, 
  "shell": 6630, 
  "pipes": 6631, 
  "insert": 6632, 
  "accommodate": 6633, 
  "subsidies": 6634, 
  "eth@@": 6635, 
  "chairs": 6636, 
  "GPS": 6637, 
  "Florence": 6638, 
  "resistant": 6639, 
  "rig@@": 6640, 
  "Ly@@": 6641, 
  "preferences": 6642, 
  "demanded": 6643, 
  "Soundproofed": 6644, 
  "Framework": 6645, 
  "fears": 6646, 
  "Prize": 6647, 
  "Point": 6648, 
  "kin@@": 6649, 
  "eternal": 6650, 
  "Two": 6651, 
  "develops": 6652, 
  "Hiking": 6653, 
  "Nuclear": 6654, 
  "PR": 6655, 
  "Hor@@": 6656, 
  "overseas": 6657, 
  "Bu@@": 6658, 
  "bit@@": 6659, 
  "yl@@": 6660, 
  "regimes": 6661, 
  "somehow": 6662, 
  "ues": 6663, 
  "को": 6664, 
  "CO2": 6665, 
  "ext@@": 6666, 
  "distribute": 6667, 
  "pass@@": 6668, 
  "ма@@": 6669, 
  "trucks": 6670, 
  "03": 6671, 
  "detect": 6672, 
  "notion": 6673, 
  "anyway": 6674, 
  "MS@@": 6675, 
  "ет": 6676, 
  "partial": 6677, 
  "ो@@": 6678, 
  "on-line": 6679, 
  "credits": 6680, 
  "incident": 6681, 
  "stem": 6682, 
  "continuously": 6683, 
  "discipline": 6684, 
  "presidency": 6685, 
  "progressive": 6686, 
  "ured": 6687, 
  "Constitutional": 6688, 
  "trials": 6689, 
  "washing": 6690, 
  "61": 6691, 
  "su": 6692, 
  "broke": 6693, 
  "dle": 6694, 
  "sil@@": 6695, 
  "े@@": 6696, 
  "Steel": 6697, 
  "multimedia": 6698, 
  "EP": 6699, 
  "hill": 6700, 
  "mount": 6701, 
  "Course": 6702, 
  "не": 6703, 
  "Authority": 6704, 
  "Shanghai": 6705, 
  "infected": 6706, 
  "à@@": 6707, 
  "independently": 6708, 
  "fails": 6709, 
  "Ka@@": 6710, 
  "salt": 6711, 
  "travelling": 6712, 
  "Tuesday": 6713, 
  "का": 6714, 
  "sor@@": 6715, 
  "97": 6716, 
  "NOT": 6717, 
  "ker@@": 6718, 
  "alists": 6719, 
  "highlights": 6720, 
  "V.@@": 6721, 
  "po": 6722, 
  "announcement": 6723, 
  "determining": 6724, 
  "ит@@": 6725, 
  "inequality": 6726, 
  "admit": 6727, 
  "delivering": 6728, 
  "lying": 6729, 
  "Wil@@": 6730, 
  "globe": 6731, 
  "minorities": 6732, 
  "Fair": 6733, 
  "lasting": 6734, 
  "900": 6735, 
  "licensed": 6736, 
  "retain": 6737, 
  "sciences": 6738, 
  "down@@": 6739, 
  "Tro@@": 6740, 
  "Get": 6741, 
  "receipt": 6742, 
  "Queen": 6743, 
  "bal@@": 6744, 
  "invasion": 6745, 
  "Palestine": 6746, 
  "importantly": 6747, 
  "arm@@": 6748, 
  "cooking": 6749, 
  "guys": 6750, 
  "з": 6751, 
  "honest": 6752, 
  "ys@@": 6753, 
  "î": 6754, 
  "childhood": 6755, 
  "ante": 6756, 
  "च@@": 6757, 
  "palace": 6758, 
  "Kon@@": 6759, 
  "Stock": 6760, 
  "Ho@@": 6761, 
  "Mus@@": 6762, 
  "Ocean": 6763, 
  "Canadian": 6764, 
  "son@@": 6765, 
  "exploration": 6766, 
  "shore": 6767, 
  "alike": 6768, 
  "IBM": 6769, 
  "Germans": 6770, 
  "fitted": 6771, 
  "Sofia": 6772, 
  "ic-@@": 6773, 
  "nit@@": 6774, 
  "ute": 6775, 
  "CA": 6776, 
  "pump": 6777, 
  "communist": 6778, 
  "activate": 6779, 
  "talented": 6780, 
  "legacy": 6781, 
  "9-@@": 6782, 
  "Mary": 6783, 
  "Annex": 6784, 
  "optimization": 6785, 
  "critics": 6786, 
  "protective": 6787, 
  "org@@": 6788, 
  "behaviour": 6789, 
  "countryside": 6790, 
  "hyper@@": 6791, 
  "ified": 6792, 
  "college": 6793, 
  "influenced": 6794, 
  "Will": 6795, 
  "ida": 6796, 
  "electronics": 6797, 
  "breeding": 6798, 
  "tries": 6799, 
  "wake": 6800, 
  "Electric": 6801, 
  "welcomes": 6802, 
  "ency": 6803, 
  "financed": 6804, 
  "panels": 6805, 
  "ences": 6806, 
  "defines": 6807, 
  "plan@@": 6808, 
  "air-conditioned": 6809, 
  "Tools": 6810, 
  "Il@@": 6811, 
  "analyze": 6812, 
  "automation": 6813, 
  "Б@@": 6814, 
  "bone": 6815, 
  "viruses": 6816, 
  "04": 6817, 
  "bay": 6818, 
  "Port": 6819, 
  "optional": 6820, 
  "Song": 6821, 
  "Stalin": 6822, 
  "cross-@@": 6823, 
  "Application": 6824, 
  "spots": 6825, 
  "Forces": 6826, 
  "iting": 6827, 
  "Jordan": 6828, 
  "Castle": 6829, 
  "stor@@": 6830, 
  "ony": 6831, 
  "Е@@": 6832, 
  "modest": 6833, 
  "Expo": 6834, 
  "Far": 6835, 
  "sized": 6836, 
  "routine": 6837, 
  "accomplished": 6838, 
  "Criminal": 6839, 
  "Professional": 6840, 
  "forgotten": 6841, 
  "das": 6842, 
  "gate": 6843, 
  "sid@@": 6844, 
  "1.2": 6845, 
  "baggage": 6846, 
  "minibar": 6847, 
  "Kazan": 6848, 
  "sen": 6849, 
  "passion": 6850, 
  "tension": 6851, 
  "attacked": 6852, 
  "superb": 6853, 
  "appreciation": 6854, 
  "÷@@": 6855, 
  "ex-@@": 6856, 
  "reaches": 6857, 
  "dealer": 6858, 
  "resorts": 6859, 
  "paths": 6860, 
  "SD@@": 6861, 
  "tracking": 6862, 
  "dé@@": 6863, 
  "`s": 6864, 
  "pos@@": 6865, 
  "overview": 6866, 
  "Budapest": 6867, 
  "wor@@": 6868, 
  "Des@@": 6869, 
  "hunger": 6870, 
  "speaks": 6871, 
  "buses": 6872, 
  "pot": 6873, 
  "Munich": 6874, 
  "wherever": 6875, 
  "preparations": 6876, 
  "P-@@": 6877, 
  "pul@@": 6878, 
  "render": 6879, 
  "accession": 6880, 
  "Du@@": 6881, 
  "grants": 6882, 
  "प्र@@": 6883, 
  "Gallery": 6884, 
  "offshore": 6885, 
  "Gift": 6886, 
  "legs": 6887, 
  "exp@@": 6888, 
  "Night": 6889, 
  "Venezuela": 6890, 
  "Little": 6891, 
  "Souvenirs": 6892, 
  "Ku@@": 6893, 
  "Are": 6894, 
  "translate": 6895, 
  "ming": 6896, 
  "ideological": 6897, 
  "Next": 6898, 
  "SU@@": 6899, 
  "ł@@": 6900, 
  "Third": 6901, 
  "med": 6902, 
  "dealt": 6903, 
  "attraction": 6904, 
  "alternatives": 6905, 
  "PM": 6906, 
  "Computer": 6907, 
  "Taliban": 6908, 
  "path@@": 6909, 
  "unified": 6910, 
  "Credit": 6911, 
  "analytical": 6912, 
  "Net@@": 6913, 
  "smile": 6914, 
  "So@@": 6915, 
  "traveling": 6916, 
  "celebrate": 6917, 
  "Dmitry": 6918, 
  "Wednesday": 6919, 
  "MP@@": 6920, 
  "conscious": 6921, 
  "blame": 6922, 
  "decent": 6923, 
  "AV@@": 6924, 
  "Kazakh": 6925, 
  "Igor": 6926, 
  "Sergei": 6927, 
  "Excel": 6928, 
  "oring": 6929, 
  "shadow": 6930, 
  "श@@": 6931, 
  "visitor": 6932, 
  "cement": 6933, 
  "bo": 6934, 
  "Indoor": 6935, 
  "3-star": 6936, 
  "ologists": 6937, 
  "mol@@": 6938, 
  "bands": 6939, 
  "G.": 6940, 
  "robust": 6941, 
  "removing": 6942, 
  "rice": 6943, 
  "pipe": 6944, 
  "ATM": 6945, 
  "LO@@": 6946, 
  "affects": 6947, 
  "identifying": 6948, 
  "appreciated": 6949, 
  "succeeded": 6950, 
  "cam@@": 6951, 
  "socialist": 6952, 
  "amounted": 6953, 
  "biodiversity": 6954, 
  "ax@@": 6955, 
  "Mark": 6956, 
  "writers": 6957, 
  "portable": 6958, 
  "pra@@": 6959, 
  "Hospital": 6960, 
  "lifestyle": 6961, 
  "Relations": 6962, 
  "respected": 6963, 
  "literally": 6964, 
  "comfortably": 6965, 
  "competence": 6966, 
  "grave": 6967, 
  "Digital": 6968, 
  "lat@@": 6969, 
  "heaven": 6970, 
  "soci@@": 6971, 
  "carrier": 6972, 
  "24-hour": 6973, 
  "Siberia": 6974, 
  "Source": 6975, 
  "but@@": 6976, 
  "kilometres": 6977, 
  "smoke": 6978, 
  "destinations": 6979, 
  "Chechen": 6980, 
  "over-@@": 6981, 
  "Madrid": 6982, 
  "adjusted": 6983, 
  "od": 6984, 
  "ó": 6985, 
  "medieval": 6986, 
  "automobile": 6987, 
  "abl@@": 6988, 
  "margin": 6989, 
  "incoming": 6990, 
  "Si@@": 6991, 
  "advise": 6992, 
  "pupils": 6993, 
  "OL@@": 6994, 
  "rendering": 6995, 
  "deemed": 6996, 
  "May@@": 6997, 
  "undoubtedly": 6998, 
  "Ac@@": 6999, 
  "failures": 7000, 
  "cel@@": 7001, 
  "blocked": 7002, 
  "ÿ@@": 7003, 
  "somebody": 7004, 
  "random": 7005, 
  "pray": 7006, 
  "Fe@@": 7007, 
  "monastery": 7008, 
  "institute": 7009, 
  "ath@@": 7010, 
  "05": 7011, 
  "cas@@": 7012, 
  "val@@": 7013, 
  "consolidation": 7014, 
  "Embassy": 7015, 
  "æ@@": 7016, 
  "dl@@": 7017, 
  "Barcelona": 7018, 
  "tre@@": 7019, 
  "permits": 7020, 
  "sed@@": 7021, 
  "де@@": 7022, 
  "ignore": 7023, 
  "networking": 7024, 
  "Zh@@": 7025, 
  "ink": 7026, 
  "Channels": 7027, 
  "gr@@": 7028, 
  "CC@@": 7029, 
  "finishing": 7030, 
  "crops": 7031, 
  "27@@": 7032, 
  "Apartments": 7033, 
  "uniform": 7034, 
  "Kaz@@": 7035, 
  "disappeared": 7036, 
  "cancel": 7037, 
  "Ltd.": 7038, 
  "whilst": 7039, 
  "attributes": 7040, 
  "deb@@": 7041, 
  "ignored": 7042, 
  "College": 7043, 
  "possess": 7044, 
  "experimental": 7045, 
  "Resolution": 7046, 
  "decoration": 7047, 
  "compatibility": 7048, 
  "Roma": 7049, 
  "distant": 7050, 
  "mag@@": 7051, 
  "deleted": 7052, 
  "comp@@": 7053, 
  "recommendation": 7054, 
  "economical": 7055, 
  "painted": 7056, 
  "grows": 7057, 
  "macroeconomic": 7058, 
  "fulfilled": 7059, 
  "book@@": 7060, 
  "outer": 7061, 
  "ц@@": 7062, 
  "akov": 7063, 
  "wa@@": 7064, 
  "trademarks": 7065, 
  "Gl@@": 7066, 
  "talked": 7067, 
  "clinic": 7068, 
  "Visual": 7069, 
  "N.": 7070, 
  "71": 7071, 
  "Д@@": 7072, 
  "Commerce": 7073, 
  "pays": 7074, 
  "pushed": 7075, 
  "rational": 7076, 
  "observation": 7077, 
  "j": 7078, 
  "cinema": 7079, 
  "ILO": 7080, 
  "Med@@": 7081, 
  "Almaty": 7082, 
  "mandatory": 7083, 
  "writes": 7084, 
  "Holiday": 7085, 
  "focuses": 7086, 
  "ej@@": 7087, 
  "96": 7088, 
  "vin@@": 7089, 
  "Sw@@": 7090, 
  "cluster": 7091, 
  "healthcare": 7092, 
  "referendum": 7093, 
  "UT@@": 7094, 
  "pit@@": 7095, 
  "asi": 7096, 
  "Lin@@": 7097, 
  "pa": 7098, 
  "suspended": 7099, 
  "©": 7100, 
  "burn": 7101, 
  "sharply": 7102, 
  "notably": 7103, 
  "isolated": 7104, 
  "Line": 7105, 
  "legally": 7106, 
  "Properties": 7107, 
  "state-of-the-art": 7108, 
  "displaced": 7109, 
  "kon@@": 7110, 
  "sustainability": 7111, 
  "drag": 7112, 
  "crowd": 7113, 
  "IR": 7114, 
  "Ha@@": 7115, 
  "Class": 7116, 
  "gaining": 7117, 
  "powered": 7118, 
  "str@@": 7119, 
  "jo@@": 7120, 
  "NO@@": 7121, 
  "silent": 7122, 
  "laptop": 7123, 
  "sake": 7124, 
  "partially": 7125, 
  "depression": 7126, 
  "76": 7127, 
  "renewable": 7128, 
  "concentrate": 7129, 
  "no-@@": 7130, 
  "Tal@@": 7131, 
  "hectares": 7132, 
  "ups": 7133, 
  "EL": 7134, 
  "Number": 7135, 
  "businessmen": 7136, 
  "Options": 7137, 
  "emphasized": 7138, 
  "Duma": 7139, 
  "classification": 7140, 
  "Rom@@": 7141, 
  "Austrian": 7142, 
  "fra@@": 7143, 
  "acknowledged": 7144, 
  "tin@@": 7145, 
  "Game": 7146, 
  "Tokyo": 7147, 
  "ava": 7148, 
  "10,000": 7149, 
  "Crimea": 7150, 
  "capitalist": 7151, 
  "ceiling": 7152, 
  "Dr": 7153, 
  "instability": 7154, 
  "mit@@": 7155, 
  "щ@@": 7156, 
  "complimentary": 7157, 
  "aro@@": 7158, 
  "eve": 7159, 
  "cheaper": 7160, 
  "cent@@": 7161, 
  "foundations": 7162, 
  "Monetary": 7163, 
  "dominated": 7164, 
  "singer": 7165, 
  "ranks": 7166, 
  "dy@@": 7167, 
  "Cap@@": 7168, 
  "ances": 7169, 
  "rap@@": 7170, 
  "Red@@": 7171, 
  "आ@@": 7172, 
  "bottle": 7173, 
  "dose": 7174, 
  "Jo@@": 7175, 
  "tran@@": 7176, 
  "mutually": 7177, 
  "tering": 7178, 
  "Gre@@": 7179, 
  "recall": 7180, 
  "Way": 7181, 
  "Gen@@": 7182, 
  "eting": 7183, 
  "OP@@": 7184, 
  "broadcasting": 7185, 
  "capita": 7186, 
  "globally": 7187, 
  "variables": 7188, 
  "cotton": 7189, 
  "lakes": 7190, 
  "Moon": 7191, 
  "74": 7192, 
  "yn@@": 7193, 
  "3000": 7194, 
  "ax": 7195, 
  "density": 7196, 
  "thinks": 7197, 
  "88": 7198, 
  "billions": 7199, 
  "tropical": 7200, 
  "expenditure": 7201, 
  "submission": 7202, 
  "fortunately": 7203, 
  "lim@@": 7204, 
  "tube": 7205, 
  "medicines": 7206, 
  "aring": 7207, 
  "ases": 7208, 
  "Christianity": 7209, 
  "pull": 7210, 
  "Copenhagen": 7211, 
  "Caribbean": 7212, 
  "ध@@": 7213, 
  "substantially": 7214, 
  "Gi@@": 7215, 
  "CL@@": 7216, 
  "launching": 7217, 
  "defining": 7218, 
  "Gas": 7219, 
  "detected": 7220, 
  "columns": 7221, 
  "Res@@": 7222, 
  "regulated": 7223, 
  "dr@@": 7224, 
  "neighboring": 7225, 
  "Rus@@": 7226, 
  "CO": 7227, 
  "consolidated": 7228, 
  "21st": 7229, 
  "serial": 7230, 
  "Nature": 7231, 
  "contributing": 7232, 
  "þ@@": 7233, 
  "rolling": 7234, 
  "Bra@@": 7235, 
  "tobacco": 7236, 
  "menus": 7237, 
  "About": 7238, 
  "promoted": 7239, 
  "remind": 7240, 
  "divine": 7241, 
  "desirable": 7242, 
  "transform": 7243, 
  "mounting": 7244, 
  "preservation": 7245, 
  "Rad@@": 7246, 
  "Rec@@": 7247, 
  "ī@@": 7248, 
  "Richard": 7249, 
  "Pack": 7250, 
  "experiments": 7251, 
  "Ben@@": 7252, 
  "1988": 7253, 
  "boundaries": 7254, 
  "delegates": 7255, 
  "Mountain": 7256, 
  "steady": 7257, 
  "declined": 7258, 
  "accumulated": 7259, 
  "check-in": 7260, 
  "92": 7261, 
  "harder": 7262, 
  "reviewed": 7263, 
  "villas": 7264, 
  "captured": 7265, 
  "conformity": 7266, 
  "Tel@@": 7267, 
  "SS": 7268, 
  "interviews": 7269, 
  "warned": 7270, 
  "ome": 7271, 
  "tonnes": 7272, 
  "On@@": 7273, 
  "icons": 7274, 
  "र": 7275, 
  "onic": 7276, 
  "Frankfurt": 7277, 
  "imprisonment": 7278, 
  "Smith": 7279, 
  "LED": 7280, 
  "employer": 7281, 
  "budgets": 7282, 
  "Training": 7283, 
  "Wellness": 7284, 
  "86": 7285, 
  "77": 7286, 
  "sou@@": 7287, 
  "Economics": 7288, 
  "Tashkent": 7289, 
  "ams": 7290, 
  "gaming": 7291, 
  "bre@@": 7292, 
  "Hill": 7293, 
  "theater": 7294, 
  "faculty": 7295, 
  "singing": 7296, 
  "thick": 7297, 
  "professionalism": 7298, 
  "ih@@": 7299, 
  "breaks": 7300, 
  "boats": 7301, 
  "ech": 7302, 
  "ET": 7303, 
  "withdraw": 7304, 
  "78": 7305, 
  "WC": 7306, 
  "Cas@@": 7307, 
  "identical": 7308, 
  "0-@@": 7309, 
  "ew@@": 7310, 
  "donor": 7311, 
  "settle": 7312, 
  "ного": 7313, 
  "dependence": 7314, 
  "ethical": 7315, 
  "scan": 7316, 
  "esh@@": 7317, 
  "ato": 7318, 
  "protocols": 7319, 
  "farms": 7320, 
  "warehouse": 7321, 
  "Ty@@": 7322, 
  "Natural": 7323, 
  "dist@@": 7324, 
  "seeds": 7325, 
  "ambitious": 7326, 
  "nic@@": 7327, 
  "iveness": 7328, 
  "beside": 7329, 
  "gam@@": 7330, 
  "activated": 7331, 
  "coastal": 7332, 
  "Internal": 7333, 
  "acted": 7334, 
  "ishing": 7335, 
  "lar@@": 7336, 
  "diplomacy": 7337, 
  "accountability": 7338, 
  "slopes": 7339, 
  "DJ": 7340, 
  "вы@@": 7341, 
  "correction": 7342, 
  "73": 7343, 
  "ots": 7344, 
  "ong@@": 7345, 
  "intensity": 7346, 
  "sunny": 7347, 
  "CT@@": 7348, 
  "corrupt": 7349, 
  "Iron": 7350, 
  "TR@@": 7351, 
  "justified": 7352, 
  "qualification": 7353, 
  "lit@@": 7354, 
  "diameter": 7355, 
  "rubber": 7356, 
  "Production": 7357, 
  "freedoms": 7358, 
  "fun@@": 7359, 
  "Mod@@": 7360, 
  "va": 7361, 
  "attitudes": 7362, 
  "Arctic": 7363, 
  "featured": 7364, 
  "bled": 7365, 
  "Viktor": 7366, 
  "isolation": 7367, 
  "ratings": 7368, 
  "cache": 7369, 
  "tensions": 7370, 
  "newest": 7371, 
  "novel": 7372, 
  "break@@": 7373, 
  "mobility": 7374, 
  "Ski": 7375, 
  "jet": 7376, 
  "cit@@": 7377, 
  "ify": 7378, 
  "VPN": 7379, 
  "sat@@": 7380, 
  "cup": 7381, 
  "ïî@@": 7382, 
  "ла@@": 7383, 
  "ao": 7384, 
  "WiFi": 7385, 
  "wheat": 7386, 
  "downtown": 7387, 
  "fol@@": 7388, 
  "seed": 7389, 
  "CR@@": 7390, 
  "Review": 7391, 
  "Joseph": 7392, 
  "privileges": 7393, 
  "ila": 7394, 
  "garage": 7395, 
  "350": 7396, 
  "zy@@": 7397, 
  "ат@@": 7398, 
  "commodities": 7399, 
  "inch": 7400, 
  "examined": 7401, 
  "amp": 7402, 
  "unt@@": 7403, 
  "shoes": 7404, 
  "calculations": 7405, 
  "ref@@": 7406, 
  "insufficient": 7407, 
  "immune": 7408, 
  "fought": 7409, 
  "130": 7410, 
  "ought": 7411, 
  "bling": 7412, 
  "referring": 7413, 
  "HD": 7414, 
  "Configuration": 7415, 
  "albums": 7416, 
  "0,@@": 7417, 
  "мен@@": 7418, 
  "crop": 7419, 
  "excluded": 7420, 
  "applicants": 7421, 
  "82": 7422, 
  "beliefs": 7423, 
  "squ@@": 7424, 
  "consult": 7425, 
  "Phone": 7426, 
  "thoroughly": 7427, 
  "tolerance": 7428, 
  "Last": 7429, 
  "Money": 7430, 
  "Beauty": 7431, 
  "passage": 7432, 
  "aggregate": 7433, 
  "eds": 7434, 
  "pricing": 7435, 
  "seasonal": 7436, 
  "ता": 7437, 
  "API": 7438, 
  "LE": 7439, 
  "atic": 7440, 
  "conf@@": 7441, 
  "appliances": 7442, 
  "pose": 7443, 
  "automotive": 7444, 
  "get@@": 7445, 
  "shut": 7446, 
  "engineer": 7447, 
  "Saddam": 7448, 
  "SA": 7449, 
  "secured": 7450, 
  "deny": 7451, 
  "Thomas": 7452, 
  "performs": 7453, 
  "ition": 7454, 
  "possession": 7455, 
  "thereof": 7456, 
  "nu@@": 7457, 
  "5,000": 7458, 
  "180": 7459, 
  "sponsors": 7460, 
  "thirty": 7461, 
  "secretary": 7462, 
  "enhancing": 7463, 
  "15th": 7464, 
  "Partner": 7465, 
  "highlighted": 7466, 
  "consistently": 7467, 
  "Kur@@": 7468, 
  "stays": 7469, 
  "minimize": 7470, 
  "decisive": 7471, 
  "Out@@": 7472, 
  "cameras": 7473, 
  "reply": 7474, 
  "Islands": 7475, 
  "17th": 7476, 
  "1.1": 7477, 
  "Lithuanian": 7478, 
  "administrators": 7479, 
  "advertisement": 7480, 
  "ail": 7481, 
  "ables": 7482, 
  "ung@@": 7483, 
  "installer": 7484, 
  "cream": 7485, 
  "Son": 7486, 
  "cheese": 7487, 
  "N.@@": 7488, 
  "Website": 7489, 
  "ERS": 7490, 
  "brown": 7491, 
  "threatening": 7492, 
  "investigate": 7493, 
  "tape": 7494, 
  "holes": 7495, 
  "coat": 7496, 
  "acy": 7497, 
  "Back": 7498, 
  "presenting": 7499, 
  "Martin": 7500, 
  "Dor@@": 7501, 
  "í": 7502, 
  "favourite": 7503, 
  "Customs": 7504, 
  "divisions": 7505, 
  "resolutions": 7506, 
  "organism": 7507, 
  "interventions": 7508, 
  "ï@@": 7509, 
  "MO@@": 7510, 
  "hurt": 7511, 
  "packing": 7512, 
  "ecting": 7513, 
  "reflection": 7514, 
  "recipient": 7515, 
  "enters": 7516, 
  "Forest": 7517, 
  "seeks": 7518, 
  "upload": 7519, 
  "gre@@": 7520, 
  "propaganda": 7521, 
  "Firefox": 7522, 
  "surplus": 7523, 
  "ь@@": 7524, 
  "Adam": 7525, 
  "ville": 7526, 
  "interference": 7527, 
  "specifications": 7528, 
  "tired": 7529, 
  "banquet": 7530, 
  "permanently": 7531, 
  "adventure": 7532, 
  "ced": 7533, 
  "X-@@": 7534, 
  "precision": 7535, 
  "exported": 7536, 
  "pod@@": 7537, 
  "bird": 7538, 
  "Dan@@": 7539, 
  "rendered": 7540, 
  "intend": 7541, 
  "tag": 7542, 
  "Anna": 7543, 
  "voices": 7544, 
  "хо@@": 7545, 
  "painful": 7546, 
  "invites": 7547, 
  "Why": 7548, 
  "courage": 7549, 
  "templates": 7550, 
  "constructive": 7551, 
  "salary": 7552, 
  "ку": 7553, 
  "infections": 7554, 
  "tissue": 7555, 
  "copper": 7556, 
  "constructions": 7557, 
  "ums": 7558, 
  "screens": 7559, 
  "ills": 7560, 
  "ë@@": 7561, 
  "Partnership": 7562, 
  "pet": 7563, 
  "struck": 7564, 
  "rab@@": 7565, 
  "aqu@@": 7566, 
  "afterwards": 7567, 
  "affecting": 7568, 
  "End": 7569, 
  "pic@@": 7570, 
  "Heart": 7571, 
  "Ste@@": 7572, 
  "Advanced": 7573, 
  "DO@@": 7574, 
  "confidential": 7575, 
  "Н@@": 7576, 
  "Sony": 7577, 
  "ards": 7578, 
  "authentic": 7579, 
  "motorway": 7580, 
  "heart@@": 7581, 
  "Acc@@": 7582, 
  "cra@@": 7583, 
  "conclude": 7584, 
  "separation": 7585, 
  "ille": 7586, 
  "yard": 7587, 
  ".S@@": 7588, 
  "EX": 7589, 
  "suppose": 7590, 
  "wal@@": 7591, 
  "travellers": 7592, 
  "cop@@": 7593, 
  "ira": 7594, 
  "plates": 7595, 
  "crude": 7596, 
  "sufficiently": 7597, 
  "airports": 7598, 
  "mortality": 7599, 
  "bugs": 7600, 
  "M-@@": 7601, 
  "crash": 7602, 
  "ox@@": 7603, 
  "sav@@": 7604, 
  "breath": 7605, 
  "locate": 7606, 
  "nervous": 7607, 
  "locked": 7608, 
  "unexpected": 7609, 
  "eggs": 7610, 
  "orange": 7611, 
  "divide": 7612, 
  "acknowledge": 7613, 
  "incorporated": 7614, 
  "ali@@": 7615, 
  "slide": 7616, 
  "credibility": 7617, 
  "cut@@": 7618, 
  "rit@@": 7619, 
  "studios": 7620, 
  "brilliant": 7621, 
  "83": 7622, 
  "OECD": 7623, 
  "fraud": 7624, 
  "earnings": 7625, 
  "acute": 7626, 
  "ack": 7627, 
  "injured": 7628, 
  "rear": 7629, 
  "lease": 7630, 
  "utilities": 7631, 
  "diagnosis": 7632, 
  "Tax": 7633, 
  "injury": 7634, 
  "fabric": 7635, 
  "san@@": 7636, 
  "birthday": 7637, 
  "validity": 7638, 
  "maintains": 7639, 
  "Save": 7640, 
  "guilty": 7641, 
  "Personal": 7642, 
  "Legal": 7643, 
  "nonetheless": 7644, 
  "tyre": 7645, 
  "amb@@": 7646, 
  "OT@@": 7647, 
  "guitar": 7648, 
  "von": 7649, 
  "circuit": 7650, 
  "graduates": 7651, 
  "ल": 7652, 
  "3.5": 7653, 
  "super": 7654, 
  "suicide": 7655, 
  "Suites": 7656, 
  "P.": 7657, 
  "angle": 7658, 
  "english": 7659, 
  "segments": 7660, 
  "wed": 7661, 
  "advances": 7662, 
  "License": 7663, 
  "instances": 7664, 
  "Cycling": 7665, 
  "particles": 7666, 
  "bol@@": 7667, 
  "iv": 7668, 
  "inevitably": 7669, 
  "informational": 7670, 
  "worship": 7671, 
  "Bathroom": 7672, 
  "on-site": 7673, 
  "mask": 7674, 
  "Allah": 7675, 
  "voted": 7676, 
  "unstable": 7677, 
  "lucky": 7678, 
  "Norwegian": 7679, 
  "memories": 7680, 
  "subjected": 7681, 
  "profession": 7682, 
  "prim@@": 7683, 
  "Sar@@": 7684, 
  "IM": 7685, 
  "Lu@@": 7686, 
  "Championship": 7687, 
  "pun@@": 7688, 
  "ares": 7689, 
  "ме@@": 7690, 
  "comparable": 7691, 
  "ners": 7692, 
  "Update": 7693, 
  "ral": 7694, 
  "twelve": 7695, 
  "Lviv": 7696, 
  "4,@@": 7697, 
  "licensing": 7698, 
  "fault": 7699, 
  "93": 7700, 
  "assured": 7701, 
  "venue": 7702, 
  "juice": 7703, 
  "striking": 7704, 
  "Insurance": 7705, 
  "willingness": 7706, 
  "Ed@@": 7707, 
  "Uzbek": 7708, 
  "safely": 7709, 
  "ðî@@": 7710, 
  "hate": 7711, 
  "9001": 7712, 
  "Setup": 7713, 
  "Cash": 7714, 
  "qualitative": 7715, 
  "cou@@": 7716, 
  "ì": 7717, 
  "30-@@": 7718, 
  "Istanbul": 7719, 
  "eries": 7720, 
  "MD@@": 7721, 
  "imagination": 7722, 
  "CC": 7723, 
  "Doctor": 7724, 
  "pressures": 7725, 
  "surfaces": 7726, 
  "mailing": 7727, 
  "inclusion": 7728, 
  "Kim": 7729, 
  "Bridge": 7730, 
  "Total": 7731, 
  "revised": 7732, 
  "16th": 7733, 
  "Irish": 7734, 
  "Kir@@": 7735, 
  "naya": 7736, 
  "node": 7737, 
  "bed@@": 7738, 
  "Sur@@": 7739, 
  "optical": 7740, 
  "Forex": 7741, 
  "94": 7742, 
  "van@@": 7743, 
  "Russian-@@": 7744, 
  "weakness": 7745, 
  "titles": 7746, 
  "surveys": 7747, 
  "izes": 7748, 
  "gen": 7749, 
  "pel@@": 7750, 
  "Model": 7751, 
  "suspected": 7752, 
  "bulk": 7753, 
  "Odessa": 7754, 
  "centrally": 7755, 
  "plugin": 7756, 
  "mixture": 7757, 
  "maj@@": 7758, 
  "trusted": 7759, 
  "extract": 7760, 
  "Men@@": 7761, 
  "disks": 7762, 
  "Por@@": 7763, 
  "grace": 7764, 
  "citizenship": 7765, 
  "chan@@": 7766, 
  "single-@@": 7767, 
  "guess": 7768, 
  "Costa": 7769, 
  "kW": 7770, 
  "Vi@@": 7771, 
  "formerly": 7772, 
  "booked": 7773, 
  "sudden": 7774, 
  "embedded": 7775, 
  "py": 7776, 
  "assistant": 7777, 
  "Novgorod": 7778, 
  "э@@": 7779, 
  "muscle": 7780, 
  "cos@@": 7781, 
  "Prov@@": 7782, 
  "privileged": 7783, 
  "pot@@": 7784, 
  ".The": 7785, 
  "establishments": 7786, 
  "ster@@": 7787, 
  "abandoned": 7788, 
  "chess": 7789, 
  "servicing": 7790, 
  "airline": 7791, 
  "favourable": 7792, 
  "лі@@": 7793, 
  "Right": 7794, 
  "Tor": 7795, 
  "crossing": 7796, 
  "feeding": 7797, 
  "journal": 7798, 
  "Abu": 7799, 
  "Ash@@": 7800, 
  "illa": 7801, 
  "Mak@@": 7802, 
  "circles": 7803, 
  "port@@": 7804, 
  "neck": 7805, 
  "motivated": 7806, 
  "Mari@@": 7807, 
  "tragedy": 7808, 
  "pushing": 7809, 
  "photography": 7810, 
  "Partners": 7811, 
  "s.": 7812, 
  "top-@@": 7813, 
  "flower": 7814, 
  "wearing": 7815, 
  "coll@@": 7816, 
  "es.@@": 7817, 
  "Works": 7818, 
  "Oblast": 7819, 
  "exceeds": 7820, 
  "ı@@": 7821, 
  "Certificate": 7822, 
  "uranium": 7823, 
  "amp@@": 7824, 
  "Dubai": 7825, 
  "ster": 7826, 
  "ente": 7827, 
  "ili@@": 7828, 
  "AK@@": 7829, 
  "Pur@@": 7830, 
  "Holding": 7831, 
  "inadequate": 7832, 
  "Basic": 7833, 
  "sorts": 7834, 
  "Construction": 7835, 
  "Sarkozy": 7836, 
  "ve@@": 7837, 
  "bomb": 7838, 
  "hostel": 7839, 
  "Leningrad": 7840, 
  "mic@@": 7841, 
  "first-@@": 7842, 
  "Fran@@": 7843, 
  "Top": 7844, 
  "attribute": 7845, 
  "ENT": 7846, 
  "relaxed": 7847, 
  "RU@@": 7848, 
  "CPU": 7849, 
  "ud": 7850, 
  "Call": 7851, 
  "rep@@": 7852, 
  "PS": 7853, 
  "ect": 7854, 
  "fascinating": 7855, 
  "incredible": 7856, 
  "suited": 7857, 
  "permissions": 7858, 
  "Az@@": 7859, 
  "tap": 7860, 
  "emergence": 7861, 
  "Products": 7862, 
  "dancing": 7863, 
  "Police": 7864, 
  "lifetime": 7865, 
  "domains": 7866, 
  "nik": 7867, 
  "20-@@": 7868, 
  "Kol@@": 7869, 
  "FAO": 7870, 
  "deployed": 7871, 
  "dish": 7872, 
  "Image": 7873, 
  "diamond": 7874, 
  "top@@": 7875, 
  "strive": 7876, 
  "pin": 7877, 
  "Australian": 7878, 
  "unnecessary": 7879, 
  "coordinate": 7880, 
  "privatization": 7881, 
  "§": 7882, 
  "Malaysia": 7883, 
  "sq.m": 7884, 
  "ple": 7885, 
  "ес@@": 7886, 
  "openly": 7887, 
  "utilization": 7888, 
  "Ri@@": 7889, 
  "pregnancy": 7890, 
  "23@@": 7891, 
  "scenes": 7892, 
  "6th": 7893, 
  "oxygen": 7894, 
  "determines": 7895, 
  "picked": 7896, 
  "commander": 7897, 
  "Nobel": 7898, 
  "Select": 7899, 
  "kov@@": 7900, 
  "decree": 7901, 
  "roubles": 7902, 
  "dat@@": 7903, 
  "Metro": 7904, 
  "tions": 7905, 
  "си@@": 7906, 
  "exploring": 7907, 
  "Analysis": 7908, 
  "protects": 7909, 
  "Emperor": 7910, 
  "elle": 7911, 
  "new@@": 7912, 
  "declare": 7913, 
  "Ur@@": 7914, 
  "Tim@@": 7915, 
  "encryption": 7916, 
  "assortment": 7917, 
  "missed": 7918, 
  "craft": 7919, 
  "systematic": 7920, 
  "hon@@": 7921, 
  "genocide": 7922, 
  "ication": 7923, 
  "computing": 7924, 
  "threshold": 7925, 
  "za@@": 7926, 
  "predict": 7927, 
  "eligible": 7928, 
  "PO@@": 7929, 
  "aria": 7930, 
  "gran@@": 7931, 
  "dental": 7932, 
  "-related": 7933, 
  "су@@": 7934, 
  "2.1": 7935, 
  "scenarios": 7936, 
  "1945": 7937, 
  "tied": 7938, 
  "secular": 7939, 
  "anonymous": 7940, 
  "Ossetia": 7941, 
  "jump": 7942, 
  "Ca@@": 7943, 
  "rob@@": 7944, 
  "tight": 7945, 
  "guy": 7946, 
  "inclusive": 7947, 
  "verification": 7948, 
  "of-@@": 7949, 
  "thrown": 7950, 
  "Ra@@": 7951, 
  "Mother": 7952, 
  "sent@@": 7953, 
  "distinctive": 7954, 
  "democracies": 7955, 
  "ch-@@": 7956, 
  "14.@@": 7957, 
  "spreading": 7958, 
  "bike": 7959, 
  "Hal@@": 7960, 
  "Fer@@": 7961, 
  "crystal": 7962, 
  "een": 7963, 
  "ail@@": 7964, 
  "sends": 7965, 
  "tones": 7966, 
  "thorough": 7967, 
  "adverse": 7968, 
  "Chile": 7969, 
  "attempted": 7970, 
  "7th": 7971, 
  "black@@": 7972, 
  "architect": 7973, 
  "Toilet": 7974, 
  "tub": 7975, 
  "Communications": 7976, 
  "mil@@": 7977, 
  "Mul@@": 7978, 
  "Freedom": 7979, 
  "exotic": 7980, 
  "TO@@": 7981, 
  "springs": 7982, 
  "priest": 7983, 
  "phenomena": 7984, 
  "firmly": 7985, 
  "buffer": 7986, 
  "mot@@": 7987, 
  "leverage": 7988, 
  "toiletries": 7989, 
  "Sun@@": 7990, 
  "L.": 7991, 
  "badly": 7992, 
  "thy": 7993, 
  "chenko": 7994, 
  "real-time": 7995, 
  "poorest": 7996, 
  "valued": 7997, 
  "charity": 7998, 
  "WH@@": 7999, 
  "outlets": 8000, 
  "Cur@@": 8001, 
  "riv@@": 8002, 
  "ego": 8003, 
  "fits": 8004, 
  "Like": 8005, 
  "bubble": 8006, 
  "guides": 8007, 
  "д": 8008, 
  "These": 8009, 
  "भ@@": 8010, 
  "assurance": 8011, 
  "Bon@@": 8012, 
  "compression": 8013, 
  "ass": 8014, 
  "loyalty": 8015, 
  "auction": 8016, 
  "11@@": 8017, 
  "star@@": 8018, 
  "complaint": 8019, 
  "grass": 8020, 
  "Corporate": 8021, 
  "wa": 8022, 
  "dozen": 8023, 
  "Nigeria": 8024, 
  "sleeping": 8025, 
  "don": 8026, 
  "stimulate": 8027, 
  "religions": 8028, 
  "tremendous": 8029, 
  "Avenue": 8030, 
  "differently": 8031, 
  "Strategic": 8032, 
  "photocopying": 8033, 
  "scientist": 8034, 
  "long-@@": 8035, 
  "Agriculture": 8036, 
  "No@@": 8037, 
  "CP@@": 8038, 
  "real@@": 8039, 
  "Manhattan": 8040, 
  "Satellite": 8041, 
  "demonstrations": 8042, 
  "recognised": 8043, 
  "10th": 8044, 
  "refusal": 8045, 
  "oz@@": 8046, 
  "mathematical": 8047, 
  "prints": 8048, 
  "luggage": 8049, 
  "Limited": 8050, 
  "Dar@@": 8051, 
  "pane": 8052, 
  "Heritage": 8053, 
  "practitioners": 8054, 
  "Version": 8055, 
  "classified": 8056, 
  "lovers": 8057, 
  "neighborhood": 8058, 
  "glory": 8059, 
  "incentive": 8060, 
  "Cabinet": 8061, 
  "cro@@": 8062, 
  "luck": 8063, 
  "institutes": 8064, 
  "correspond": 8065, 
  "ici@@": 8066, 
  "consultants": 8067, 
  "Only": 8068, 
  "ли": 8069, 
  "Ob@@": 8070, 
  "Tbilisi": 8071, 
  "ction": 8072, 
  "timber": 8073, 
  "Cambridge": 8074, 
  "improves": 8075, 
  "una@@": 8076, 
  "de-@@": 8077, 
  "mothers": 8078, 
  "для": 8079, 
  "acquainted": 8080, 
  "Cross": 8081, 
  "ero": 8082, 
  "executives": 8083, 
  "íà@@": 8084, 
  "extraction": 8085, 
  "storm": 8086, 
  "diving": 8087, 
  "Base": 8088, 
  "fur@@": 8089, 
  "evich": 8090, 
  "Ru@@": 8091, 
  "allocation": 8092, 
  "WIPO": 8093, 
  "web-site": 8094, 
  "graduate": 8095, 
  "eur": 8096, 
  "hat": 8097, 
  "ве@@": 8098, 
  "Cat@@": 8099, 
  "graphical": 8100, 
  "dan@@": 8101, 
  "heading": 8102, 
  "Marina": 8103, 
  "ICT": 8104, 
  "prevented": 8105, 
  "ius": 8106, 
  "Representative": 8107, 
  "pon@@": 8108, 
  "Slovakia": 8109, 
  "twin": 8110, 
  "ranking": 8111, 
  "incorrect": 8112, 
  "pop": 8113, 
  "Rem@@": 8114, 
  "blow": 8115, 
  "tar@@": 8116, 
  "FTP": 8117, 
  "stock@@": 8118, 
  "ati": 8119, 
  "cope": 8120, 
  "LAN": 8121, 
  "Poly@@": 8122, 
  "Joe": 8123, 
  "spo@@": 8124, 
  "chaos": 8125, 
  "Thai": 8126, 
  "": 8127, 
  "E.@@": 8128, 
  "ées": 8129, 
  "los": 8130, 
  "oni": 8131, 
  "extending": 8132, 
  "inquiry": 8133, 
  "pregnant": 8134, 
  "life-@@": 8135, 
  "prizes": 8136, 
  "esses": 8137, 
  "assign": 8138, 
  "pressed": 8139, 
  "мі@@": 8140, 
  "cing": 8141, 
  "tak@@": 8142, 
  "temporarily": 8143, 
  "specification": 8144, 
  "Donetsk": 8145, 
  "specifies": 8146, 
  "fac@@": 8147, 
  "Stra@@": 8148, 
  "delivers": 8149, 
  "chamber": 8150, 
  "Small": 8151, 
  "Pi@@": 8152, 
  "broadband": 8153, 
  "Sel@@": 8154, 
  "Log@@": 8155, 
  "sponsored": 8156, 
  "ward": 8157, 
  "Mini": 8158, 
  "Micro@@": 8159, 
  "committees": 8160, 
  "constraints": 8161, 
  "New@@": 8162, 
  "occasions": 8163, 
  "demonstrates": 8164, 
  "Rel@@": 8165, 
  "ique": 8166, 
  "Marketing": 8167, 
  "ologist": 8168, 
  "Varna": 8169, 
  "mit": 8170, 
  "Telephone": 8171, 
  "ele": 8172, 
  "pu@@": 8173, 
  "MT@@": 8174, 
  "doubts": 8175, 
  "110": 8176, 
  "breast": 8177, 
  "5,@@": 8178, 
  "pursuant": 8179, 
  "exceeded": 8180, 
  "Ham@@": 8181, 
  "spec@@": 8182, 
  "reasonably": 8183, 
  "Libya": 8184, 
  "Vice": 8185, 
  "methodology": 8186, 
  "attracting": 8187, 
  "wet": 8188, 
  "DI@@": 8189, 
  "mini-@@": 8190, 
  "Lat@@": 8191, 
  "Renaissance": 8192, 
  "adjacent": 8193, 
  "undermine": 8194, 
  "double-@@": 8195, 
  "successor": 8196, 
  "Kam@@": 8197, 
  "Summer": 8198, 
  "bin@@": 8199, 
  "worlds": 8200, 
  "marble": 8201, 
  "prevents": 8202, 
  "Oslo": 8203, 
  "highlight": 8204, 
  "91": 8205, 
  "Elena": 8206, 
  "endless": 8207, 
  "refugee": 8208, 
  "Bol@@": 8209, 
  "mailbox": 8210, 
  "generous": 8211, 
  "Scotland": 8212, 
  "collecting": 8213, 
  "rolled": 8214, 
  "liber@@": 8215, 
  "plug-in": 8216, 
  "Local": 8217, 
  "desires": 8218, 
  "Sem@@": 8219, 
  "hood": 8220, 
  "modem": 8221, 
  "bs": 8222, 
  "pursued": 8223, 
  "ford": 8224, 
  "Vit@@": 8225, 
  "90@@": 8226, 
  "batteries": 8227, 
  "Days": 8228, 
  "leasing": 8229, 
  "by-@@": 8230, 
  "just@@": 8231, 
  "fal@@": 8232, 
  "1.3": 8233, 
  "allegedly": 8234, 
  "rows": 8235, 
  "RAM": 8236, 
  "Work": 8237, 
  "bills": 8238, 
  "strikes": 8239, 
  "89": 8240, 
  "Mart@@": 8241, 
  "chemistry": 8242, 
  "iles": 8243, 
  "reservations": 8244, 
  "translators": 8245, 
  "Rock": 8246, 
  "considerations": 8247, 
  "liberalization": 8248, 
  "authoritarian": 8249, 
  "Ko@@": 8250, 
  "vel@@": 8251, 
  "79": 8252, 
  "snacks": 8253, 
  "mines": 8254, 
  "encounter": 8255, 
  "bets": 8256, 
  "hero": 8257, 
  "kit": 8258, 
  "documented": 8259, 
  "Hot": 8260, 
  "alia": 8261, 
  "Kat@@": 8262, 
  "Tu@@": 8263, 
  "ier@@": 8264, 
  "playground": 8265, 
  "horses": 8266, 
  "13.@@": 8267, 
  "chi": 8268, 
  "magazines": 8269, 
  "Awards": 8270, 
  "Military": 8271, 
  "1960": 8272, 
  "overwhelming": 8273, 
  "ign@@": 8274, 
  "verse": 8275, 
  "ola": 8276, 
  "Israelis": 8277, 
  "planes": 8278, 
  "fired": 8279, 
  "prescribed": 8280, 
  "walked": 8281, 
  "EF@@": 8282, 
  "Fire": 8283, 
  "literary": 8284, 
  "influential": 8285, 
  "commissions": 8286, 
  "founding": 8287, 
  "missiles": 8288, 
  "loads": 8289, 
  "Estate": 8290, 
  "avoided": 8291, 
  "Astana": 8292, 
  "neutral": 8293, 
  "ча@@": 8294, 
  "bears": 8295, 
  "Bluetooth": 8296, 
  "cer": 8297, 
  "exchanges": 8298, 
  "oblast": 8299, 
  "horizontal": 8300, 
  "secrets": 8301, 
  "complexes": 8302, 
  "pet@@": 8303, 
  "mature": 8304, 
  "êî@@": 8305, 
  "Chapter": 8306, 
  "likes": 8307, 
  "geopolitical": 8308, 
  "creditors": 8309, 
  "viable": 8310, 
  "Channel": 8311, 
  "aux": 8312, 
  "jazz": 8313, 
  "influences": 8314, 
  "dirty": 8315, 
  "piano": 8316, 
  "Unit": 8317, 
  "catalog": 8318, 
  "highway": 8319, 
  "abuses": 8320, 
  "lively": 8321, 
  "bedding": 8322, 
  "eas@@": 8323, 
  "justify": 8324, 
  "Chicago": 8325, 
  "Initiative": 8326, 
  "darkness": 8327, 
  "experiencing": 8328, 
  "Us": 8329, 
  "ू@@": 8330, 
  "doctrine": 8331, 
  "dol@@": 8332, 
  "pursuing": 8333, 
  "stance": 8334, 
  "sustain": 8335, 
  "Age": 8336, 
  "Lenin": 8337, 
  "Sil@@": 8338, 
  "ANY": 8339, 
  "Mission": 8340, 
  "vent@@": 8341, 
  "84": 8342, 
  "liberty": 8343, 
  "intends": 8344, 
  "parish": 8345, 
  "chains": 8346, 
  "grey": 8347, 
  "dar@@": 8348, 
  "interfaces": 8349, 
  "Note": 8350, 
  "y.@@": 8351, 
  "tire": 8352, 
  "-Russian": 8353, 
  "15.@@": 8354, 
  "high-speed": 8355, 
  "gear": 8356, 
  "costly": 8357, 
  "140": 8358, 
  "disable": 8359, 
  "offset": 8360, 
  "Treasury": 8361, 
  "logging": 8362, 
  "reactions": 8363, 
  "gi@@": 8364, 
  "Long": 8365, 
  "exceptions": 8366, 
  "सं@@": 8367, 
  "architects": 8368, 
  "tered": 8369, 
  "gle": 8370, 
  "amed": 8371, 
  "ender": 8372, 
  "associate": 8373, 
  "reward": 8374, 
  "stat@@": 8375, 
  "terminals": 8376, 
  "Commercial": 8377, 
  "Transfer": 8378, 
  "Dem@@": 8379, 
  "": 8380, 
  "glasses": 8381, 
  "Ev@@": 8382, 
  "rect@@": 8383, 
  "le-@@": 8384, 
  "Sales": 8385, 
  "ho": 8386, 
  "disorders": 8387, 
  "muscles": 8388, 
  "tiles": 8389, 
  "trace": 8390, 
  "surprisingly": 8391, 
  "3.0": 8392, 
  "Residence": 8393, 
  "iously": 8394, 
  "detainees": 8395, 
  "Falun": 8396, 
  "nose": 8397, 
  "discretion": 8398, 
  "ito": 8399, 
  "Sav@@": 8400, 
  "ken": 8401, 
  "TCP": 8402, 
  "outlook": 8403, 
  "EU@@": 8404, 
  "desert": 8405, 
  "off-@@": 8406, 
  "chip": 8407, 
  "witnesses": 8408, 
  "advised": 8409, 
  "kingdom": 8410, 
  "convicted": 8411, 
  "Baby": 8412, 
  "Oleg": 8413, 
  "Expert": 8414, 
  "1980s": 8415, 
  "elling": 8416, 
  "web@@": 8417, 
  "CF@@": 8418, 
  "wired": 8419, 
  "87": 8420, 
  "osis": 8421, 
  "follow-up": 8422, 
  "stainless": 8423, 
  "fuels": 8424, 
  "Colombia": 8425, 
  "Companies": 8426, 
  "suits": 8427, 
  "Spring": 8428, 
  "ric": 8429, 
  "ip": 8430, 
  "Let": 8431, 
  "passwords": 8432, 
  "drilling": 8433, 
  "wer": 8434, 
  "Gro@@": 8435, 
  "asc@@": 8436, 
  "Harry": 8437, 
  "Van": 8438, 
  "nominal": 8439, 
  "containers": 8440, 
  "greenhouse": 8441, 
  "smell": 8442, 
  "add@@": 8443, 
  "Political": 8444, 
  "indication": 8445, 
  "Firewall": 8446, 
  "constitutes": 8447, 
  "air-conditioning": 8448, 
  "Studies": 8449, 
  "MP": 8450, 
  "limitation": 8451, 
  "68@@": 8452, 
  "masses": 8453, 
  "Pe@@": 8454, 
  "packed": 8455, 
  "dering": 8456, 
  "listing": 8457, 
  "injuries": 8458, 
  "show@@": 8459, 
  "treaties": 8460, 
  "Super@@": 8461, 
  "farming": 8462, 
  "Syrian": 8463, 
  "IL": 8464, 
  "raises": 8465, 
  "projected": 8466, 
  "governed": 8467, 
  "locally": 8468, 
  "compiled": 8469, 
  "ham": 8470, 
  "rough": 8471, 
  "sightseeing": 8472, 
  "lady": 8473, 
  "itis": 8474, 
  "web-@@": 8475, 
  "Mode": 8476, 
  "trains": 8477, 
  "notify": 8478, 
  "extends": 8479, 
  "hydraulic": 8480, 
  "ет@@": 8481, 
  "acks": 8482, 
  "iPod": 8483, 
  "81": 8484, 
  "confrontation": 8485, 
  "Dra@@": 8486, 
  "2,000": 8487, 
  "autonomy": 8488, 
  "aka": 8489, 
  "promotes": 8490, 
  "rant": 8491, 
  "cord": 8492, 
  "bits": 8493, 
  "kil@@": 8494, 
  "bles": 8495, 
  "anov": 8496, 
  "Independent": 8497, 
  "distinction": 8498, 
  "noble": 8499, 
  "arena": 8500, 
  "IV@@": 8501, 
  "vicinity": 8502, 
  "vacuum": 8503, 
  "guards": 8504, 
  "mill": 8505, 
  "physically": 8506, 
  "belt": 8507, 
  "volunteers": 8508, 
  "Zealand": 8509, 
  "chocolate": 8510, 
  "surcharge": 8511, 
  "2.2": 8512, 
  "archives": 8513, 
  "Travel": 8514, 
  "ranges": 8515, 
  "sia": 8516, 
  "sacrifice": 8517, 
  "react": 8518, 
  "л": 8519, 
  "unauthorized": 8520, 
  "fed": 8521, 
  "gers": 8522, 
  "Death": 8523, 
  "grid": 8524, 
  "liv@@": 8525, 
  "intimate": 8526, 
  "Ry@@": 8527, 
  "Non-@@": 8528, 
  "emission": 8529, 
  "occasionally": 8530, 
  "resist": 8531, 
  "logs": 8532, 
  "statistic": 8533, 
  "rally": 8534, 
  "Ufa": 8535, 
  "carriers": 8536, 
  "Bat@@": 8537, 
  "thread": 8538, 
  "UL@@": 8539, 
  "Cam@@": 8540, 
  "updating": 8541, 
  "mann": 8542, 
  "Interior": 8543, 
  "sto@@": 8544, 
  "kers": 8545, 
  "sqm": 8546, 
  "nutrition": 8547, 
  "purely": 8548, 
  "rhetoric": 8549, 
  "you@@": 8550, 
  "L.@@": 8551, 
  "market@@": 8552, 
  "pumps": 8553, 
  "PE": 8554, 
  "contributes": 8555, 
  "insulation": 8556, 
  "1986": 8557, 
  "expressions": 8558, 
  "sad": 8559, 
  "ів": 8560, 
  "dro@@": 8561, 
  "cy": 8562, 
  "ick@@": 8563, 
  "9th": 8564, 
  "ular": 8565, 
  "motivation": 8566, 
  "William": 8567, 
  "ux": 8568, 
  "Hitler": 8569, 
  "labels": 8570, 
  "variant": 8571, 
  "communism": 8572, 
  "toxic": 8573, 
  "Abkhazia": 8574, 
  "elegance": 8575, 
  "F-@@": 8576, 
  "fastest": 8577, 
  "disclosure": 8578, 
  "bottles": 8579, 
  "inspiration": 8580, 
  "responding": 8581, 
  "calculate": 8582, 
  "Armenians": 8583, 
  "Wizard": 8584, 
  "ard@@": 8585, 
  "monopoly": 8586, 
  "researches": 8587, 
  "PA@@": 8588, 
  "ALL": 8589, 
  "fied": 8590, 
  "diagnostic": 8591, 
  "font": 8592, 
  "processors": 8593, 
  "closest": 8594, 
  "aver@@": 8595, 
  "outs": 8596, 
  "loose": 8597, 
  "sentences": 8598, 
  "arriving": 8599, 
  "imperial": 8600, 
  "Tibet": 8601, 
  "ading": 8602, 
  "Ä": 8603, 
  "ae": 8604, 
  "ethics": 8605, 
  "bold": 8606, 
  "cozy": 8607, 
  "iled": 8608, 
  "Available": 8609, 
  "hairdryer": 8610, 
  "Wal@@": 8611, 
  "Nazi": 8612, 
  "िक": 8613, 
  "У@@": 8614, 
  "phot@@": 8615, 
  "oph@@": 8616, 
  "Bro@@": 8617, 
  "eager": 8618, 
  "remembered": 8619, 
  "Chair": 8620, 
  "festivals": 8621, 
  "algorithm": 8622, 
  "legendary": 8623, 
  "incidents": 8624, 
  "creatures": 8625, 
  "R-@@": 8626, 
  "admission": 8627, 
  "Portuguese": 8628, 
  "nationalism": 8629, 
  "lic@@": 8630, 
  "edly": 8631, 
  "ow": 8632, 
  "right-click": 8633, 
  "m-@@": 8634, 
  "YOU": 8635, 
  "Panama": 8636, 
  "jewelry": 8637, 
  "CDs": 8638, 
  "tor": 8639, 
  "Help": 8640, 
  "dia": 8641, 
  "12-@@": 8642, 
  "tram": 8643, 
  "diesel": 8644, 
  "Mountains": 8645, 
  "ally-@@": 8646, 
  "Railway": 8647, 
  "sixth": 8648, 
  "definitions": 8649, 
  "Today": 8650, 
  "Just": 8651, 
  "Bad": 8652, 
  "Shower": 8653, 
  "conscience": 8654, 
  "optimum": 8655, 
  "buried": 8656, 
  "indirect": 8657, 
  "cats": 8658, 
  "gener@@": 8659, 
  "asks": 8660, 
  "meaningful": 8661, 
  "forecasts": 8662, 
  "Sports": 8663, 
  "UM": 8664, 
  "elderly": 8665, 
  "Sin@@": 8666, 
  "exceeding": 8667, 
  "ioning": 8668, 
  "quest": 8669, 
  "UM@@": 8670, 
  "plug": 8671, 
  "historically": 8672, 
  "ven@@": 8673, 
  "reject": 8674, 
  "Mi@@": 8675, 
  "discussing": 8676, 
  "coach": 8677, 
  "Volga": 8678, 
  "anybody": 8679, 
  "beaten": 8680, 
  "Mir@@": 8681, 
  "avoiding": 8682, 
  "responded": 8683, 
  "elimination": 8684, 
  "custody": 8685, 
  "Vin@@": 8686, 
  "Angeles": 8687, 
  "Conditioning": 8688, 
  "recognizing": 8689, 
  "sanitary": 8690, 
  "viewer": 8691, 
  "G-@@": 8692, 
  "Status": 8693, 
  "at-@@": 8694, 
  "aluminium": 8695, 
  "ста@@": 8696, 
  "iling": 8697, 
  "shipment": 8698, 
  "lectures": 8699, 
  "ure@@": 8700, 
  "oj@@": 8701, 
  "adapter": 8702, 
  "NT": 8703, 
  "ately": 8704, 
  "survived": 8705, 
  "moon": 8706, 
  "ser": 8707, 
  "ake": 8708, 
  "races": 8709, 
  "्य@@": 8710, 
  "Band": 8711, 
  "Lisbon": 8712, 
  "friendship": 8713, 
  "descriptions": 8714, 
  "portrait": 8715, 
  "upgrading": 8716, 
  "upgraded": 8717, 
  "catering": 8718, 
  "cancellation": 8719, 
  "ventilation": 8720, 
  "iva": 8721, 
  "MP3": 8722, 
  "vaccine": 8723, 
  "ख@@": 8724, 
  "Tom": 8725, 
  "ose": 8726, 
  "ministries": 8727, 
  "ving": 8728, 
  "compl@@": 8729, 
  "failing": 8730, 
  "iro@@": 8731, 
  "eless": 8732, 
  "Lev@@": 8733, 
  "ду@@": 8734, 
  "explosion": 8735, 
  "mp@@": 8736, 
  "prosecution": 8737, 
  "hur@@": 8738, 
  "autonomous": 8739, 
  "ria": 8740, 
  "War@@": 8741, 
  "splendid": 8742, 
  "tournaments": 8743, 
  "Fil@@": 8744, 
  "ella": 8745, 
  "ie@@": 8746, 
  "cooperative": 8747, 
  "sv@@": 8748, 
  "sorry": 8749, 
  "IE": 8750, 
  "preventive": 8751, 
  "competing": 8752, 
  "destructive": 8753, 
  "HTTP": 8754, 
  "anymore": 8755, 
  "assignment": 8756, 
  ".NET": 8757, 
  "subscribe": 8758, 
  "interpreted": 8759, 
  "unite": 8760, 
  "Max": 8761, 
  "nia": 8762, 
  "Virgin": 8763, 
  "innocent": 8764, 
  "Sudan": 8765, 
  "Knowledge": 8766, 
  "100,000": 8767, 
  "ects": 8768, 
  "landscapes": 8769, 
  "PT@@": 8770, 
  "TA": 8771, 
  "allegations": 8772, 
  "hills": 8773, 
  "provinces": 8774, 
  "attempting": 8775, 
  "ration": 8776, 
  "D.@@": 8777, 
  "Post@@": 8778, 
  "nor@@": 8779, 
  "пра@@": 8780, 
  "pole": 8781, 
  "diabetes": 8782, 
  "witnessed": 8783, 
  "SAP": 8784, 
  "subsidiaries": 8785, 
  "mysterious": 8786, 
  "tit@@": 8787, 
  "itions": 8788, 
  "वि@@": 8789, 
  "ished": 8790, 
  "travelers": 8791, 
  "Mu@@": 8792, 
  "linear": 8793, 
  "watched": 8794, 
  "ight@@": 8795, 
  "excursions": 8796, 
  "Where": 8797, 
  "Entertainment": 8798, 
  "convince": 8799, 
  "Л@@": 8800, 
  "ras@@": 8801, 
  "Tru@@": 8802, 
  "frozen": 8803, 
  "disabilities": 8804, 
  "trigger": 8805, 
  "ट@@": 8806, 
  "aggression": 8807, 
  "ede": 8808, 
  "Hungarian": 8809, 
  "servants": 8810, 
  "Remote": 8811, 
  "Over@@": 8812, 
  "sins": 8813, 
  "freight": 8814, 
  "debates": 8815, 
  "atives": 8816, 
  "0.5": 8817, 
  "Yushchenko": 8818, 
  "defeated": 8819, 
  "ME": 8820, 
  "keywords": 8821, 
  "protein": 8822, 
  "ñò@@": 8823, 
  "issuing": 8824, 
  "gases": 8825, 
  "J.": 8826, 
  "som@@": 8827, 
  "advisory": 8828, 
  "alien": 8829, 
  "Set": 8830, 
  "Don": 8831, 
  "untuk": 8832, 
  "ifying": 8833, 
  "gun@@": 8834, 
  "rocks": 8835, 
  "Standards": 8836, 
  "SSL": 8837, 
  "sooner": 8838, 
  "Cro@@": 8839, 
  "predicted": 8840, 
  "28@@": 8841, 
  "òî@@": 8842, 
  "ura@@": 8843, 
  "rulers": 8844, 
  "barely": 8845, 
  "Senate": 8846, 
  "Pra@@": 8847, 
  "brush": 8848, 
  "enlargement": 8849, 
  "och@@": 8850, 
  "8th": 8851, 
  "Mad@@": 8852, 
  "iers": 8853, 
  "axis": 8854, 
  "-and-@@": 8855, 
  "Star@@": 8856, 
  "Temple": 8857, 
  "varieties": 8858, 
  "eling": 8859, 
  "sensor": 8860, 
  "elect": 8861, 
  "Cable": 8862, 
  "boutique": 8863, 
  "Winter": 8864, 
  "Gong": 8865, 
  "cubic": 8866, 
  "nie": 8867, 
  "Care": 8868, 
  "Governments": 8869, 
  "deploy": 8870, 
  "Well": 8871, 
  "ifies": 8872, 
  "proprietary": 8873, 
  "steadily": 8874, 
  "counting": 8875, 
  "Ul@@": 8876, 
  "mad@@": 8877, 
  "Body": 8878, 
  "animation": 8879, 
  "foster": 8880, 
  "те@@": 8881, 
  "shoot": 8882, 
  "dealers": 8883, 
  "wheels": 8884, 
  "TRA@@": 8885, 
  "लिए": 8886, 
  "2020": 8887, 
  "OB@@": 8888, 
  "hostile": 8889, 
  "ru": 8890, 
  "rot@@": 8891, 
  "foremost": 8892, 
  "-in": 8893, 
  "chips": 8894, 
  "CH": 8895, 
  "ined": 8896, 
  "Village": 8897, 
  "Tire": 8898, 
  "Sakhalin": 8899, 
  "activation": 8900, 
  "counter-@@": 8901, 
  "rip@@": 8902, 
  "browse": 8903, 
  "renovation": 8904, 
  "Cs": 8905, 
  "Bre@@": 8906, 
  "Tatarstan": 8907, 
  "Francisco": 8908, 
  "Stockholm": 8909, 
  "Sim@@": 8910, 
  "compulsory": 8911, 
  "accessed": 8912, 
  "ight": 8913, 
  "accidents": 8914, 
  "demographic": 8915, 
  "synthetic": 8916, 
  "raz@@": 8917, 
  "ility": 8918, 
  "targeting": 8919, 
  "lifting": 8920, 
  "hem@@": 8921, 
  "ý": 8922, 
  "rim@@": 8923, 
  "structured": 8924, 
  "Die": 8925, 
  "Hy@@": 8926, 
  "racial": 8927, 
  "termination": 8928, 
  "obligatory": 8929, 
  "wind@@": 8930, 
  "finest": 8931, 
  "nan@@": 8932, 
  "ctions": 8933, 
  "grateful": 8934, 
  "pocket": 8935, 
  "int": 8936, 
  "four-@@": 8937, 
  "opponent": 8938, 
  "ні@@": 8939, 
  "stipulated": 8940, 
  "contractors": 8941, 
  "1985": 8942, 
  "reflecting": 8943, 
  "attending": 8944, 
  "resume": 8945, 
  "Three": 8946, 
  "suspension": 8947, 
  "Wi@@": 8948, 
  "वा@@": 8949, 
  "disasters": 8950, 
  "Aliyev": 8951, 
  "hoped": 8952, 
  "ye@@": 8953, 
  "icism": 8954, 
  "mainstream": 8955, 
  "abstract": 8956, 
  "offensive": 8957, 
  "pending": 8958, 
  "Level": 8959, 
  "sandy": 8960, 
  "barrier": 8961, 
  "sam@@": 8962, 
  "guns": 8963, 
  "gal@@": 8964, 
  "PP": 8965, 
  "tabl@@": 8966, 
  "declining": 8967, 
  "Divine": 8968, 
  "malaria": 8969, 
  "este": 8970, 
  "sensitivity": 8971, 
  "Play": 8972, 
  "ashed": 8973, 
  "inform@@": 8974, 
  "hatred": 8975, 
  "ix": 8976, 
  "corresponds": 8977, 
  "worried": 8978, 
  "5-minute": 8979, 
  "construct": 8980, 
  "theories": 8981, 
  "ных": 8982, 
  "000@@": 8983, 
  "notable": 8984, 
  "ped@@": 8985, 
  "sofa": 8986, 
  "ðà@@": 8987, 
  "habits": 8988, 
  "band@@": 8989, 
  "assure": 8990, 
  "tactics": 8991, 
  "Complex": 8992, 
  "wounded": 8993, 
  "ection": 8994, 
  "Open@@": 8995, 
  "PS@@": 8996, 
  "dying": 8997, 
  "forbidden": 8998, 
  "handled": 8999, 
  "borrowing": 9000, 
  "congress": 9001, 
  "oper@@": 9002, 
  "Romanian": 9003, 
  "procurement": 9004, 
  "Brown": 9005, 
  "mas": 9006, 
  "prompted": 9007, 
  "embrace": 9008, 
  "cher@@": 9009, 
  "followers": 9010, 
  "Register": 9011, 
  "accomplish": 9012, 
  "Vo@@": 9013, 
  "fashionable": 9014, 
  "Fi@@": 9015, 
  "retirement": 9016, 
  "rever@@": 9017, 
  "ICAO": 9018, 
  "Movement": 9019, 
  "accepting": 9020, 
  "ис@@": 9021, 
  "dig@@": 9022, 
  "1987": 9023, 
  "Content": 9024, 
  "Lee": 9025, 
  "credible": 9026, 
  "conjunction": 9027, 
  "laboratories": 9028, 
  "ori@@": 9029, 
  "Prosecutor": 9030, 
  "connector": 9031, 
  "dic@@": 9032, 
  "floating": 9033, 
  "SL@@": 9034, 
  "15-@@": 9035, 
  "Tourism": 9036, 
  "documentary": 9037, 
  "YORK": 9038, 
  "Monitor": 9039, 
  "Var@@": 9040, 
  "ceramic": 9041, 
  "coating": 9042, 
  "sponsor": 9043, 
  "tongue": 9044, 
  "fifty": 9045, 
  "wel@@": 9046, 
  "convention": 9047, 
  "Danish": 9048, 
  "galleries": 9049, 
  "Cer@@": 9050, 
  "Dom@@": 9051, 
  "Sri": 9052, 
  "Mol@@": 9053, 
  "Menu": 9054, 
  "Hairdryer": 9055, 
  "subway": 9056, 
  "ees": 9057, 
  "landing": 9058, 
  "republics": 9059, 
  "Chisinau": 9060, 
  "treating": 9061, 
  "fold": 9062, 
  "walks": 9063, 
  "defenders": 9064, 
  "Comp@@": 9065, 
  "га@@": 9066, 
  "Lan@@": 9067, 
  "pipelines": 9068, 
  "pulled": 9069, 
  "nar@@": 9070, 
  "bankers": 9071, 
  "yen": 9072, 
  "geographic": 9073, 
  "deprived": 9074, 
  "scholars": 9075, 
  "Alarm": 9076, 
  "Ms.": 9077, 
  "ami": 9078, 
  "alert": 9079, 
  "Zone": 9080, 
  "cycles": 9081, 
  "deputies": 9082, 
  "Conditions": 9083, 
  "FC": 9084, 
  "Climate": 9085, 
  "Webmoney": 9086, 
  "cocktails": 9087, 
  "Mah@@": 9088, 
  "modification": 9089, 
  "jury": 9090, 
  "souls": 9091, 
  "threaten": 9092, 
  "adopting": 9093, 
  "t.@@": 9094, 
  "Dance": 9095, 
  "Communication": 9096, 
  "fabrics": 9097, 
  "Color": 9098, 
  "Sauna": 9099, 
  "economist": 9100, 
  "Far@@": 9101, 
  "disappear": 9102, 
  "Pen@@": 9103, 
  "renewal": 9104, 
  "explicitly": 9105, 
  "div@@": 9106, 
  "pixels": 9107, 
  "honour": 9108, 
  "recruitment": 9109, 
  "uv@@": 9110, 
  "swe@@": 9111, 
  "aus": 9112, 
  "fortress": 9113, 
  "accepts": 9114, 
  "electro@@": 9115, 
  "pine": 9116, 
  "meng@@": 9117, 
  "pets": 9118, 
  "sign@@": 9119, 
  "11th": 9120, 
  "Der@@": 9121, 
  "ath": 9122, 
  "organ": 9123, 
  "Planet": 9124, 
  "IST@@": 9125, 
  "F.": 9126, 
  "Siberian": 9127, 
  "Pin@@": 9128, 
  "Mrs.": 9129, 
  "defects": 9130, 
  "conception": 9131, 
  "Yeltsin": 9132, 
  "Samsung": 9133, 
  "correspondence": 9134, 
  "zu": 9135, 
  "fireplace": 9136, 
  "ented": 9137, 
  "securing": 9138, 
  "26@@": 9139, 
  "counted": 9140, 
  "hiking": 9141, 
  "neuro@@": 9142, 
  "oils": 9143, 
  "directories": 9144, 
  "inter": 9145, 
  "Ren@@": 9146, 
  "completing": 9147, 
  "Brothers": 9148, 
  "het": 9149, 
  "ar-@@": 9150, 
  "presently": 9151, 
  "aesthetic": 9152, 
  "slot": 9153, 
  "Intelligence": 9154, 
  "eliminated": 9155, 
  "Removal": 9156, 
  "conviction": 9157, 
  "ă": 9158, 
  "refrigerator": 9159, 
  "Facebook": 9160, 
  "wn@@": 9161, 
  "Hollywood": 9162, 
  "rings": 9163, 
  "Texas": 9164, 
  "impressions": 9165, 
  "्@@": 9166, 
  "altogether": 9167, 
  "G-20": 9168, 
  "ime": 9169, 
  "rov@@": 9170, 
  "cia": 9171, 
  "alisation": 9172, 
  "monitors": 9173, 
  "borne": 9174, 
  "cloud": 9175, 
  "anticipated": 9176, 
  "supplying": 9177, 
  "perfection": 9178, 
  "Arabic": 9179, 
  "cabin": 9180, 
  "basin": 9181, 
  "Full": 9182, 
  "intent": 9183, 
  "noisy": 9184, 
  "customized": 9185, 
  "Tri@@": 9186, 
  "DP": 9187, 
  "mes@@": 9188, 
  "Ukr@@": 9189, 
  "probability": 9190, 
  "Da@@": 9191, 
  "itch": 9192, 
  "workplace": 9193, 
  "े": 9194, 
  "ains": 9195, 
  "Mail": 9196, 
  "preview": 9197, 
  "god": 9198, 
  "Nar@@": 9199, 
  "nes": 9200, 
  "ests": 9201, 
  "i.e": 9202, 
  "subscriber": 9203, 
  "22@@": 9204, 
  "aks": 9205, 
  "exposition": 9206, 
  "Terminal": 9207, 
  "optimize": 9208, 
  "loud": 9209, 
  "agrees": 9210, 
  "time-@@": 9211, 
  "Ф@@": 9212, 
  "drawings": 9213, 
  "charter": 9214, 
  "íè@@": 9215, 
  "Pr@@": 9216, 
  "with@@": 9217, 
  "ared": 9218, 
  "poll": 9219, 
  "hard-@@": 9220, 
  "successes": 9221, 
  "Lady": 9222, 
  "SN@@": 9223, 
  "3,000": 9224, 
  "decorative": 9225, 
  "beautifully": 9226, 
  "cafes": 9227, 
  "seemingly": 9228, 
  "All@@": 9229, 
  "interact": 9230, 
  "distinguish": 9231, 
  "Annual": 9232, 
  "Vis@@": 9233, 
  "Victor": 9234, 
  "Bed": 9235, 
  "high-tech": 9236, 
  "bridges": 9237, 
  "yours": 9238, 
  "bn": 9239, 
  "Session": 9240, 
  "Plus": 9241, 
  "lab@@": 9242, 
  "AB": 9243, 
  "qui": 9244, 
  "quoted": 9245, 
  "occurring": 9246, 
  "Modern": 9247, 
  "Gam@@": 9248, 
  "courtyard": 9249, 
  "enforced": 9250, 
  "unfair": 9251, 
  "UNEP": 9252, 
  "surgical": 9253, 
  "reinforced": 9254, 
  "Chernobyl": 9255, 
  "limiting": 9256, 
  "EA": 9257, 
  "1.4": 9258, 
  "Ta@@": 9259, 
  "BO@@": 9260, 
  "conventions": 9261, 
  "describing": 9262, 
  "reactor": 9263, 
  "ty-@@": 9264, 
  "nov@@": 9265, 
  "edges": 9266, 
  "assisted": 9267, 
  "atel@@": 9268, 
  "ua": 9269, 
  "Deluxe": 9270, 
  "nikov": 9271, 
  "tends": 9272, 
  "Ga@@": 9273, 
  "profitability": 9274, 
  "She": 9275, 
  "Airlines": 9276, 
  "favour": 9277, 
  "ensured": 9278, 
  "environmentally": 9279, 
  "ē@@": 9280, 
  "spar@@": 9281, 
  "Amnesty": 9282, 
  "ros": 9283, 
  "regulators": 9284, 
  "Ker@@": 9285, 
  "Athens": 9286, 
  "breed": 9287, 
  "tasty": 9288, 
  "governor": 9289, 
  "negotiate": 9290, 
  "trainings": 9291, 
  "nationals": 9292, 
  "asylum": 9293, 
  "dynasty": 9294, 
  "granting": 9295, 
  "vibrant": 9296, 
  "fel@@": 9297, 
  "dictatorship": 9298, 
  "Op@@": 9299, 
  "var@@": 9300, 
  "austerity": 9301, 
  "shapes": 9302, 
  "vegetable": 9303, 
  "intentions": 9304, 
  "patch": 9305, 
  "Jud@@": 9306, 
  "kar@@": 9307, 
  "scanning": 9308, 
  "rid@@": 9309, 
  "1979": 9310, 
  "Х@@": 9311, 
  "Equipment": 9312, 
  "0.00": 9313, 
  "@@": 9314, 
  "symbolic": 9315, 
  "Victoria": 9316, 
  "Andrey": 9317, 
  "delayed": 9318, 
  "han": 9319, 
  "gratitude": 9320, 
  "iev": 9321, 
  ".net": 9322, 
  "70@@": 9323, 
  "formally": 9324, 
  "ці@@": 9325, 
  "modifications": 9326, 
  "Ali": 9327, 
  "Kyoto": 9328, 
  "reproduction": 9329, 
  "U-@@": 9330, 
  "nationality": 9331, 
  "K.": 9332, 
  "informs": 9333, 
  "Solutions": 9334, 
  "conditioned": 9335, 
  "Arabs": 9336, 
  "deadline": 9337, 
  "bly": 9338, 
  "Clock": 9339, 
  "outlined": 9340, 
  "gates": 9341, 
  "legend": 9342, 
  "Air@@": 9343, 
  "Wel@@": 9344, 
  "16.@@": 9345, 
  "assessments": 9346, 
  "Dead": 9347, 
  "championship": 9348, 
  "IX": 9349, 
  "believers": 9350, 
  "cosmetic": 9351, 
  "manages": 9352, 
  "Post": 9353, 
  "consultant": 9354, 
  "Dark": 9355, 
  "Administrative": 9356, 
  "eter": 9357, 
  "Luxembourg": 9358, 
  "invented": 9359, 
  "ण": 9360, 
  "understands": 9361, 
  "vendors": 9362, 
  "severely": 9363, 
  "ishes": 9364, 
  "Ben": 9365, 
  "din": 9366, 
  "aus@@": 9367, 
  "bio@@": 9368, 
  "bacteria": 9369, 
  "ym@@": 9370, 
  "state-@@": 9371, 
  "ный": 9372, 
  "Daniel": 9373, 
  "len": 9374, 
  "impressed": 9375, 
  "measurements": 9376, 
  "cure": 9377, 
  "Solarium": 9378, 
  "burg": 9379, 
  "encourages": 9380, 
  "laying": 9381, 
  "bandwidth": 9382, 
  "spl@@": 9383, 
  "aluminum": 9384, 
  "Dev@@": 9385, 
  "CS": 9386, 
  "know-how": 9387, 
  "Visa": 9388, 
  "linking": 9389, 
  "champion": 9390, 
  "observations": 9391, 
  "ually": 9392, 
  "carriage": 9393, 
  "hu@@": 9394, 
  "Wireless": 9395, 
  "rav@@": 9396, 
  "ination": 9397, 
  "reads": 9398, 
  "29@@": 9399, 
  "Journal": 9400, 
  "ICEcat": 9401, 
  "Vel@@": 9402, 
  "Blair": 9403, 
  "quote": 9404, 
  "continuation": 9405, 
  "eliminating": 9406, 
  "fifteen": 9407, 
  "ais": 9408, 
  "fare": 9409, 
  "suspect": 9410, 
  "है।": 9411, 
  "सा@@": 9412, 
  "hard@@": 9413, 
  "Single": 9414, 
  "Cre@@": 9415, 
  "ored": 9416, 
  "Stat@@": 9417, 
  "salaries": 9418, 
  "seized": 9419, 
  "assembled": 9420, 
  "regulate": 9421, 
  "replied": 9422, 
  "prolonged": 9423, 
  "app@@": 9424, 
  "lov@@": 9425, 
  "shelter": 9426, 
  "ira@@": 9427, 
  "ranked": 9428, 
  "boarding": 9429, 
  "Ukrainians": 9430, 
  "adjustments": 9431, 
  "authorization": 9432, 
  "по": 9433, 
  "finger": 9434, 
  "6,@@": 9435, 
  "excluding": 9436, 
  "flat-screen": 9437, 
  "sec@@": 9438, 
  "deliveries": 9439, 
  "oting": 9440, 
  "itor": 9441, 
  "owns": 9442, 
  "mo": 9443, 
  "ack@@": 9444, 
  "B.@@": 9445, 
  "ї": 9446, 
  "delays": 9447, 
  "strongest": 9448, 
  "drew": 9449, 
  "proliferation": 9450, 
  "L-@@": 9451, 
  "copying": 9452, 
  "ear": 9453, 
  "Frank": 9454, 
  "delicate": 9455, 
  "liver": 9456, 
  "linguistic": 9457, 
  "Aud@@": 9458, 
  "C.@@": 9459, 
  "SD": 9460, 
  "pad@@": 9461, 
  "elevator": 9462, 
  "gaps": 9463, 
  "persistent": 9464, 
  "Bay@@": 9465, 
  "heroes": 9466, 
  "conc@@": 9467, 
  "Hezbollah": 9468, 
  "1967": 9469, 
  "Tel": 9470, 
  "socially": 9471, 
  "neo-@@": 9472, 
  "бу@@": 9473, 
  "SP": 9474, 
  "ben@@": 9475, 
  "marking": 9476, 
  "banned": 9477, 
  "ME@@": 9478, 
  "EV@@": 9479, 
  "ST": 9480, 
  "quantities": 9481, 
  "matching": 9482, 
  "any@@": 9483, 
  "Key": 9484, 
  "accelerate": 9485, 
  "50,000": 9486, 
  "twentieth": 9487, 
  "momentum": 9488, 
  "ATE": 9489, 
  "ionary": 9490, 
  "tailored": 9491, 
  "OAO": 9492, 
  "assault": 9493, 
  "wishing": 9494, 
  "fulness": 9495, 
  "confidentiality": 9496, 
  "el-@@": 9497, 
  "politician": 9498, 
  "care@@": 9499, 
  "ke@@": 9500, 
  "45@@": 9501, 
  "Art@@": 9502, 
  "nationalist": 9503, 
  "accumulation": 9504, 
  "quantitative": 9505, 
  "anxiety": 9506, 
  "og": 9507, 
  "bet@@": 9508, 
  "Contact": 9509, 
  "spell": 9510, 
  "ander": 9511, 
  "Staff": 9512, 
  "Mount": 9513, 
  "gradual": 9514, 
  "SA@@": 9515, 
  "God@@": 9516, 
  "Apartment": 9517, 
  "disclose": 9518, 
  "Imperial": 9519, 
  "specialities": 9520, 
  "cited": 9521, 
  "simultaneous": 9522, 
  "bun@@": 9523, 
  "tal@@": 9524, 
  "solo": 9525, 
  "dil@@": 9526, 
  "shortage": 9527, 
  "Database": 9528, 
  "Inc.": 9529, 
  "confusion": 9530, 
  "rape": 9531, 
  "internally": 9532, 
  "lin": 9533, 
  "CN@@": 9534, 
  "switching": 9535, 
  "laundry": 9536, 
  "decor": 9537, 
  "persecution": 9538, 
  "recovered": 9539, 
  "für": 9540, 
  "उ@@": 9541, 
  "Here": 9542, 
  "Beds": 9543, 
  "funny": 9544, 
  "ratification": 9545, 
  "optim@@": 9546, 
  "Century": 9547, 
  "binary": 9548, 
  "tendencies": 9549, 
  "DNA": 9550, 
  "gas@@": 9551, 
  "priced": 9552, 
  "rival": 9553, 
  "eta": 9554, 
  "battles": 9555, 
  "DE": 9556, 
  "pro": 9557, 
  "Some": 9558, 
  "n-@@": 9559, 
  "browsers": 9560, 
  "sul@@": 9561, 
  "Form": 9562, 
  "hat@@": 9563, 
  "reveals": 9564, 
  "ays": 9565, 
  "presidents": 9566, 
  "3.1": 9567, 
  "Auto": 9568, 
  "restrict": 9569, 
  "comprising": 9570, 
  "Shops": 9571, 
  "serv@@": 9572, 
  "banner": 9573, 
  "mg": 9574, 
  "MTS": 9575, 
  "ос@@": 9576, 
  "mercy": 9577, 
  "yields": 9578, 
  "ENT@@": 9579, 
  "assuming": 9580, 
  "los@@": 9581, 
  "variations": 9582, 
  "proves": 9583, 
  "RT@@": 9584, 
  "rush": 9585, 
  "раз@@": 9586, 
  "2014": 9587, 
  "cabinet": 9588, 
  "cour@@": 9589, 
  "Moldovan": 9590, 
  "paste": 9591, 
  "ú@@": 9592, 
  "challenged": 9593, 
  "Make": 9594, 
  "thro@@": 9595, 
  "restoring": 9596, 
  "14th": 9597, 
  "downloads": 9598, 
  "indicating": 9599, 
  "Loc@@": 9600, 
  "Helsinki": 9601, 
  "polls": 9602, 
  "1930": 9603, 
  "stein": 9604, 
  "PH@@": 9605, 
  "las": 9606, 
  "ill-treatment": 9607, 
  "wins": 9608, 
  "Mit@@": 9609, 
  "ias": 9610, 
  "Gate": 9611, 
  "tackle": 9612, 
  "zy": 9613, 
  "quar@@": 9614, 
  "urged": 9615, 
  "fire@@": 9616, 
  "Cannes": 9617, 
  "G.@@": 9618, 
  "fragile": 9619, 
  "strip": 9620, 
  "ken@@": 9621, 
  "Goals": 9622, 
  "past@@": 9623, 
  "recognizes": 9624, 
  "USE": 9625, 
  "inviting": 9626, 
  "Kr@@": 9627, 
  "restart": 9628, 
  "Horse": 9629, 
  "Angel": 9630, 
  "ratified": 9631, 
  "FM": 9632, 
  "Cast@@": 9633, 
  "variants": 9634, 
  "ote": 9635, 
  "patience": 9636, 
  "stadium": 9637, 
  "fer": 9638, 
  "preference": 9639, 
  "put@@": 9640, 
  "occupy": 9641, 
  "dered": 9642, 
  "aug@@": 9643, 
  "engaging": 9644, 
  "searches": 9645, 
  "risky": 9646, 
  "worn": 9647, 
  "Sen@@": 9648, 
  "breach": 9649, 
  "leg": 9650, 
  "dangers": 9651, 
  "OD@@": 9652, 
  "hair@@": 9653, 
  "Bosnia": 9654, 
  "cry": 9655, 
  "COM": 9656, 
  "apparatus": 9657, 
  "broker": 9658, 
  "claiming": 9659, 
  "junior": 9660, 
  "bankruptcy": 9661, 
  "cellular": 9662, 
  "spirits": 9663, 
  "Test": 9664, 
  "meditation": 9665, 
  "cad@@": 9666, 
  "seal": 9667, 
  "pen": 9668, 
  "wealthy": 9669, 
  "iat@@": 9670, 
  "SW@@": 9671, 
  "shoulder": 9672, 
  "exploit": 9673, 
  "flood": 9674, 
  "mul@@": 9675, 
  "assumption": 9676, 
  "employ": 9677, 
  "Province": 9678, 
  "Bab@@": 9679, 
  "ел@@": 9680, 
  "fat@@": 9681, 
  "Montenegro": 9682, 
  "cafe": 9683, 
  "Creator": 9684, 
  "/etc": 9685, 
  "ater": 9686, 
  "hits": 9687, 
  "breathtaking": 9688, 
  "Philippines": 9689, 
  "ig": 9690, 
  "frameworks": 9691, 
  "revision": 9692, 
  "stuck": 9693, 
  "DA": 9694, 
  "emphasize": 9695, 
  "Mont@@": 9696, 
  "Las": 9697, 
  "dor@@": 9698, 
  "tags": 9699, 
  "fet@@": 9700, 
  "aan": 9701, 
  "the-@@": 9702, 
  "earthquake": 9703, 
  "accounted": 9704, 
  "faithful": 9705, 
  "ectors": 9706, 
  "Wake": 9707, 
  "theft": 9708, 
  "diagnostics": 9709, 
  "maritime": 9710, 
  "fiber": 9711, 
  "hang": 9712, 
  "Statistics": 9713, 
  "Barber": 9714, 
  "NA": 9715, 
  "packet": 9716, 
  "yr@@": 9717, 
  "rat": 9718, 
  "e.": 9719, 
  "FREE": 9720, 
  "blessed": 9721, 
  "mild": 9722, 
  "recommends": 9723, 
  "360": 9724, 
  "minim@@": 9725, 
  "gon": 9726, 
  "trader": 9727, 
  "secondly": 9728, 
  "translator": 9729, 
  "Sat@@": 9730, 
  "outsourcing": 9731, 
  "climbing": 9732, 
  "Coun@@": 9733, 
  "tot@@": 9734, 
  "psychology": 9735, 
  "passive": 9736, 
  "expedition": 9737, 
  "ку@@": 9738, 
  "relevance": 9739, 
  "partitions": 9740, 
  "accessing": 9741, 
  "celebrations": 9742, 
  "matic": 9743, 
  "Na@@": 9744, 
  "zer@@": 9745, 
  "gateway": 9746, 
  "BR@@": 9747, 
  "sq": 9748, 
  "Bangkok": 9749, 
  "Aviation": 9750, 
  "ete": 9751, 
  "12th": 9752, 
  "gay": 9753, 
  "//": 9754, 
  "toys": 9755, 
  "urge": 9756, 
  "transported": 9757, 
  "negotiating": 9758, 
  "lav@@": 9759, 
  "AMD": 9760, 
  "ві@@": 9761, 
  "lessly": 9762, 
  "GE": 9763, 
  "iki": 9764, 
  "Florida": 9765, 
  "immense": 9766, 
  "gray": 9767, 
  "Monitoring": 9768, 
  "ll": 9769, 
  "openness": 9770, 
  "priests": 9771, 
  "из@@": 9772, 
  "tires": 9773, 
  "insight": 9774, 
  "jun@@": 9775, 
  "K-@@": 9776, 
  "speeds": 9777, 
  "smallest": 9778, 
  "Coffee": 9779, 
  "ein": 9780, 
  "touched": 9781, 
  "EG@@": 9782, 
  "reconciliation": 9783, 
  "iding": 9784, 
  "substitute": 9785, 
  "Vas@@": 9786, 
  "adequately": 9787, 
  "OM": 9788, 
  "ми@@": 9789, 
  "QU@@": 9790, 
  "2.4": 9791, 
  "uncertain": 9792, 
  "âî@@": 9793, 
  "Vilnius": 9794, 
  "Kenya": 9795, 
  "risen": 9796, 
  "backing": 9797, 
  "ops": 9798, 
  "Trust": 9799, 
  "SK@@": 9800, 
  "Wh@@": 9801, 
  "ui": 9802, 
  "BBQ": 9803, 
  "Karabakh": 9804, 
  "2-3": 9805, 
  "injection": 9806, 
  "PCs": 9807, 
  "blessing": 9808, 
  "Agent": 9809, 
  "Oxford": 9810, 
  "Mur@@": 9811, 
  "proceeds": 9812, 
  "ove": 9813, 
  "integrating": 9814, 
  "charts": 9815, 
  "towels": 9816, 
  "exclude": 9817, 
  "sensors": 9818, 
  "defending": 9819, 
  "reproductive": 9820, 
  "balancing": 9821, 
  "³": 9822, 
  "overnight": 9823, 
  "Andrei": 9824, 
  "minerals": 9825, 
  "malware": 9826, 
  "Installation": 9827, 
  "ories": 9828, 
  "ione": 9829, 
  "discharge": 9830, 
  "alised": 9831, 
  "preserving": 9832, 
  "chuk": 9833, 
  "accurately": 9834, 
  "harvest": 9835, 
  "air-@@": 9836, 
  "timing": 9837, 
  "pairs": 9838, 
  "destiny": 9839, 
  "replacing": 9840, 
  "ruins": 9841, 
  "editors": 9842, 
  "aur@@": 9843, 
  "alistic": 9844, 
  "harsh": 9845, 
  "expects": 9846, 
  "deserve": 9847, 
  "Tymoshenko": 9848, 
  "invisible": 9849, 
  "supplement": 9850, 
  "cle@@": 9851, 
  "B-@@": 9852, 
  "ु@@": 9853, 
  "yl": 9854, 
  "qual@@": 9855, 
  "Common": 9856, 
  "rol@@": 9857, 
  "debut": 9858, 
  "loving": 9859, 
  "õ@@": 9860, 
  "lips": 9861, 
  "Py@@": 9862, 
  "Ky@@": 9863, 
  "combinations": 9864, 
  "PE@@": 9865, 
  "liberation": 9866, 
  "ные": 9867, 
  "inherent": 9868, 
  "ral@@": 9869, 
  "pt@@": 9870, 
  "Ir@@": 9871, 
  "BY": 9872, 
  "hesitate": 9873, 
  "Tan@@": 9874, 
  "miracle": 9875, 
  "deck": 9876, 
  "Watch": 9877, 
  "antly": 9878, 
  "rib@@": 9879, 
  "possesses": 9880, 
  "potato": 9881, 
  "aud@@": 9882, 
  "denial": 9883, 
  "blogs": 9884, 
  "Andrew": 9885, 
  "rin@@": 9886, 
  "tam@@": 9887, 
  "forthcoming": 9888, 
  "ovo": 9889, 
  "sian": 9890, 
  "ket@@": 9891, 
  "dual": 9892, 
  "editions": 9893, 
  "app": 9894, 
  "header": 9895, 
  "athletes": 9896, 
  "Do@@": 9897, 
  "royal": 9898, 
  "bil@@": 9899, 
  "1981": 9900, 
  "Pres@@": 9901, 
  "***": 9902, 
  "450": 9903, 
  "1973": 9904, 
  "powder": 9905, 
  "Yugoslavia": 9906, 
  "intermediate": 9907, 
  "fighters": 9908, 
  "HE@@": 9909, 
  "indispensable": 9910, 
  "Competition": 9911, 
  "бо@@": 9912, 
  "underway": 9913, 
  "copied": 9914, 
  "richest": 9915, 
  "Sport": 9916, 
  "ã@@": 9917, 
  "кон@@": 9918, 
  "technically": 9919, 
  "textile": 9920, 
  "therapeutic": 9921, 
  "vit@@": 9922, 
  "countless": 9923, 
  "2.3": 9924, 
  "drops": 9925, 
  "thickness": 9926, 
  "yn": 9927, 
  "SPA": 9928, 
  "clause": 9929, 
  "Assistance": 9930, 
  "32@@": 9931, 
  "thesis": 9932, 
  "loves": 9933, 
  "explicit": 9934, 
  "RS": 9935, 
  "trades": 9936, 
  "impl@@": 9937, 
  "ci": 9938, 
  "etc.": 9939, 
  "demo": 9940, 
  "geography": 9941, 
  "ia@@": 9942, 
  "handy": 9943, 
  "readiness": 9944, 
  "pointing": 9945, 
  "counterparts": 9946, 
  "Auto@@": 9947, 
  "HR": 9948, 
  "enthusiasm": 9949, 
  "Collection": 9950, 
  "Det@@": 9951, 
  "hanging": 9952, 
  "ep": 9953, 
  "facilitating": 9954, 
  "Engine": 9955, 
  "oil-@@": 9956, 
  "amendment": 9957, 
  "beloved": 9958, 
  "18-@@": 9959, 
  "shipped": 9960, 
  "ovsky": 9961, 
  "Banking": 9962, 
  "ther": 9963, 
  "imply": 9964, 
  "cap": 9965, 
  "continually": 9966, 
  "assessed": 9967, 
  "accountable": 9968, 
  "R.": 9969, 
  "neighbouring": 9970, 
  "stomach": 9971, 
  "ettes": 9972, 
  "accompanying": 9973, 
  "Palm": 9974, 
  "positioned": 9975, 
  "diamonds": 9976, 
  "promotional": 9977, 
  "inst@@": 9978, 
  "T.": 9979, 
  "ения": 9980, 
  "mar": 9981, 
  "Henry": 9982, 
  "patents": 9983, 
  "tyres": 9984, 
  "13th": 9985, 
  "lamp": 9986, 
  "Г@@": 9987, 
  "ug": 9988, 
  "मा@@": 9989, 
  "lamps": 9990, 
  "Over": 9991, 
  "GBP": 9992, 
  "ras": 9993, 
  "eding": 9994, 
  "Bet@@": 9995, 
  "malicious": 9996, 
  "IAEA": 9997, 
  "Tran@@": 9998, 
  "1950": 9999, 
  "corners": 10000, 
  "realizing": 10001, 
  "baths": 10002, 
  "soldier": 10003, 
  "founders": 10004, 
  "сто@@": 10005, 
  "Film": 10006, 
  "rub@@": 10007, 
  "MM@@": 10008, 
  "angry": 10009, 
  "clips": 10010, 
  "revival": 10011, 
  "Stardoll": 10012, 
  "arbitration": 10013, 
  "ku": 10014, 
  "stan@@": 10015, 
  "violated": 10016, 
  "bing": 10017, 
  "cod@@": 10018, 
  "ना": 10019, 
  "compressor": 10020, 
  "repairs": 10021, 
  "ambitions": 10022, 
  "ective": 10023, 
  "mon": 10024, 
  "generates": 10025, 
  "arians": 10026, 
  "GU@@": 10027, 
  "Most": 10028, 
  "cancelled": 10029, 
  "breathing": 10030, 
  "retained": 10031, 
  "affiliate": 10032, 
  "accommodations": 10033, 
  "peninsula": 10034, 
  "cattle": 10035, 
  "aer@@": 10036, 
  "tribes": 10037, 
  "loyal": 10038, 
  "salon": 10039, 
  "simplicity": 10040, 
  "1982": 10041, 
  "ulation": 10042, 
  "manufactures": 10043, 
  "TM": 10044, 
  "lacking": 10045, 
  "itude": 10046, 
  "MA@@": 10047, 
  "Jack": 10048, 
  "Kin@@": 10049, 
  "ols": 10050, 
  "Son@@": 10051, 
  "enjoyable": 10052, 
  "graph": 10053, 
  "Defence": 10054, 
  "Articles": 10055, 
  "ball@@": 10056, 
  "tly": 10057, 
  "Mot@@": 10058, 
  "petroleum": 10059, 
  "abandon": 10060, 
  "labeled": 10061, 
  "ordering": 10062, 
  "versus": 10063, 
  "varies": 10064, 
  "mak@@": 10065, 
  "analyzed": 10066, 
  "lad@@": 10067, 
  "Please": 10068, 
  "Pushcha": 10069, 
  "bones": 10070, 
  "phrases": 10071, 
  "halt": 10072, 
  "sty@@": 10073, 
  "Come": 10074, 
  "sum@@": 10075, 
  "exhibitors": 10076, 
  "lasted": 10077, 
  "Index": 10078, 
  "remedy": 10079, 
  "Regulations": 10080, 
  "17.@@": 10081, 
  "compounds": 10082, 
  "Black@@": 10083, 
  "boundary": 10084, 
  "Andy": 10085, 
  "Peru": 10086, 
  "Rev@@": 10087, 
  "Not@@": 10088, 
  "approve": 10089, 
  "ной": 10090, 
  "algorithms": 10091, 
  "Automatic": 10092, 
  "Girl": 10093, 
  "Mexican": 10094, 
  "max": 10095, 
  "mathematics": 10096, 
  "cave": 10097, 
  "rotation": 10098, 
  "maturity": 10099, 
  "Drive": 10100, 
  "origins": 10101, 
  "coins": 10102, 
  "prosecutor": 10103, 
  "plat@@": 10104, 
  "dissemination": 10105, 
  "dressed": 10106, 
  "consisted": 10107, 
  "Islamist": 10108, 
  "Have": 10109, 
  "ill-@@": 10110, 
  "1.0": 10111, 
  "illed": 10112, 
  "tastes": 10113, 
  "slight": 10114, 
  "Saakashvili": 10115, 
  "high-level": 10116, 
  "Cel@@": 10117, 
  "drama": 10118, 
  "biology": 10119, 
  "et-@@": 10120, 
  "extensions": 10121, 
  "encrypted": 10122, 
  "lens": 10123, 
  "Kit@@": 10124, 
  "pas@@": 10125, 
  "Task": 10126, 
  "proc@@": 10127, 
  "multinational": 10128, 
  "graphy": 10129, 
  "disorder": 10130, 
  "crazy": 10131, 
  "MySQL": 10132, 
  "fonts": 10133, 
  "analyst": 10134, 
  "incomplete": 10135, 
  "centralized": 10136, 
  "poses": 10137, 
  "midst": 10138, 
  "Train": 10139, 
  "aire": 10140, 
  "ame": 10141, 
  "controversial": 10142, 
  "uh@@": 10143, 
  "Coast": 10144, 
  "35@@": 10145, 
  "Tem@@": 10146, 
  "vocational": 10147, 
  "couples": 10148, 
  "ए@@": 10149, 
  "radioactive": 10150, 
  "Holocaust": 10151, 
  "inability": 10152, 
  "Bul@@": 10153, 
  "virtue": 10154, 
  "dismissed": 10155, 
  "Ret@@": 10156, 
  "imposing": 10157, 
  "rays": 10158, 
  "IES": 10159, 
  "16-@@": 10160, 
  "Hom@@": 10161, 
  "icated": 10162, 
  "supposedly": 10163, 
  "mp3": 10164, 
  "not@@": 10165, 
  "water-@@": 10166, 
  "age-@@": 10167, 
  "panic": 10168, 
  "Smoking": 10169, 
  "stolen": 10170, 
  "lu@@": 10171, 
  "it-@@": 10172, 
  "clinics": 10173, 
  "wizard": 10174, 
  "cking": 10175, 
  "Location": 10176, 
  "editorial": 10177, 
  "arrow": 10178, 
  "ци@@": 10179, 
  "comparing": 10180, 
  "colored": 10181, 
  "locks": 10182, 
  "proclaimed": 10183, 
  "RSS": 10184, 
  "1984": 10185, 
  "chambres": 10186, 
  "monitored": 10187, 
  "telecommunication": 10188, 
  "ла": 10189, 
  "ections": 10190, 
  "Bak@@": 10191, 
  "colonial": 10192, 
  "O.@@": 10193, 
  "atomic": 10194, 
  "iy@@": 10195, 
  "Then": 10196, 
  "excellence": 10197, 
  "finances": 10198, 
  "Governor": 10199, 
  "fluid": 10200, 
  "periodic": 10201, 
  "appeals": 10202, 
  "Stop": 10203, 
  "pounds": 10204, 
  "promptly": 10205, 
  "Democrats": 10206, 
  "Dave": 10207, 
  "Address": 10208, 
  "ido": 10209, 
  "є@@": 10210, 
  "definite": 10211, 
  "Pass@@": 10212, 
  "evolved": 10213, 
  "third-party": 10214, 
  "approaching": 10215, 
  "mystery": 10216, 
  "mud": 10217, 
  "Hussein": 10218, 
  "commerce": 10219, 
  "briefly": 10220, 
  "cin@@": 10221, 
  "communal": 10222, 
  "assumes": 10223, 
  "Desktop": 10224, 
  "strain": 10225, 
  "whatsoever": 10226, 
  "ार@@": 10227, 
  "RT": 10228, 
  "rises": 10229, 
  "genre": 10230, 
  "unlawful": 10231, 
  "remarks": 10232, 
  "irrigation": 10233, 
  "comprised": 10234, 
  "eth": 10235, 
  "Pil@@": 10236, 
  "phases": 10237, 
  "psych@@": 10238, 
  "connects": 10239, 
  "criminals": 10240, 
  "migrant": 10241, 
  "Future": 10242, 
  "wash": 10243, 
  "tears": 10244, 
  "BE": 10245, 
  "syn@@": 10246, 
  "gy": 10247, 
  "Sum@@": 10248, 
  "hoping": 10249, 
  "casting": 10250, 
  "EE": 10251, 
  "urs": 10252, 
  "Prevention": 10253, 
  "poetry": 10254, 
  "íî@@": 10255, 
  "rest@@": 10256, 
  "Sir": 10257, 
  "TP": 10258, 
  "aiming": 10259, 
  "indirectly": 10260, 
  "Mayor": 10261, 
  "Jer@@": 10262, 
  "Is@@": 10263, 
  "Take": 10264, 
  "snow@@": 10265, 
  "polar": 10266, 
  "attributed": 10267, 
  "ò": 10268, 
  "wards": 10269, 
  "woods": 10270, 
  "attentive": 10271, 
  "idity": 10272, 
  "collapsed": 10273, 
  "Hôtel": 10274, 
  "Act@@": 10275, 
  "10-minute": 10276, 
  "rounds": 10277, 
  "aling": 10278, 
  "antique": 10279, 
  "Faculty": 10280, 
  "Consulting": 10281, 
  "popul@@": 10282, 
  "cru@@": 10283, 
  "Trading": 10284, 
  "valve": 10285, 
  "counts": 10286, 
  "keen": 10287, 
  "decides": 10288, 
  "centr@@": 10289, 
  "tie": 10290, 
  "Commissioner": 10291, 
  "stroke": 10292, 
  "readily": 10293, 
  "Download": 10294, 
  "prevalence": 10295, 
  "betting": 10296, 
  "tic": 10297, 
  "compositions": 10298, 
  "ation-@@": 10299, 
  "Edit": 10300, 
  "18.@@": 10301, 
  "7,@@": 10302, 
  "ju@@": 10303, 
  "sincere": 10304, 
  "But@@": 10305, 
  "pursuit": 10306, 
  "commen@@": 10307, 
  "Twin": 10308, 
  "1970s": 10309, 
  "poet": 10310, 
  "nomination": 10311, 
  "aster": 10312, 
  "shareholder": 10313, 
  "spr@@": 10314, 
  "Memory": 10315, 
  "peasants": 10316, 
  "perceive": 10317, 
  "draws": 10318, 
  "за": 10319, 
  "estimation": 10320, 
  "neighbor": 10321, 
  "state-owned": 10322, 
  "O-@@": 10323, 
  "perspectives": 10324, 
  "streams": 10325, 
  "regulating": 10326, 
  "negotiation": 10327, 
  "clouds": 10328, 
  "Round": 10329, 
  "Anti-@@": 10330, 
  "Socialist": 10331, 
  "Hay@@": 10332, 
  "Photoshop": 10333, 
  "कि": 10334, 
  "tail": 10335, 
  "realities": 10336, 
  "ved": 10337, 
  "cathedral": 10338, 
  "Presidential": 10339, 
  "condemned": 10340, 
  "Sl@@": 10341, 
  "Prophet": 10342, 
  "wells": 10343, 
  "alter": 10344, 
  "ture": 10345, 
  "EB@@": 10346, 
  "vocabulary": 10347, 
  "premier": 10348, 
  "throne": 10349, 
  "operative": 10350, 
  "Price": 10351, 
  "fingers": 10352, 
  "cables": 10353, 
  "rage": 10354, 
  "evaluated": 10355, 
  "Top@@": 10356, 
  "brick": 10357, 
  "preceding": 10358, 
  "chen": 10359, 
  "eshops": 10360, 
  "LA": 10361, 
  "beverages": 10362, 
  "fridge": 10363, 
  "DO": 10364, 
  "aki": 10365, 
  "occurrence": 10366, 
  "doubled": 10367, 
  "traded": 10368, 
  "Senior": 10369, 
  "retreat": 10370, 
  "Ant@@": 10371, 
  "charging": 10372, 
  "connectivity": 10373, 
  "varying": 10374, 
  "warmth": 10375, 
  "consumed": 10376, 
  "gel@@": 10377, 
  "obstacle": 10378, 
  "amid": 10379, 
  "paradise": 10380, 
  "eng": 10381, 
  "Super": 10382, 
  "caution": 10383, 
  "noting": 10384, 
  "bitter": 10385, 
  "Pot@@": 10386, 
  "undertaking": 10387, 
  "ram": 10388, 
  "forcing": 10389, 
  "quarters": 10390, 
  "browsing": 10391, 
  "ela": 10392, 
  "ASPs": 10393, 
  "behave": 10394, 
  "thou": 10395, 
  "opera": 10396, 
  "них": 10397, 
  "yed": 10398, 
  "differs": 10399, 
  "bln": 10400, 
  "dari": 10401, 
  "CJSC": 10402, 
  "blocking": 10403, 
  "nas": 10404, 
  "insist": 10405, 
  "episode": 10406, 
  "£": 10407, 
  "minded": 10408, 
  "criticized": 10409, 
  "Pocket": 10410, 
  "Jackson": 10411, 
  "employs": 10412, 
  "1.6": 10413, 
  "genes": 10414, 
  "Floor": 10415, 
  "repository": 10416, 
  "ara@@": 10417, 
  "seaside": 10418, 
  "Rep@@": 10419, 
  "CT": 10420, 
  "humidity": 10421, 
  "Domain": 10422, 
  "pedestrian": 10423, 
  "letting": 10424, 
  "Bran@@": 10425, 
  "sym@@": 10426, 
  "Bag@@": 10427, 
  "surge": 10428, 
  "Officer": 10429, 
  "logged": 10430, 
  "Ki@@": 10431, 
  "gambling": 10432, 
  "incorporate": 10433, 
  "Store": 10434, 
  "brutal": 10435, 
  "lacks": 10436, 
  "catastrophe": 10437, 
  "recreational": 10438, 
  "formulated": 10439, 
  "racing": 10440, 
  "Ural": 10441, 
  "prospective": 10442, 
  "positioning": 10443, 
  "ears": 10444, 
  "barrel": 10445, 
  "beneath": 10446, 
  "shelf": 10447, 
  "transferring": 10448, 
  "Commonwealth": 10449, 
  "Work@@": 10450, 
  "20,000": 10451, 
  "arch": 10452, 
  "quietly": 10453, 
  "disability": 10454, 
  "historians": 10455, 
  "interim": 10456, 
  "scores": 10457, 
  "ush": 10458, 
  "Budget": 10459, 
  "fires": 10460, 
  "BA": 10461, 
  "Android": 10462, 
  "Virtual": 10463, 
  "respects": 10464, 
  "GO@@": 10465, 
  "ney": 10466, 
  "data-sheet": 10467, 
  "triple": 10468, 
  "Corp.": 10469, 
  "fixes": 10470, 
  "comm@@": 10471, 
  "facto": 10472, 
  "rum": 10473, 
  "plac@@": 10474, 
  "Guard": 10475, 
  "Steam": 10476, 
  "posting": 10477, 
  "lit": 10478, 
  "optimized": 10479, 
  "ont@@": 10480, 
  "commissioned": 10481, 
  "wings": 10482, 
  "sporting": 10483, 
  "Branch": 10484, 
  "BBC": 10485, 
  "compile": 10486, 
  "call@@": 10487, 
  "displaying": 10488, 
  "Jones": 10489, 
  "Lukashenko": 10490, 
  "crossed": 10491, 
  "mid": 10492, 
  "ress": 10493, 
[...]
