{
  "eos": 0, 
  "UNK": 1, 
  ",": 2, 
  ".": 3, 
  "в": 4, 
  "и": 5, 
  "&quot;": 6, 
  "на": 7, 
  "с": 8, 
  "-": 9, 
  "не": 10, 
  "для": 11, 
  "что": 12, 
  ")": 13, 
  "(": 14, 
  "по": 15, 
  "к": 16, 
  "или": 17, 
  "как": 18, 
  ":": 19, 
  "если": 20, 
  "а": 21, 
  "из": 22, 
  "это": 23, 
  "от": 24, 
  "мы": 25, 
  "так": 26, 
  "о": 27, 
  "у": 28, 
  "их": 29, 
  "чтобы": 30, 
  "но": 31, 
  "за": 32, 
  "вы": 33, 
  "также": 34, 
  "есть": 35, 
  "/": 36, 
  "его": 37, 
  "же": 38, 
  "я": 39, 
  "все": 40, 
  "то": 41, 
  "он": 42, 
  "можете": 43, 
  "the": 44, 
  "можно": 45, 
  "которые": 46, 
  "при": 47, 
  "до": 48, 
  "песни": 49, 
  "были": 50, 
  "более": 51, 
  "время": 52, 
  "скачать": 53, 
  "они": 54, 
  "может": 55, 
  "текста": 56, 
  ";": 57, 
  "будет": 58, 
  "только": 59, 
  "?": 60, 
  "того": 61, 
  "года": 62, 
  "вам": 63, 
  "...": 64, 
  "является": 65, 
  "нам": 66, 
  "во": 67, 
  "быть": 68, 
  "возможность": 69, 
  "использовать": 70, 
  "здесь": 71, 
  "когда": 72, 
  "том": 73, 
  "после": 74, 
  "поэтому": 75, 
  "было": 76, 
  "бы": 77, 
  "вас": 78, 
  "качестве": 79, 
  "and": 80, 
  "Вы": 81, 
  "!": 82, 
  "сделать": 83, 
  "этой": 84, 
  "наиболее": 85, 
  "%": 86, 
  "был": 87, 
  "&apos;": 88, 
  "году": 89, 
  "который": 90, 
  "ее": 91, 
  "со": 92, 
  "она": 93, 
  "могут": 94, 
  "чем": 95, 
  "a": 96, 
  "этого": 97, 
  "этом": 98, 
  "ных": 99, 
  "слова": 100, 
  "ные": 101, 
  "пожалуйста": 102, 
  "ной": 103, 
  "всех": 104, 
  "еще": 105, 
  "1": 106, 
  "Lyrics-Keeper": 107, 
  "of": 108, 
  "уже": 109, 
  "перевод": 110, 
  "лет": 111, 
  "представлена": 112, 
  "2": 113, 
  "-ф@@": 114, 
  "очень": 115, 
  "in": 116, 
  "между": 117, 
  "какие-то": 118, 
  "ный": 119, 
  "стараемся": 120, 
  "ного": 121, 
  "этот": 122, 
  "ичу": 123, 
  "песне": 124, 
  "Flash@@": 125, 
  "корректировки": 126, 
  "караоке": 127, 
  "точными": 128, 
  "США": 129, 
  "песня": 130, 
  "отправляйте": 131, 
  "минусовку": 132, 
  "не@@": 133, 
  "тем": 134, 
  "должны": 135, 
  "The": 136, 
  "to": 137, 
  "г.": 138, 
  "ли": 139, 
  "всего": 140, 
  "нет": 141, 
  "й@@": 142, 
  "ная": 143, 
  "была": 144, 
  "даже": 145, 
  "эти": 146, 
  "которая": 147, 
  "под": 148, 
  "помощью": 149, 
  "компании": 150, 
  "будут": 151, 
  "где": 152, 
  "de": 153, 
  "-@@": 154, 
  "других": 155, 
  "ным": 156, 
  "больше": 157, 
  "им": 158, 
  "однако": 159, 
  "без": 160, 
  "отель": 161, 
  "3": 162, 
  "ами": 163, 
  "ки": 164, 
  "об": 165, 
  "работы": 166, 
  "страны": 167, 
  "ное": 168, 
  "добавить": 169, 
  "себя": 170, 
  "области": 171, 
  "ка": 172, 
  "системы": 173, 
  "через": 174, 
  "которых": 175, 
  "свои": 176, 
  "ни": 177, 
  "ом": 178, 
  "России": 179, 
  "них": 180, 
  "данных": 181, 
  "один": 182, 
  "своей": 183, 
  "образом": 184, 
  "ную": 185, 
  "например": 186, 
  "ными": 187, 
  "случае": 188, 
  "людей": 189, 
  "имеет": 190, 
  "стран": 191, 
  "этих": 192, 
  "ах": 193, 
  "10": 194, 
  "is": 195, 
  "несколько": 196, 
  "ить": 197, 
  "5": 198, 
  "развития": 199, 
  "ном": 200, 
  "другие": 201, 
  "нас": 202, 
  "4": 203, 
  "кто": 204, 
  "жизни": 205, 
  "времени": 206, 
  "эта": 207, 
  "свою": 208, 
  "человека": 209, 
  "ов": 210, 
  "необходимо": 211, 
  "информации": 212, 
  "компания": 213, 
  "кроме": 214, 
  "своих": 215, 
  "ать": 216, 
  "сегодня": 217, 
  "являются": 218, 
  "просто": 219, 
  "I": 220, 
  "ам": 221, 
  "безопасности": 222, 
  "ского": 223, 
  "таким": 224, 
  "ей": 225, 
  "которой": 226, 
  "программы": 227, 
  "деятельности": 228, 
  "раз": 229, 
  "ской": 230, 
  "связи": 231, 
  "ен": 232, 
  "тех": 233, 
  "находится": 234, 
  "человек": 235, 
  "ке": 236, 
  "ия": 237, 
  "ы": 238, 
  "мира": 239, 
  "стороны": 240, 
  "ая": 241, 
  "течение": 242, 
  "день": 243, 
  "was": 244, 
  "некоторые": 245, 
  "али": 246, 
  "ку": 247, 
  "управления": 248, 
  "хотя": 249, 
  "которое": 250, 
  "s": 251, 
  "К@@": 252, 
  "всегда": 253, 
  "таких": 254, 
  "ский": 255, 
  "год": 256, 
  "должен": 257, 
  "от@@": 258, 
  "мире": 259, 
  "многие": 260, 
  "отеля": 261, 
  "перед": 262, 
  "такие": 263, 
  "*": 264, 
  "ил": 265, 
  "for": 266, 
  "менее": 267, 
  "одной": 268, 
  "потому": 269, 
  "ему": 270, 
  "песен": 271, 
  "города": 272, 
  "е": 273, 
  "среди": 274, 
  "формы": 275, 
  "сейчас": 276, 
  "поскольку": 277, 
  "всем": 278, 
  "мне": 279, 
  "теперь": 280, 
  "ение": 281, 
  "много": 282, 
  "в@@": 283, 
  "лишь": 284, 
  "под@@": 285, 
  "услуг": 286, 
  "именно": 287, 
  "каждый": 288, 
  "против": 289, 
  "ала": 290, 
  "два": 291, 
  "позволяет": 292, 
  "люди": 293, 
  "странах": 294, 
  "над": 295, 
  "ал": 296, 
  "ит": 297, 
  "место": 298, 
  "новых": 299, 
  "информацию": 300, 
  "организации": 301, 
  "часть": 302, 
  "гостей": 303, 
  "те": 304, 
  "возможно": 305, 
  "меня": 306, 
  "20": 307, 
  "ш@@": 308, 
  "В": 309, 
  "ения": 310, 
  "С@@": 311, 
  "la": 312, 
  "нашей": 313, 
  "нашу": 314, 
  "собой": 315, 
  "6": 316, 
  "2009": 317, 
  "проблемы": 318, 
  "et": 319, 
  "словами": 320, 
  "там": 321, 
  "нужно": 322, 
  ".@@": 323, 
  "себе": 324, 
  "решения": 325, 
  "включая": 326, 
  "внимание": 327, 
  "2008": 328, 
  "енные": 329, 
  "&amp;": 330, 
  "возможности": 331, 
  "Вашей": 332, 
  "рамках": 333, 
  "территории": 334, 
  "по@@": 335, 
  "ой": 336, 
  "своего": 337, 
  "новые": 338, 
  "свой": 339, 
  "30": 340, 
  "7": 341, 
  "помощи": 342, 
  "данные": 343, 
  "особенно": 344, 
  "него": 345, 
  "ты": 346, 
  "благодаря": 347, 
  "система": 348, 
  "услуги": 349, 
  "В@@": 350, 
  "ии": 351, 
  "ному": 352, 
  "с@@": 353, 
  "Вам": 354, 
  "к@@": 355, 
  "затем": 356, 
  "соответствии": 357, 
  "следует": 358, 
  "списке": 359, 
  "около": 360, 
  "on": 361, 
  "наших": 362, 
  "ена": 363, 
  "вместе": 364, 
  "политики": 365, 
  "получить": 366, 
  "ем": 367, 
  "кой": 368, 
  "количество": 369, 
  "части": 370, 
  "власти": 371, 
  "одного": 372, 
  "енных": 373, 
  "&#91;": 374, 
  "решение": 375, 
  "15": 376, 
  "вы@@": 377, 
  "которого": 378, 
  "наши": 379, 
  "группы": 380, 
  "числе": 381, 
  "пока": 382, 
  "ены": 383, 
  "ила": 384, 
  "детей": 385, 
  "использования": 386, 
  "странице": 387, 
  "двух": 388, 
  "обеспечения": 389, 
  "&#93;": 390, 
  "производства": 391, 
  "имеют": 392, 
  "целью": 393, 
  "такой": 394, 
  "страницы": 395, 
  "различных": 396, 
  "многих": 397, 
  "ских": 398, 
  "en": 399, 
  "другой": 400, 
  "ением": 401, 
  "права": 402, 
  "ь": 403, 
  "Windows": 404, 
  "результате": 405, 
  "участие": 406, 
  "2010": 407, 
  "hotel": 408, 
  "отношении": 409, 
  "альбома": 410, 
  "номера": 411, 
  "вопрос": 412, 
  "доступ": 413, 
  "ключевыми": 414, 
  "ском": 415, 
  "часто": 416, 
  "ает": 417, 
  "2007": 418, 
  "ите": 419, 
  "и@@": 420, 
  "сказал": 421, 
  "e": 422, 
  "8": 423, 
  "новый": 424, 
  "it": 425, 
  "ч@@": 426, 
  "й": 427, 
  "полностью": 428, 
  "енный": 429, 
  "ская": 430, 
  "средств": 431, 
  "сети": 432, 
  "населения": 433, 
  "основе": 434, 
  "прав": 435, 
  "коллекцию": 436, 
  "почти": 437, 
  "эту": 438, 
  "право": 439, 
  "уровень": 440, 
  "об@@": 441, 
  "12": 442, 
  "должна": 443, 
  "Ш@@": 444, 
  "про@@": 445, 
  "работу": 446, 
  "любимой": 447, 
  "из-за": 448, 
  "ению": 449, 
  "ней": 450, 
  "проекта": 451, 
  "одним": 452, 
  "м": 453, 
  "ении": 454, 
  "енной": 455, 
  "этим": 456, 
  "изменения": 457, 
  "тогда": 458, 
  "период": 459, 
  "уровня": 460, 
  "номер": 461, 
  "да": 462, 
  "создать": 463, 
  "соответствующих": 464, 
  "любой": 465, 
  "котором": 466, 
  "Украины": 467, 
  "тот": 468, 
  "у@@": 469, 
  "всей": 470, 
  "предлагает": 471, 
  "Вас": 472, 
  "мере": 473, 
  "ниже": 474, 
  "либо": 475, 
  "ают": 476, 
  "ские": 477, 
  "уровне": 478, 
  "A": 479, 
  "самых": 480, 
  "на@@": 481, 
  "рынке": 482, 
  "оно": 483, 
  "момент": 484, 
  "несмотря": 485, 
  "_": 486, 
  "самом": 487, 
  "из@@": 488, 
  "ий": 489, 
  "настоящее": 490, 
  "бесплатно": 491, 
  "жизнь": 492, 
  "найти": 493, 
  "компаний": 494, 
  "три": 495, 
  "хорошо": 496, 
  "стране": 497, 
  "ность": 498, 
  "должно": 499, 
  "50": 500, 
  "действительно": 501, 
  "свое": 502, 
  "процесс": 503, 
  "которую": 504, 
  "согласно": 505, 
  "номеров": 506, 
  "with": 507, 
  "ЕС": 508, 
  "аться": 509, 
  "Европы": 510, 
  "существует": 511, 
  "ками": 512, 
  "Hotel": 513, 
  "большинство": 514, 
  "тому": 515, 
  "нескольких": 516, 
  "9": 517, 
  "d": 518, 
  "своим": 519, 
  "значение": 520, 
  "100": 521, 
  "енного": 522, 
  "o": 523, 
  "экономики": 524, 
  "вопросы": 525, 
  "дня": 526, 
  "Э@@": 527, 
  "одна": 528, 
  "достаточно": 529, 
  "государства": 530, 
  "Т@@": 531, 
  "создания": 532, 
  "П@@": 533, 
  "ности": 534, 
  "действия": 535, 
  "мир": 536, 
  "иметь": 537, 
  "О@@": 538, 
  "very": 539, 
  "первый": 540, 
  "ю": 541, 
  "as": 542, 
  "l": 543, 
  "рынка": 544, 
  "правительства": 545, 
  "М@@": 546, 
  "годы": 547, 
  "ж@@": 548, 
  "продукции": 549, 
  "роль": 550, 
  "средства": 551, 
  "некоторых": 552, 
  "ок": 553, 
  "использование": 554, 
  "правительство": 555, 
  "качества": 556, 
  "C@@": 557, 
  "Г@@": 558, 
  "работает": 559, 
  "роста": 560, 
  "Ч@@": 561, 
  "Б@@": 562, 
  "последние": 563, 
  "большой": 564, 
  "расположен": 565, 
  "з@@": 566, 
  "конечно": 567, 
  "программа": 568, 
  "le": 569, 
  "информация": 570, 
  "2006": 571, 
  "i": 572, 
  "пор": 573, 
  "получения": 574, 
  "никогда": 575, 
  "ят": 576, 
  "т@@": 577, 
  "работе": 578, 
  "н@@": 579, 
  "11": 580, 
  "долларов": 581, 
  "ним": 582, 
  "Д@@": 583, 
  "T@@": 584, 
  "ин@@": 585, 
  "иться": 586, 
  "систем": 587, 
  "+": 588, 
  "Н@@": 589, 
  "проблем": 590, 
  "говорит": 591, 
  "следующие": 592, 
  "стали": 593, 
  "раз@@": 594, 
  "нее": 595, 
  "лучше": 596, 
  "я@@": 597, 
  "ания": 598, 
  "рост": 599, 
  "ООН": 600, 
  "подкатегории": 601, 
  "клиентов": 602, 
  "работать": 603, 
  "енным": 604, 
  "ана": 605, 
  "ны": 606, 
  "другими": 607, 
  "д@@": 608, 
  "назад": 609, 
  "ов@@": 610, 
  "стал": 611, 
  "ет": 612, 
  "проект": 613, 
  "л@@": 614, 
  "обычно": 615, 
  "страницах": 616, 
  "центре": 617, 
  "ь@@": 618, 
  "наш": 619, 
  "ским": 620, 
  "проживания": 621, 
  "развитие": 622, 
  "начала": 623, 
  "условиях": 624, 
  "ено": 625, 
  "D@@": 626, 
  "центр": 627, 
  "регистрации": 628, 
  "стать": 629, 
  "та": 630, 
  "счет": 631, 
  "дней": 632, 
  "from": 633, 
  "25": 634, 
  "ую": 635, 
  "э@@": 636, 
  "У@@": 637, 
  "технологии": 638, 
  "защиты": 639, 
  "прежде": 640, 
  "Р@@": 641, 
  "ком": 642, 
  "ан": 643, 
  "ию": 644, 
  "нового": 645, 
  "ках": 646, 
  "войны": 647, 
  "нажмите": 648, 
  "конце": 649, 
  "вот": 650, 
  "S@@": 651, 
  "ались": 652, 
  "выше": 653, 
  "t": 654, 
  "2005": 655, 
  "e@@": 656, 
  "ан@@": 657, 
  "ина": 658, 
  "Интернет": 659, 
  "установить": 660, 
  "this": 661, 
  "относительно": 662, 
  "�": 663, 
  "ф@@": 664, 
  "условия": 665, 
  "программ": 666, 
  "самым": 667, 
  "вопросам": 668, 
  "B@@": 669, 
  "систему": 670, 
  "$": 671, 
  "быстро": 672, 
  "Услуги": 673, 
  "истории": 674, 
  "Республики": 675, 
  "at": 676, 
  "отеле": 677, 
  "общества": 678, 
  "почему": 679, 
  "А@@": 680, 
  "сайта": 681, 
  "нашего": 682, 
  "Russian": 683, 
  "ко": 684, 
  "деятельность": 685, 
  "слишком": 686, 
  "ило": 687, 
  "опыт": 688, 
  "проведения": 689, 
  "помощь": 690, 
  "аны": 691, 
  "каждого": 692, 
  "имя": 693, 
  "es": 694, 
  "ин": 695, 
  "могли": 696, 
  "означает": 697, 
  "ание": 698, 
  "доступа": 699, 
  "Европе": 700, 
  "путем": 701, 
  "сфере": 702, 
  "•": 703, 
  "места": 704, 
  "новой": 705, 
  "un": 706, 
  "бизнеса": 707, 
  "ков": 708, 
  "которым": 709, 
  "центра": 710, 
  "поддержки": 711, 
  "г@@": 712, 
  "дома": 713, 
  "этому": 714, 
  "M@@": 715, 
  "х@@": 716, 
  "Л@@": 717, 
  "образования": 718, 
  "международных": 719, 
  "делать": 720, 
  "частности": 721, 
  "A@@": 722, 
  "ается": 723, 
  "З@@": 724, 
  "женщин": 725, 
  "цены": 726, 
  "И": 727, 
  "о@@": 728, 
  "содержит": 729, 
  "обслуживания": 730, 
  "деле": 731, 
  "оборудования": 732, 
  "проектов": 733, 
  "you": 734, 
  "енная": 735, 
  "поддержку": 736, 
  "представляет": 737, 
  "меры": 738, 
  "ское": 739, 
  "км": 740, 
  "18": 741, 
  "14": 742, 
  "технологий": 743, 
  "16": 744, 
  "но-@@": 745, 
  "силы": 746, 
  "L@@": 747, 
  "результаты": 748, 
  "связанных": 749, 
  "виде": 750, 
  "наша": 751, 
  "пред@@": 752, 
  "ились": 753, 
  "т": 754, 
  "F@@": 755, 
  "W@@": 756, 
  "точки": 757, 
  "п@@": 758, 
  "d@@": 759, 
  "одно": 760, 
  "2000": 761, 
  "G@@": 762, 
  "р@@": 763, 
  "стоимость": 764, 
  "изображением": 765, 
  "продуктов": 766, 
  "ор@@": 767, 
  "room": 768, 
  "H@@": 769, 
  "можем": 770, 
  "песням": 771, 
  "две": 772, 
  "м@@": 773, 
  "видео-клипы": 774, 
  "месте": 775, 
  "енное": 776, 
  "составляет": 777, 
  "системе": 778, 
  "действий": 779, 
  "2003": 780, 
  "ался": 781, 
  "пути": 782, 
  "P@@": 783, 
  "сайте": 784, 
  "ив": 785, 
  "зрения": 786, 
  "ился": 787, 
  "4@@": 788, 
  "установки": 789, 
  "список": 790, 
  "нем": 791, 
  "ика": 792, 
  "создание": 793, 
  "легко": 794, 
  "число": 795, 
  "x": 796, 
  "обои": 797, 
  "Of": 798, 
  "ые": 799, 
  "E@@": 800, 
  "фотографии": 801, 
  "ходе": 802, 
  "ресурсов": 803, 
  "ие": 804, 
  "находятся": 805, 
  "он@@": 806, 
  "игры": 807, 
  "3@@": 808, 
  "реализации": 809, 
  "Х@@": 810, 
  "такое": 811, 
  "практически": 812, 
  "обеспечить": 813, 
  "второй": 814, 
  "нашими": 815, 
  "000": 816, 
  "ики": 817, 
  "воды": 818, 
  "городе": 819, 
  "данный": 820, 
  "аются": 821, 
  "связанные": 822, 
  "предприятия": 823, 
  "версии": 824, 
  "организаций": 825, 
  "40": 826, 
  "ений": 827, 
  "Россия": 828, 
  "ар@@": 829, 
  "an": 830, 
  "экономического": 831, 
  "типа": 832, 
  "пользователей": 833, 
  "13": 834, 
  "группа": 835, 
  "стоит": 836, 
  "лиц": 837, 
  "той": 838, 
  "ится": 839, 
  "ничего": 840, 
  "постоянно": 841, 
  "ало": 842, 
  "нами": 843, 
  "пол@@": 844, 
  "2004": 845, 
  "И@@": 846, 
  "исследования": 847, 
  "выбор": 848, 
  "сотрудничества": 849, 
  "24": 850, 
  "разных": 851, 
  "ых": 852, 
  "такого": 853, 
  "вид": 854, 
  "контроля": 855, 
  "скую": 856, 
  "хотите": 857, 
  "деньги": 858, 
  "ваш": 859, 
  "со@@": 860, 
  "решений": 861, 
  "можешь": 862, 
  "енными": 863, 
  "меню": 864, 
  "друг": 865, 
  "ю@@": 866, 
  "зависимости": 867, 
  "происходит": 868, 
  "выберите": 869, 
  "ете": 870, 
  "степени": 871, 
  "сайт": 872, 
  "ат@@": 873, 
  "работа": 874, 
  "t@@": 875, 
  "основных": 876, 
  "целях": 877, 
  "ал@@": 878, 
  "дом": 879, 
  "мест": 880, 
  "различные": 881, 
  "среды": 882, 
  "другим": 883, 
  "N@@": 884, 
  "за@@": 885, 
  "R@@": 886, 
  "рядом": 887, 
  "президент": 888, 
  "&gt;": 889, 
  "вместо": 890, 
  "очередь": 891, 
  "we": 892, 
  "дело": 893, 
  "обслуживание": 894, 
  "используется": 895, 
  "ими": 896, 
  "город": 897, 
  "c@@": 898, 
  "представлены": 899, 
  "отношения": 900, 
  "цели": 901, 
  "ен@@": 902, 
  "рынок": 903, 
  "ними": 904, 
  "овой": 905, 
  "процесса": 906, 
  "материалов": 907, 
  "обеспечение": 908, 
  "ст@@": 909, 
  "принять": 910, 
  "or": 911, 
  "i@@": 912, 
  "необходимости": 913, 
  "миллионов": 914, 
  "стало": 915, 
  "хранения": 916, 
  "клиентами": 917, 
  "ос@@": 918, 
  "Китая": 919, 
  "энергии": 920, 
  "ических": 921, 
  "имеется": 922, 
  "&#124;": 923, 
  "б@@": 924, 
  "самое": 925, 
  "Азии": 926, 
  "s@@": 927, 
  "своем": 928, 
  "качество": 929, 
  "ый": 930, 
  "are": 931, 
  "ссылки": 932, 
  "пере@@": 933, 
  "ер@@": 934, 
  "ический": 935, 
  "до@@": 936, 
  "ического": 937, 
  "5@@": 938, 
  "r@@": 939, 
  "ситуации": 940, 
  "месяцев": 941, 
  "надо": 942, 
  "состоит": 943, 
  "ат": 944, 
  "Китай": 945, 
  "сказать": 946, 
  "ников": 947, 
  "членов": 948, 
  "важно": 949, 
  "ник": 950, 
  "торговли": 951, 
  "ической": 952, 
  "мировой": 953, 
  "стала": 954, 
  "чего": 955, 
  "тоже": 956, 
  "цель": 957, 
  "Германии": 958, 
  "17": 959, 
  "лица": 960, 
  "силу": 961, 
  "века": 962, 
  "помочь": 963, 
  "участников": 964, 
  "предприятий": 965, 
  "кон@@": 966, 
  "des": 967, 
  "l@@": 968, 
  "без@@": 969, 
  "случаях": 970, 
  "труда": 971, 
  "снова": 972, 
  "меньше": 973, 
  "целом": 974, 
  "начале": 975, 
  "ические": 976, 
  "овых": 977, 
  "сможете": 978, 
  "Ф@@": 979, 
  "ым": 980, 
  "ла": 981, 
  "дает": 982, 
  "протяжении": 983, 
  "предложить": 984, 
  "вашего": 985, 
  "становится": 986, 
  "ряд": 987, 
  "производство": 988, 
  "ировать": 989, 
  "You": 990, 
  "адрес": 991, 
  "трех": 992, 
  "ре@@": 993, 
  "Ж@@": 994, 
  "ресторан": 995, 
  "кам": 996, 
  "заключается": 997, 
  "проблема": 998, 
  "сразу": 999, 
  "самый": 1000, 
  "рас@@": 1001, 
  "C": 1002, 
  "Microsoft": 1003, 
  "изображения": 1004, 
  "Я@@": 1005, 
  "сам": 1006, 
  "тысяч": 1007, 
  "by": 1008, 
  "иногда": 1009, 
  "промышленности": 1010, 
  "разработки": 1011, 
  "ании": 1012, 
  "Совет": 1013, 
  "значительно": 1014, 
  "недавно": 1015, 
  "er": 1016, 
  "модели": 1017, 
  "т.д.": 1018, 
  "окружающей": 1019, 
  "Америки": 1020, 
  "включает": 1021, 
  "данной": 1022, 
  "ями": 1023, 
  "состоянии": 1024, 
  "K@@": 1025, 
  "всему": 1026, 
  "самые": 1027, 
  "ко@@": 1028, 
  "ники": 1029, 
  "од@@": 1030, 
  "общей": 1031, 
  "сравнению": 1032, 
  "ак@@": 1033, 
  "каждой": 1034, 
  "основном": 1035, 
  "млн.": 1036, 
  "a@@": 1037, 
  "первой": 1038, 
  "примерно": 1039, 
  "делает": 1040, 
  "но@@": 1041, 
  "19": 1042, 
  "часов": 1043, 
  "весь": 1044, 
  "станет": 1045, 
  "not": 1046, 
  "ик@@": 1047, 
  "7@@": 1048, 
  "21": 1049, 
  "международного": 1050, 
  "президента": 1051, 
  "срок": 1052, 
  "множество": 1053, 
  "6@@": 1054, 
  "путь": 1055, 
  "that": 1056, 
  "Украине": 1057, 
  "ис@@": 1058, 
  "вашей": 1059, 
  "минут": 1060, 
  "собственные": 1061, 
  "самого": 1062, 
  "г": 1063, 
  "ответ": 1064, 
  "одном": 1065, 
  "иностранных": 1066, 
  "щ@@": 1067, 
  "скорее": 1068, 
  "евро": 1069, 
  "ации": 1070, 
  "оборудование": 1071, 
  "цен": 1072, 
  "алась": 1073, 
  "мер": 1074, 
  "рабочих": 1075, 
  "остается": 1076, 
  "внутри": 1077, 
  "целей": 1078, 
  "ающих": 1079, 
  "процессе": 1080, 
  "см.": 1081, 
  "альный": 1082, 
  "списка": 1083, 
  "одновременно": 1084, 
  "гораздо": 1085, 
  "Организации": 1086, 
  "партии": 1087, 
  "самой": 1088, 
  "ВИЧ": 1089, 
  "обеспечивает": 1090, 
  "функции": 1091, 
  "енную": 1092, 
  "кого": 1093, 
  "альных": 1094, 
  "ающие": 1095, 
  "les": 1096, 
  "ев@@": 1097, 
  "аем": 1098, 
  "илась": 1099, 
  "службы": 1100, 
  "политика": 1101, 
  "ическая": 1102, 
  "О": 1103, 
  "культуры": 1104, 
  "Совета": 1105, 
  "им@@": 1106, 
  "мой": 1107, 
  "регионе": 1108, 
  "правило": 1109, 
  "were": 1110, 
  "ранее": 1111, 
  "работ": 1112, 
  "электронной": 1113, 
  "n@@": 1114, 
  "m@@": 1115, 
  "00": 1116, 
  "развитию": 1117, 
  "а@@": 1118, 
  "отзывы": 1119, 
  "анию": 1120, 
  "финансовых": 1121, 
  "международной": 1122, 
  "влияние": 1123, 
  "h@@": 1124, 
  "booking.com": 1125, 
  "№": 1126, 
  "кризиса": 1127, 
  "ск@@": 1128, 
  "вопросов": 1129, 
  "автомобилей": 1130, 
  "видов": 1131, 
  "альные": 1132, 
  "ка@@": 1133, 
  "программу": 1134, 
  "а-@@": 1135, 
  "22": 1136, 
  "ет@@": 1137, 
  "ол@@": 1138, 
  "пользователя": 1139, 
  "требуется": 1140, 
  "ответственность": 1141, 
  "конференции": 1142, 
  "сентября": 1143, 
  "сотрудников": 1144, 
  "данного": 1145, 
  "усилия": 1146, 
  "большое": 1147, 
  "мог": 1148, 
  "условий": 1149, 
  "посредством": 1150, 
  "частью": 1151, 
  "staff": 1152, 
  "J@@": 1153, 
  "основные": 1154, 
  "сами": 1155, 
  "файл": 1156, 
  "ого": 1157, 
  "ер": 1158, 
  "управление": 1159, 
  "0": 1160, 
  "Дж@@": 1161, 
  "ью": 1162, 
  "овые": 1163, 
  "V@@": 1164, 
  "миру": 1165, 
  "ад@@": 1166, 
  "л": 1167, 
  "достижения": 1168, 
  "класса": 1169, 
  "Номера": 1170, 
  "ро@@": 1171, 
  "имени": 1172, 
  "нашем": 1173, 
  "отношений": 1174, 
  "In": 1175, 
  "са": 1176, 
  "ОАО": 1177, 
  "одну": 1178, 
  "du": 1179, 
  "ведь": 1180, 
  "требованиям": 1181, 
  "ив@@": 1182, 
  "своими": 1183, 
  "сообщения": 1184, 
  "скими": 1185, 
  "исследований": 1186, 
  "потом": 1187, 
  "предоставляет": 1188, 
  "товаров": 1189, 
  "гор@@": 1190, 
  "Server": 1191, 
  "какие": 1192, 
  "связаны": 1193, 
  "альной": 1194, 
  "положение": 1195, 
  "кнопку": 1196, 
  "требует": 1197, 
  "зал": 1198, 
  "экономической": 1199, 
  "прошлом": 1200, 
  "р": 1201, 
  "ация": 1202, 
  "н": 1203, 
  "е@@": 1204, 
  "поле": 1205, 
  "ника": 1206, 
  "Я": 1207, 
  "выбрать": 1208, 
  "файлов": 1209, 
  "государств": 1210, 
  "политических": 1211, 
  "возможностей": 1212, 
  "нашли": 1213, 
  "вер@@": 1214, 
  "совершенно": 1215, 
  "прямо": 1216, 
  "нельзя": 1217, 
  "будущем": 1218, 
  "2@@": 1219, 
  "режиме": 1220, 
  "здравоохранения": 1221, 
  "применения": 1222, 
  "документов": 1223, 
  "g@@": 1224, 
  "ра@@": 1225, 
  "ил@@": 1226, 
  "выполнения": 1227, 
  "при@@": 1228, 
  "первого": 1229, 
  "ек": 1230, 
  "органов": 1231, 
  "данным": 1232, 
  "инвестиций": 1233, 
  "оценки": 1234, 
  "ом@@": 1235, 
  "всеми": 1236, 
  "марта": 1237, 
  "основной": 1238, 
  "2002": 1239, 
  "альная": 1240, 
  "кажется": 1241, 
  "кор@@": 1242, 
  "использованием": 1243, 
  "ностью": 1244, 
  "60": 1245, 
  "специалистов": 1246, 
  "групп": 1247, 
  "политической": 1248, 
  "дополнительные": 1249, 
  "ок@@": 1250, 
  "My": 1251, 
  "минутах": 1252, 
  "региона": 1253, 
  "Наций": 1254, 
  "здоровья": 1255, 
  "разделе": 1256, 
  "всю": 1257, 
  "ального": 1258, 
  "используя": 1259, 
  "Отзывы": 1260, 
  "способ": 1261, 
  "А": 1262, 
  "записи": 1263, 
  "правила": 1264, 
  "дел": 1265, 
  "стоимости": 1266, 
  "новая": 1267, 
  "8@@": 1268, 
  "статьи": 1269, 
  "location": 1270, 
  "июня": 1271, 
  "ит@@": 1272, 
  "коллекции": 1273, 
  "ическое": 1274, 
  "www.@@": 1275, 
  "Российской": 1276, 
  "Объединенных": 1277, 
  "Me": 1278, 
  "объектов": 1279, 
  "файлы": 1280, 
  "материалы": 1281, 
  "будем": 1282, 
  "2001": 1283, 
  "мая": 1284, 
  "предложения": 1285, 
  "С": 1286, 
  "скому": 1287, 
  "движения": 1288, 
  "контроль": 1289, 
  "требования": 1290, 
  "23": 1291, 
  "поводу": 1292, 
  "районе": 1293, 
  "граждан": 1294, 
  "отдыха": 1295, 
  "тексты": 1296, 
  "фирмы": 1297, 
  "далее": 1298, 
  "ответственности": 1299, 
  "впервые": 1300, 
  "ыми": 1301, 
  "ера": 1302, 
  "er@@": 1303, 
  "состав": 1304, 
  "be": 1305, 
  "банк": 1306, 
  "вокруг": 1307, 
  "Love": 1308, 
  "банка": 1309, 
  "аль@@": 1310, 
  "нашим": 1311, 
  "ова": 1312, 
  "семьи": 1313, 
  "страница": 1314, 
  "good": 1315, 
  "ц@@": 1316, 
  "форме": 1317, 
  "изменений": 1318, 
  "д": 1319, 
  "сил": 1320, 
  "9@@": 1321, 
  "ятся": 1322, 
  "начиная": 1323, 
  "позволит": 1324, 
  "директор": 1325, 
  "факт": 1326, 
  "200": 1327, 
  "недвижимости": 1328, 
  "результатов": 1329, 
  "что-то": 1330, 
  "видео": 1331, 
  "объем": 1332, 
  "анием": 1333, 
  "ваши": 1334, 
  "су@@": 1335, 
  "автоматически": 1336, 
  "ового": 1337, 
  "зависит": 1338, 
  "стратегии": 1339, 
  "касается": 1340, 
  "случаев": 1341, 
  "изменить": 1342, 
  "карты": 1343, 
  "предоставляется": 1344, 
  "подход": 1345, 
  "y": 1346, 
  "ениями": 1347, 
  "государственных": 1348, 
  "использовании": 1349, 
  "оставлены": 1350, 
  "базы": 1351, 
  "новое": 1352, 
  "уч@@": 1353, 
  "z@@": 1354, 
  "увидеть": 1355, 
  "такая": 1356, 
  "большая": 1357, 
  "никто": 1358, 
  "ид@@": 1359, 
  "айте": 1360, 
  "представители": 1361, 
  "une": 1362, 
  "отдел": 1363, 
  "номерах": 1364, 
  "вновь": 1365, 
  "предлагаем": 1366, 
  "базе": 1367, 
  "Ю@@": 1368, 
  "us": 1369, 
  "декабря": 1370, 
  "продукты": 1371, 
  "задач": 1372, 
  "передачи": 1373, 
  "любого": 1374, 
  "положения": 1375, 
  "четыре": 1376, 
  "Ь@@": 1377, 
  "Федерации": 1378, 
  "необходимые": 1379, 
  "ам@@": 1380, 
  "идет": 1381, 
  "могу": 1382, 
  "организация": 1383, 
  "ел": 1384, 
  "местных": 1385, 
  "дела": 1386, 
  "план": 1387, 
  "питания": 1388, 
  "ях": 1389, 
  "денег": 1390, 
  "нес@@": 1391, 
  "процентов": 1392, 
  "непосредственно": 1393, 
  "ист@@": 1394, 
  "ра": 1395, 
  "первую": 1396, 
  "линии": 1397, 
  "какой": 1398, 
  "обратитесь": 1399, 
  "поддержка": 1400, 
  "участия": 1401, 
  "кризис": 1402, 
  "памяти": 1403, 
  "говорят": 1404, 
  "представителей": 1405, 
  "любое": 1406, 
  "газа": 1407, 
  "ическим": 1408, 
  "октября": 1409, 
  "капитала": 1410, 
  "её": 1411, 
  "расходы": 1412, 
  "насколько": 1413, 
  "всё": 1414, 
  "наконец": 1415, 
  "финансовой": 1416, 
  "ум@@": 1417, 
  "наше": 1418, 
  "ирования": 1419, 
  "компанией": 1420, 
  "работают": 1421, 
  "сеть": 1422, 
  "позиции": 1423, 
  "енном": 1424, 
  "категории": 1425, 
  "ай@@": 1426, 
  "режим": 1427, 
  "новую": 1428, 
  "главным": 1429, 
  "all": 1430, 
  "значения": 1431, 
  "привести": 1432, 
  "по-прежнему": 1433, 
  "понять": 1434, 
  "ое": 1435, 
  "бес@@": 1436, 
  "--": 1437, 
  "ик": 1438, 
  "страна": 1439, 
  "O@@": 1440, 
  "обучения": 1441, 
  "заявил": 1442, 
  "ацию": 1443, 
  "наличие": 1444, 
  "бассейн": 1445, 
  "программе": 1446, 
  "мероприятий": 1447, 
  "данном": 1448, 
  "Linux": 1449, 
  "ошибку": 1450, 
  "название": 1451, 
  "ма": 1452, 
  "vous": 1453, 
  "операции": 1454, 
  "дать": 1455, 
  "сервера": 1456, 
  "but": 1457, 
  "весьма": 1458, 
  "ией": 1459, 
  "сведения": 1460, 
  "национальных": 1461, 
  "принимать": 1462, 
  "нефти": 1463, 
  "26": 1464, 
  "строительства": 1465, 
  "необходимость": 1466, 
  "го": 1467, 
  "немного": 1468, 
  "собственности": 1469, 
  "Франции": 1470, 
  "ства": 1471, 
  "крайней": 1472, 
  "28": 1473, 
  "функцию": 1474, 
  "пять": 1475, 
  "количества": 1476, 
  "января": 1477, 
  "борьбе": 1478, 
  "иной": 1479, 
  "бизнес": 1480, 
  "цене": 1481, 
  "политику": 1482, 
  "ство": 1483, 
  "общего": 1484, 
  "анные": 1485, 
  "национальной": 1486, 
  "ав@@": 1487, 
  "описание": 1488, 
  "27": 1489, 
  "o@@": 1490, 
  "большим": 1491, 
  "команды": 1492, 
  "довольно": 1493, 
  "подготовки": 1494, 
  "учетом": 1495, 
  "80": 1496, 
  "ну": 1497, 
  "устройства": 1498, 
  "ту": 1499, 
  "момента": 1500, 
  "алось": 1501, 
  "ому": 1502, 
  "альное": 1503, 
  "провести": 1504, 
  "500": 1505, 
  "ев": 1506, 
  "валюты": 1507, 
  "сих": 1508, 
  "ie": 1509, 
  "двумя": 1510, 
  "..": 1511, 
  "ья": 1512, 
  "совсем": 1513, 
  "июля": 1514, 
  "вообще": 1515, 
  "сотрудничество": 1516, 
  "бюро": 1517, 
  "моря": 1518, 
  "ины": 1519, 
  "картинки": 1520, 
  "предложение": 1521, 
  "au": 1522, 
  "результат": 1523, 
  "Японии": 1524, 
  "повышения": 1525, 
  "ут": 1526, 
  "гг.": 1527, 
  "море": 1528, 
  "К": 1529, 
  "помимо": 1530, 
  "которыми": 1531, 
  "отрасли": 1532, 
  "смогут": 1533, 
  "борьбы": 1534, 
  "модель": 1535, 
  "Z@@": 1536, 
  "площади": 1537, 
  "лечения": 1538, 
  "умолчанию": 1539, 
  "апреля": 1540, 
  "высокой": 1541, 
  "начать": 1542, 
  "людьми": 1543, 
  "никаких": 1544, 
  "®": 1545, 
  "p@@": 1546, 
  "невозможно": 1547, 
  "говорить": 1548, 
  "большую": 1549, 
  "бизнес-@@": 1550, 
  "ениях": 1551, 
  "другом": 1552, 
  "размер": 1553, 
  "пре@@": 1554, 
  "государство": 1555, 
  "ел@@": 1556, 
  "поиска": 1557, 
  "обработки": 1558, 
  "раньше": 1559, 
  "суд": 1560, 
  "получил": 1561, 
  "х": 1562, 
  "ающий": 1563, 
  "язык": 1564, 
  "задачи": 1565, 
  "аэропорта": 1566, 
  "ей@@": 1567, 
  "сообщение": 1568, 
  "дополнительных": 1569, 
  "ввиду": 1570, 
  "X@@": 1571, 
  "ическими": 1572, 
  "el": 1573, 
  "программного": 1574, 
  "вполне": 1575, 
  "проекты": 1576, 
  "языке": 1577, 
  "no": 1578, 
  "крупных": 1579, 
  "­": 1580, 
  "соглашения": 1581, 
  "первые": 1582, 
  "комплекс": 1583, 
  "женщины": 1584, 
  "электро@@": 1585, 
  "местах": 1586, 
  "СМИ": 1587, 
  "сможет": 1588, 
  "мало": 1589, 
  "числа": 1590, 
  "ять": 1591, 
  "полный": 1592, 
  "большие": 1593, 
  "клиента": 1594, 
  "оружия": 1595, 
  "дети": 1596, 
  "людям": 1597, 
  "вероятно": 1598, 
  "ноября": 1599, 
  "m": 1600, 
  "ch@@": 1601, 
  "X": 1602, 
  "последних": 1603, 
  "оп@@": 1604, 
  "кол@@": 1605, 
  "ул@@": 1606, 
  "альным": 1607, 
  "события": 1608, 
  "успешно": 1609, 
  "событий": 1610, 
  "раза": 1611, 
  "государственного": 1612, 
  "ключевым": 1613, 
  "u": 1614, 
  "образование": 1615, 
  "вами": 1616, 
  "ресурсы": 1617, 
  "To": 1618, 
  "ительные": 1619, 
  "мероприятия": 1620, 
  "думаю": 1621, 
  "ог@@": 1622, 
  "our": 1623, 
  "другое": 1624, 
  "D": 1625, 
  "принятия": 1626, 
  "какую-либо": 1627, 
  "ас@@": 1628, 
  "цы": 1629, 
  "ещё": 1630, 
  "экономических": 1631, 
  "состояние": 1632, 
  "любом": 1633, 
  "сектора": 1634, 
  "услугам": 1635, 
  "большей": 1636, 
  "ы@@": 1637, 
  "роли": 1638, 
  "НАТО": 1639, 
  "31": 1640, 
  "начало": 1641, 
  "ора": 1642, 
  "языка": 1643, 
  "точно": 1644, 
  "тыс.": 1645, 
  "ике": 1646, 
  "определить": 1647, 
  "значит": 1648, 
  "члены": 1649, 
  "y@@": 1650, 
  "тер@@": 1651, 
  "пор@@": 1652, 
  "климата": 1653, 
  "внимания": 1654, 
  "I@@": 1655, 
  "социальной": 1656, 
  "эффективности": 1657, 
  "государственной": 1658, 
  "in@@": 1659, 
  "документы": 1660, 
  "te": 1661, 
  "больших": 1662, 
  "свободы": 1663, 
  "анализ": 1664, 
  "совместно": 1665, 
  "ков@@": 1666, 
  "используются": 1667, 
  "разработке": 1668, 
  "ата": 1669, 
  "существуют": 1670, 
  "est": 1671, 
  "получили": 1672, 
  "веб-@@": 1673, 
  "Вашего": 1674, 
  "ическую": 1675, 
  "о-@@": 1676, 
  "порядке": 1677, 
  "сильно": 1678, 
  "хочет": 1679, 
  "меж@@": 1680, 
  "ающей": 1681, 
  "власть": 1682, 
  "c": 1683, 
  "f@@": 1684, 
  "en@@": 1685, 
  "have": 1686, 
  "странами": 1687, 
  "исключительно": 1688, 
  "приложения": 1689, 
  "овый": 1690, 
  "n": 1691, 
  "которому": 1692, 
  "годов": 1693, 
  "узнать": 1694, 
  "18@@": 1695, 
  "der": 1696, 
  "расходов": 1697, 
  "ек@@": 1698, 
  "словом": 1699, 
  "отдельных": 1700, 
  "ставки": 1701, 
  "словам": 1702, 
  "b": 1703, 
  "k@@": 1704, 
  "российских": 1705, 
  "известно": 1706, 
  "поддерживает": 1707, 
  "ям": 1708, 
  "Нью-@@": 1709, 
  "предоставить": 1710, 
  "общество": 1711, 
  "высоким": 1712, 
  "Москве": 1713, 
  "мнению": 1714, 
  "ье": 1715, 
  "каждом": 1716, 
  "ес@@": 1717, 
  "овая": 1718, 
  "начал": 1719, 
  "настройки": 1720, 
  "илось": 1721, 
  "w@@": 1722, 
  "удалось": 1723, 
  "трудно": 1724, 
  "оч@@": 1725, 
  "строительство": 1726, 
  "ениям": 1727, 
  "получать": 1728, 
  "одежды": 1729, 
  "использует": 1730, 
  "курс": 1731, 
  "развивающихся": 1732, 
  "виды": 1733, 
  "техники": 1734, 
  "история": 1735, 
  "осуществления": 1736, 
  "багажа": 1737, 
  "ем@@": 1738, 
  "проведение": 1739, 
  "сколько": 1740, 
  "ор": 1741, 
  "видом": 1742, 
  "столь": 1743, 
  "учитывая": 1744, 
  "воз@@": 1745, 
  "команда": 1746, 
  "поможет": 1747, 
  "экономический": 1748, 
  "70": 1749, 
  "ру@@": 1750, 
  "позволяют": 1751, 
  "анализа": 1752, 
  "завтрак": 1753, 
  "участники": 1754, 
  "кая": 1755, 
  "ано": 1756, 
  "продажи": 1757, 
  "любые": 1758, 
  "цена": 1759, 
  "обновления": 1760, 
  "ающего": 1761, 
  "акций": 1762, 
  "ситуация": 1763, 
  "поддержке": 1764, 
  "ус@@": 1765, 
  "полной": 1766, 
  "политике": 1767, 
  ".com": 1768, 
  "др.": 1769, 
  "рода": 1770, 
  "1@@": 1771, 
  "финансовые": 1772, 
  "информацией": 1773, 
  "сервер": 1774, 
  "ё@@": 1775, 
  "Индии": 1776, 
  "У": 1777, 
  "работников": 1778, 
  "РФ": 1779, 
  "отношению": 1780, 
  "воспользоваться": 1781, 
  "увеличение": 1782, 
  "операций": 1783, 
  "ман@@": 1784, 
  "300": 1785, 
  "будете": 1786, 
  "играть": 1787, 
  "безопасность": 1788, 
  "ительной": 1789, 
  "осуществляется": 1790, 
  "настолько": 1791, 
  "ВВП": 1792, 
  "ется": 1793, 
  "готовы": 1794, 
  "смерти": 1795, 
  "считает": 1796, 
  "говоря": 1797, 
  "выборов": 1798, 
  "ант@@": 1799, 
  "изм": 1800, 
  "февраля": 1801, 
  "другого": 1802, 
  "ели": 1803, 
  "ез@@": 1804, 
  "политические": 1805, 
  "j@@": 1806, 
  "изма": 1807, 
  "one": 1808, 
  "то@@": 1809, 
  "анных": 1810, 
  "ирование": 1811, 
  "отличие": 1812, 
  "широкий": 1813, 
  "отсутствие": 1814, 
  "Союза": 1815, 
  "друга": 1816, 
  "сторону": 1817, 
  "искусства": 1818, 
  "периода": 1819, 
  "breakfast": 1820, 
  "школы": 1821, 
  "нему": 1822, 
  "создавать": 1823, 
  "‑": 1824, 
  "высокого": 1825, 
  "пакет": 1826, 
  "b@@": 1827, 
  "системой": 1828, 
  "u@@": 1829, 
  "структуры": 1830, 
  "сохранить": 1831, 
  "августа": 1832, 
  "де": 1833, 
  "ром": 1834, 
  "последствия": 1835, 
  "жить": 1836, 
  "закона": 1837, 
  "первым": 1838, 
  "ПО": 1839, 
  "аю": 1840, 
  "изменение": 1841, 
  "входит": 1842, 
  "первых": 1843, 
  "35": 1844, 
  "сотрудники": 1845, 
  "Сейф": 1846, 
  "пользу": 1847, 
  "новым": 1848, 
  "сердце": 1849, 
  "огромного": 1850, 
  "ительных": 1851, 
  "фактически": 1852, 
  "относящиеся": 1853, 
  "риск": 1854, 
  "E": 1855, 
  "некурящих": 1856, 
  "лучших": 1857, 
  "1999": 1858, 
  "характер": 1859, 
  "файла": 1860, 
  "код": 1861, 
  "II": 1862, 
  "элементов": 1863, 
  "отношение": 1864, 
  "встречи": 1865, 
  "хотят": 1866, 
  "финансирования": 1867, 
  "que": 1868, 
  "действие": 1869, 
  "представить": 1870, 
  "клиентам": 1871, 
  "ирует": 1872, 
  "ающим": 1873, 
  "29": 1874, 
  "ета": 1875, 
  "создании": 1876, 
  "будущее": 1877, 
  "вне": 1878, 
  "финансового": 1879, 
  "компьютер": 1880, 
  "сторон": 1881, 
  "знания": 1882, 
  "стиле": 1883, 
  "жителей": 1884, 
  "прошлого": 1885, 
  "земли": 1886, 
  "род@@": 1887, 
  "сожалению": 1888, 
  "Google": 1889, 
  "кар@@": 1890, 
  "демократии": 1891, 
  "версия": 1892, 
  "считают": 1893, 
  "al@@": 1894, 
  "10@@": 1895, 
  "ia": 1896, 
  "овым": 1897, 
  "руководство": 1898, 
  "Факс": 1899, 
  "следующий": 1900, 
  "независимо": 1901, 
  "ребенка": 1902, 
  "исключением": 1903, 
  "тела": 1904, 
  "относится": 1905, 
  "ночь": 1906, 
  "активно": 1907, 
  "определения": 1908, 
  "конца": 1909, 
  "форму": 1910, 
  "Великобритании": 1911, 
  "ком@@": 1912, 
  "направлении": 1913, 
  "90": 1914, 
  "производителей": 1915, 
  "реальное": 1916, 
  "статье": 1917, 
  "последнее": 1918, 
  "пункт": 1919, 
  "ур@@": 1920, 
  "і@@": 1921, 
  "закон": 1922, 
  "специалисты": 1923, 
  "повышение": 1924, 
  "От@@": 1925, 
  "первом": 1926, 
  "сначала": 1927, 
  "лучшие": 1928, 
  "Кон@@": 1929, 
  "уд@@": 1930, 
  "it@@": 1931, 
  "станции": 1932, 
  "ти": 1933, 
  "стол": 1934, 
  "дни": 1935, 
  "раздел": 1936, 
  "источников": 1937, 
  "альными": 1938, 
  "итель": 1939, 
  "связь": 1940, 
  "аете": 1941, 
  "банков": 1942, 
  "овать": 1943, 
  "пл@@": 1944, 
  "пределах": 1945, 
  "ывает": 1946, 
  "советуем": 1947, 
  "ич@@": 1948, 
  "вод@@": 1949, 
  "еры": 1950, 
  "состояния": 1951, 
  "пост@@": 1952, 
  "обязательно": 1953, 
  "показывает": 1954, 
  "книги": 1955, 
  "z": 1956, 
  "режима": 1957, 
  "методы": 1958, 
  "вклад": 1959, 
  "ед@@": 1960, 
  "Бар": 1961, 
  "важным": 1962, 
  "воздуха": 1963, 
  "намного": 1964, 
  "твоей": 1965, 
  "фирма": 1966, 
  "идеи": 1967, 
  "ец": 1968, 
  "занимает": 1969, 
  "ель": 1970, 
  "компьютера": 1971, 
  "интересов": 1972, 
  "месяца": 1973, 
  "народа": 1974, 
  "S": 1975, 
  "альном": 1976, 
  "Кар@@": 1977, 
  "машины": 1978, 
  "предприятие": 1979, 
  "цвета": 1980, 
  "высокий": 1981, 
  "Украина": 1982, 
  "Ксерокопирование": 1983, 
  "т.е.": 1984, 
  "сообщества": 1985, 
  "оз@@": 1986, 
  "современных": 1987, 
  "здания": 1988, 
  "проверки": 1989, 
  "суда": 1990, 
  "обмена": 1991, 
  "ведущих": 1992, 
  "з": 1993, 
  "такими": 1994, 
  "руки": 1995, 
  "реш@@": 1996, 
  "партнеров": 1997, 
  "микро@@": 1998, 
  "инвестиции": 1999, 
  "ину": 2000, 
  "первое": 2001, 
  "животных": 2002, 
  "дж@@": 2003, 
  "Германия": 2004, 
  "ут@@": 2005, 
  "авто@@": 2006, 
  "соглашение": 2007, 
  "ходьбы": 2008, 
  "речь": 2009, 
  "Отопление": 2010, 
  "re": 2011, 
  "знаний": 2012, 
  "первая": 2013, 
  "ян": 2014, 
  "начали": 2015, 
  "хотел": 2016, 
  "=": 2017, 
  "делают": 2018, 
  "Турции": 2019, 
  "Е@@": 2020, 
  "знать": 2021, 
  "ель@@": 2022, 
  "Европейского": 2023, 
  "is@@": 2024, 
  "военных": 2025, 
  "сл@@": 2026, 
  "ир@@": 2027, 
  "вся": 2028, 
  "ца": 2029, 
  "поиск": 2030, 
  "se": 2031, 
  "Беларуси": 2032, 
  "соответственно": 2033, 
  "мон@@": 2034, 
  "Армении": 2035, 
  "инструментов": 2036, 
  "доходов": 2037, 
  "Центральной": 2038, 
  "Он": 2039, 
  "применение": 2040, 
  "процедуры": 2041, 
  "страну": 2042, 
  "особенности": 2043, 
  "далеко": 2044, 
  "интересы": 2045, 
  "лет@@": 2046, 
  "Конвенции": 2047, 
  "пер@@": 2048, 
  "Бог": 2049, 
  "ar": 2050, 
  "стве": 2051, 
  "международные": 2052, 
  "своему": 2053, 
  "пос@@": 2054, 
  "переговоров": 2055, 
  "лицо": 2056, 
  "проводить": 2057, 
  "B": 2058, 
  "Китае": 2059, 
  "Прокат": 2060, 
  "тов": 2061, 
  "имеются": 2062, 
  "задача": 2063, 
  "сложности": 2064, 
  "dans": 2065, 
  "ры": 2066, 
  "und": 2067, 
  "национального": 2068, 
  "комната": 2069, 
  "придется": 2070, 
  "интерес": 2071, 
  "разрешения": 2072, 
  "шаг": 2073, 
  "ль@@": 2074, 
  "движение": 2075, 
  "параметры": 2076, 
  "ший": 2077, 
  "ян@@": 2078, 
  "выбора": 2079, 
  "избежать": 2080, 
  "ваших": 2081, 
  "основании": 2082, 
  "Прачечная": 2083, 
  "ывать": 2084, 
  "видеть": 2085, 
  "World": 2086, 
  "поддерживать": 2087, 
  "ограничения": 2088, 
  "комплекса": 2089, 
  "конец": 2090, 
  "детьми": 2091, 
  "вещи": 2092, 
  "ля@@": 2093, 
  "приложений": 2094, 
  "каждая": 2095, 
  "элементы": 2096, 
  "2012": 2097, 
  "пяти": 2098, 
  "выставки": 2099, 
  "рынки": 2100, 
  "СССР": 2101, 
  "эксплуатации": 2102, 
  "45": 2103, 
  "значению": 2104, 
  "специально": 2105, 
  "правил": 2106, 
  "устройств": 2107, 
  "Ваш": 2108, 
  "ются": 2109, 
  "U@@": 2110, 
  "социальных": 2111, 
  "мед@@": 2112, 
  "вести": 2113, 
  "Америке": 2114, 
  "и-@@": 2115, 
  "пример": 2116, 
  "метод": 2117, 
  "ированные": 2118, 
  "Ар@@": 2119, 
  "пар@@": 2120, 
  "странам": 2121, 
  "обучение": 2122, 
  "there": 2123, 
  "цев": 2124, 
  "so": 2125, 
  "акции": 2126, 
  "ированы": 2127, 
  "Восточной": 2128, 
  "серии": 2129, 
  "сумму": 2130, 
  "последний": 2131, 
  "общественного": 2132, 
  "ием": 2133, 
  "прессы": 2134, 
  "сегодняшний": 2135, 
  "предоставления": 2136, 
  "соответствует": 2137, 
  "сп@@": 2138, 
  "решить": 2139, 
  "Южной": 2140, 
  "процессов": 2141, 
  "продаж": 2142, 
  "европейских": 2143, 
  "ительный": 2144, 
  "возрасте": 2145, 
  "восстановления": 2146, 
  "\\": 2147, 
  "ическом": 2148, 
  "2011": 2149, 
  "die": 2150, 
  "оры": 2151, 
  "аний": 2152, 
  "pour": 2153, 
  "персонала": 2154, 
  "б": 2155, 
  "ун@@": 2156, 
  "счета": 2157, 
  "лидеры": 2158, 
  "ар": 2159, 
  "уз@@": 2160, 
  "Круглосуточный": 2161, 
  "используют": 2162, 
  "очевидно": 2163, 
  "защите": 2164, 
  "v@@": 2165, 
  "причем": 2166, 
  "зад@@": 2167, 
  "ост@@": 2168, 
  "Камера": 2169, 
  "отметить": 2170, 
  "произошло": 2171, 
  "мирового": 2172, 
  "rooms": 2173, 
  "al": 2174, 
  "ав": 2175, 
  "1.@@": 2176, 
  "городов": 2177, 
  "яться": 2178, 
  "способность": 2179, 
  "Его": 2180, 
  "your": 2181, 
  "экономические": 2182, 
  "ством": 2183, 
  "тип": 2184, 
  "любых": 2185, 
  "совета": 2186, 
  "комиссии": 2187, 
  "набор": 2188, 
  "приняли": 2189, 
  "моей": 2190, 
  "il": 2191, 
  "текст": 2192, 
  "me": 2193, 
  "хочу": 2194, 
  "содержание": 2195, 
  "се": 2196, 
  "годах": 2197, 
  "Северной": 2198, 
  "документ": 2199, 
  "мет@@": 2200, 
  "оба": 2201, 
  "ют": 2202, 
  "идея": 2203, 
  "давно": 2204, 
  "соответствующие": 2205, 
  "проблему": 2206, 
  "сделал": 2207, 
  "ацией": 2208, 
  "созданию": 2209, 
  "гости": 2210, 
  "do": 2211, 
  "считается": 2212, 
  "чаще": 2213, 
  "кур@@": 2214, 
  "куда": 2215, 
  "блюда": 2216, 
  "экономика": 2217, 
  "страницами": 2218, 
  "историю": 2219, 
  "большинства": 2220, 
  "ированных": 2221, 
  "Соединенных": 2222, 
  "науки": 2223, 
  "областях": 2224, 
  "временем": 2225, 
  "знаю": 2226, 
  "интернет-@@": 2227, 
  "основным": 2228, 
  "продаже": 2229, 
  "договора": 2230, 
  "следующих": 2231, 
  "курса": 2232, 
  "Найти": 2233, 
  "метров": 2234, 
  "ран@@": 2235, 
  "Израиля": 2236, 
  "продукта": 2237, 
  "университета": 2238, 
  "анной": 2239, 
  "продолжает": 2240, 
  "современной": 2241, 
  "продукт": 2242, 
  "широко": 2243, 
  "On": 2244, 
  "учреждений": 2245, 
  "банки": 2246, 
  "еты": 2247, 
  "кий": 2248, 
  "фразой": 2249, 
  "And": 2250, 
  "форм@@": 2251, 
  "сообщений": 2252, 
  "ров@@": 2253, 
  "СНГ": 2254, 
  "ине": 2255, 
  "перечисленными": 2256, 
  "иль@@": 2257, 
  "большинстве": 2258, 
  "лидеров": 2259, 
  "среднего": 2260, 
  "ров": 2261, 
  "размере": 2262, 
  "ний": 2263, 
  "тысячи": 2264, 
  "мнение": 2265, 
  "приводит": 2266, 
  "прибыли": 2267, 
  "хозяйства": 2268, 
  "дальше": 2269, 
  "опыта": 2270, 
  "had": 2271, 
  "внутренних": 2272, 
  "обладает": 2273, 
  "17@@": 2274, 
  "плане": 2275, 
  "органы": 2276, 
  "причиной": 2277, 
  "ником": 2278, 
  "тонн": 2279, 
  "требований": 2280, 
  "позже": 2281, 
  "текстам": 2282, 
  "защиту": 2283, 
  "приходится": 2284, 
  "помогает": 2285, 
  "никами": 2286, 
  "принимает": 2287, 
  "32": 2288, 
  "T": 2289, 
  "Грузии": 2290, 
  "сов": 2291, 
  "персонал": 2292, 
  "окна": 2293, 
  "найдете": 2294, 
  "ительного": 2295, 
  "дел@@": 2296, 
  "Ь": 2297, 
  "жел@@": 2298, 
  "концов": 2299, 
  "определ@@": 2300, 
  "разные": 2301, 
  "каким": 2302, 
  "x@@": 2303, 
  "Лифт": 2304, 
  "тебя": 2305, 
  "ших": 2306, 
  "грамматически": 2307, 
  "http": 2308, 
  "экономике": 2309, 
  "получает": 2310, 
  "Debian": 2311, 
  "находишь": 2312, 
  "месяц": 2313, 
  "сутки": 2314, 
  "R": 2315, 
  "млрд.": 2316, 
  "анный": 2317, 
  "телефон": 2318, 
  "реформы": 2319, 
  "почты": 2320, 
  "действительности": 2321, 
  "листинги": 2322, 
  "контекстуальные": 2323, 
  "рынках": 2324, 
  "кот@@": 2325, 
  "еров": 2326, 
  "времена": 2327, 
  "ду@@": 2328, 
  "контекстуально": 2329, 
  "ству": 2330, 
  "шей": 2331, 
  "насилия": 2332, 
  "слово": 2333, 
  "назначения": 2334, 
  "взять": 2335, 
  "современные": 2336, 
  "интервью": 2337, 
  "кат@@": 2338, 
  "регистрация": 2339, 
  "енному": 2340, 
  "местные": 2341, 
  "ающее": 2342, 
  "Бога": 2343, 
  "эффективно": 2344, 
  "газ@@": 2345, 
  "статья": 2346, 
  "еч@@": 2347, 
  "МВФ": 2348, 
  "главный": 2349, 
  "....": 2350, 
  "перед@@": 2351, 
  "эффективность": 2352, 
  "альную": 2353, 
  "статус": 2354, 
  "группе": 2355, 
  "уровнем": 2356, 
  "площадь": 2357, 
  "опытом": 2358, 
  "продолжать": 2359, 
  "Ц@@": 2360, 
  "собственной": 2361, 
  "гостям": 2362, 
  "New": 2363, 
  "представляют": 2364, 
  "час": 2365, 
  "ваше": 2366, 
  "ающая": 2367, 
  "изделий": 2368, 
  "отметил": 2369, 
  "студентов": 2370, 
  "панели": 2371, 
  "сом": 2372, 
  "ou": 2373, 
  "Y@@": 2374, 
  "обязательств": 2375, 
  "вариант": 2376, 
  "успеха": 2377, 
  "свет": 2378, 
  "аз@@": 2379, 
  "крайне": 2380, 
  "ивать": 2381, 
  "номере": 2382, 
  "получают": 2383, 
  "товары": 2384, 
  "района": 2385, 
  "дизайн": 2386, 
  "бор@@": 2387, 
  "Ал@@": 2388, 
  "иг@@": 2389, 
  "названием": 2390, 
  "кл@@": 2391, 
  "природы": 2392, 
  "часа": 2393, 
  "высокие": 2394, 
  "пользователи": 2395, 
  "знает": 2396, 
  "добиться": 2397, 
  "Кор@@": 2398, 
  "границы": 2399, 
  "Европа": 2400, 
  "равно": 2401, 
  "Про@@": 2402, 
  "снижение": 2403, 
  "0@@": 2404, 
  "функций": 2405, 
  "Пер@@": 2406, 
  "достичь": 2407, 
  "In@@": 2408, 
  "яет": 2409, 
  "область": 2410, 
  "tel": 2411, 
  "centre": 2412, 
  "способом": 2413, 
  "ло": 2414, 
  "пользоваться": 2415, 
  "сотрудничестве": 2416, 
  "ция": 2417, 
  "во@@": 2418, 
  "шие": 2419, 
  "влияния": 2420, 
  "недалеко": 2421, 
  "1998": 2422, 
  "возраста": 2423, 
  "игра": 2424, 
  "переговоры": 2425, 
  "использоваться": 2426, 
  "устройство": 2427, 
  "запись": 2428, 
  "ких": 2429, 
  "анного": 2430, 
  "взгляд": 2431, 
  "данная": 2432, 
  "мм": 2433, 
  "торговых": 2434, 
  "ar@@": 2435, 
  "инвалидов": 2436, 
  "ре": 2437, 
  "увеличить": 2438, 
  "порядок": 2439, 
  "мужчин": 2440, 
  "т.": 2441, 
  "потребности": 2442, 
  "завод": 2443, 
  "раздел@@": 2444, 
  "os": 2445, 
  "карте": 2446, 
  "двух@@": 2447, 
  "самая": 2448, 
  "avec": 2449, 
  "нефть": 2450, 
  "настоящий": 2451, 
  "игр": 2452, 
  "создает": 2453, 
  "кухни": 2454, 
  "ально": 2455, 
  "среде": 2456, 
  "купить": 2457, 
  "зоны": 2458, 
  "кому": 2459, 
  "поля": 2460, 
  "обязательства": 2461, 
  "успех": 2462, 
  "администрации": 2463, 
  "аб@@": 2464, 
  "аг@@": 2465, 
  "получение": 2466, 
  "важных": 2467, 
  "es@@": 2468, 
  "Казахстан": 2469, 
  "причин": 2470, 
  "ж": 2471, 
  "выполнять": 2472, 
  "ует": 2473, 
  "А.": 2474, 
  "интеграции": 2475, 
  "бл@@": 2476, 
  "тут": 2477, 
  "мат@@": 2478, 
  "фонда": 2479, 
  "g": 2480, 
  "расширения": 2481, 
  "недели": 2482, 
  "вин@@": 2483, 
  "стро@@": 2484, 
  "абсолютно": 2485, 
  "получ@@": 2486, 
  "используйте": 2487, 
  "посетить": 2488, 
  "фонд": 2489, 
  "американских": 2490, 
  "ООО": 2491, 
  "Exchange": 2492, 
  "вз@@": 2493, 
  "международным": 2494, 
  "исполн@@": 2495, 
  "общественных": 2496, 
  "IP": 2497, 
  "рынков": 2498, 
  "инфраструктуры": 2499, 
  "итоге": 2500, 
  "пределами": 2501, 
  "большого": 2502, 
  "улучшения": 2503, 
  "необходимых": 2504, 
  "небольшой": 2505, 
  "экспертов": 2506, 
  "хотели": 2507, 
  "N": 2508, 
  "конечном": 2509, 
  "глаза": 2510, 
  "главное": 2511, 
  "Al@@": 2512, 
  "L": 2513, 
  "миллиардов": 2514, 
  "ители": 2515, 
  "развитии": 2516, 
  "п": 2517, 
  "посмотреть": 2518, 
  "научных": 2519, 
  "включают": 2520, 
  "прибыль": 2521, 
  "ителя": 2522, 
  "могла": 2523, 
  "k": 2524, 
  "International": 2525, 
  "усилий": 2526, 
  "ошибки": 2527, 
  "вскоре": 2528, 
  "ne": 2529, 
  "ряда": 2530, 
  "вида": 2531, 
  "пользователь": 2532, 
  "учреждения": 2533, 
  "йте": 2534, 
  "аемых": 2535, 
  "Ch@@": 2536, 
  "вид@@": 2537, 
  "™": 2538, 
  "известных": 2539, 
  "расположены": 2540, 
  "транспорта": 2541, 
  "увеличения": 2542, 
  "частных": 2543, 
  "правильно": 2544, 
  "этими": 2545, 
  "доб@@": 2546, 
  "тон@@": 2547, 
  "параметров": 2548, 
  "спустя": 2549, 
  "выборах": 2550, 
  "риска": 2551, 
  "интернет": 2552, 
  "рабочей": 2553, 
  "EUR": 2554, 
  "порядка": 2555, 
  "вопросу": 2556, 
  "шего": 2557, 
  "собственных": 2558, 
  "ющих": 2559, 
  "сделали": 2560, 
  "потенциала": 2561, 
  "at@@": 2562, 
  "ясно": 2563, 
  "бесплатный": 2564, 
  "скорость": 2565, 
  "енно": 2566, 
  "охраны": 2567, 
  "му": 2568, 
  "секторе": 2569, 
  "загрузки": 2570, 
  "виду": 2571, 
  "здание": 2572, 
  "максимально": 2573, 
  "просмотра": 2574, 
  "бюджета": 2575, 
  "Конференц-зал": 2576, 
  "выполнить": 2577, 
  "способности": 2578, 
  "млн": 2579, 
  "производительности": 2580, 
  "неделю": 2581, 
  "наук": 2582, 
  "разработка": 2583, 
  "ситуацию": 2584, 
  "предоставление": 2585, 
  "выполнение": 2586, 
  "потребителей": 2587, 
  "активов": 2588, 
  "і": 2589, 
  "ня": 2590, 
  "методов": 2591, 
  "ировали": 2592, 
  "рекомендации": 2593, 
  "Пол@@": 2594, 
  "which": 2595, 
  "Италии": 2596, 
  "подобные": 2597, 
  "программное": 2598, 
  "группу": 2599, 
  "заб@@": 2600, 
  "многое": 2601, 
  "преимущества": 2602, 
  "can": 2603, 
  "форм": 2604, 
  "аемые": 2605, 
  "сам@@": 2606, 
  "подходит": 2607, 
  "плана": 2608, 
  "крупнейших": 2609, 
  "молодых": 2610, 
  "церкви": 2611, 
  "di": 2612, 
  "оплаты": 2613, 
  "иначе": 2614, 
  "входят": 2615, 
  "It": 2616, 
  "потенциал": 2617, 
  "ски": 2618, 
  "el@@": 2619, 
  "следовательно": 2620, 
  "p": 2621, 
  "отвечает": 2622, 
  "ест@@": 2623, 
  "уш@@": 2624, 
  "цвет": 2625, 
  "инга": 2626, 
  "расширение": 2627, 
  "стороне": 2628, 
  "вос@@": 2629, 
  "has": 2630, 
  "метро": 2631, 
  "great": 2632, 
  "мол@@": 2633, 
  "ительным": 2634, 
  "эффект": 2635, 
  "сайтов": 2636, 
  "кампании": 2637, 
  "ику": 2638, 
  "очных": 2639, 
  "Банкетный": 2640, 
  "срока": 2641, 
  "доля": 2642, 
  "рублей": 2643, 
  "O": 2644, 
  "представление": 2645, 
  "становятся": 2646, 
  "государственные": 2647, 
  "политического": 2648, 
  "глава": 2649, 
  "смогли": 2650, 
  "руководства": 2651, 
  "распространения": 2652, 
  "выставка": 2653, 
  "принципы": 2654, 
  "ач@@": 2655, 
  "овую": 2656, 
  "выборы": 2657, 
  "десять": 2658, 
  "Завтрак": 2659, 
  "четырех": 2660, 
  "гражданского": 2661, 
  "общий": 2662, 
  "наряду": 2663, 
  "топлива": 2664, 
  "вашем": 2665, 
  "провод@@": 2666, 
  "смысле": 2667, 
  "региональных": 2668, 
  "окно": 2669, 
  "Израиль": 2670, 
  "ором": 2671, 
  "компьютере": 2672, 
  "овое": 2673, 
  "инвесторов": 2674, 
  "ме": 2675, 
  "re@@": 2676, 
  "относятся": 2677, 
  "военной": 2678, 
  "специальные": 2679, 
  "настоящего": 2680, 
  "осуществлять": 2681, 
  "city": 2682, 
  "an@@": 2683, 
  "аш@@": 2684, 
  "стабильности": 2685, 
  "информационных": 2686, 
  "Мак@@": 2687, 
  "мои": 2688, 
  "во-первых": 2689, 
  "Мар@@": 2690, 
  "простой": 2691, 
  "вода": 2692, 
  "щелкните": 2693, 
  "сетей": 2694, 
  "заказ": 2695, 
  "регионах": 2696, 
  "директора": 2697, 
  "размещения": 2698, 
  "показатели": 2699, 
  "реформ": 2700, 
  "технических": 2701, 
  "доступны": 2702, 
  "рады": 2703, 
  "енность": 2704, 
  "музыки": 2705, 
  "действовать": 2706, 
  "вызывает": 2707, 
  "получила": 2708, 
  "оль@@": 2709, 
  "открыть": 2710, 
  "ителей": 2711, 
  "причине": 2712, 
  "запрещено": 2713, 
  "таком": 2714, 
  "пр@@": 2715, 
  "уб@@": 2716, 
  "конфликта": 2717, 
  "рез@@": 2718, 
  "содержания": 2719, 
  "законодательства": 2720, 
  "ивает": 2721, 
  "получите": 2722, 
  "M": 2723, 
  "изображение": 2724, 
  "быстрее": 2725, 
  "обмен": 2726, 
  "представления": 2727, 
  "правда": 2728, 
  "шим": 2729, 
  "воздействия": 2730, 
  "изделия": 2731, 
  "my": 2732, 
  "ируют": 2733, 
  "G": 2734, 
  "ведет": 2735, 
  "лег@@": 2736, 
  "центров": 2737, 
  "способствовать": 2738, 
  "проводится": 2739, 
  "международный": 2740, 
  "практике": 2741, 
  "распростран@@": 2742, 
  "е-@@": 2743, 
  "аций": 2744, 
  "Group": 2745, 
  "ло@@": 2746, 
  "такую": 2747, 
  "руководством": 2748, 
  "сохранения": 2749, 
  "результатом": 2750, 
  "показ@@": 2751, 
  "ающими": 2752, 
  "nice": 2753, 
  "министр": 2754, 
  "ева": 2755, 
  "итесь": 2756, 
  "свыше": 2757, 
  "различными": 2758, 
  "ядерного": 2759, 
  "уют": 2760, 
  "ресторане": 2761, 
  "зак@@": 2762, 
  "российской": 2763, 
  "ри": 2764, 
  "сервис": 2765, 
  "мен@@": 2766, 
  "св@@": 2767, 
  "внешней": 2768, 
  "ant": 2769, 
  "председатель": 2770, 
  "расположение": 2771, 
  "каждому": 2772, 
  "its": 2773, 
  "мин@@": 2774, 
  "Россией": 2775, 
  "население": 2776, 
  "организациями": 2777, 
  "давление": 2778, 
  "пользователям": 2779, 
  "главной": 2780, 
  "ически": 2781, 
  "ят@@": 2782, 
  "тебе": 2783, 
  "ции": 2784, 
  "имся": 2785, 
  "вой": 2786, 
  "свет@@": 2787, 
  "сер@@": 2788, 
  "only": 2789, 
  "городах": 2790, 
  "ывают": 2791, 
  "friendly": 2792, 
  "посетителей": 2793, 
  "сохран@@": 2794, 
  "социального": 2795, 
  "кие": 2796, 
  "среду": 2797, 
  "российского": 2798, 
  "моя": 2799, 
  "clean": 2800, 
  "говорил": 2801, 
  "сы": 2802, 
  "образ@@": 2803, 
  "тор@@": 2804, 
  "лиш@@": 2805, 
  "мировых": 2806, 
  "овал": 2807, 
  "постепенно": 2808, 
  "почте": 2809, 
  "народов": 2810, 
  "Кондиционер": 2811, 
  "имели": 2812, 
  "sur": 2813, 
  "долго": 2814, 
  "ежегодно": 2815, 
  "ис": 2816, 
  "республики": 2817, 
  "желание": 2818, 
  "номерами": 2819, 
  "массовой": 2820, 
  "клиент": 2821, 
  "потребностей": 2822, 
  "света": 2823, 
  "Латвии": 2824, 
  "соедин@@": 2825, 
  "Министерства": 2826, 
  "мо@@": 2827, 
  "ющие": 2828, 
  "общая": 2829, 
  "Москвы": 2830, 
  "жив@@": 2831, 
  "распространение": 2832, 
  "et@@": 2833, 
  "само@@": 2834, 
  "плав@@": 2835, 
  "война": 2836, 
  "занимается": 2837, 
  "400": 2838, 
  "шесть": 2839, 
  "language": 2840, 
  "наличии": 2841, 
  "та@@": 2842, 
  "1000": 2843, 
  "мор@@": 2844, 
  "существенно": 2845, 
  "формате": 2846, 
  "150": 2847, 
  "обе": 2848, 
  "проходит": 2849, 
  "@": 2850, 
  "центром": 2851, 
  "знают": 2852, 
  "La": 2853, 
  "исследование": 2854, 
  "составе": 2855, 
  "онлайн": 2856, 
  "источник": 2857, 
  "°": 2858, 
  "ай": 2859, 
  "Франция": 2860, 
  "Химчистка": 2861, 
  "ере": 2862, 
  "Internet": 2863, 
  "яли": 2864, 
  "анная": 2865, 
  "ируется": 2866, 
  "кода": 2867, 
  "am": 2868, 
  "цвет@@": 2869, 
  "приблизительно": 2870, 
  "остаются": 2871, 
  "Доставка": 2872, 
  "стандартам": 2873, 
  "ированный": 2874, 
  "производстве": 2875, 
  "несет": 2876, 
  "приложение": 2877, 
  "нед@@": 2878, 
  "планы": 2879, 
  "Ирана": 2880, 
  "самостоятельно": 2881, 
  "сама": 2882, 
  "овали": 2883, 
  "Р": 2884, 
  "звезды": 2885, 
  "Ан@@": 2886, 
  "технической": 2887, 
  "free": 2888, 
  "1997": 2889, 
  "ительное": 2890, 
  "сроки": 2891, 
  "лечение": 2892, 
  "вол@@": 2893, 
  "ва@@": 2894, 
  "карту": 2895, 
  "экономику": 2896, 
  "суммы": 2897, 
  "миллиона": 2898, 
  "авших": 2899, 
  "ент@@": 2900, 
  "будущего": 2901, 
  "производится": 2902, 
  "версию": 2903, 
  "принадлежности": 2904, 
  "Беларусь": 2905, 
  "народ": 2906, 
  "отдел@@": 2907, 
  "районах": 2908, 
  "регионов": 2909, 
  "вперед": 2910, 
  "налогов": 2911, 
  "свободу": 2912, 
  "автор": 2913, 
  "принял": 2914, 
  "ибо": 2915, 
  "истов": 2916, 
  "Вами": 2917, 
  "ительная": 2918, 
  "Вы@@": 2919, 
  "яя": 2920, 
  "договор": 2921, 
  "F": 2922, 
  "75": 2923, 
  "правления": 2924, 
  "close": 2925, 
  "отличается": 2926, 
  "глобальной": 2927, 
  "объекты": 2928, 
  "яется": 2929, 
  "альному": 2930, 
  "ывается": 2931, 
  "высоких": 2932, 
  "глажению": 2933, 
  "ва": 2934, 
  "оны": 2935, 
  "направления": 2936, 
  "спорта": 2937, 
  "ние": 2938, 
  "практики": 2939, 
  "документа": 2940, 
  "частично": 2941, 
  "анным": 2942, 
  "il@@": 2943, 
  "страницу": 2944, 
  "Москва": 2945, 
  "воздействие": 2946, 
  "потребления": 2947, 
  "поверхности": 2948, 
  "ане": 2949, 
  "поколения": 2950, 
  "дают": 2951, 
  "хороший": 2952, 
  "слов": 2953, 
  "Ст@@": 2954, 
  "on@@": 2955, 
  "ап@@": 2956, 
  "В.": 2957, 
  "Международного": 2958, 
  "дополнительную": 2959, 
  "затрат": 2960, 
  "обороны": 2961, 
  "данное": 2962, 
  "военные": 2963, 
  "аты": 2964, 
  "2-@@": 2965, 
  "комитета": 2966, 
  "r": 2967, 
  "V": 2968, 
  "эн@@": 2969, 
  "located": 2970, 
  "существующих": 2971, 
  "фин@@": 2972, 
  "пребывания": 2973, 
  "Ираке": 2974, 
  "they": 2975, 
  "объекта": 2976, 
  "минимум": 2977, 
  "каждое": 2978, 
  "апартаменты": 2979, 
  "иков": 2980, 
  "технология": 2981, 
  "вашим": 2982, 
  "заявление": 2983, 
  "одно@@": 2984, 
  "потери": 2985, 
  "дис@@": 2986, 
  "подобных": 2987, 
  "объема": 2988, 
  "стандартов": 2989, 
  "полного": 2990, 
  "главных": 2991, 
  "анное": 2992, 
  "Европейский": 2993, 
  "будучи": 2994, 
  "управлять": 2995, 
  "правам": 2996, 
  "тело": 2997, 
  "ди@@": 2998, 
  "похоже": 2999, 
  "Президента": 3000, 
  "национальные": 3001, 
  "экспорта": 3002, 
  "отношениях": 3003, 
  "helpful": 3004, 
  "am@@": 3005, 
  "продукцию": 3006, 
  "факторов": 3007, 
  "дал": 3008, 
  "крупные": 3009, 
  "размера": 3010, 
  "никакого": 3011, 
  "печати": 3012, 
  "друзей": 3013, 
  "служб": 3014, 
  "кто-то": 3015, 
  "эконом@@": 3016, 
  "связ@@": 3017, 
  "зат@@": 3018, 
  "позднее": 3019, 
  "подпис@@": 3020, 
  "располагает": 3021, 
  "ма@@": 3022, 
  "хотим": 3023, 
  "ценных": 3024, 
  "сумма": 3025, 
  "составляют": 3026, 
  "Африки": 3027, 
  "общих": 3028, 
  "особое": 3029, 
  "1-@@": 3030, 
  "кан@@": 3031, 
  "ле": 3032, 
  "этапе": 3033, 
  "глобального": 3034, 
  "кафе": 3035, 
  "определение": 3036, 
  "затраты": 3037, 
  "вл@@": 3038, 
  "характера": 3039, 
  "другую": 3040, 
  "16@@": 3041, 
  "остальные": 3042, 
  "инструмент": 3043, 
  "приведет": 3044, 
  "цами": 3045, 
  "заявления": 3046, 
  "кое": 3047, 
  "взимается": 3048, 
  "2.@@": 3049, 
  "новом": 3050, 
  "excellent": 3051, 
  "ся": 3052, 
  "un@@": 3053, 
  "участвовать": 3054, 
  "оценка": 3055, 
  "пакета": 3056, 
  "плату": 3057, 
  "also": 3058, 
  "очные": 3059, 
  "приобрести": 3060, 
  "материала": 3061, 
  "ума": 3062, 
  "сотни": 3063, 
  "местного": 3064, 
  "выполн@@": 3065, 
  "if": 3066, 
  "ри@@": 3067, 
  "карт": 3068, 
  "полную": 3069, 
  "комитет": 3070, 
  "здоровье": 3071, 
  "Буша": 3072, 
  "емых": 3073, 
  "предлагается": 3074, 
  "член": 3075, 
  "рабочие": 3076, 
  "никакой": 3077, 
  "ради": 3078, 
  "создан": 3079, 
  "полное": 3080, 
  "любви": 3081, 
  "ваша": 3082, 
  "напротив": 3083, 
  "коп@@": 3084, 
  "€": 3085, 
  "чер@@": 3086, 
  "подключения": 3087, 
  "спектр": 3088, 
  "ица": 3089, 
  "позволить": 3090, 
  "повысить": 3091, 
  "#": 3092, 
  "обществе": 3093, 
  "членом": 3094, 
  "требуют": 3095, 
  "сокращение": 3096, 
  "проблемой": 3097, 
  "Банка": 3098, 
  "just": 3099, 
  "взрослых": 3100, 
  "общие": 3101, 
  "основная": 3102, 
  "вследствие": 3103, 
  "сон": 3104, 
  "ic@@": 3105, 
  "ради@@": 3106, 
  "Your": 3107, 
  "сессии": 3108, 
  "знаем": 3109, 
  "га": 3110, 
  "законом": 3111, 
  "отчет": 3112, 
  "процента": 3113, 
  "определенных": 3114, 
  "ким": 3115, 
  "вопроса": 3116, 
  "начинается": 3117, 
  "полиции": 3118, 
  "американской": 3119, 
  "окне": 3120, 
  "ценности": 3121, 
  "си@@": 3122, 
  "реки": 3123, 
  "соверш@@": 3124, 
  "причины": 3125, 
  "современного": 3126, 
  "ведения": 3127, 
  "out": 3128, 
  "пространства": 3129, 
  "анными": 3130, 
  "интерфейс": 3131, 
  "спроса": 3132, 
  "поставки": 3133, 
  "открытия": 3134, 
  "ни@@": 3135, 
  "начинает": 3136, 
  "летом": 3137, 
  "бу@@": 3138, 
  "снижения": 3139, 
  "веществ": 3140, 
  "енности": 3141, 
  "All": 3142, 
  "ита": 3143, 
  "na": 3144, 
  "специальных": 3145, 
  "общее": 3146, 
  "игре": 3147, 
  "де@@": 3148, 
  "Россию": 3149, 
  "ичный": 3150, 
  "магазин": 3151, 
  "бол@@": 3152, 
  "ми": 3153, 
  "знаете": 3154, 
  "образ": 3155, 
  "работал": 3156, 
  "указ@@": 3157, 
  "открывается": 3158, 
  "уль@@": 3159, 
  "P": 3160, 
  "машин": 3161, 
  "разруш@@": 3162, 
  "моего": 3163, 
  "собственного": 3164, 
  "страниц": 3165, 
  "степень": 3166, 
  "33": 3167, 
  "расположенный": 3168, 
  "стадии": 3169, 
  "э": 3170, 
  "15@@": 3171, 
  "ером": 3172, 
  "da": 3173, 
  "стар@@": 3174, 
  "сентябре": 3175, 
  "атор": 3176, 
  "бед@@": 3177, 
  "дороги": 3178, 
  "игроков": 3179, 
  "more": 3180, 
  "завода": 3181, 
  "добраться": 3182, 
  "ирован": 3183, 
  "острова": 3184, 
  "выхода": 3185, 
  "участием": 3186, 
  "принципов": 3187, 
  "конференция": 3188, 
  "объедин@@": 3189, 
  "ти@@": 3190, 
  "заключ@@": 3191, 
  "общественности": 3192, 
  "продолж@@": 3193, 
  "традиции": 3194, 
  "нов@@": 3195, 
  "материал": 3196, 
  "Иран": 3197, 
  "общем": 3198, 
  "Штаты": 3199, 
  "аясь": 3200, 
  "собственный": 3201, 
  "ичные": 3202, 
  "выставке": 3203, 
  "команду": 3204, 
  "ываются": 3205, 
  "Это": 3206, 
  "усил@@": 3207, 
  "последствий": 3208, 
  "могло": 3209, 
  "осуществляет": 3210, 
  "ьте": 3211, 
  "определяет": 3212, 
  "зоне": 3213, 
  "подготовке": 3214, 
  "разрешение": 3215, 
  "недвижимость": 3216, 
  "платы": 3217, 
  "ру": 3218, 
  "ш": 3219, 
  "оставаться": 3220, 
  "аст@@": 3221, 
  "адресу": 3222, 
  "вор@@": 3223, 
  "новости": 3224, 
  "обеспечению": 3225, 
  "адреса": 3226, 
  "улице": 3227, 
  "следующем": 3228, 
  "зачастую": 3229, 
  "млрд": 3230, 
  "европейской": 3231, 
  "оказаться": 3232, 
  "сделки": 3233, 
  "service": 3234, 
  "повтор@@": 3235, 
  "среднем": 3236, 
  "языках": 3237, 
  "финансирование": 3238, 
  "бар": 3239, 
  "скорости": 3240, 
  "ошибок": 3241, 
  "лит@@": 3242, 
  "декабре": 3243, 
  "еть": 3244, 
  "принято": 3245, 
  "яют": 3246, 
  "заниматься": 3247, 
  "даты": 3248, 
  "Отель": 3249, 
  "оров": 3250, 
  "З": 3251, 
  "много@@": 3252, 
  "производ@@": 3253, 
  "ада": 3254, 
  "дополнительной": 3255, 
  "процессы": 3256, 
  "SQL": 3257, 
  "com": 3258, 
  "диск": 3259, 
  "правительством": 3260, 
  "создана": 3261, 
  "еш@@": 3262, 
  "последнего": 3263, 
  "5-@@": 3264, 
  "нарушения": 3265, 
  "важные": 3266, 
  "установка": 3267, 
  "показать": 3268, 
  "прекрасно": 3269, 
  "еж@@": 3270, 
  "3-@@": 3271, 
  "няя": 3272, 
  "отдельные": 3273, 
  "беспроводной": 3274, 
  "Раз@@": 3275, 
  "позицию": 3276, 
  "Т": 3277, 
  "считать": 3278, 
  "армии": 3279, 
  "вашу": 3280, 
  "бо@@": 3281, 
  "берегу": 3282, 
  "другая": 3283, 
  "игру": 3284, 
  "размещении": 3285, 
  "эт@@": 3286, 
  "тай@@": 3287, 
  "регулирования": 3288, 
  "уст@@": 3289, 
  "би@@": 3290, 
  "многочисленные": 3291, 
  "ac@@": 3292, 
  "семей": 3293, 
  "современный": 3294, 
  "метрах": 3295, 
  "ско-@@": 3296, 
  "спрос": 3297, 
  "For": 3298, 
  "рождения": 3299, 
  "решили": 3300, 
  "12@@": 3301, 
  "ическому": 3302, 
  "English": 3303, 
  "гидро@@": 3304, 
  "те@@": 3305, 
  "енко": 3306, 
  "пришлось": 3307, 
  "f": 3308, 
  "играет": 3309, 
  "известный": 3310, 
  "обсуждения": 3311, 
  "настоящей": 3312, 
  "инструменты": 3313, 
  "ук@@": 3314, 
  "попытки": 3315, 
  "заболеваний": 3316, 
  "функция": 3317, 
  "ировал": 3318, 
  "мер@@": 3319, 
  "введите": 3320, 
  "Казахстана": 3321, 
  "ска": 3322, 
  "регулярно": 3323, 
  "ара": 3324, 
  "компонентов": 3325, 
  "qu@@": 3326, 
  "телефона": 3327, 
  "туристов": 3328, 
  "ившись": 3329, 
  "домов": 3330, 
  "заезда": 3331, 
  "ализ@@": 3332, 
  "Александр": 3333, 
  "обеспечивают": 3334, 
  "действует": 3335, 
  "кофе": 3336, 
  "доме": 3337, 
  "No": 3338, 
  "будто": 3339, 
  "крови": 3340, 
  "chambres": 3341, 
  "аниями": 3342, 
  "защита": 3343, 
  "фильм": 3344, 
  "законы": 3345, 
  "примеру": 3346, 
  "земле": 3347, 
  "Бел@@": 3348, 
  "услугами": 3349, 
  "тему": 3350, 
  "определенные": 3351, 
  "частей": 3352, 
  "Путин": 3353, 
  "проведении": 3354, 
  "английском": 3355, 
  "внутреннего": 3356, 
  "значительной": 3357, 
  "ЮНЕСКО": 3358, 
  "смысл": 3359, 
  "пакетов": 3360, 
  "производству": 3361, 
  "ателей": 3362, 
  "дет@@": 3363, 
  "текущего": 3364, 
  "Международной": 3365, 
  "учета": 3366, 
  "ОС": 3367, 
  "езды": 3368, 
  "мнения": 3369, 
  "членами": 3370, 
  "гостиницы": 3371, 
  "ион@@": 3372, 
  "аф@@": 3373, 
  "запрос": 3374, 
  "ше": 3375, 
  "кожи": 3376, 
  "ени@@": 3377, 
  "сокращения": 3378, 
  "изации": 3379, 
  "директоров": 3380, 
  "3.@@": 3381, 
  "ею": 3382, 
  "исты": 3383, 
  "Ваши": 3384, 
  "опис@@": 3385, 
  "никам": 3386, 
  "иях": 3387, 
  "связей": 3388, 
  "отдых": 3389, 
  "объект": 3390, 
  "конкурса": 3391, 
  "квартиры": 3392, 
  "код@@": 3393, 
  "называется": 3394, 
  "ущерб": 3395, 
  "поведения": 3396, 
  "атель": 3397, 
  "анд@@": 3398, 
  "ющий": 3399, 
  "чрезвычайно": 3400, 
  "чувство": 3401, 
  "любовь": 3402, 
  "ключевых": 3403, 
  "принцип": 3404, 
  "time": 3405, 
  "вернуться": 3406, 
  "международном": 3407, 
  "лицам": 3408, 
  "технического": 3409, 
  "comfortable": 3410, 
  "гарантирует": 3411, 
  "про": 3412, 
  "мыши": 3413, 
  "St@@": 3414, 
  "Й@@": 3415, 
  "улучшить": 3416, 
  "средствами": 3417, 
  "возникает": 3418, 
  "емся": 3419, 
  "способствует": 3420, 
  "well": 3421, 
  "стиль": 3422, 
  "индустрии": 3423, 
  "моделей": 3424, 
  "автомобиль": 3425, 
  "вина": 3426, 
  "причина": 3427, 
  "ежедневно": 3428, 
  "Фонда": 3429, 
  "идти": 3430, 
  "взаимодействия": 3431, 
  "выбросов": 3432, 
  "долга": 3433, 
  "емые": 3434, 
  "типов": 3435, 
  "главе": 3436, 
  "4-@@": 3437, 
  "Office": 3438, 
  "бывший": 3439, 
  "комнаты": 3440, 
  "единственный": 3441, 
  "сюда": 3442, 
  "ление": 3443, 
  "удобно": 3444, 
  "окончания": 3445, 
  "Банк": 3446, 
  "соединения": 3447, 
  "автомобиля": 3448, 
  "Мин@@": 3449, 
  "стол@@": 3450, 
  "П": 3451, 
  "понимание": 3452, 
  "перспективы": 3453, 
  "доходы": 3454, 
  "ent": 3455, 
  "оне": 3456, 
  "завершения": 3457, 
  "1995": 3458, 
  "показателей": 3459, 
  "несомненно": 3460, 
  "яются": 3461, 
  "перевода": 3462, 
  "ЗАО": 3463, 
  "технические": 3464, 
  "рабочего": 3465, 
  "ированной": 3466, 
  "шая": 3467, 
  "служба": 3468, 
  "ивается": 3469, 
  "аемой": 3470, 
  "st@@": 3471, 
  "бур@@": 3472, 
  "ления": 3473, 
  "недель": 3474, 
  "партнерами": 3475, 
  "угрозы": 3476, 
  "атели": 3477, 
  "покупки": 3478, 
  "решил": 3479, 
  "мониторинга": 3480, 
  "трех@@": 3481, 
  "угрозу": 3482, 
  "сообщество": 3483, 
  "1996": 3484, 
  "компанию": 3485, 
  "Америка": 3486, 
  "финансов": 3487, 
  "клиенты": 3488, 
  "газ": 3489, 
  "местом": 3490, 
  "прав@@": 3491, 
  "36": 3492, 
  "форма": 3493, 
  "Если": 3494, 
  "комиссия": 3495, 
  "лом": 3496, 
  "оказались": 3497, 
  "детали": 3498, 
  "обращения": 3499, 
  "молодежи": 3500, 
  "июне": 3501, 
  "ist": 3502, 
  "неделе": 3503, 
  "водой": 3504, 
  "34": 3505, 
  "доклад": 3506, 
  "фирм": 3507, 
  "предлагают": 3508, 
  "размещение": 3509, 
  "сферы": 3510, 
  "средство": 3511, 
  "журнала": 3512, 
  "Трансфер": 3513, 
  "ывая": 3514, 
  "проводит": 3515, 
  "деловых": 3516, 
  "м.": 3517, 
  "американские": 3518, 
  "ела": 3519, 
  "горы": 3520, 
  "Йор@@": 3521, 
  "связано": 3522, 
  "составил": 3523, 
  "che": 3524, 
  "испыт@@": 3525, 
  "Великобритания": 3526, 
  "привело": 3527, 
  "агентства": 3528, 
  "13@@": 3529, 
  "авшие": 3530, 
  "второго": 3531, 
  "заказа": 3532, 
  "каких-либо": 3533, 
  "направление": 3534, 
  "довер@@": 3535, 
  "проверить": 3536, 
  "темы": 3537, 
  "основания": 3538, 
  "сектор": 3539, 
  "син@@": 3540, 
  "болезни": 3541, 
  "актив@@": 3542, 
  "безусловно": 3543, 
  "положении": 3544, 
  "ed": 3545, 
  "использованию": 3546, 
  "лучший": 3547, 
  "развитых": 3548, 
  "Под@@": 3549, 
  "торговле": 3550, 
  "существования": 3551, 
  "парковка": 3552, 
  "восстановление": 3553, 
  "цию": 3554, 
  "хорошие": 3555, 
  "оказывает": 3556, 
  "необходимы": 3557, 
  "мод@@": 3558, 
  "спас@@": 3559, 
  "ош@@": 3560, 
  "называют": 3561, 
  "одному": 3562, 
  "охран@@": 3563, 
  "знач@@": 3564, 
  "столько": 3565, 
  "огромное": 3566, 
  "поз@@": 3567, 
  "пласт@@": 3568, 
  "иями": 3569, 
  "сообщил": 3570, 
  "плат@@": 3571, 
  "мал@@": 3572, 
  "долю": 3573, 
  "указать": 3574, 
  "т.п.": 3575, 
  "ящих": 3576, 
  "20@@": 3577, 
  "основу": 3578, 
  "параметр": 3579, 
  "Республике": 3580, 
  "какой-либо": 3581, 
  "данными": 3582, 
  "ent@@": 3583, 
  "шаги": 3584, 
  "финансовый": 3585, 
  "музей": 3586, 
  "удобства": 3587, 
  "яр@@": 3588, 
  "доход": 3589, 
  "независимости": 3590, 
  "оружие": 3591, 
  "уверены": 3592, 
  "Африке": 3593, 
  "нуть": 3594, 
  "теории": 3595, 
  "само": 3596, 
  "Б": 3597, 
  "любую": 3598, 
  "большее": 3599, 
  "зав@@": 3600, 
  "говорится": 3601, 
  "up": 3602, 
  "ость": 3603, 
  "решением": 3604, 
  "недостаточно": 3605, 
  "переход": 3606, 
  "заранее": 3607, 
  "резко": 3608, 
  "im@@": 3609, 
  "Бар@@": 3610, 
  "ицы": 3611, 
  "ительными": 3612, 
  "will": 3613, 
  "пароль": 3614, 
  "Be": 3615, 
  "решении": 3616, 
  "агентство": 3617, 
  "октябре": 3618, 
  "мае": 3619, 
  "принятие": 3620, 
  "росту": 3621, 
  "пост": 3622, 
  "представитель": 3623, 
  "Япония": 3624, 
  "пространство": 3625, 
  "Y": 3626, 
  "Is": 3627, 
  "кин@@": 3628, 
  "операционной": 3629, 
  "Союз": 3630, 
  "союза": 3631, 
  "ег@@": 3632, 
  "оказания": 3633, 
  "процедур": 3634, 
  "зданий": 3635, 
  "овыми": 3636, 
  "14@@": 3637, 
  "гон@@": 3638, 
  "веке": 3639, 
  "um": 3640, 
  "условии": 3641, 
  "ir": 3642, 
  "бывшего": 3643, 
  "пусть": 3644, 
  "Владимир": 3645, 
  "ивают": 3646, 
  "революции": 3647, 
  "ine": 3648, 
  "интересах": 3649, 
  "ПК": 3650, 
  "дальнейшего": 3651, 
  "времен": 3652, 
  "оценке": 3653, 
  "Соединенные": 3654, 
  "кра@@": 3655, 
  "уходу": 3656, 
  "казино": 3657, 
  "ял": 3658, 
  "выход": 3659, 
  "наоборот": 3660, 
  "ядерной": 3661, 
  "явно": 3662, 
  "торговой": 3663, 
  "социальные": 3664, 
  "пройти": 3665, 
  "контексте": 3666, 
  "свойства": 3667, 
  "состоянию": 3668, 
  "DVD": 3669, 
  "лично": 3670, 
  "лицом": 3671, 
  "корпорации": 3672, 
  "Штатов": 3673, 
  "выдел@@": 3674, 
  "механизм": 3675, 
  "Е": 3676, 
  "рекомендуется": 3677, 
  "ноябре": 3678, 
  "иты": 3679, 
  "следующим": 3680, 
  "бедности": 3681, 
  "измен@@": 3682, 
  "Обмен": 3683, 
  "идеально": 3684, 
  "администрация": 3685, 
  "удаления": 3686, 
  "аторов": 3687, 
  "диска": 3688, 
  "сила": 3689, 
  "растет": 3690, 
  "М": 3691, 
  "международная": 3692, 
  "куп@@": 3693, 
  "интер@@": 3694, 
  "воду": 3695, 
  "немедленно": 3696, 
  "марте": 3697, 
  "ак": 3698, 
  "российские": 3699, 
  "альбом": 3700, 
  "машина": 3701, 
  "органами": 3702, 
  "защищ@@": 3703, 
  "так@@": 3704, 
  "ограничений": 3705, 
  "station": 3706, 
  "задачей": 3707, 
  "планирования": 3708, 
  "em": 3709, 
  "официально": 3710, 
  "ичным": 3711, 
  "ad@@": 3712, 
  "III": 3713, 
  "оценку": 3714, 
  "производительность": 3715, 
  "рей@@": 3716, 
  "пакеты": 3717, 
  "доверия": 3718, 
  "парк": 3719, 
  "удалить": 3720, 
  "базу": 3721, 
  "стран@@": 3722, 
  "десятилетия": 3723, 
  "возможных": 3724, 
  "For@@": 3725, 
  "имел": 3726, 
  "письмо": 3727, 
  "ающихся": 3728, 
  "ах@@": 3729, 
  "ман": 3730, 
  "ич": 3731, 
  "искать": 3732, 
  "следующее": 3733, 
  "Д": 3734, 
  "улучшение": 3735, 
  "ивания": 3736, 
  "конкретных": 3737, 
  "промышленных": 3738, 
  "класс": 3739, 
  "капитал": 3740, 
  "але": 3741, 
  "Болгарии": 3742, 
  "отелей": 3743, 
  "потребуется": 3744, 
  "устойчивого": 3745, 
  "экспорт": 3746, 
  "медицинских": 3747, 
  "состоится": 3748, 
  "вал@@": 3749, 
  "структура": 3750, 
  "Кол@@": 3751, 
  "Комитета": 3752, 
  "станут": 3753, 
  "тщательно": 3754, 
  "доступен": 3755, 
  "One": 3756, 
  "ле@@": 3757, 
  "Греции": 3758, 
  "38": 3759, 
  "аемый": 3760, 
  "законов": 3761, 
  "55": 3762, 
  "дом@@": 3763, 
  "некоторое": 3764, 
  "сто@@": 3765, 
  "этаже": 3766, 
  "На": 3767, 
  "сказала": 3768, 
  "буду": 3769, 
  "иш@@": 3770, 
  "формирования": 3771, 
  "во-вторых": 3772, 
  "осуществление": 3773, 
  "организацию": 3774, 
  "г-н": 3775, 
  "личности": 3776, 
  "атов": 3777, 
  "учебных": 3778, 
  "блок@@": 3779, 
  "ас": 3780, 
  "дохода": 3781, 
  "дальнейшем": 3782, 
  "провер@@": 3783, 
  "консультации": 3784, 
  "районов": 3785, 
  "ир": 3786, 
  "бан@@": 3787, 
  "тан@@": 3788, 
  "лив@@": 3789, 
  "U": 3790, 
  "ости": 3791, 
  "ры@@": 3792, 
  "человеком": 3793, 
  "Аль@@": 3794, 
  "содействия": 3795, 
  "судов": 3796, 
  "середине": 3797, 
  "Вашим": 3798, 
  "четко": 3799, 
  "важное": 3800, 
  "анти@@": 3801, 
  "готов": 3802, 
  "новыми": 3803, 
  "билетов": 3804, 
  "АО": 3805, 
  "совет": 3806, 
  "уг@@": 3807, 
  "шоу": 3808, 
  "профессиональных": 3809, 
  "оре": 3810, 
  "Ин@@": 3811, 
  "случай": 3812, 
  "разработку": 3813, 
  "силой": 3814, 
  "мысли": 3815, 
  "содействие": 3816, 
  "Интернете": 3817, 
  "денежных": 3818, 
  "ed@@": 3819, 
  "заключения": 3820, 
  "95": 3821, 
  "внутренней": 3822, 
  "возможностью": 3823, 
  "структур": 3824, 
  "иных": 3825, 
  "государственный": 3826, 
  "появляется": 3827, 
  "бумаг": 3828, 
  "помогут": 3829, 
  "определяется": 3830, 
  "Wi-Fi": 3831, 
  "жители": 3832, 
  "очной": 3833, 
  "показывают": 3834, 
  "рис@@": 3835, 
  "дополнение": 3836, 
  "Востоке": 3837, 
  "w": 3838, 
  "июле": 3839, 
  "системах": 3840, 
  "1992": 3841, 
  "800": 3842, 
  "высоко@@": 3843, 
  "жен@@": 3844, 
  "давления": 3845, 
  "общения": 3846, 
  "вблизи": 3847, 
  "оценить": 3848, 
  "сельского": 3849, 
  "ли@@": 3850, 
  "газеты": 3851, 
  "ход": 3852, 
  "президентом": 3853, 
  "выглядит": 3854, 
  "ясь": 3855, 
  "включ@@": 3856, 
  "рисков": 3857, 
  "лидер": 3858, 
  "отъезда": 3859, 
  "важную": 3860, 
  "однажды": 3861, 
  "Индия": 3862, 
  "следующей": 3863, 
  "опять": 3864, 
  "клуб": 3865, 
  "аре": 3866, 
  "деятельностью": 3867, 
  "открытие": 3868, 
  "партия": 3869, 
  "ываться": 3870, 
  "источники": 3871, 
  "48": 3872, 
  "служит": 3873, 
  "двери": 3874, 
  "Азербайджана": 3875, 
  "ожидается": 3876, 
  "церковь": 3877, 
  "низ@@": 3878, 
  "овом": 3879, 
  "Paris": 3880, 
  "ale": 3881, 
  "1991": 3882, 
  "властей": 3883, 
  "сбора": 3884, 
  "ывали": 3885, 
  "CD": 3886, 
  "ожидания": 3887, 
  "телефону": 3888, 
  "цен@@": 3889, 
  "генер@@": 3890, 
  "запис@@": 3891, 
  "последней": 3892, 
  "расшир@@": 3893, 
  "возможностями": 3894, 
  "ируются": 3895, 
  "ä@@": 3896, 
  "оставить": 3897, 
  "иваются": 3898, 
  "занятости": 3899, 
  "рубежом": 3900, 
  "делам": 3901, 
  "эй@@": 3902, 
  "продукция": 3903, 
  "порт": 3904, 
  "установлен": 3905, 
  "подхода": 3906, 
  "апреле": 3907, 
  "эксперты": 3908, 
  "основными": 3909, 
  "поведение": 3910, 
  "Сам@@": 3911, 
  "има": 3912, 
  "пришли": 3913, 
  "расположена": 3914, 
  "обратно": 3915, 
  "единственным": 3916, 
  "ум": 3917, 
  "естественно": 3918, 
  "программой": 3919, 
  "Ор@@": 3920, 
  "обще@@": 3921, 
  "говорили": 3922, 
  "публикации": 3923, 
  "эффективного": 3924, 
  "институт": 3925, 
  "гостиница": 3926, 
  "De": 3927, 
  "живут": 3928, 
  "част@@": 3929, 
  "бар@@": 3930, 
  "stay": 3931, 
  "имеющих": 3932, 
  "появится": 3933, 
  "му@@": 3934, 
  "площадью": 3935, 
  "Испании": 3936, 
  "стратегия": 3937, 
  "вывод": 3938, 
  "очного": 3939, 
  "частного": 3940, 
  "правительств": 3941, 
  "школе": 3942, 
  "обновление": 3943, 
  "источником": 3944, 
  "улучш@@": 3945, 
  "лы": 3946, 
  "память": 3947, 
  "анную": 3948, 
  "ф": 3949, 
  "международное": 3950, 
  "бумаги": 3951, 
  "etc": 3952, 
  "нравится": 3953, 
  "фор@@": 3954, 
  "обратите": 3955, 
  "лицензии": 3956, 
  "уровнях": 3957, 
  "ись": 3958, 
  "вещей": 3959, 
  "бер@@": 3960, 
  "элемент": 3961, 
  "евой": 3962, 
  "den": 3963, 
  "семье": 3964, 
  "ологии": 3965, 
  "имена": 3966, 
  "концу": 3967, 
  "происхождения": 3968, 
  "лю@@": 3969, 
  "ительно": 3970, 
  "пациентов": 3971, 
  "вниз": 3972, 
  "ист": 3973, 
  "стандарты": 3974, 
  "высокую": 3975, 
  "честь": 3976, 
  "созд@@": 3977, 
  "per": 3978, 
  "зам@@": 3979, 
  "гарантии": 3980, 
  "атмосферу": 3981, 
  "красоты": 3982, 
  "американского": 3983, 
  "опер@@": 3984, 
  "é@@": 3985, 
  "поездки": 3986, 
  "заболевания": 3987, 
  "подготовка": 3988, 
  "маг@@": 3989, 
  "гос@@": 3990, 
  "ванной": 3991, 
  "правом": 3992, 
  "Gentoo": 3993, 
  "дер@@": 3994, 
  "Центра": 3995, 
  "каз@@": 3996, 
  "Q@@": 3997, 
  "группой": 3998, 
  "войне": 3999, 
  "детям": 4000, 
  "аторы": 4001, 
  "вопросах": 4002, 
  "Иисус": 4003, 
  "опасности": 4004, 
  "нечто": 4005, 
  "0,@@": 4006, 
  "принимая": 4007, 
  "вашему": 4008, 
  "изучения": 4009, 
  "Центр": 4010, 
  "войну": 4011, 
  "сократить": 4012, 
  "необходимым": 4013, 
  "рассматривать": 4014, 
  "эффективной": 4015, 
  "летний": 4016, 
  "пунктов": 4017, 
  "коммерческих": 4018, 
  "ввести": 4019, 
  "проблемами": 4020, 
  "ль": 4021, 
  "прогулки": 4022, 
  "отлич@@": 4023, 
  "65": 4024, 
  "OS": 4025, 
  "сообщает": 4026, 
  "зас@@": 4027, 
  "ги": 4028, 
  "пан@@": 4029, 
  "кандидатов": 4030, 
  "PC": 4031, 
  "указывает": 4032, 
  "конкуренции": 4033, 
  "кам@@": 4034, 
  "способны": 4035, 
  "man": 4036, 
  "Христа": 4037, 
  "какое": 4038, 
  "нужны": 4039, 
  "лов@@": 4040, 
  "парка": 4041, 
  "медицинской": 4042, 
  "оф@@": 4043, 
  "мощности": 4044, 
  "гл@@": 4045, 
  "ств@@": 4046, 
  "компаниями": 4047, 
  "внешних": 4048, 
  "поч@@": 4049, 
  "or@@": 4050, 
  "счете": 4051, 
  "радио": 4052, 
  "икой": 4053, 
  "Sh@@": 4054, 
  "цветов": 4055, 
  "напрямую": 4056, 
  "смеш@@": 4057, 
  "основана": 4058, 
  "обеих": 4059, 
  "вряд": 4060, 
  "ичных": 4061, 
  "шее": 4062, 
  "get": 4063, 
  "дл@@": 4064, 
  "показатель": 4065, 
  "обратиться": 4066, 
  "em@@": 4067, 
  "ce": 4068, 
  "землю": 4069, 
  "служить": 4070, 
  "главная": 4071, 
  "вторая": 4072, 
  "удал@@": 4073, 
  "views": 4074, 
  "выраж@@": 4075, 
  "Путина": 4076, 
  "ателя": 4077, 
  "сервиса": 4078, 
  "Италия": 4079, 
  "выпуск": 4080, 
  "1994": 4081, 
  "инг@@": 4082, 
  "чик": 4083, 
  "серьезные": 4084, 
  "НПО": 4085, 
  "зале": 4086, 
  "уж": 4087, 
  "руководитель": 4088, 
  "600": 4089, 
  "смотреть": 4090, 
  "тра@@": 4091, 
  "возможным": 4092, 
  "организовать": 4093, 
  "сути": 4094, 
  "перспективе": 4095, 
  "строки": 4096, 
  "сравн@@": 4097, 
  "компьютеров": 4098, 
  "фото": 4099, 
  "ином": 4100, 
  "важность": 4101, 
  "казалось": 4102, 
  "профессиональной": 4103, 
  "регул@@": 4104, 
  "проводятся": 4105, 
  "примен@@": 4106, 
  "разреш@@": 4107, 
  "стремится": 4108, 
  "ня@@": 4109, 
  "инского": 4110, 
  "ri@@": 4111, 
  "контролировать": 4112, 
  "пользования": 4113, 
  "окруж@@": 4114, 
  "сол@@": 4115, 
  "Мы": 4116, 
  "работающих": 4117, 
  "поставок": 4118, 
  "тенденции": 4119, 
  "Re@@": 4120, 
  "аниях": 4121, 
  "должности": 4122, 
  "ход@@": 4123, 
  "Ваших": 4124, 
  "помещения": 4125, 
  "прид@@": 4126, 
  "предложений": 4127, 
  "поддержкой": 4128, 
  "ад": 4129, 
  "причинам": 4130, 
  "теми": 4131, 
  "ителем": 4132, 
  "решению": 4133, 
  "small": 4134, 
  "1,@@": 4135, 
  "ивая": 4136, 
  "природных": 4137, 
  "музыка": 4138, 
  "январе": 4139, 
  "minutes": 4140, 
  "42": 4141, 
  "1990": 4142, 
  "именем": 4143, 
  "ящие": 4144, 
  "would": 4145, 
  "встреча": 4146, 
  "плохо": 4147, 
  "Ar@@": 4148, 
  "голосов": 4149, 
  "ОВ@@": 4150, 
  "институтов": 4151, 
  "нат@@": 4152, 
  "предотвратить": 4153, 
  "уса": 4154, 
  "выстав@@": 4155, 
  "архитектуры": 4156, 
  "заполн@@": 4157, 
  "смог": 4158, 
  "лес@@": 4159, 
  "район": 4160, 
  "Национального": 4161, 
  "фоне": 4162, 
  "сервере": 4163, 
  "ичной": 4164, 
  "скоро": 4165, 
  "цену": 4166, 
  "управлением": 4167, 
  "ra@@": 4168, 
  "руках": 4169, 
  "делу": 4170, 
  "установке": 4171, 
  "журналистов": 4172, 
  "регион": 4173, 
  "Бер@@": 4174, 
  "нер@@": 4175, 
  "ориент@@": 4176, 
  "думать": 4177, 
  "принимают": 4178, 
  "приз@@": 4179, 
  "государством": 4180, 
  "какой-то": 4181, 
  "профессор": 4182, 
  "международными": 4183, 
  "применяется": 4184, 
  "плавательный": 4185, 
  "отец": 4186, 
  "сайты": 4187, 
  "Программы": 4188, 
  "третий": 4189, 
  "сложно": 4190, 
  "ес": 4191, 
  "свободного": 4192, 
  "иками": 4193, 
  "отдела": 4194, 
  "страхования": 4195, 
  "яв@@": 4196, 
  "ированного": 4197, 
  "превышает": 4198, 
  "управлению": 4199, 
  "динам@@": 4200, 
  "восстановить": 4201, 
  "ющим": 4202, 
  "включить": 4203, 
  "Для": 4204, 
  "имой": 4205, 
  "Итак": 4206, 
  "Ком@@": 4207, 
  "увеличенного": 4208, 
  "ОБСЕ": 4209, 
  "ары": 4210, 
  "ирована": 4211, 
  "ra": 4212, 
  "производит": 4213, 
  "son": 4214, 
  "as@@": 4215, 
  "хол@@": 4216, 
  "настроить": 4217, 
  "запуска": 4218, 
  "дизайна": 4219, 
  "инфляции": 4220, 
  "продолжают": 4221, 
  "исполнения": 4222, 
  "остальных": 4223, 
  "аниям": 4224, 
  "Безопасности": 4225, 
  "защитить": 4226, 
  "база": 4227, 
  "Подробнее": 4228, 
  "39": 4229, 
  "количеством": 4230, 
  "ительную": 4231, 
  "завис@@": 4232, 
  "Международный": 4233, 
  "Терраса": 4234, 
  "ающую": 4235, 
  "впоследствии": 4236, 
  "чит@@": 4237, 
  "рат@@": 4238, 
  "соответствие": 4239, 
  "видел": 4240, 
  "ви@@": 4241, 
  "института": 4242, 
  "заказать": 4243, 
  "А.@@": 4244, 
  "активности": 4245, 
  "изация": 4246, 
  "иб@@": 4247, 
  "впечатление": 4248, 
  "электроэнергии": 4249, 
  "about": 4250, 
  "Курение": 4251, 
  "мое": 4252, 
  "Экскурсионное": 4253, 
  "музыку": 4254, 
  "идей": 4255, 
  "ник@@": 4256, 
  "останов@@": 4257, 
  "включать": 4258, 
  "туда": 4259, 
  "плата": 4260, 
  "борьба": 4261, 
  "пит@@": 4262, 
  "любая": 4263, 
  "лист@@": 4264, 
  "пят@@": 4265, 
  "жи": 4266, 
  "правой": 4267, 
  "давайте": 4268, 
  "повышению": 4269, 
  "европейские": 4270, 
  "измерения": 4271, 
  "женщина": 4272, 
  "th@@": 4273, 
  "ул": 4274, 
  "родителей": 4275, 
  "источника": 4276, 
  "риски": 4277, 
  "исходя": 4278, 
  "рацион@@": 4279, 
  "пат@@": 4280, 
  "ap@@": 4281, 
  "кую": 4282, 
  "выпуска": 4283, 
  "миниатюру": 4284, 
  "магазинов": 4285, 
  "обзор": 4286, 
  "языков": 4287, 
  "отчетности": 4288, 
  "признать": 4289, 
  "книге": 4290, 
  "оказывать": 4291, 
  "особо": 4292, 
  "пытается": 4293, 
  "емого": 4294, 
  "ательных": 4295, 
  "рекомендуем": 4296, 
  "выйти": 4297, 
  "очный": 4298, 
  "Russia": 4299, 
  "достопримечательностей": 4300, 
  "ключ": 4301, 
  "организацией": 4302, 
  "аемого": 4303, 
  "37": 4304, 
  "most": 4305, 
  "лов": 4306, 
  "дов": 4307, 
  "вес": 4308, 
  "имые": 4309, 
  "отчетов": 4310, 
  "поступ@@": 4311, 
  "Time": 4312, 
  "иц@@": 4313, 
  "ющей": 4314, 
  "1993": 4315, 
  "шести": 4316, 
  "обязанности": 4317, 
  "вом": 4318, 
  "тен@@": 4319, 
  "ro@@": 4320, 
  "кровати": 4321, 
  "Бизнес-центр": 4322, 
  "человечества": 4323, 
  "сделок": 4324, 
  "применять": 4325, 
  "лог@@": 4326, 
  "хотелось": 4327, 
  "соединение": 4328, 
  "лежит": 4329, 
  "соглас@@": 4330, 
  "бюджет": 4331, 
  "следующего": 4332, 
  "ательные": 4333, 
  "событие": 4334, 
  "скры@@": 4335, 
  "грузов": 4336, 
  "здании": 4337, 
  "подобно": 4338, 
  "экране": 4339, 
  "ура": 4340, 
  "концепции": 4341, 
  "рекламы": 4342, 
  "след@@": 4343, 
  "па": 4344, 
  "Интернет-@@": 4345, 
  "заместитель": 4346, 
  "ационных": 4347, 
  "результатам": 4348, 
  "целый": 4349, 
  "тр@@": 4350, 
  "меньшей": 4351, 
  "&lt;": 4352, 
  "Ы": 4353, 
  "курсы": 4354, 
  "онов": 4355, 
  "USD": 4356, 
  "руководителей": 4357, 
  "поддержив@@": 4358, 
  "предоставлять": 4359, 
  "чуть": 4360, 
  "факторы": 4361, 
  "пункта": 4362, 
  "копии": 4363, 
  "ож@@": 4364, 
  "ознакомиться": 4365, 
  "каталог": 4366, 
  "статуса": 4367, 
  "годом": 4368, 
  "беженцев": 4369, 
  "фон@@": 4370, 
  "интересно": 4371, 
  "go": 4372, 
  "прив@@": 4373, 
  "рем@@": 4374, 
  "принадлежит": 4375, 
  "чему": 4376, 
  "à": 4377, 
  "ув@@": 4378, 
  "new": 4379, 
  "when": 4380, 
  "согласия": 4381, 
  "эл@@": 4382, 
  "прогресс": 4383, 
  "sch@@": 4384, 
  "огромный": 4385, 
  "Церкви": 4386, 
  "ательной": 4387, 
  "ющего": 4388, 
  "аж@@": 4389, 
  "журнал": 4390, 
  "ing": 4391, 
  "дефицит": 4392, 
  "сотрудничеству": 4393, 
  "ассоциации": 4394, 
  "мужчины": 4395, 
  "статей": 4396, 
  "лен@@": 4397, 
  "ично": 4398, 
  "44": 4399, 
  "оказ@@": 4400, 
  "показали": 4401, 
  "нику": 4402, 
  "64": 4403, 
  "механизмов": 4404, 
  "ой@@": 4405, 
  "проб@@": 4406, 
  "City": 4407, 
  "родился": 4408, 
  "аль": 4409, 
  "подключ@@": 4410, 
  "ec@@": 4411, 
  "ver@@": 4412, 
  "измер@@": 4413, 
  "различия": 4414, 
  "лучшее": 4415, 
  "ательного": 4416, 
  "слева": 4417, 
  "ста": 4418, 
  "формат": 4419, 
  "планируется": 4420, 
  "национальном": 4421, 
  "JavaScript": 4422, 
  "Con@@": 4423, 
  "высокая": 4424, 
  "ставок": 4425, 
  "ISO": 4426, 
  "представителями": 4427, 
  "решать": 4428, 
  "должность": 4429, 
  "еп@@": 4430, 
  "семь": 4431, 
  "ch": 4432, 
  "политическая": 4433, 
  "десяти": 4434, 
  "ске": 4435, 
  "Запада": 4436, 
  "положений": 4437, 
  "августе": 4438, 
  "состоялась": 4439, 
  "тест@@": 4440, 
  "ды": 4441, 
  "многочисленных": 4442, 
  "нич@@": 4443, 
  "10-@@": 4444, 
  "свободно": 4445, 
  "етов": 4446, 
  "укрепления": 4447, 
  "пришел": 4448, 
  "платить": 4449, 
  "обоих": 4450, 
  "низким": 4451, 
  "дав@@": 4452, 
  "250": 4453, 
  "торговые": 4454, 
  "необходима": 4455, 
  "домой": 4456, 
  "Президент": 4457, 
  "Мал@@": 4458, 
  "способов": 4459, 
  "Life": 4460, 
  "сердца": 4461, 
  "сомнения": 4462, 
  "эксплуатацию": 4463, 
  "хоть": 4464, 
  "Латинской": 4465, 
  "сы@@": 4466, 
  "area": 4467, 
  "проекте": 4468, 
  "правах": 4469, 
  "борьбу": 4470, 
  "алы": 4471, 
  "феврале": 4472, 
  "доктор": 4473, 
  "тро@@": 4474, 
  "книга": 4475, 
  "Западной": 4476, 
  "XP": 4477, 
  "ень@@": 4478, 
  "цией": 4479, 
  "инициативы": 4480, 
  "признание": 4481, 
  "активы": 4482, 
  "4.@@": 4483, 
  "политический": 4484, 
  "лись": 4485, 
  "территорию": 4486, 
  "емой": 4487, 
  "Skype": 4488, 
  "наруш@@": 4489, 
  "ованных": 4490, 
  "внедрения": 4491, 
  "проходят": 4492, 
  "страной": 4493, 
  "службу": 4494, 
  "ированию": 4495, 
  "итогам": 4496, 
  "встрече": 4497, 
  "конфигурации": 4498, 
  "пон@@": 4499, 
  "обвин@@": 4500, 
  "реального": 4501, 
  "Park": 4502, 
  "Афганистане": 4503, 
  "втором": 4504, 
  "открыт": 4505, 
  "читать": 4506, 
  "местной": 4507, 
  "лож@@": 4508, 
  "партий": 4509, 
  "электронных": 4510, 
  "Ак@@": 4511, 
  "созданы": 4512, 
  "появились": 4513, 
  "хран@@": 4514, 
  "кредитов": 4515, 
  "отказ": 4516, 
  "товара": 4517, 
  "ожидать": 4518, 
  "вдоль": 4519, 
  "ученых": 4520, 
  "производственных": 4521, 
  "ers": 4522, 
  "отдельно": 4523, 
  "известные": 4524, 
  "кими": 4525, 
  "еб@@": 4526, 
  "мобильных": 4527, 
  "атора": 4528, 
  "ученые": 4529, 
  "сделано": 4530, 
  "сопровожд@@": 4531, 
  "законодательством": 4532, 
  "бывает": 4533, 
  "растений": 4534, 
  "ребенок": 4535, 
  "шанс": 4536, 
  "моих": 4537, 
  "ч": 4538, 
  "ъ@@": 4539, 
  "ol@@": 4540, 
  "нет@@": 4541, 
  "свободных": 4542, 
  "избирателей": 4543, 
  "хуже": 4544, 
  "ответы": 4545, 
  "серверов": 4546, 
  "ёт": 4547, 
  "планов": 4548, 
  "вит@@": 4549, 
  "цам": 4550, 
  "поставить": 4551, 
  "Иисуса": 4552, 
  "изображений": 4553, 
  "разработчиков": 4554, 
  "ab@@": 4555, 
  "ter@@": 4556, 
  "ресурсами": 4557, 
  "граждане": 4558, 
  "письма": 4559, 
  "вечером": 4560, 
  "городской": 4561, 
  "рассмотреть": 4562, 
  "главного": 4563, 
  "ироваться": 4564, 
  "вроде": 4565, 
  "ов-@@": 4566, 
  "преступления": 4567, 
  "вод": 4568, 
  "полит@@": 4569, 
  "работой": 4570, 
  "6-@@": 4571, 
  "образов@@": 4572, 
  "традиционных": 4573, 
  "министра": 4574, 
  "мной": 4575, 
  "Н": 4576, 
  "обуч@@": 4577, 
  "книг": 4578, 
  "заним@@": 4579, 
  "встреч": 4580, 
  "ускор@@": 4581, 
  "бедных": 4582, 
  "иф@@": 4583, 
  "вероятность": 4584, 
  "вызвать": 4585, 
  "частные": 4586, 
  "норм": 4587, 
  "сия": 4588, 
  "хорошее": 4589, 
  "общ@@": 4590, 
  "наполн@@": 4591, 
  "серьезно": 4592, 
  "самыми": 4593, 
  "предполагает": 4594, 
  "начин@@": 4595, 
  "зарубежных": 4596, 
  "e-@@": 4597, 
  "см": 4598, 
  "h": 4599, 
  "внутренние": 4600, 
  "ag@@": 4601, 
  "создают": 4602, 
  "Министерство": 4603, 
  "дух": 4604, 
  "руку": 4605, 
  "ающиеся": 4606, 
  "Комиссии": 4607, 
  "столицы": 4608, 
  "главы": 4609, 
  "каналы": 4610, 
  "имым": 4611, 
  "ценностей": 4612, 
  "иса": 4613, 
  "юридических": 4614, 
  "se@@": 4615, 
  "pr@@": 4616, 
  "высшего": 4617, 
  "марки": 4618, 
  "американский": 4619, 
  "утверждает": 4620, 
  "центральной": 4621, 
  "прямой": 4622, 
  "оказать": 4623, 
  "реализ@@": 4624, 
  "офис": 4625, 
  "стены": 4626, 
  "уть": 4627, 
  "сад": 4628, 
  "соответствующей": 4629, 
  "опасность": 4630, 
  "0.@@": 4631, 
  "оказалось": 4632, 
  "двадцать": 4633, 
  "культурных": 4634, 
  "реализация": 4635, 
  "прошли": 4636, 
  "вопросом": 4637, 
  "центры": 4638, 
  "Экспресс": 4639, 
  "Республика": 4640, 
  "проблемам": 4641, 
  "вариантов": 4642, 
  "понимания": 4643, 
  "результата": 4644, 
  "тел@@": 4645, 
  "школ": 4646, 
  "ода": 4647, 
  "мар@@": 4648, 
  "доверие": 4649, 
  "студенты": 4650, 
  "перехода": 4651, 
  "IP-@@": 4652, 
  "школа": 4653, 
  "играют": 4654, 
  "знал": 4655, 
  "полученные": 4656, 
  "их@@": 4657, 
  "подготовку": 4658, 
  "ждать": 4659, 
  "конфликт": 4660, 
  "walk": 4661, 
  "достижение": 4662, 
  "показан": 4663, 
  "ресторанов": 4664, 
  "Гор@@": 4665, 
  "часы": 4666, 
  "т.к.": 4667, 
  "use": 4668, 
  "мом": 4669, 
  "религии": 4670, 
  "ха": 4671, 
  "ВОЗ": 4672, 
  "вручную": 4673, 
  "Red": 4674, 
  "доступна": 4675, 
  "покры@@": 4676, 
  "ён": 4677, 
  "рит@@": 4678, 
  "сохранение": 4679, 
  "огромные": 4680, 
  "вет@@": 4681, 
  "like": 4682, 
  "Мор@@": 4683, 
  "заседании": 4684, 
  "us@@": 4685, 
  "сем@@": 4686, 
  "открытый": 4687, 
  "Ваше": 4688, 
  "важной": 4689, 
  "энергетики": 4690, 
  "алов": 4691, 
  "уменьшить": 4692, 
  "документации": 4693, 
  "расти": 4694, 
  "производить": 4695, 
  "Гер@@": 4696, 
  "7-@@": 4697, 
  "ошибка": 4698, 
  "порт@@": 4699, 
  "кухня": 4700, 
  "предотвращения": 4701, 
  "ательный": 4702, 
  "находиться": 4703, 
  "ci@@": 4704, 
  "8-@@": 4705, 
  "Кур@@": 4706, 
  "ответа": 4707, 
  "един@@": 4708, 
  "значительные": 4709, 
  "Компании": 4710, 
  "ген@@": 4711, 
  "докладе": 4712, 
  "поставщиков": 4713, 
  "информ@@": 4714, 
  "зап@@": 4715, 
  "вать": 4716, 
  "расстоянии": 4717, 
  "работ@@": 4718, 
  "доставки": 4719, 
  "уп@@": 4720, 
  "анном": 4721, 
  "гер@@": 4722, 
  "способы": 4723, 
  "ируя": 4724, 
  "ба": 4725, 
  "существование": 4726, 
  "ешь": 4727, 
  "встреч@@": 4728, 
  "каждым": 4729, 
  "Как": 4730, 
  "компоненты": 4731, 
  "вокзала": 4732, 
  "общую": 4733, 
  "отсутствия": 4734, 
  "восстанов@@": 4735, 
  "W": 4736, 
  "структуру": 4737, 
  "Примечание": 4738, 
  "назвать": 4739, 
  "начинают": 4740, 
  "участниками": 4741, 
  "туризма": 4742, 
  "é": 4743, 
  "правовой": 4744, 
  "жилья": 4745, 
  "национальный": 4746, 
  "военного": 4747, 
  "Un@@": 4748, 
  "включены": 4749, 
  "установлены": 4750, 
  "приятно": 4751, 
  "ялись": 4752, 
  "нормы": 4753, 
  "несколькими": 4754, 
  "имея": 4755, 
  "РО@@": 4756, 
  "Vista": 4757, 
  "внести": 4758, 
  "человеку": 4759, 
  "см@@": 4760, 
  "оказался": 4761, 
  "лучшим": 4762, 
  "основы": 4763, 
  "ох@@": 4764, 
  "улицы": 4765, 
  "обладают": 4766, 
  "id@@": 4767, 
  "откуда": 4768, 
  "суб@@": 4769, 
  "рав@@": 4770, 
  "сын": 4771, 
  "ору": 4772, 
  "имущества": 4773, 
  "á@@": 4774, 
  "Турция": 4775, 
  "отражает": 4776, 
  "дискриминации": 4777, 
  "го@@": 4778, 
  "отказаться": 4779, 
  "ационного": 4780, 
  "Up": 4781, 
  "приглашаем": 4782, 
  "гарантировать": 4783, 
  "2013": 4784, 
  "ядерных": 4785, 
  "быстрого": 4786, 
  "quot": 4787, 
  "убедитесь": 4788, 
  "создали": 4789, 
  "нюю": 4790, 
  "Nokia": 4791, 
  "Земли": 4792, 
  "нужна": 4793, 
  "условиями": 4794, 
  "значительное": 4795, 
  "прогресса": 4796, 
  "знак": 4797, 
  "души": 4798, 
  "ип@@": 4799, 
  "ировании": 4800, 
  "имеем": 4801, 
  "карта": 4802, 
  "41": 4803, 
  "дополнительно": 4804, 
  "Вер@@": 4805, 
  "снизить": 4806, 
  "распоряжении": 4807, 
  "типы": 4808, 
  "чувства": 4809, 
  "механизмы": 4810, 
  "транспортных": 4811, 
  "заключение": 4812, 
  "объединения": 4813, 
  "важный": 4814, 
  "ницы": 4815, 
  "РЕ@@": 4816, 
  "om@@": 4817, 
  "Киеве": 4818, 
  "глобальных": 4819, 
  "ус": 4820, 
  "сор@@": 4821, 
  "par": 4822, 
  "современным": 4823, 
  "раст@@": 4824, 
  "ред@@": 4825, 
  "При@@": 4826, 
  "собственную": 4827, 
  "местности": 4828, 
  "исключ@@": 4829, 
  "силами": 4830, 
  "ница": 4831, 
  "АЛ@@": 4832, 
  "си": 4833, 
  "лицами": 4834, 
  "Из@@": 4835, 
  "полном": 4836, 
  "offers": 4837, 
  "поток": 4838, 
  "варианты": 4839, 
  "сложных": 4840, 
  "качеству": 4841, 
  "конфликтов": 4842, 
  "лин@@": 4843, 
  "Gay": 4844, 
  "ценам": 4845, 
  "кнопки": 4846, 
  "живет": 4847, 
  "появилась": 4848, 
  "ыш@@": 4849, 
  "евых": 4850, 
  "примером": 4851, 
  "пож@@": 4852, 
  "рассмотрения": 4853, 
  "экономикой": 4854, 
  "перейти": 4855, 
  "Mar@@": 4856, 
  "км.": 4857, 
  "будущих": 4858, 
  "свете": 4859, 
  "необходимую": 4860, 
  "ень": 4861, 
  "общественной": 4862, 
  "обеспечивать": 4863, 
  "тепл@@": 4864, 
  "преимущество": 4865, 
  "использованы": 4866, 
  "брон@@": 4867, 
  "разработать": 4868, 
  "сказ@@": 4869, 
  "уверен": 4870, 
  "предназначен": 4871, 
  "Всемирного": 4872, 
  "высказ@@": 4873, 
  "жа": 4874, 
  "сан@@": 4875, 
  "форума": 4876, 
  "питание": 4877, 
  "г.@@": 4878, 
  "роз@@": 4879, 
  "существующие": 4880, 
  "квартале": 4881, 
  "высокое": 4882, 
  "v": 4883, 
  "бр@@": 4884, 
  "насладиться": 4885, 
  "other": 4886, 
  "si": 4887, 
  "гражданской": 4888, 
  "площадка": 4889, 
  "оказывается": 4890, 
  "поддерживают": 4891, 
  "ея": 4892, 
  "Ль@@": 4893, 
  "Правительства": 4894, 
  "каждую": 4895, 
  "мак@@": 4896, 
  "голос": 4897, 
  "постоянного": 4898, 
  "Friendly": 4899, 
  "жд@@": 4900, 
  "кас@@": 4901, 
  "направлений": 4902, 
  "85": 4903, 
  "печ@@": 4904, 
  "кал@@": 4905, 
  "фер@@": 4906, 
  "осуществить": 4907, 
  "десятилетий": 4908, 
  "H": 4909, 
  "вед@@": 4910, 
  "линия": 4911, 
  "ун": 4912, 
  "евые": 4913, 
  "генеральный": 4914, 
  "предусматривает": 4915, 
  "температуры": 4916, 
  "открытым": 4917, 
  "Чер@@": 4918, 
  "Нов@@": 4919, 
  "нарушение": 4920, 
  "An@@": 4921, 
  "даст": 4922, 
  "votre": 4923, 
  "личных": 4924, 
  "союз": 4925, 
  "российский": 4926, 
  "зв@@": 4927, 
  "авший": 4928, 
  "колон@@": 4929, 
  "привели": 4930, 
  "областей": 4931, 
  "склад@@": 4932, 
  "перес@@": 4933, 
  "платформы": 4934, 
  "ди": 4935, 
  "Man": 4936, 
  "физических": 4937, 
  "ида": 4938, 
  "широкого": 4939, 
  "Йорк": 4940, 
  "трудности": 4941, 
  "стабильность": 4942, 
  "предстоит": 4943, 
  "телевизор": 4944, 
  "заверш@@": 4945, 
  "экономическое": 4946, 
  "ть": 4947, 
  "безработицы": 4948, 
  "все@@": 4949, 
  "открыто": 4950, 
  "смерть": 4951, 
  "прекрасный": 4952, 
  "ответить": 4953, 
  "Группы": 4954, 
  "надеюсь": 4955, 
  "he": 4956, 
  "соответствующего": 4957, 
  "помогают": 4958, 
  "границ": 4959, 
  "емый": 4960, 
  "леса": 4961, 
  "удовлетвор@@": 4962, 
  "редко": 4963, 
  "ассортимент": 4964, 
  "page": 4965, 
  "практика": 4966, 
  "видим": 4967, 
  "предлагаются": 4968, 
  "свободной": 4969, 
  "Востока": 4970, 
  "ссылку": 4971, 
  "политическим": 4972, 
  "контакты": 4973, 
  "имеющие": 4974, 
  "имо": 4975, 
  "характеристики": 4976, 
  "кости": 4977, 
  "нуждается": 4978, 
  "долг": 4979, 
  "Обамы": 4980, 
  "ввода": 4981, 
  "сырья": 4982, 
  "120": 4983, 
  "ула": 4984, 
  "человеческого": 4985, 
  "качеством": 4986, 
  "ation": 4987, 
  "Ай@@": 4988, 
  "заказ@@": 4989, 
  "войск": 4990, 
  "размеров": 4991, 
  "ля": 4992, 
  "лидера": 4993, 
  "надеемся": 4994, 
  "Ирака": 4995, 
  "продажу": 4996, 
  "Pro@@": 4997, 
  "впрочем": 4998, 
  "проживание": 4999, 
  "тур@@": 5000, 
  "сов@@": 5001, 
  "del": 5002, 
  "будь": 5003, 
  "требованиями": 5004, 
  "возраст@@": 5005, 
  "уя": 5006, 
  "политическую": 5007, 
  "кул@@": 5008, 
  "Best": 5009, 
  "ателем": 5010, 
  "законодательство": 5011, 
  "спасибо": 5012, 
  "иров@@": 5013, 
  "русский": 5014, 
  "Г": 5015, 
  "энергию": 5016, 
  "состав@@": 5017, 
  "кроватях": 5018, 
  "вар@@": 5019, 
  "привлечь": 5020, 
  "00@@": 5021, 
  "глубоко": 5022, 
  "Web": 5023, 
  "давать": 5024, 
  "рамки": 5025, 
  "Обама": 5026, 
  "премьер-министр": 5027, 
  "порта": 5028, 
  "some": 5029, 
  "ing@@": 5030, 
  "компаниям": 5031, 
  "Сергей": 5032, 
  "многим": 5033, 
  "43": 5034, 
  "con@@": 5035, 
  "СПИДа": 5036, 
  "голоса": 5037, 
  "председателя": 5038, 
  "USB": 5039, 
  "библиотеки": 5040, 
  "En@@": 5041, 
  "аном": 5042, 
  "интеллектуальной": 5043, 
  "сауна": 5044, 
  "дали": 5045, 
  "по-@@": 5046, 
  "1,5": 5047, 
  "ования": 5048, 
  "52": 5049, 
  "экрана": 5050, 
  "планирует": 5051, 
  "ированным": 5052, 
  "велосипедов": 5053, 
  "следовать": 5054, 
  "озера": 5055, 
  "представляется": 5056, 
  "вел@@": 5057, 
  "морской": 5058, 
  "АТ@@": 5059, 
  "модернизации": 5060, 
  "провинции": 5061, 
  "уровней": 5062, 
  "нике": 5063, 
  "свидетельствует": 5064, 
  "с-@@": 5065, 
  "объяснить": 5066, 
  "ака": 5067, 
  "интерес@@": 5068, 
  "TV": 5069, 
  "форум": 5070, 
  "Кан@@": 5071, 
  "фотографий": 5072, 
  "утверждают": 5073, 
  "лидером": 5074, 
  "конструкции": 5075, 
  "ывающих": 5076, 
  "Black": 5077, 
  "сторона": 5078, 
  "английский": 5079, 
  "понимать": 5080, 
  "дат@@": 5081, 
  "корпоративных": 5082, 
  "развивать": 5083, 
  "когда-либо": 5084, 
  "иям": 5085, 
  "Европу": 5086, 
  "собственность": 5087, 
  "содержать": 5088, 
  "Интернета": 5089, 
  "РА@@": 5090, 
  "вверх": 5091, 
  "приема": 5092, 
  "кро@@": 5093, 
  "ывал": 5094, 
  "ближайшие": 5095, 
  "тем@@": 5096, 
  "личные": 5097, 
  "добав@@": 5098, 
  "перевозки": 5099, 
  "уникальный": 5100, 
  "сочетании": 5101, 
  "ы-@@": 5102, 
  "ады": 5103, 
  "пол": 5104, 
  "лен": 5105, 
  "любым": 5106, 
  "аль-@@": 5107, 
  "руч@@": 5108, 
  "внутренний": 5109, 
  "заставить": 5110, 
  "анов": 5111, 
  "пределы": 5112, 
  "отходов": 5113, 
  "построить": 5114, 
  "дисков": 5115, 
  "побережье": 5116, 
  "отличаются": 5117, 
  "вызов": 5118, 
  "ростом": 5119, 
  "ur": 5120, 
  "участникам": 5121, 
  "названия": 5122, 
  "Inn": 5123, 
  "выходит": 5124, 
  "ивших": 5125, 
  "рен@@": 5126, 
  "конференций": 5127, 
  "Th@@": 5128, 
  "ц": 5129, 
  "возможные": 5130, 
  "вынуждены": 5131, 
  "стремление": 5132, 
  "руководители": 5133, 
  "определенной": 5134, 
  "поддержать": 5135, 
  "im": 5136, 
  "орами": 5137, 
  "имеющихся": 5138, 
  "малых": 5139, 
  "высоко": 5140, 
  "домена": 5141, 
  "экран": 5142, 
  "выполняет": 5143, 
  "old": 5144, 
  "кстати": 5145, 
  "семья": 5146, 
  "бит@@": 5147, 
  "der@@": 5148, 
  "задум@@": 5149, 
  "баланс": 5150, 
  "ализации": 5151, 
  "расширить": 5152, 
  "занятия": 5153, 
  "Господь": 5154, 
  "ализация": 5155, 
  "сертификат": 5156, 
  "бал@@": 5157, 
  "вая": 5158, 
  "Intel": 5159, 
  "Об@@": 5160, 
  "тов@@": 5161, 
  "пройдет": 5162, 
  "нашему": 5163, 
  "Grand": 5164, 
  "sites": 5165, 
  "ванная": 5166, 
  "произойдет": 5167, 
  "клуба": 5168, 
  "прошла": 5169, 
  "половины": 5170, 
  "соблюдения": 5171, 
  "родители": 5172, 
  "писать": 5173, 
  "нан@@": 5174, 
  "1989": 5175, 
  "аспекты": 5176, 
  "ованные": 5177, 
  "иным": 5178, 
  "одни": 5179, 
  "инвест@@": 5180, 
  "аэропорт": 5181, 
  "другу": 5182, 
  "возникновения": 5183, 
  "Сер@@": 5184, 
  "кг": 5185, 
  "миссии": 5186, 
  "ированная": 5187, 
  "провел": 5188, 
  "представлять": 5189, 
  "современном": 5190, 
  "Рос@@": 5191, 
  "планеты": 5192, 
  "присутствие": 5193, 
  "яна": 5194, 
  "бороться": 5195, 
  "необходимое": 5196, 
  "быстрый": 5197, 
  "инвестиционных": 5198, 
  "вкус": 5199, 
  "ственной": 5200, 
  "средний": 5201, 
  "миром": 5202, 
  "бронирования": 5203, 
  "нужен": 5204, 
  "Этот": 5205, 
  "имый": 5206, 
  "отправить": 5207, 
  "провели": 5208, 
  "остановить": 5209, 
  "эффективных": 5210, 
  "io": 5211, 
  "эк@@": 5212, 
  "записей": 5213, 
  "объеме": 5214, 
  "исполнение": 5215, 
  "бы@@": 5216, 
  "разумеется": 5217, 
  "прием": 5218, 
  "выгоды": 5219, 
  "поддержания": 5220, 
  "еру": 5221, 
  "многом": 5222, 
  "университет": 5223, 
  "игрок": 5224, 
  "каких": 5225, 
  "попробовать": 5226, 
  "запросов": 5227, 
  "Day": 5228, 
  "сбор": 5229, 
  "ОБ@@": 5230, 
  "шин": 5231, 
  "искусство": 5232, 
  "считаю": 5233, 
  "been": 5234, 
  "атом": 5235, 
  "диалог": 5236, 
  "контактов": 5237, 
  "рыночной": 5238, 
  "количестве": 5239, 
  "ивные": 5240, 
  "160": 5241, 
  "министров": 5242, 
  "фактором": 5243, 
  "природе": 5244, 
  "46": 5245, 
  "знание": 5246, 
  "est@@": 5247, 
  "капит@@": 5248, 
  "основой": 5249, 
  "удовольствие": 5250, 
  "ира": 5251, 
  "47": 5252, 
  "прошел": 5253, 
  "коррупции": 5254, 
  "традиционные": 5255, 
  "Щ@@": 5256, 
  "прост@@": 5257, 
  "ательным": 5258, 
  "рук": 5259, 
  "правительству": 5260, 
  "русском": 5261, 
  "жертв": 5262, 
  "ани@@": 5263, 
  "Англии": 5264, 
  "ичная": 5265, 
  "штат": 5266, 
  "restaurant": 5267, 
  "направленных": 5268, 
  "Института": 5269, 
  "продажа": 5270, 
  "шагом": 5271, 
  "зал@@": 5272, 
  "Ближнем": 5273, 
  "голосования": 5274, 
  "второе": 5275, 
  "Apple": 5276, 
  "случаи": 5277, 
  "паро@@": 5278, 
  "мот@@": 5279, 
  "вещества": 5280, 
  "оппозиции": 5281, 
  "школу": 5282, 
  "51": 5283, 
  "независимость": 5284, 
  "преобразов@@": 5285, 
  "наблюдается": 5286, 
  "99": 5287, 
  "баз": 5288, 
  "кадров": 5289, 
  "49": 5290, 
  "aux": 5291, 
  "включите": 5292, 
  "доллара": 5293, 
  "старых": 5294, 
  "нач@@": 5295, 
  "насилие": 5296, 
  "проекту": 5297, 
  "облигаций": 5298, 
  "банковских": 5299, 
  "обязаны": 5300, 
  "я-@@": 5301, 
  "медицинского": 5302, 
  "запросы": 5303, 
  "сочетание": 5304, 
  "Европейской": 5305, 
  "ивание": 5306, 
  "мов": 5307, 
  "енты": 5308, 
  "ави@@": 5309, 
  "нул": 5310, 
  "правами": 5311, 
  "фондов": 5312, 
  "размеры": 5313, 
  "примере": 5314, 
  "И.": 5315, 
  "дар@@": 5316, 
  "зем@@": 5317, 
  "отраж@@": 5318, 
  "адрес@@": 5319, 
  "приняла": 5320, 
  "очки": 5321, 
  "обл@@": 5322, 
  "иници@@": 5323, 
  "цел@@": 5324, 
  "орган": 5325, 
  "le@@": 5326, 
  "содержат": 5327, 
  "небольших": 5328, 
  "единой": 5329, 
  "аемым": 5330, 
  "наркотиков": 5331, 
  "диалога": 5332, 
  "реальной": 5333, 
  "цар@@": 5334, 
  "С.": 5335, 
  "голову": 5336, 
  "modern": 5337, 
  "музея": 5338, 
  "привлечения": 5339, 
  "загрузить": 5340, 
  "ья@@": 5341, 
  "примеры": 5342, 
  "низкой": 5343, 
  "слож@@": 5344, 
  "Гар@@": 5345, 
  "подробно": 5346, 
  "полно@@": 5347, 
  "очередной": 5348, 
  "арт@@": 5349, 
  "жал@@": 5350, 
  "отмечает": 5351, 
  "сформ@@": 5352, 
  "видели": 5353, 
  "находящихся": 5354, 
  "ту@@": 5355, 
  "утром": 5356, 
  "тема": 5357, 
  "ig@@": 5358, 
  "подчеркнул": 5359, 
  "выборе": 5360, 
  "необходимой": 5361, 
  "сверх@@": 5362, 
  "иск@@": 5363, 
  "установления": 5364, 
  "воде": 5365, 
  "старые": 5366, 
  "ключевые": 5367, 
  "линий": 5368, 
  "схемы": 5369, 
  "новостей": 5370, 
  "спец@@": 5371, 
  "деловой": 5372, 
  "болезней": 5373, 
  "иностранные": 5374, 
  "отказ@@": 5375, 
  "ta": 5376, 
  "партнеры": 5377, 
  "аренду": 5378, 
  "номин@@": 5379, 
  "Down": 5380, 
  "пляжа": 5381, 
  "М.": 5382, 
  "состава": 5383, 
  "конкретные": 5384, 
  "долл": 5385, 
  "Кал@@": 5386, 
  "ека": 5387, 
  "имых": 5388, 
  "евреев": 5389, 
  "ic": 5390, 
  "way": 5391, 
  "падение": 5392, 
  "канал": 5393, 
  "увидите": 5394, 
  "отделения": 5395, 
  "точку": 5396, 
  "внедрение": 5397, 
  "визита": 5398, 
  "европейского": 5399, 
  "различным": 5400, 
  "миллиарда": 5401, 
  "щиков": 5402, 
  "началась": 5403, 
  "·": 5404, 
  "ate": 5405, 
  "выступает": 5406, 
  "ir@@": 5407, 
  "богатых": 5408, 
  "bar": 5409, 
  "инструкции": 5410, 
  "ателями": 5411, 
  "когда-то": 5412, 
  "охране": 5413, 
  "таблицы": 5414, 
  "курсов": 5415, 
  "вовсе": 5416, 
  "контролем": 5417, 
  "системами": 5418, 
  "сообщить": 5419, 
  "Ver@@": 5420, 
  "прис@@": 5421, 
  "гран@@": 5422, 
  "программ@@": 5423, 
  "останется": 5424, 
  "вчера": 5425, 
  "приобретения": 5426, 
  "акционеров": 5427, 
  "ировано": 5428, 
  "пишет": 5429, 
  "плюс": 5430, 
  "баз@@": 5431, 
  "дополнительная": 5432, 
  "дек@@": 5433, 
  "обознач@@": 5434, 
  "ух@@": 5435, 
  "некоторым": 5436, 
  "распределения": 5437, 
  "матери": 5438, 
  "активного": 5439, 
  "наверное": 5440, 
  "оценкам": 5441, 
  "Ман@@": 5442, 
  "органа": 5443, 
  "Be@@": 5444, 
  "перевод@@": 5445, 
  "уж@@": 5446, 
  "вступления": 5447, 
  "сделает": 5448, 
  "оу@@": 5449, 
  "кредитной": 5450, 
  "выполнении": 5451, 
  "культур": 5452, 
  "модуль": 5453, 
  "потенциальных": 5454, 
  "премии": 5455, 
  "внешний": 5456, 
  "подготов@@": 5457, 
  "позиций": 5458, 
  "si@@": 5459, 
  "Эстонии": 5460, 
  "промышленность": 5461, 
  "традиционно": 5462, 
  "иеся": 5463, 
  "направленные": 5464, 
  "пов": 5465, 
  "хорошим": 5466, 
  "изменять": 5467, 
  "сказали": 5468, 
  "навыки": 5469, 
  "ичного": 5470, 
  "мини-@@": 5471, 
  "задать": 5472, 
  "ut@@": 5473, 
  "едва": 5474, 
  "Se@@": 5475, 
  "техника": 5476, 
  "торговля": 5477, 
  "Чистка": 5478, 
  "законч@@": 5479, 
  "водо@@": 5480, 
  "кры@@": 5481, 
  "ационный": 5482, 
  "рекомендаций": 5483, 
  "круг": 5484, 
  "идут": 5485, 
  "игроки": 5486, 
  "ационные": 5487, 
  "дон@@": 5488, 
  "тол@@": 5489, 
  "нов": 5490, 
  "бассейна": 5491, 
  "plus": 5492, 
  "no@@": 5493, 
  "применяются": 5494, 
  "распространяется": 5495, 
  "пространстве": 5496, 
  "душу": 5497, 
  "буд@@": 5498, 
  "став@@": 5499, 
  "po@@": 5500, 
  "ивного": 5501, 
  "56": 5502, 
  "десятки": 5503, 
  "ядра": 5504, 
  "координ@@": 5505, 
  "войска": 5506, 
  "основное": 5507, 
  "империи": 5508, 
  "IN@@": 5509, 
  "представлен": 5510, 
  "бе@@": 5511, 
  "учитывать": 5512, 
  "over": 5513, 
  "сот@@": 5514, 
  "изол@@": 5515, 
  "центрального": 5516, 
  "диске": 5517, 
  "телевидение": 5518, 
  "ung": 5519, 
  "мать": 5520, 
  "тестирования": 5521, 
  "дороге": 5522, 
  "средней": 5523, 
  "гражданских": 5524, 
  "рон@@": 5525, 
  "Х": 5526, 
  "утвержд@@": 5527, 
  "экономическая": 5528, 
  "Национальной": 5529, 
  "кру@@": 5530, 
  "холодной": 5531, 
  "в.": 5532, 
  "приняты": 5533, 
  "план@@": 5534, 
  "присоедин@@": 5535, 
  "камеры": 5536, 
  "видами": 5537, 
  "соответствуют": 5538, 
  "night": 5539, 
  "оборудованием": 5540, 
  "составила": 5541, 
  "гол@@": 5542, 
  "прочих": 5543, 
  "год@@": 5544, 
  "сосредоточ@@": 5545, 
  "строительных": 5546, 
  "определенный": 5547, 
  "реч@@": 5548, 
  "мил@@": 5549, 
  "касающиеся": 5550, 
  "кв@@": 5551, 
  "ём": 5552, 
  "страх": 5553, 
  "their": 5554, 
  "точка": 5555, 
  "многими": 5556, 
  "связаться": 5557, 
  "потребность": 5558, 
  "Польше": 5559, 
  "объемов": 5560, 
  "глаз": 5561, 
  "подачи": 5562, 
  "влияет": 5563, 
  "медленно": 5564, 
  "специальный": 5565, 
  "обвинения": 5566, 
  "ате": 5567, 
  "управля@@": 5568, 
  "региональные": 5569, 
  "ica": 5570, 
  "Ã": 5571, 
  "показал": 5572, 
  "Лондоне": 5573, 
  "аде": 5574, 
  "Советского": 5575, 
  "приходит": 5576, 
  "отсюда": 5577, 
  "основан": 5578, 
  "into": 5579, 
  "ведут": 5580, 
  "арных": 5581, 
  "высоком": 5582, 
  "any": 5583, 
  "вин": 5584, 
  "раск@@": 5585, 
  "9-@@": 5586, 
  "измом": 5587, 
  "заст@@": 5588, 
  "sa": 5589, 
  "основного": 5590, 
  "ценность": 5591, 
  "Club": 5592, 
  "этап": 5593, 
  "стоят": 5594, 
  "отчеты": 5595, 
  "отраслей": 5596, 
  "произведения": 5597, 
  "Узбекистан": 5598, 
  "ru": 5599, 
  "осталось": 5600, 
  "ро": 5601, 
  "мас@@": 5602, 
  "кв.м.": 5603, 
  "метода": 5604, 
  "ша": 5605, 
  "отчета": 5606, 
  "домашних": 5607, 
  "самих": 5608, 
  "половине": 5609, 
  "яч@@": 5610, 
  "пад@@": 5611, 
  "ses": 5612, 
  "жизнью": 5613, 
  "близко": 5614, 
  "АН@@": 5615, 
  "Бразилии": 5616, 
  "отца": 5617, 
  "совместной": 5618, 
  "ителями": 5619, 
  "надежды": 5620, 
  "ликвидации": 5621, 
  "полу@@": 5622, 
  "чив@@": 5623, 
  "фильма": 5624, 
  "профессионального": 5625, 
  "большего": 5626, 
  "соответствующим": 5627, 
  "Кат@@": 5628, 
  "Буш": 5629, 
  "широкой": 5630, 
  "расстояние": 5631, 
  "привед@@": 5632, 
  "производители": 5633, 
  "проще": 5634, 
  "53": 5635, 
  "протокол": 5636, 
  "дополн@@": 5637, 
  "обоснов@@": 5638, 
  "американцев": 5639, 
  "использовали": 5640, 
  "ущерба": 5641, 
  "оставляет": 5642, 
  "хрон@@": 5643, 
  "Все": 5644, 
  "ряде": 5645, 
  "сбор@@": 5646, 
  "изучение": 5647, 
  "внешнего": 5648, 
  "документе": 5649, 
  "Out": 5650, 
  "ван@@": 5651, 
  "книгу": 5652, 
  "яем": 5653, 
  "Ассоциации": 5654, 
  "установ@@": 5655, 
  "показано": 5656, 
  "легче": 5657, 
  "сил@@": 5658, 
  "Sch@@": 5659, 
  "имы": 5660, 
  "рабочий": 5661, 
  "Генеральной": 5662, 
  "place": 5663, 
  "доступом": 5664, 
  "желания": 5665, 
  "овала": 5666, 
  "захват@@": 5667, 
  "активное": 5668, 
  "победу": 5669, 
  "баланса": 5670, 
  "В.@@": 5671, 
  "правильный": 5672, 
  "98": 5673, 
  "волос": 5674, 
  "заседания": 5675, 
  "пот@@": 5676, 
  "снижению": 5677, 
  "напитки": 5678, 
  "ближе": 5679, 
  "01": 5680, 
  "подчин@@": 5681, 
  "шведский": 5682, 
  "добро": 5683, 
  "кино": 5684, 
  "подтвержд@@": 5685, 
  "управлении": 5686, 
  "стат@@": 5687, 
  "су": 5688, 
  "куб@@": 5689, 
  "комнате": 5690, 
  "позволило": 5691, 
  "ества": 5692, 
  "ленные": 5693, 
  "translation": 5694, 
  "пользователем": 5695, 
  "экономическим": 5696, 
  "дерева": 5697, 
  "координации": 5698, 
  "пытаются": 5699, 
  "профессиональные": 5700, 
  "инвесторы": 5701, 
  "реальные": 5702, 
  "сведений": 5703, 
  "ол": 5704, 
  "интерфейса": 5705, 
  "стратегию": 5706, 
  "пал@@": 5707, 
  "продолжить": 5708, 
  "формирование": 5709, 
  "создал": 5710, 
  "восемь": 5711, 
  "нев@@": 5712, 
  "товар": 5713, 
  "настоящим": 5714, 
  "стола": 5715, 
  "ента": 5716, 
  "размещ@@": 5717, 
  "протест@@": 5718, 
  "ийся": 5719, 
  "инской": 5720, 
  "емым": 5721, 
  "наблюдения": 5722, 
  "te@@": 5723, 
  "получит": 5724, 
  "разница": 5725, 
  "условиям": 5726, 
  "способен": 5727, 
  "изготов@@": 5728, 
  "культурного": 5729, 
  "who": 5730, 
  "able": 5731, 
  "увер@@": 5732, 
  "Вашем": 5733, 
  "соци@@": 5734, 
  "пола": 5735, 
  "Кореи": 5736, 
  "ответил": 5737, 
  "подключение": 5738, 
  "набора": 5739, 
  "ься": 5740, 
  "полномочий": 5741, 
  "жар@@": 5742, 
  "устанавливать": 5743, 
  "темпы": 5744, 
  "сферах": 5745, 
  "отдохнуть": 5746, 
  "политикой": 5747, 
  "машине": 5748, 
  "температура": 5749, 
  "выз@@": 5750, 
  "финансовую": 5751, 
  "Штатах": 5752, 
  "Массаж": 5753, 
  "официальный": 5754, 
  "пов@@": 5755, 
  "СТ@@": 5756, 
  "ос": 5757, 
  "возвращ@@": 5758, 
  "тре@@": 5759, 
  "подобного": 5760, 
  "RE@@": 5761, 
  "выбирать": 5762, 
  "расп@@": 5763, 
  "держ@@": 5764, 
  "ировала": 5765, 
  "ностей": 5766, 
  "Mac": 5767, 
  "обращение": 5768, 
  "религиозных": 5769, 
  "це": 5770, 
  "гольфа": 5771, 
  "личной": 5772, 
  "аемая": 5773, 
  "видно": 5774, 
  "друзья": 5775, 
  "используемых": 5776, 
  "содействовать": 5777, 
  "освещ@@": 5778, 
  "баре": 5779, 
  "передать": 5780, 
  "охват@@": 5781, 
  "Сад": 5782, 
  "речи": 5783, 
  "каналов": 5784, 
  "ывающие": 5785, 
  "лат@@": 5786, 
  "выплаты": 5787, 
  "указанных": 5788, 
  "IV": 5789, 
  "With": 5790, 
  "Лю@@": 5791, 
  "идею": 5792, 
  "угрозой": 5793, 
  "приобрет@@": 5794, 
  "House": 5795, 
  "иста": 5796, 
  "помещений": 5797, 
  "Рас@@": 5798, 
  "малого": 5799, 
  "объемы": 5800, 
  "пользуются": 5801, 
  "са@@": 5802, 
  "фл@@": 5803, 
  "убежд@@": 5804, 
  "пару": 5805, 
  "комментарии": 5806, 
  "конфиденциальности": 5807, 
  "Не": 5808, 
  "задерж@@": 5809, 
  "700": 5810, 
  "ивная": 5811, 
  "д.": 5812, 
  "рейтинг": 5813, 
  "американцы": 5814, 
  "оцен@@": 5815, 
  "од": 5816, 
  "K": 5817, 
  "Blue": 5818, 
  "предварительного": 5819, 
  "подав@@": 5820, 
  "фот@@": 5821, 
  "форуме": 5822, 
  "платежей": 5823, 
  "Май@@": 5824, 
  "Запад": 5825, 
  "небольшие": 5826, 
  "ующих": 5827, 
  "situ@@": 5828, 
  "свод@@": 5829, 
  "km": 5830, 
  "открытых": 5831, 
  "эффективным": 5832, 
  "карт@@": 5833, 
  "действ@@": 5834, 
  "деталей": 5835, 
  "чувствовать": 5836, 
  "Manager": 5837, 
  "Генерального": 5838, 
  "обеспечении": 5839, 
  "ящий": 5840, 
  "собрания": 5841, 
  "позиция": 5842, 
  "символов": 5843, 
  "предоставляются": 5844, 
  "обычных": 5845, 
  "Home": 5846, 
  "квалификации": 5847, 
  "ий@@": 5848, 
  "еврозоны": 5849, 
  "популярных": 5850, 
  "Cor@@": 5851, 
  "ивной": 5852, 
  "экраном": 5853, 
  "бел@@": 5854, 
  "ивали": 5855, 
  "АР@@": 5856, 
  "выше@@": 5857, 
  "меш@@": 5858, 
  "подобное": 5859, 
  "информационной": 5860, 
  "стимул@@": 5861, 
  "супер@@": 5862, 
  "ющими": 5863, 
  "проектом": 5864, 
  "Польши": 5865, 
  "ina": 5866, 
  "ресторана": 5867, 
  "испытания": 5868, 
  "работники": 5869, 
  "соглашений": 5870, 
  "запросу": 5871, 
  "Western": 5872, 
  "миллионы": 5873, 
  "con": 5874, 
  "регионального": 5875, 
  "НА": 5876, 
  "сел@@": 5877, 
  "запроса": 5878, 
  "ывания": 5879, 
  "объединение": 5880, 
  "Не@@": 5881, 
  "телефонов": 5882, 
  "тесно": 5883, 
  "20-@@": 5884, 
  "укрепление": 5885, 
  "Мон@@": 5886, 
  "етесь": 5887, 
  "отображ@@": 5888, 
  "пойти": 5889, 
  "началом": 5890, 
  "версий": 5891, 
  "резолюции": 5892, 
  "удив@@": 5893, 
  "ожидает": 5894, 
  "яция": 5895, 
  "появления": 5896, 
  "Австралии": 5897, 
  "готов@@": 5898, 
  "описания": 5899, 
  "предложил": 5900, 
  "ичное": 5901, 
  "доли": 5902, 
  "направлены": 5903, 
  "è": 5904, 
  "морских": 5905, 
  "ност@@": 5906, 
  "Комитет": 5907, 
  "отсутствует": 5908, 
  "независимых": 5909, 
  "элемента": 5910, 
  "промышленного": 5911, 
  "работали": 5912, 
  "имен": 5913, 
  "пользователю": 5914, 
  "циями": 5915, 
  "содержится": 5916, 
  "состоялось": 5917, 
  "ТВ": 5918, 
  "общим": 5919, 
  "скажем": 5920, 
  "вход": 5921, 
  "проблеме": 5922, 
  "ех@@": 5923, 
  "падения": 5924, 
  "посещения": 5925, 
  "ленных": 5926, 
  "ационной": 5927, 
  "импорта": 5928, 
  "Java": 5929, 
  "предоставлении": 5930, 
  "втор@@": 5931, 
  "задачу": 5932, 
  "обращ@@": 5933, 
  "видео@@": 5934, 
  "свобода": 5935, 
  "ку@@": 5936, 
  "аналог@@": 5937, 
  "соответствующий": 5938, 
  "шт@@": 5939, 
  "евым": 5940, 
  "заявки": 5941, 
  "ющая": 5942, 
  "уведомления": 5943, 
  "Няня": 5944, 
  "действуют": 5945, 
  "премьер-министра": 5946, 
  "течении": 5947, 
  "национальным": 5948, 
  "торгового": 5949, 
  "58": 5950, 
  "входа": 5951, 
  "остались": 5952, 
  "предыдущих": 5953, 
  "57": 5954, 
  "воздух": 5955, 
  "ставка": 5956, 
  "необходим": 5957, 
  "партнерства": 5958, 
  "п.": 5959, 
  "м2": 5960, 
  "носит": 5961, 
  "представ@@": 5962, 
  "конкурс": 5963, 
  "кровать": 5964, 
  "Ирак": 5965, 
  "экономическую": 5966, 
  "удовлетворить": 5967, 
  "суд@@": 5968, 
  "наслед@@": 5969, 
  "инструмента": 5970, 
  "ла@@": 5971, 
  "ны@@": 5972, 
  "вернуть": 5973, 
  "согласие": 5974, 
  "организма": 5975, 
  "чтения": 5976, 
  "полная": 5977, 
  "тер": 5978, 
  "штата": 5979, 
  "неподалеку": 5980, 
  "распредел@@": 5981, 
  "ro": 5982, 
  "Казахстане": 5983, 
  "перечень": 5984, 
  "вен@@": 5985, 
  "команд": 5986, 
  "удовлетворения": 5987, 
  "структур@@": 5988, 
  "дорог": 5989, 
  "знали": 5990, 
  "посетите": 5991, 
  "специальной": 5992, 
  "ива": 5993, 
  "сад@@": 5994, 
  "печат@@": 5995, 
  "сообщили": 5996, 
  "квартира": 5997, 
  "рассказал": 5998, 
  "сообщ@@": 5999, 
  "боль": 6000, 
  "Финляндии": 6001, 
  "Китаем": 6002, 
  "алом": 6003, 
  "das": 6004, 
  "члена": 6005, 
  "mit": 6006, 
  "продвижения": 6007, 
  "специалистами": 6008, 
  "ü@@": 6009, 
  "изначально": 6010, 
  "Конституции": 6011, 
  "предоставляют": 6012, 
  "ерами": 6013, 
  "итель@@": 6014, 
  "Pro": 6015, 
  "ответ@@": 6016, 
  "процентные": 6017, 
  "ul@@": 6018, 
  "ланчи": 6019, 
  "ельных": 6020, 
  "потребление": 6021, 
  "огранич@@": 6022, 
  "Косово": 6023, 
  "ейся": 6024, 
  "параметра": 6025, 
  "различ@@": 6026, 
  "ma": 6027, 
  "дважды": 6028, 
  "ближайшее": 6029, 
  "появление": 6030, 
  "научные": 6031, 
  "хорошей": 6032, 
  "ve": 6033, 
  "предметы": 6034, 
  "буквально": 6035, 
  "протокола": 6036, 
  "щик": 6037, 
  "газов": 6038, 
  "развивающиеся": 6039, 
  "па@@": 6040, 
  "термин": 6041, 
  "вступ@@": 6042, 
  "ужин": 6043, 
  "AKVIS": 6044, 
  "обсуждение": 6045, 
  "Люкс": 6046, 
  "пассажиров": 6047, 
  "сен@@": 6048, 
  "Молдова": 6049, 
  "справедливости": 6050, 
  "кнопкой": 6051, 
  "проведению": 6052, 
  "превыш@@": 6053, 
  "старшего": 6054, 
  "удивительно": 6055, 
  "домин@@": 6056, 
  "Евросоюза": 6057, 
  "54": 6058, 
  "чистой": 6059, 
  "прил@@": 6060, 
  "ино": 6061, 
  "имен@@": 6062, 
  "London": 6063, 
  "фа": 6064, 
  "лей@@": 6065, 
  "выступления": 6066, 
  "ённых": 6067, 
  "иные": 6068, 
  "раздела": 6069, 
  "Ex@@": 6070, 
  "Le": 6071, 
  "í@@": 6072, 
  "блюд": 6073, 
  "ге": 6074, 
  "евого": 6075, 
  "ведущие": 6076, 
  "анской": 6077, 
  "Вашему": 6078, 
  "стрем@@": 6079, 
  "́": 6080, 
  "друзьями": 6081, 
  "окон": 6082, 
  "западной": 6083, 
  "касающихся": 6084, 
  "ивный": 6085, 
  "мел@@": 6086, 
  "появился": 6087, 
  "жилье": 6088, 
  "третьей": 6089, 
  "ившихся": 6090, 
  "ten": 6091, 
  "оказалась": 6092, 
  "молодые": 6093, 
  "19@@": 6094, 
  "техническое": 6095, 
  "ite": 6096, 
  "хватает": 6097, 
  "62": 6098, 
  "символ@@": 6099, 
  "финансовым": 6100, 
  "услуга": 6101, 
  "стан@@": 6102, 
  "рел@@": 6103, 
  "аемся": 6104, 
  "комбин@@": 6105, 
  "вклад@@": 6106, 
  "вопросами": 6107, 
  "os@@": 6108, 
  "аса": 6109, 
  ".ru": 6110, 
  "циях": 6111, 
  "открывает": 6112, 
  "общины": 6113, 
  "ивных": 6114, 
  "точек": 6115, 
  "ст": 6116, 
  "разве": 6117, 
  "возле": 6118, 
  "рано": 6119, 
  "напад@@": 6120, 
  "вышел": 6121, 
  "ск": 6122, 
  "официальные": 6123, 
  "Com@@": 6124, 
  "цикла": 6125, 
  "самую": 6126, 
  "ткани": 6127, 
  "вооруженных": 6128, 
  "самим": 6129, 
  "оном": 6130, 
  "стратегий": 6131, 
  "кач@@": 6132, 
  "связана": 6133, 
  "запрещ@@": 6134, 
  "установлена": 6135, 
  "нак@@": 6136, 
  "ци@@": 6137, 
  "ема": 6138, 
  "защищать": 6139, 
  "дей@@": 6140, 
  "семинар": 6141, 
  "магазины": 6142, 
  "больных": 6143, 
  "столетия": 6144, 
  "вкус@@": 6145, 
  "стра@@": 6146, 
  "ур": 6147, 
  "партнера": 6148, 
  "ящего": 6149, 
  "поп@@": 6150, 
  "какая": 6151, 
  "неоднократно": 6152, 
  "кост@@": 6153, 
  "удар": 6154, 
  "Интер@@": 6155, 
  "ремонт": 6156, 
  "заменить": 6157, 
  "лед@@": 6158, 
  "привод@@": 6159, 
  "Со@@": 6160, 
  "©": 6161, 
  "голов@@": 6162, 
  "СП@@": 6163, 
  "разнообразные": 6164, 
  "исторических": 6165, 
  "определенного": 6166, 
  "состоялся": 6167, 
  "современными": 6168, 
  "применением": 6169, 
  "бесплатная": 6170, 
  "проектах": 6171, 
  "рами": 6172, 
  "экологически": 6173, 
  "связан": 6174, 
  "покупателей": 6175, 
  "еф@@": 6176, 
  "id": 6177, 
  "сможем": 6178, 
  "установите": 6179, 
  "заработной": 6180, 
  "коммуникации": 6181, 
  "душ": 6182, 
  "Э": 6183, 
  "ВТО": 6184, 
  "труд@@": 6185, 
  "вооруж@@": 6186, 
  "ко-@@": 6187, 
  "остров": 6188, 
  "ированное": 6189, 
  "ЕН@@": 6190, 
  "днем": 6191, 
  "успешной": 6192, 
  "вплоть": 6193, 
  "иком": 6194, 
  "прошло": 6195, 
  "вдруг": 6196, 
  "справиться": 6197, 
  "ателям": 6198, 
  "обнаруж@@": 6199, 
  "комфортабельный": 6200, 
  "третьего": 6201, 
  "СК@@": 6202, 
  "оты": 6203, 
  "ислам@@": 6204, 
  "Song": 6205, 
  "ez": 6206, 
  "Рам@@": 6207, 
  "Упакованные": 6208, 
  "попытка": 6209, 
  "западных": 6210, 
  "причин@@": 6211, 
  "рек@@": 6212, 
  "осуществлении": 6213, 
  "ощущение": 6214, 
  "предметов": 6215, 
  "государственным": 6216, 
  "научно-@@": 6217, 
  "участ@@": 6218, 
  "автомобили": 6219, 
  "отображается": 6220, 
  "обязан": 6221, 
  "гостинице": 6222, 
  "гре@@": 6223, 
  "края": 6224, 
  "вмешательства": 6225, 
  "Go": 6226, 
  "разд@@": 6227, 
  "переводов": 6228, 
  "путей": 6229, 
  "назнач@@": 6230, 
  "стиля": 6231, 
  "заинтересованных": 6232, 
  "итов": 6233, 
  "институты": 6234, 
  "кв.": 6235, 
  "ЮНЭЙДС": 6236, 
  "уем": 6237, 
  "изготовления": 6238, 
  "веч@@": 6239, 
  "чики": 6240, 
  "прос@@": 6241, 
  "заг@@": 6242, 
  "аров": 6243, 
  "основ@@": 6244, 
  "easy": 6245, 
  "суть": 6246, 
  "Киев": 6247, 
  "класс@@": 6248, 
  "Пар@@": 6249, 
  "строительстве": 6250, 
  "единственная": 6251, 
  "написал": 6252, 
  "5.@@": 6253, 
  "совместного": 6254, 
  "официальных": 6255, 
  "клеток": 6256, 
  "етом": 6257, 
  "наличия": 6258, 
  "ительном": 6259, 
  "секунд": 6260, 
  "ательная": 6261, 
  "нежели": 6262, 
  "вес@@": 6263, 
  "ету": 6264, 
  "je": 6265, 
  "местными": 6266, 
  "секретаря": 6267, 
  "ене": 6268, 
  "все-таки": 6269, 
  "оснащены": 6270, 
  "стратегических": 6271, 
  "оптимизации": 6272, 
  "нем@@": 6273, 
  "знаком@@": 6274, 
  "иностранной": 6275, 
  "na@@": 6276, 
  "организациям": 6277, 
  "организ@@": 6278, 
  "помните": 6279, 
  "облад@@": 6280, 
  "sont": 6281, 
  "какую": 6282, 
  "кают": 6283, 
  "ани": 6284, 
  "фильмов": 6285, 
  "интересных": 6286, 
  "процедура": 6287, 
  "помещ@@": 6288, 
  "издание": 6289, 
  "реконструкции": 6290, 
  "счит@@": 6291, 
  "препаратов": 6292, 
  "достав@@": 6293, 
  "запустить": 6294, 
  "ПРООН": 6295, 
  "летнего": 6296, 
  "близости": 6297, 
  "разнообразие": 6298, 
  "ныне": 6299, 
  "рассчит@@": 6300, 
  "политиков": 6301, 
  "частной": 6302, 
  "дата": 6303, 
  "09": 6304, 
  "обстоятельствах": 6305, 
  "установлено": 6306, 
  "мониторинг": 6307, 
  "кре@@": 6308, 
  "пораз@@": 6309, 
  "серьезных": 6310, 
  "анг@@": 6311, 
  "de@@": 6312, 
  "реакции": 6313, 
  "преодолеть": 6314, 
  "готова": 6315, 
  "пут@@": 6316, 
  "предупреждения": 6317, 
  "значительный": 6318, 
  "е.": 6319, 
  "near": 6320, 
  "уменьш@@": 6321, 
  "ду": 6322, 
  "ement": 6323, 
  "евая": 6324, 
  "Аб@@": 6325, 
  "повер@@": 6326, 
  "ou@@": 6327, 
  "ыв@@": 6328, 
  "текущий": 6329, 
  "ств": 6330, 
  "view": 6331, 
  "солдат": 6332, 
  "сид@@": 6333, 
  "мировом": 6334, 
  "жили": 6335, 
  "пункте": 6336, 
  "вн@@": 6337, 
  "реальность": 6338, 
  "эпохи": 6339, 
  "университете": 6340, 
  "добычи": 6341, 
  "полным": 6342, 
  "ованный": 6343, 
  "дату": 6344, 
  "рассмотрение": 6345, 
  "полученных": 6346, 
  "цу": 6347, 
  "обращаться": 6348, 
  "ценные": 6349, 
  "мысль": 6350, 
  "установок": 6351, 
  "кад@@": 6352, 
  "ждет": 6353, 
  "зона": 6354, 
  "движ@@": 6355, 
  "мозга": 6356, 
  "большими": 6357, 
  "участии": 6358, 
  "бе": 6359, 
  "Фонд": 6360, 
  "увеличению": 6361, 
  "известен": 6362, 
  "держать": 6363, 
  "ество": 6364, 
  "ующие": 6365, 
  "Второй": 6366, 
  "реализовать": 6367, 
  "завод@@": 6368, 
  "театра": 6369, 
  "закры@@": 6370, 
  "специального": 6371, 
  "частный": 6372, 
  "Little": 6373, 
  "av@@": 6374, 
  "продолжается": 6375, 
  "выгод@@": 6376, 
  "аренды": 6377, 
  "выражения": 6378, 
  "молодой": 6379, 
  "Live": 6380, 
  "партнером": 6381, 
  "Н.": 6382, 
  "передача": 6383, 
  "инский": 6384, 
  "ичными": 6385, 
  "доступных": 6386, 
  "множества": 6387, 
  "Большой": 6388, 
  "акт@@": 6389, 
  "прим@@": 6390, 
  "энергия": 6391, 
  "Но": 6392, 
  "русских": 6393, 
  "уровню": 6394, 
  "остав@@": 6395, 
  "отлично": 6396, 
  "настро@@": 6397, 
  "Фор@@": 6398, 
  "пожаловать": 6399, 
  "каждые": 6400, 
  "культура": 6401, 
  "Всемирной": 6402, 
  "соответствовать": 6403, 
  "сохранять": 6404, 
  "лена": 6405, 
  "дальнейшее": 6406, 
  "предпринимателей": 6407, 
  "De@@": 6408, 
  "приготов@@": 6409, 
  "месяце": 6410, 
  "проходить": 6411, 
  "направля@@": 6412, 
  "люб@@": 6413, 
  "какие-либо": 6414, 
  "прием@@": 6415, 
  "хорошая": 6416, 
  "situated": 6417, 
  "предполагается": 6418, 
  "структуре": 6419, 
  "призывает": 6420, 
  "папки": 6421, 
  "долгосрочной": 6422, 
  "Армения": 6423, 
  "автора": 6424, 
  "физической": 6425, 
  "ter": 6426, 
  "возникают": 6427, 
  "сторонами": 6428, 
  "путешествие": 6429, 
  "нарушений": 6430, 
  "com@@": 6431, 
  "механизма": 6432, 
  "дов@@": 6433, 
  "Qu@@": 6434, 
  "простых": 6435, 
  "собственным": 6436, 
  "Do": 6437, 
  "ельные": 6438, 
  "реализацию": 6439, 
  "очистки": 6440, 
  "веры": 6441, 
  "успешного": 6442, 
  "3000": 6443, 
  "Эр@@": 6444, 
  "тон": 6445, 
  "дол@@": 6446, 
  "понимают": 6447, 
  "средних": 6448, 
  "ухода": 6449, 
  "слов@@": 6450, 
  "ó@@": 6451, 
  "Тер@@": 6452, 
  "территорий": 6453, 
  "quiet": 6454, 
  "qui": 6455, 
  "убедиться": 6456, 
  "Закона": 6457, 
  "панель": 6458, 
  "преступлений": 6459, 
  "Beach": 6460, 
  "покрытия": 6461, 
  "жена": 6462, 
  "расположенных": 6463, 
  "налоги": 6464, 
  "ование": 6465, 
  "атмосфера": 6466, 
  "ота": 6467, 
  "построен": 6468, 
  "осуществля@@": 6469, 
  "развитием": 6470, 
  "содержимое": 6471, 
  "земель": 6472, 
  "налога": 6473, 
  "мыш@@": 6474, 
  "эффективное": 6475, 
  "заседание": 6476, 
  "бок@@": 6477, 
  "ссылок": 6478, 
  "смотрите": 6479, 
  "эффективные": 6480, 
  "шую": 6481, 
  "принципе": 6482, 
  "семи": 6483, 
  "наследия": 6484, 
  "Евро@@": 6485, 
  "ni@@": 6486, 
  "дверь": 6487, 
  "отелем": 6488, 
  "ац@@": 6489, 
  "аешь": 6490, 
  "повыш@@": 6491, 
  "презентации": 6492, 
  "крат@@": 6493, 
  "РА": 6494, 
  "замеч@@": 6495, 
  "спор@@": 6496, 
  "попад@@": 6497, 
  "языком": 6498, 
  "По": 6499, 
  "Богу": 6500, 
  "английского": 6501, 
  "ари@@": 6502, 
  "нуждаются": 6503, 
  "пра@@": 6504, 
  "предназначена": 6505, 
  "владельцев": 6506, 
  "глобализации": 6507, 
  "блок": 6508, 
  "Открытый": 6509, 
  "подразделения": 6510, 
  "50@@": 6511, 
  "прошлой": 6512, 
  "обещ@@": 6513, 
  "Services": 6514, 
  "мана": 6515, 
  "счетов": 6516, 
  "ственного": 6517, 
  "ций": 6518, 
  "участок": 6519, 
  "СПИДом": 6520, 
  "проверка": 6521, 
  "паст@@": 6522, 
  "корпорация": 6523, 
  "образа": 6524, 
  "дискуссии": 6525, 
  "ставит": 6526, 
  "экономии": 6527, 
  "свяжитесь": 6528, 
  "природного": 6529, 
  "экстрем@@": 6530, 
  "than": 6531, 
  "оформ@@": 6532, 
  "уничтож@@": 6533, 
  "мин": 6534, 
  "левой": 6535, 
  "постоянное": 6536, 
  "72": 6537, 
  "факты": 6538, 
  "стер@@": 6539, 
  "оформления": 6540, 
  "полож@@": 6541, 
  "оздоровительный": 6542, 
  "ИН@@": 6543, 
  "свойств": 6544, 
  "прогноз@@": 6545, 
  "обсудить": 6546, 
  "юге": 6547, 
  "сигнал": 6548, 
  "Корея": 6549, 
  "ana": 6550, 
  "наблюд@@": 6551, 
  "мероприятие": 6552, 
  "руб.": 6553, 
  "Вол@@": 6554, 
  "требование": 6555, 
  "co": 6556, 
  "любителей": 6557, 
  "вырос": 6558, 
  "победы": 6559, 
  "анского": 6560, 
  "отсутствии": 6561, 
  "выполняется": 6562, 
  "тенденция": 6563, 
  "реальности": 6564, 
  "David": 6565, 
  "could": 6566, 
  "массы": 6567, 
  "Flash": 6568, 
  "рожд@@": 6569, 
  "Джон": 6570, 
  "отели": 6571, 
  "Сирии": 6572, 
  "прямых": 6573, 
  "острове": 6574, 
  "мощность": 6575, 
  "Компания": 6576, 
  "введение": 6577, 
  "хим@@": 6578, 
  "ве": 6579, 
  "региональной": 6580, 
  "используемые": 6581, 
  "ночи": 6582, 
  "шест@@": 6583, 
  "словно": 6584, 
  "even": 6585, 
  "чиков": 6586, 
  "увидел": 6587, 
  "профессионалов": 6588, 
  "рим@@": 6589, 
  "терроризмом": 6590, 
  "правовых": 6591, 
  "появляются": 6592, 
  "US": 6593, 
  "канала": 6594, 
  "прийти": 6595, 
  "e.@@": 6596, 
  "Outlook": 6597, 
  "ари": 6598, 
  "секретарь": 6599, 
  "ирующих": 6600, 
  "первоначально": 6601, 
  "демократических": 6602, 
  "трафика": 6603, 
  "брос@@": 6604, 
  "признания": 6605, 
  "обрат@@": 6606, 
  "тура": 6607, 
  "-то": 6608, 
  "предмет": 6609, 
  "какого-либо": 6610, 
  "простые": 6611, 
  "30-@@": 6612, 
  "иное": 6613, 
  "актов": 6614, 
  "ad": 6615, 
  "интересам": 6616, 
  "взаимодействие": 6617, 
  "прекратить": 6618, 
  "Норвегии": 6619, 
  "парламента": 6620, 
  "войти": 6621, 
  "человеческой": 6622, 
  "установленных": 6623, 
  "используем": 6624, 
  "текущей": 6625, 
  "предназначены": 6626, 
  "машину": 6627, 
  "атся": 6628, 
  "рисунок": 6629, 
  "разработан": 6630, 
  "оказание": 6631, 
  "используете": 6632, 
  "стрел@@": 6633, 
  "таблице": 6634, 
  "бин@@": 6635, 
  "доклада": 6636, 
  "сек@@": 6637, 
  "сына": 6638, 
  "против@@": 6639, 
  "высокими": 6640, 
  "шем": 6641, 
  "AL@@": 6642, 
  "ion@@": 6643, 
  "цит@@": 6644, 
  "налог": 6645, 
  "утверждения": 6646, 
  "находились": 6647, 
  "терапии": 6648, 
  "случилось": 6649, 
  "потока": 6650, 
  "никах": 6651, 
  "li@@": 6652, 
  "Хар@@": 6653, 
  "ающийся": 6654, 
  "day": 6655, 
  "действующих": 6656, 
  "русского": 6657, 
  "Get": 6658, 
  "сложные": 6659, 
  "salle": 6660, 
  "овано": 6661, 
  "лять": 6662, 
  "полномочия": 6663, 
  "разработаны": 6664, 
  "расследования": 6665, 
  "станций": 6666, 
  "Explorer": 6667, 
  "ированными": 6668, 
  "продавать": 6669, 
  "видите": 6670, 
  "тур": 6671, 
  "продукт@@": 6672, 
  "собирается": 6673, 
  "ющее": 6674, 
  "лав@@": 6675, 
  "создается": 6676, 
  "ден@@": 6677, 
  "плен@@": 6678, 
  "статью": 6679, 
  "many": 6680, 
  "предоставля@@": 6681, 
  "По@@": 6682, 
  "сильнее": 6683, 
  "res": 6684, 
  "рай@@": 6685, 
  "изображ@@": 6686, 
  "ИМ@@": 6687, 
  "ляется": 6688, 
  "явление": 6689, 
  "компьютеры": 6690, 
  "пользуется": 6691, 
  "сход@@": 6692, 
  "bed": 6693, 
  "известны": 6694, 
  "ды@@": 6695, 
  "приобретение": 6696, 
  "продолжительность": 6697, 
  "традиционной": 6698, 
  "государствами": 6699, 
  "валют": 6700, 
  "овского": 6701, 
  "понятие": 6702, 
  "запасов": 6703, 
  "яз@@": 6704, 
  "совместных": 6705, 
  "кость": 6706, 
  "разными": 6707, 
  "ER": 6708, 
  "цифровой": 6709, 
  "What": 6710, 
  "st": 6711, 
  "радио@@": 6712, 
  "кредиты": 6713, 
  "уверенность": 6714, 
  "научной": 6715, 
  "улучшению": 6716, 
  "частным": 6717, 
  "кт@@": 6718, 
  "началось": 6719, 
  "помнить": 6720, 
  "украинских": 6721, 
  "терроризма": 6722, 
  "отделение": 6723, 
  "торговый": 6724, 
  "информационные": 6725, 
  "се@@": 6726, 
  "приним@@": 6727, 
  "ущ@@": 6728, 
  "производителя": 6729, 
  "границей": 6730, 
  "ьи": 6731, 
  "Син@@": 6732, 
  "мигрантов": 6733, 
  "пищи": 6734, 
  "Узбекистана": 6735, 
  "перемещ@@": 6736, 
  "Car@@": 6737, 
  "занятий": 6738, 
  "проводят": 6739, 
  "уголок": 6740, 
  "back": 6741, 
  "ухудш@@": 6742, 
  "наход@@": 6743, 
  "свободное": 6744, 
  "мебель": 6745, 
  "советы": 6746, 
  "производитель": 6747, 
  "желанию": 6748, 
  "миграции": 6749, 
  "дефицита": 6750, 
  "статистики": 6751, 
  "This": 6752, 
  "аре@@": 6753, 
  "уваж@@": 6754, 
  "атель@@": 6755, 
  "рестораны": 6756, 
  "ja": 6757, 
  "Hostelsclub": 6758, 
  "S-@@": 6759, 
  "вис@@": 6760, 
  "включения": 6761, 
  "Фитнес-центр": 6762, 
  "транс@@": 6763, 
  "менеджер": 6764, 
  "ану": 6765, 
  "РК": 6766, 
  "заказчика": 6767, 
  "глазах": 6768, 
  "ужас@@": 6769, 
  "ельного": 6770, 
  "facilities": 6771, 
  "тера": 6772, 
  "противном": 6773, 
  "ожид@@": 6774, 
  "Андрей": 6775, 
  "отличный": 6776, 
  "открытой": 6777, 
  "выход@@": 6778, 
  "вов": 6779, 
  "понятно": 6780, 
  "сон@@": 6781, 
  "значений": 6782, 
  "Кам@@": 6783, 
  "ночью": 6784, 
  "занимаются": 6785, 
  "имое": 6786, 
  "фундамент@@": 6787, 
  "концепция": 6788, 
  "подним@@": 6789, 
  "ши": 6790, 
  "праздник": 6791, 
  "e-mail": 6792, 
  "единственное": 6793, 
  "чет@@": 6794, 
  "пережив@@": 6795, 
  "столице": 6796, 
  "экскурсии": 6797, 
  "гарантий": 6798, 
  "ID": 6799, 
  "распределение": 6800, 
  "устанавливается": 6801, 
  "15-@@": 6802, 
  "единиц": 6803, 
  "единого": 6804, 
  "вера": 6805, 
  "би": 6806, 
  "перенос@@": 6807, 
  "другому": 6808, 
  "ot@@": 6809, 
  ".org": 6810, 
  "маленький": 6811, 
  "2,@@": 6812, 
  "яла": 6813, 
  "считаем": 6814, 
  "ge@@": 6815, 
  "имого": 6816, 
  "энергетической": 6817, 
  "access": 6818, 
  "2.0": 6819, 
  "отв@@": 6820, 
  "нации": 6821, 
  "либер@@": 6822, 
  "Обуви": 6823, 
  "известной": 6824, 
  "убед@@": 6825, 
  "личного": 6826, 
  "тракт@@": 6827, 
  "новому": 6828, 
  "емая": 6829, 
  "ies": 6830, 
  "банковской": 6831, 
  "уроки": 6832, 
  "дев@@": 6833, 
  "получении": 6834, 
  "масштабе": 6835, 
  "мировые": 6836, 
  "устро@@": 6837, 
  "AD@@": 6838, 
  "возможное": 6839, 
  "ur@@": 6840, 
  "единственной": 6841, 
  "достиг@@": 6842, 
  "детских": 6843, 
  "ожидают": 6844, 
  "внимательно": 6845, 
  "позволят": 6846, 
  "Resort": 6847, 
  "юр@@": 6848, 
  "Сан@@": 6849, 
  "обязанностей": 6850, 
  "еса": 6851, 
  "ведется": 6852, 
  "потряс@@": 6853, 
  "рассматрив@@": 6854, 
  "уется": 6855, 
  "крас@@": 6856, 
  "Ав@@": 6857, 
  "хранение": 6858, 
  "DNS": 6859, 
  "Конференции": 6860, 
  "сезона": 6861, 
  "емы": 6862, 
  "удовольствием": 6863, 
  "команде": 6864, 
  "по-видимому": 6865, 
  "энерг@@": 6866, 
  "команд@@": 6867, 
  "анты": 6868, 
  "веб-сайт": 6869, 
  "удобное": 6870, 
  "финансовая": 6871, 
  "стремятся": 6872, 
  "чи": 6873, 
  "ью@@": 6874, 
  "культуре": 6875, 
  "стоимостью": 6876, 
  "bl@@": 6877, 
  "строго": 6878, 
  "остаться": 6879, 
  "утра": 6880, 
  "груз@@": 6881, 
  "постоянной": 6882, 
  "Эл@@": 6883, 
  "двиг@@": 6884, 
  "шими": 6885, 
  "к-@@": 6886, 
  "иного": 6887, 
  "сигнала": 6888, 
  "массового": 6889, 
  "инструментом": 6890, 
  "главные": 6891, 
  "потенциально": 6892, 
  "соответствия": 6893, 
  "ственные": 6894, 
  "ляет": 6895, 
  "станция": 6896, 
  "живущих": 6897, 
  "известного": 6898, 
  "ковой": 6899, 
  "рассказывает": 6900, 
  "навыков": 6901, 
  "технологию": 6902, 
  "подтверждение": 6903, 
  "гипер@@": 6904, 
  "od@@": 6905, 
  "испытаний": 6906, 
  "преимущественно": 6907, 
  "местном": 6908, 
  "процент": 6909, 
  "авшего": 6910, 
  "принимаются": 6911, 
  "after": 6912, 
  "щики": 6913, 
  "яс@@": 6914, 
  "работаем": 6915, 
  "неизбежно": 6916, 
  "емом": 6917, 
  "зан@@": 6918, 
  "видит": 6919, 
  "59": 6920, 
  "железнодорожного": 6921, 
  "самому": 6922, 
  "промышленной": 6923, 
  "иде@@": 6924, 
  "Семейные": 6925, 
  "контракт": 6926, 
  "менеджмента": 6927, 
  "боли": 6928, 
  "практик@@": 6929, 
  "ственное": 6930, 
  "away": 6931, 
  "пришло": 6932, 
  "оплата": 6933, 
  "программах": 6934, 
  "s.@@": 6935, 
  "ich": 6936, 
  "to@@": 6937, 
  "клетки": 6938, 
  "свер@@": 6939, 
  "преимуществ": 6940, 
  "una": 6941, 
  "индекс": 6942, 
  "напоминает": 6943, 
  "people": 6944, 
  "преобразования": 6945, 
  "Bar@@": 6946, 
  "политическое": 6947, 
  "нести": 6948, 
  "границу": 6949, 
  "спад": 6950, 
  "учетной": 6951, 
  "sp@@": 6952, 
  "прор@@": 6953, 
  "обо": 6954, 
  "консультаций": 6955, 
  "нен@@": 6956, 
  "ИТ@@": 6957, 
  "чувств@@": 6958, 
  "Управление": 6959, 
  "принятии": 6960, 
  "метод@@": 6961, 
  "склон@@": 6962, 
  "увеличивается": 6963, 
  "понятия": 6964, 
  "HTML": 6965, 
  "поверхность": 6966, 
  "За": 6967, 
  "жизненно": 6968, 
  "спросил": 6969, 
  "понят@@": 6970, 
  "повышенным": 6971, 
  "ельный": 6972, 
  "рассматривается": 6973, 
  "ивший": 6974, 
  "убедить": 6975, 
  "ИС": 6976, 
  "бывших": 6977, 
  "ельной": 6978, 
  "мы@@": 6979, 
  "располагается": 6980, 
  "расход@@": 6981, 
  "Бал@@": 6982, 
  "верно": 6983, 
  "урок": 6984, 
  "ошиб@@": 6985, 
  "поврежд@@": 6986, 
  "бег@@": 6987, 
  "um@@": 6988, 
  "пы": 6989, 
  "-Р@@": 6990, 
  "граф@@": 6991, 
  "объявил": 6992, 
  "Соглашения": 6993, 
  "военно-@@": 6994, 
  "любит": 6995, 
  "старый": 6996, 
  "слав@@": 6997, 
  "визит": 6998, 
  "ме@@": 6999, 
  "укажите": 7000, 
  "консульт@@": 7001, 
  "За@@": 7002, 
  "напитков": 7003, 
  "сотрудниками": 7004, 
  "делается": 7005, 
  "егося": 7006, 
  "символ": 7007, 
  "еи": 7008, 
  "American": 7009, 
  "цикл": 7010, 
  "выбором": 7011, 
  "яющих": 7012, 
  "сет@@": 7013, 
  "first": 7014, 
  "посещение": 7015, 
  "07": 7016, 
  "ИК": 7017, 
  "вых": 7018, 
  "ациями": 7019, 
  "9,@@": 7020, 
  "настроек": 7021, 
  "Ку@@": 7022, 
  "отвечать": 7023, 
  "63": 7024, 
  "Г.": 7025, 
  "масла": 7026, 
  "невер@@": 7027, 
  "Академии": 7028, 
  "заработ@@": 7029, 
  "современная": 7030, 
  "общественные": 7031, 
  "процентных": 7032, 
  "Рей@@": 7033, 
  "простым": 7034, 
  "пешком": 7035, 
  "говорю": 7036, 
  "ести": 7037, 
  "сал@@": 7038, 
  "поколение": 7039, 
  "online": 7040, 
  "виз@@": 7041, 
  "ковых": 7042, 
  "никак": 7043, 
  "67": 7044, 
  "гал@@": 7045, 
  "емыми": 7046, 
  "исторического": 7047, 
  "категорий": 7048, 
  "наблюдать": 7049, 
  "кова": 7050, 
  "масс@@": 7051, 
  "получаете": 7052, 
  "ялся": 7053, 
  "При": 7054, 
  "назвал": 7055, 
  "попасть": 7056, 
  "баня": 7057, 
  "делом": 7058, 
  "ЕР@@": 7059, 
  "инфраструктуру": 7060, 
  "предполаг@@": 7061, 
  "происходят": 7062, 
  "лении": 7063, 
  "дополнительного": 7064, 
  "коммерческой": 7065, 
  "старой": 7066, 
  "кредитных": 7067, 
  "DJ": 7068, 
  "town": 7069, 
  "включен": 7070, 
  "указанные": 7071, 
  "блока": 7072, 
  "чьи": 7073, 
  "юсь": 7074, 
  "уменьшение": 7075, 
  "остановки": 7076, 
  "игрока": 7077, 
  "Бай@@": 7078, 
  "mo@@": 7079, 
  "осужд@@": 7080, 
  "активность": 7081, 
  "классов": 7082, 
  "iPhone": 7083, 
  "глобальный": 7084, 
  "ограничение": 7085, 
  "яции": 7086, 
  "парламент": 7087, 
  "люкс": 7088, 
  "30@@": 7089, 
  "воздухе": 7090, 
  "объявления": 7091, 
  "ированием": 7092, 
  "нер": 7093, 
  "ne@@": 7094, 
  "фестиваль": 7095, 
  "зы": 7096, 
  "встав@@": 7097, 
  "ственный": 7098, 
  "контролиру@@": 7099, 
  "окружающую": 7100, 
  "подверг@@": 7101, 
  "аудитории": 7102, 
  "утверждение": 7103, 
  "хе": 7104, 
  "воли": 7105, 
  "построения": 7106, 
  "значительную": 7107, 
  "валюте": 7108, 
  "потоков": 7109, 
  "суде": 7110, 
  "соб@@": 7111, 
  "жил": 7112, 
  "несут": 7113, 
  "любому": 7114, 
  "мою": 7115, 
  "66": 7116, 
  "ОТ@@": 7117, 
  "ставку": 7118, 
  "age": 7119, 
  "Каз@@": 7120, 
  "квартир": 7121, 
  "ящей": 7122, 
  "лой": 7123, 
  "Л": 7124, 
  "ИЛИ": 7125, 
  "Да": 7126, 
  "ïåñíè": 7127, 
  "над@@": 7128, 
  "ленный": 7129, 
  "parking": 7130, 
  "Airport": 7131, 
  "транспорт": 7132, 
  "мит@@": 7133, 
  "ялась": 7134, 
  "уры": 7135, 
  "фестиваля": 7136, 
  "город@@": 7137, 
  "ывающей": 7138, 
  "написать": 7139, 
  "ид": 7140, 
  "ecommerce": 7141, 
  "ob@@": 7142, 
  "York": 7143, 
  "официальной": 7144, 
  "ОП@@": 7145, 
  "лены": 7146, 
  "правилами": 7147, 
  "замен@@": 7148, 
  "плот@@": 7149, 
  "стандарт": 7150, 
  "разработана": 7151, 
  "перек@@": 7152, 
  "ект@@": 7153, 
  "40@@": 7154, 
  "счастью": 7155, 
  "переработки": 7156, 
  "развивается": 7157, 
  "еды": 7158, 
  "предшеств@@": 7159, 
  "ава": 7160, 
  "романт@@": 7161, 
  "участник": 7162, 
  "Mon@@": 7163, 
  "направлена": 7164, 
  "замет@@": 7165, 
  "предприятиях": 7166, 
  "вал": 7167, 
  "газета": 7168, 
  "функцион@@": 7169, 
  "ищ@@": 7170, 
  "желает": 7171, 
  "изменении": 7172, 
  "папку": 7173, 
  "технологических": 7174, 
  "профилактики": 7175, 
  "альности": 7176, 
  "зависят": 7177, 
  "местным": 7178, 
  "ант": 7179, 
  "жест@@": 7180, 
  "общение": 7181, 
  "картины": 7182, 
  "IS@@": 7183, 
  "сталкиваются": 7184, 
  "нападения": 7185, 
  "предоставляем": 7186, 
  "игровая": 7187, 
  "фактор": 7188, 
  "2,5": 7189, 
  "строить": 7190, 
  "издания": 7191, 
  "покрытие": 7192, 
  "heart": 7193, 
  "покупке": 7194, 
  "08": 7195, 
  "IN": 7196, 
  "введения": 7197, 
  "стражей": 7198, 
  "проверку": 7199, 
  "окажется": 7200, 
  "-Л@@": 7201, 
  "прочие": 7202, 
  "аренд@@": 7203, 
  "MS": 7204, 
  "жид@@": 7205, 
  "06": 7206, 
  "сдел@@": 7207, 
  "туры": 7208, 
  "делали": 7209, 
  "веб-сайта": 7210, 
  "Южная": 7211, 
  "НЕ": 7212, 
  "оды": 7213, 
  "ичном": 7214, 
  "методом": 7215, 
  "указания": 7216, 
  "Эк@@": 7217, 
  "реальном": 7218, 
  "Санкт-Петербурге": 7219, 
  "Господа": 7220, 
  "корпоративного": 7221, 
  "Like": 7222, 
  "предметом": 7223, 
  "программирования": 7224, 
  "ио": 7225, 
  "шины": 7226, 
  "Александра": 7227, 
  "приглаш@@": 7228, 
  "ология": 7229, 
  "попробуйте": 7230, 
  "апартаментов": 7231, 
  "фото@@": 7232, 
  "вопросе": 7233, 
  "We": 7234, 
  "задания": 7235, 
  "частная": 7236, 
  "надежности": 7237, 
  "официального": 7238, 
  "Международная": 7239, 
  "судебных": 7240, 
  "рос@@": 7241, 
  "клиенту": 7242, 
  "установку": 7243, 
  "масштаб@@": 7244, 
  "емое": 7245, 
  "мастера": 7246, 
  "Center": 7247, 
  "iz@@": 7248, 
  "представля@@": 7249, 
  "гостин@@": 7250, 
  "просим": 7251, 
  "25@@": 7252, 
  "business": 7253, 
  "делаем": 7254, 
  "взял": 7255, 
  "средством": 7256, 
  "американская": 7257, 
  "ря@@": 7258, 
  "уро@@": 7259, 
  "договоров": 7260, 
  "откройте": 7261, 
  "уменьшения": 7262, 
  "загруж@@": 7263, 
  "километров": 7264, 
  "тремя": 7265, 
  "удобный": 7266, 
  "атами": 7267, 
  "атмосфере": 7268, 
  "клиентом": 7269, 
  "обеспечив@@": 7270, 
  "якобы": 7271, 
  "геро@@": 7272, 
  "кредита": 7273, 
  "членам": 7274, 
  "копию": 7275, 
  "конвенции": 7276, 
  "существовать": 7277, 
  "main": 7278, 
  "too": 7279, 
  "банком": 7280, 
  "произ@@": 7281, 
  "тех@@": 7282, 
  "ОН@@": 7283, 
  "маленьких": 7284, 
  "восьми": 7285, 
  "угроза": 7286, 
  "хостелы": 7287, 
  "чем-то": 7288, 
  "последняя": 7289, 
  "собрание": 7290, 
  "Studio": 7291, 
  "удобствами": 7292, 
  "ion": 7293, 
  "мебели": 7294, 
  "покупать": 7295, 
  "звук": 7296, 
  "труд": 7297, 
  "верхней": 7298, 
  "атив@@": 7299, 
  "RO@@": 7300, 
  "нрав@@": 7301, 
  "орных": 7302, 
  "right": 7303, 
  "подробную": 7304, 
  "долгое": 7305, 
  "республике": 7306, 
  "AC@@": 7307, 
  "разв@@": 7308, 
  "ly": 7309, 
  "соблюдение": 7310, 
  "ЕНИЯ": 7311, 
  "внес@@": 7312, 
  "ь-@@": 7313, 
  "сним@@": 7314, 
  "увелич@@": 7315, 
  "редактор": 7316, 
  "Гал@@": 7317, 
  "рам@@": 7318, 
  "десят@@": 7319, 
  "возвращения": 7320, 
  "климат": 7321, 
  "занять": 7322, 
  "internet": 7323, 
  "ологических": 7324, 
  "офиса": 7325, 
  "обратить": 7326, 
  "1990-х": 7327, 
  "вечер": 7328, 
  "инах": 7329, 
  "лению": 7330, 
  "cor@@": 7331, 
  "раскры@@": 7332, 
  "two": 7333, 
  "алист@@": 7334, 
  "инициативе": 7335, 
  "городского": 7336, 
  "пен@@": 7337, 
  "Швеции": 7338, 
  "ile": 7339, 
  "посвящ@@": 7340, 
  "металл@@": 7341, 
  "умер@@": 7342, 
  "правилам": 7343, 
  "Die": 7344, 
  "начался": 7345, 
  "тысячелетия": 7346, 
  "выключ@@": 7347, 
  "применении": 7348, 
  "хар@@": 7349, 
  "выступ@@": 7350, 
  "писал": 7351, 
  "скор@@": 7352, 
  "ищет": 7353, 
  "IT": 7354, 
  "ишь": 7355, 
  "сетевой": 7356, 
  "регистрацию": 7357, 
  "удар@@": 7358, 
  "ихся": 7359, 
  "Париже": 7360, 
  "художников": 7361, 
  "последним": 7362, 
  "пуст@@": 7363, 
  "отображения": 7364, 
  "рассказать": 7365, 
  "th": 7366, 
  "истской": 7367, 
  "споров": 7368, 
  "евич": 7369, 
  "мерт@@": 7370, 
  "студии": 7371, 
  "ленного": 7372, 
  "Мер@@": 7373, 
  "сказано": 7374, 
  "Heart": 7375, 
  "Сал@@": 7376, 
  "ович": 7377, 
  "вход@@": 7378, 
  "ально-@@": 7379, 
  "авшихся": 7380, 
  "задолженности": 7381, 
  "слой": 7382, 
  "Рус@@": 7383, 
  "адресов": 7384, 
  "низкие": 7385, 
  "подтверждения": 7386, 
  "пус@@": 7387, 
  "Street": 7388, 
  "ноги": 7389, 
  "муд@@": 7390, 
  "уровни": 7391, 
  "нанес@@": 7392, 
  "украинского": 7393, 
  "ающем": 7394, 
  "демократия": 7395, 
  "щика": 7396, 
  "поздно": 7397, 
  "смен@@": 7398, 
  "уме": 7399, 
  "цивилизации": 7400, 
  "сокращению": 7401, 
  "виде@@": 7402, 
  "оснащ@@": 7403, 
  "наклад@@": 7404, 
  "комплексе": 7405, 
  "больницы": 7406, 
  "ившие": 7407, 
  "ича": 7408, 
  "СО@@": 7409, 
  "беспоко@@": 7410, 
  "имая": 7411, 
  "скидки": 7412, 
  "Великой": 7413, 
  "ственным": 7414, 
  "утся": 7415, 
  "ированную": 7416, 
  "доллар": 7417, 
  "открытого": 7418, 
  "официальным": 7419, 
  "Лондон": 7420, 
  "дополнительный": 7421, 
  "ST@@": 7422, 
  "гу@@": 7423, 
  "удаление": 7424, 
  "69": 7425, 
  "денежные": 7426, 
  "достигли": 7427, 
  "пасс@@": 7428, 
  "отправ@@": 7429, 
  "истами": 7430, 
  "руб@@": 7431, 
  "наверняка": 7432, 
  "благосостояния": 7433, 
  "реально": 7434, 
  "стандарта": 7435, 
  "эр@@": 7436, 
  "арного": 7437, 
  "городских": 7438, 
  "оказывают": 7439, 
  "лучшего": 7440, 
  "плоским": 7441, 
  "сельских": 7442, 
  "ОД@@": 7443, 
  "праву": 7444, 
  "удастся": 7445, 
  "щ": 7446, 
  "отклон@@": 7447, 
  "ИТ": 7448, 
  "последнюю": 7449, 
  "двигаться": 7450, 
  "IC@@": 7451, 
  "закону": 7452, 
  "обеспечит": 7453, 
  "ситуациях": 7454, 
  "привяз@@": 7455, 
  "представительства": 7456, 
  "0-@@": 7457, 
  "получат": 7458, 
  "обществом": 7459, 
  "Новый": 7460, 
  "eb@@": 7461, 
  "GNU": 7462, 
  "скоростью": 7463, 
  "ивным": 7464, 
  "Государственного": 7465, 
  "душ@@": 7466, 
  "ившийся": 7467, 
  "открыты": 7468, 
  "свидетельствуют": 7469, 
  "находился": 7470, 
  "воспит@@": 7471, 
  "ОЛ@@": 7472, 
  "этапа": 7473, 
  "ЕЦБ": 7474, 
  "ique": 7475, 
  "просмотреть": 7476, 
  "банковского": 7477, 
  "НЕ@@": 7478, 
  "почт@@": 7479, 
  "последующих": 7480, 
  "обед": 7481, 
  "полей": 7482, 
  "IP@@": 7483, 
  "общин": 7484, 
  "открытом": 7485, 
  "подоб@@": 7486, 
  "как-то": 7487, 
  "Baby": 7488, 
  "проверьте": 7489, 
  "ице": 7490, 
  "Тро@@": 7491, 
  "развлечений": 7492, 
  "мусульман": 7493, 
  "собрать": 7494, 
  "61": 7495, 
  "кредитования": 7496, 
  "открыл": 7497, 
  "лим@@": 7498, 
  "функционирования": 7499, 
  "мировым": 7500, 
  "способа": 7501, 
  "A-@@": 7502, 
  "активных": 7503, 
  "ательными": 7504, 
  "ге@@": 7505, 
  "властью": 7506, 
  "средняя": 7507, 
  "предприятии": 7508, 
  "неж@@": 7509, 
  "группами": 7510, 
  "илл@@": 7511, 
  "68": 7512, 
  "земля": 7513, 
  "отказа": 7514, 
  "неправильно": 7515, 
  "пребывание": 7516, 
  "достиг": 7517, 
  "ожив@@": 7518, 
  "современное": 7519, 
  "арные": 7520, 
  "имела": 7521, 
  "сценарий": 7522, 
  "грн": 7523, 
  "минуты": 7524, 
  "ведом@@": 7525, 
  "ville": 7526, 
  "учиться": 7527, 
  "бесплатные": 7528, 
  "книж@@": 7529, 
  "ведение": 7530, 
  "лев@@": 7531, 
  "мысл@@": 7532, 
  "нужды": 7533, 
  "коммуник@@": 7534, 
  "клад@@": 7535, 
  "рассылки": 7536, 
  "ca": 7537, 
  "пятницу": 7538, 
  "bathroom": 7539, 
  "уникальные": 7540, 
  "экономически": 7541, 
  "ирующие": 7542, 
  "значительных": 7543, 
  "ывающий": 7544, 
  "непосредственной": 7545, 
  "really": 7546, 
  "Вьет@@": 7547, 
  "диски": 7548, 
  "атаки": 7549, 
  "обман@@": 7550, 
  "реальных": 7551, 
  "урегулирования": 7552, 
  "изыск@@": 7553, 
  "разрешить": 7554, 
  "теме": 7555, 
  "ованной": 7556, 
  "предлаг@@": 7557, 
  "файле": 7558, 
  "прожив@@": 7559, 
  "компьютерных": 7560, 
  "важнейших": 7561, 
  "ательное": 7562, 
  "силе": 7563, 
  "дорож@@": 7564, 
  "корпуса": 7565, 
  "извест@@": 7566, 
  "индивидуальных": 7567, 
  "личность": 7568, 
  "знаниями": 7569, 
  "уюся": 7570, 
  "central": 7571, 
  "ствах": 7572, 
  "месту": 7573, 
  "выражение": 7574, 
  "случайно": 7575, 
  "изобрет@@": 7576, 
  "дерев@@": 7577, 
  "Данный": 7578, 
  "завер@@": 7579, 
  "вого": 7580, 
  "процессом": 7581, 
  "зависимость": 7582, 
  "скач@@": 7583, 
  "Di@@": 7584, 
  "касс@@": 7585, 
  "очное": 7586, 
  "Òåêñò": 7587, 
  "оружием": 7588, 
  "beautiful": 7589, 
  "зачем": 7590, 
  "развиваться": 7591, 
  "допуст@@": 7592, 
  "прин@@": 7593, 
  "сложной": 7594, 
  "using": 7595, 
  "хочется": 7596, 
  "quip@@": 7597, 
  "рад": 7598, 
  "зимой": 7599, 
  "участника": 7600, 
  "опас@@": 7601, 
  "бюрократ@@": 7602, 
  "заметил": 7603, 
  "ik@@": 7604, 
  "соответствующими": 7605, 
  "айтесь": 7606, 
  "размером": 7607, 
  "веков": 7608, 
  "некоторыми": 7609, 
  "чист@@": 7610, 
  "убийства": 7611, 
  "определять": 7612, 
  "твор@@": 7613, 
  "изменению": 7614, 
  "поддерживается": 7615, 
  "Санкт-Петербурга": 7616, 
  "мобильного": 7617, 
  "весной": 7618, 
  "сии": 7619, 
  "перевоз@@": 7620, 
  "раб@@": 7621, 
  "русские": 7622, 
  "Спа": 7623, 
  "обычной": 7624, 
  "продолжение": 7625, 
  "яд@@": 7626, 
  "ностями": 7627, 
  "нашел": 7628, 
  "чисто": 7629, 
  "ец@@": 7630, 
  "Ре@@": 7631, 
  "языки": 7632, 
  "последующие": 7633, 
  "устанавлив@@": 7634, 
  "ИИ": 7635, 
  "XML": 7636, 
  "конкурсе": 7637, 
  "Святого": 7638, 
  "широкое": 7639, 
  "su@@": 7640, 
  "Что": 7641, 
  "дорога": 7642, 
  "реакция": 7643, 
  "медицины": 7644, 
  "пораж@@": 7645, 
  "price": 7646, 
  "Гол@@": 7647, 
  "публик@@": 7648, 
  "профессиональный": 7649, 
  "Ск@@": 7650, 
  "принят": 7651, 
  "бизнесе": 7652, 
  "From": 7653, 
  "яющие": 7654, 
  "UN@@": 7655, 
  "тепло@@": 7656, 
  "поисках": 7657, 
  "сделала": 7658, 
  "стой@@": 7659, 
  "везде": 7660, 
  "онлайн-@@": 7661, 
  "птиц": 7662, 
  "Общества": 7663, 
  "гро@@": 7664, 
  "точке": 7665, 
  "специф@@": 7666, 
  "per@@": 7667, 
  "историей": 7668, 
  "контакт": 7669, 
  "шагах": 7670, 
  "фонды": 7671, 
  "закрепл@@": 7672, 
  "сознания": 7673, 
  "Win@@": 7674, 
  "ER@@": 7675, 
  "ПРО@@": 7676, 
  "обяз@@": 7677, 
  "примет": 7678, 
  "навсегда": 7679, 
  "bus": 7680, 
  "службе": 7681, 
  "Mobile": 7682, 
  "частях": 7683, 
  "текущих": 7684, 
  "НДС": 7685, 
  "заказов": 7686, 
  "коренных": 7687, 
  "выставок": 7688, 
  "so@@": 7689, 
  "02": 7690, 
  "водных": 7691, 
  "составит": 7692, 
  "цифры": 7693, 
  "пис@@": 7694, 
  "богатые": 7695, 
  "Каб@@": 7696, 
  "индивидуальные": 7697, 
  "Back": 7698, 
  "НО@@": 7699, 
  "вывода": 7700, 
  "80@@": 7701, 
  "посел@@": 7702, 
  "ини": 7703, 
  "йтесь": 7704, 
  "60@@": 7705, 
  "ованного": 7706, 
  "объявила": 7707, 
  "вошли": 7708, 
  "оправ@@": 7709, 
  "ons": 7710, 
  "разрабат@@": 7711, 
  "позволили": 7712, 
  "вечера": 7713, 
  "демонстрирует": 7714, 
  "выводы": 7715, 
  "овский": 7716, 
  "берет": 7717, 
  "конкретной": 7718, 
  "ализм": 7719, 
  "ИК@@": 7720, 
  "долгосрочные": 7721, 
  "пара": 7722, 
  "сокращ@@": 7723, 
  "положить": 7724, 
  "рекламных": 7725, 
  "принадлежат": 7726, 
  "среда": 7727, 
  "ist@@": 7728, 
  "обсужд@@": 7729, 
  "умер": 7730, 
  "партнер": 7731, 
  "вещ@@": 7732, 
  "технический": 7733, 
  "эксплуат@@": 7734, 
  "нал@@": 7735, 
  "кового": 7736, 
  "собственное": 7737, 
  "украш@@": 7738, 
  "ОС@@": 7739, 
  "объединяет": 7740, 
  "бро@@": 7741, 
  "производственные": 7742, 
  "полиция": 7743, 
  "будьте": 7744, 
  "авторы": 7745, 
  "электронные": 7746, 
  "моменты": 7747, 
  "рег@@": 7748, 
  "did": 7749, 
  "арной": 7750, 
  "произвести": 7751, 
  "2015": 7752, 
  "надежность": 7753, 
  "залож@@": 7754, 
  "имеете": 7755, 
  "зр@@": 7756, 
  "EN": 7757, 
  "отлож@@": 7758, 
  "чай@@": 7759, 
  "проектами": 7760, 
  "понял": 7761, 
  "перевозок": 7762, 
  "вещь": 7763, 
  "аки": 7764, 
  "XIX": 7765, 
  "с.": 7766, 
  "маленькие": 7767, 
  "природа": 7768, 
  "вызывают": 7769, 
  "рис": 7770, 
  "Тай@@": 7771, 
  "ge": 7772, 
  "успехом": 7773, 
  "ka": 7774, 
  "Гос@@": 7775, 
  "остро@@": 7776, 
  "ПО@@": 7777, 
  "Service": 7778, 
  "хозяйство": 7779, 
  "присоединиться": 7780, 
  "культурной": 7781, 
  "Open": 7782, 
  "представителя": 7783, 
  "инноваций": 7784, 
  "хорошего": 7785, 
  "век": 7786, 
  "подразумевает": 7787, 
  "мероприятиях": 7788, 
  "перен@@": 7789, 
  "да@@": 7790, 
  "текст@@": 7791, 
  "упаковки": 7792, 
  "заинтересованы": 7793, 
  "SharePoint": 7794, 
  "ённые": 7795, 
  "Государственной": 7796, 
  "экономическом": 7797, 
  "операторов": 7798, 
  "ee": 7799, 
  "ляют": 7800, 
  "санкции": 7801, 
  "максимум": 7802, 
  "ИЯ": 7803, 
  "учеников": 7804, 
  "суток": 7805, 
  "укреплению": 7806, 
  "устанавливает": 7807, 
  "пил@@": 7808, 
  "Пет@@": 7809, 
  "результатах": 7810, 
  "цем": 7811, 
  "пыток": 7812, 
  "церемонии": 7813, 
  "импорт": 7814, 
  "Владимира": 7815, 
  "своё": 7816, 
  "фильмы": 7817, 
  "развед@@": 7818, 
  "контролю": 7819, 
  "продать": 7820, 
  "запасы": 7821, 
  "Всемирный": 7822, 
  "данную": 7823, 
  "заключенных": 7824, 
  "par@@": 7825, 
  "St": 7826, 
  "обеспечением": 7827, 
  "имыми": 7828, 
  "избав@@": 7829, 
  "кредит": 7830, 
  "оккуп@@": 7831, 
  "доказательства": 7832, 
  "АК@@": 7833, 
  "участков": 7834, 
  "путешествия": 7835, 
  "леч@@": 7836, 
  "бог@@": 7837, 
  "повреждения": 7838, 
  "концерт": 7839, 
  "глазами": 7840, 
  "Вашингтон": 7841, 
  "za": 7842, 
  "эстет@@": 7843, 
  "ичную": 7844, 
  "соблюдать": 7845, 
  "завтра": 7846, 
  "химических": 7847, 
  "Тур@@": 7848, 
  "государственными": 7849, 
  "собственно": 7850, 
  "половина": 7851, 
  "Ты": 7852, 
  "энерго@@": 7853, 
  "получается": 7854, 
  "оплату": 7855, 
  "сельскохозяйственных": 7856, 
  "компенсации": 7857, 
  "ающейся": 7858, 
  "стандартных": 7859, 
  "меньшинств": 7860, 
  "сохраняет": 7861, 
  "аемое": 7862, 
  "желающих": 7863, 
  "бой": 7864, 
  "пи@@": 7865, 
  "97": 7866, 
  "наказания": 7867, 
  "nbsp": 7868, 
  "отправки": 7869, 
  "ens": 7870, 
  "готовность": 7871, 
  "рака": 7872, 
  "Adobe": 7873, 
  "нос@@": 7874, 
  "просматривать": 7875, 
  "di@@": 7876, 
  "сотрудничать": 7877, 
  "вые": 7878, 
  "осуществлению": 7879, 
  "веб-сайте": 7880, 
  "орг@@": 7881, 
  "четырех@@": 7882, 
  "SMS": 7883, 
  "примеров": 7884, 
  "уважение": 7885, 
  "владелец": 7886, 
  "компонент": 7887, 
  "клин@@": 7888, 
  "гра@@": 7889, 
  "уются": 7890, 
  "эн": 7891, 
  "web-@@": 7892, 
  "кандидата": 7893, 
  "клавишу": 7894, 
  "рассказ@@": 7895, 
  "возраст": 7896, 
  "{": 7897, 
  "веса": 7898, 
  "тал@@": 7899, 
  "ES": 7900, 
  "зе": 7901, 
  "6.@@": 7902, 
  "где-то": 7903, 
  "лице": 7904, 
  "атор@@": 7905, 
  "проектирования": 7906, 
  "практику": 7907, 
  "ядро": 7908, 
  "моим": 7909, 
  "Баку": 7910, 
  "ательную": 7911, 
  "ившиеся": 7912, 
  "ителям": 7913, 
  "ываем": 7914, 
  "длительного": 7915, 
  "подтверждает": 7916, 
  "курорт": 7917, 
  "принести": 7918, 
  "PDF": 7919, 
  "достижению": 7920, 
  "ts": 7921, 
  "противо@@": 7922, 
  "комфорта": 7923, 
  "сосед@@": 7924, 
  "низкий": 7925, 
  "лаборатории": 7926, 
  "ело": 7927, 
  "видят": 7928, 
  "ностях": 7929, 
  "угодно": 7930, 
  "увеличивает": 7931, 
  "ителю": 7932, 
  "приближ@@": 7933, 
  "смысла": 7934, 
  "менять": 7935, 
  "атором": 7936, 
  "Афганистана": 7937, 
  "исключения": 7938, 
  "информационного": 7939, 
  "командой": 7940, 
  "гармон@@": 7941, 
  "позвол@@": 7942, 
  "Университета": 7943, 
  "HP": 7944, 
  "12.@@": 7945, 
  "пет@@": 7946, 
  "овому": 7947, 
  "приносит": 7948, 
  "сцене": 7949, 
  "Per@@": 7950, 
  "осенью": 7951, 
  "служ@@": 7952, 
  "присутствует": 7953, 
  "театр": 7954, 
  "новобрачных": 7955, 
  "данному": 7956, 
  "проход@@": 7957, 
  "популярность": 7958, 
  "пляж": 7959, 
  "интернете": 7960, 
  "что-нибудь": 7961, 
  "передаче": 7962, 
  "следствие": 7963, 
  "покуп@@": 7964, 
  "аппарата": 7965, 
  "Богом": 7966, 
  "Software": 7967, 
  "альность": 7968, 
  "добавил": 7969, 
  "обнаружения": 7970, 
  "див@@": 7971, 
  "физического": 7972, 
  "mer": 7973, 
  "воскресенье": 7974, 
  "сильные": 7975, 
  "ты@@": 7976, 
  "ino": 7977, 
  "западные": 7978, 
  "носить": 7979, 
  "отриц@@": 7980, 
  "where": 7981, 
  "серия": 7982, 
  "ованы": 7983, 
  "24@@": 7984, 
  "ö@@": 7985, 
  "AS": 7986, 
  "find": 7987, 
  "видимо": 7988, 
  "Ltd": 7989, 
  "привела": 7990, 
  "пе@@": 7991, 
  "эксперимент@@": 7992, 
  "Dis@@": 7993, 
  "ссылка": 7994, 
  "обеспечивая": 7995, 
  "загруз@@": 7996, 
  "гор": 7997, 
  "врачей": 7998, 
  "ряду": 7999, 
  "посмотрите": 8000, 
  "моем": 8001, 
  "стремиться": 8002, 
  "матер@@": 8003, 
  "побед@@": 8004, 
  "": 8005, 
  "иль": 8006, 
  "экологической": 8007, 
  "теория": 8008, 
  "выделить": 8009, 
  "персон@@": 8010, 
  "аппарат": 8011, 
  "Business": 8012, 
  "вернулся": 8013, 
  "оконч@@": 8014, 
  "миссия": 8015, 
  "AT@@": 8016, 
  "ковые": 8017, 
  "расслабл@@": 8018, 
  "ведущий": 8019, 
  "анта": 8020, 
  "оформление": 8021, 
  "постоянных": 8022, 
  "понимает": 8023, 
  "рев@@": 8024, 
  "День": 8025, 
  "Национальный": 8026, 
  "Пре@@": 8027, 
  "10.@@": 8028, 
  "изуч@@": 8029, 
  "помогать": 8030, 
  "ню": 8031, 
  "следить": 8032, 
  "Меж@@": 8033, 
  "комфортабельных": 8034, 
  "end": 8035, 
  "знаком": 8036, 
  "Night": 8037, 
  "возникнуть": 8038, 
  "К.": 8039, 
  "лиц.": 8040, 
  "96": 8041, 
  "консерв@@": 8042, 
  "обработка": 8043, 
  "городу": 8044, 
  "внешние": 8045, 
  "Швейцарии": 8046, 
  "точности": 8047, 
  "насыщ@@": 8048, 
  "бай@@": 8049, 
  "месяцы": 8050, 
  "ул.": 8051, 
  "выгоду": 8052, 
  "сезон": 8053, 
  "третьих": 8054, 
  "максимальной": 8055, 
  "трансформ@@": 8056, 
  "девять": 8057, 
  "ованным": 8058, 
  "емую": 8059, 
  "изоляции": 8060, 
  "заводе": 8061, 
  "очная": 8062, 
  "vi@@": 8063, 
  "количеству": 8064, 
  "пункты": 8065, 
  "русской": 8066, 
  "кин": 8067, 
  "дан@@": 8068, 
  "рабочем": 8069, 
  "устойчивости": 8070, 
  "airport": 8071, 
  "угроз": 8072, 
  "копирования": 8073, 
  "вне@@": 8074, 
  "лучшей": 8075, 
  "обязательство": 8076, 
  "центральный": 8077, 
  "экономическому": 8078, 
  "ex@@": 8079, 
  "образованию": 8080, 
  "овки": 8081, 
  "Азербайджан": 8082, 
  "продав@@": 8083, 
  "лик@@": 8084, 
  "завоев@@": 8085, 
  "исход@@": 8086, 
  "осуществляться": 8087, 
  "пригод@@": 8088, 
  "билеты": 8089, 
  "12-@@": 8090, 
  "делегация": 8091, 
  "устранения": 8092, 
  "успехов": 8093, 
  "рес@@": 8094, 
  "Air": 8095, 
  "эффекта": 8096, 
  "bit": 8097, 
  "соотношение": 8098, 
  "чиновников": 8099, 
  "кем": 8100, 
  "нар@@": 8101, 
  "приходилось": 8102, 
  "бой@@": 8103, 
  "дорогу": 8104, 
  "контента": 8105, 
  "перв@@": 8106, 
  "маркетинга": 8107, 
  "покупку": 8108, 
  "выбросы": 8109, 
  "демонстрации": 8110, 
  "SP@@": 8111, 
  "интеграция": 8112, 
  "аудио": 8113, 
  "формата": 8114, 
  "инами": 8115, 
  "языч@@": 8116, 
  "вправе": 8117, 
  "веру": 8118, 
  "предварительно": 8119, 
  "Сторон": 8120, 
  "демократ@@": 8121, 
  "производством": 8122, 
  "бит": 8123, 
  "возвращение": 8124, 
  "каком": 8125, 
  "ё": 8126, 
  "отключ@@": 8127, 
  "обстоятельств": 8128, 
  "процессу": 8129, 
  "Эн@@": 8130, 
  "остью": 8131, 
  "рах": 8132, 
  "звука": 8133, 
  "диапазон": 8134, 
  "AG": 8135, 
  "инженер@@": 8136, 
  "уступ@@": 8137, 
  "als": 8138, 
  "поставщика": 8139, 
  "Times": 8140, 
  "старого": 8141, 
  "разместить": 8142, 
  "отраслях": 8143, 
  "кредит@@": 8144, 
  "явления": 8145, 
  "яж@@": 8146, 
  "ходить": 8147, 
  "вред": 8148, 
  "НЫЕ": 8149, 
  "интересные": 8150, 
  "океана": 8151, 
  "ьем": 8152, 
  "шансы": 8153, 
  "конч@@": 8154, 
  "человеческих": 8155, 
  "сознание": 8156, 
  "сель@@": 8157, 
  "Звукоизолированные": 8158, 
  "auf": 8159, 
  "Й": 8160, 
  "снять": 8161, 
  "экологических": 8162, 
  "применить": 8163, 
  "май@@": 8164, 
  "Europe": 8165, 
  "тами": 8166, 
  "марк@@": 8167, 
  "очаров@@": 8168, 
  "мирных": 8169, 
  "переключ@@": 8170, 
  "руковод@@": 8171, 
  "прес@@": 8172, 
  "ner": 8173, 
  "обез@@": 8174, 
  "М.@@": 8175, 
  "Хай@@": 8176, 
  "служат": 8177, 
  "господин": 8178, 
  "разнообразных": 8179, 
  "кает": 8180, 
  "старт@@": 8181, 
  "коллектив": 8182, 
  "оборудованы": 8183, 
  "large": 8184, 
  "зуб@@": 8185, 
  "высшей": 8186, 
  "директором": 8187, 
  "слуш@@": 8188, 
  "упрощ@@": 8189, 
  "имущество": 8190, 
  "культуру": 8191, 
  "tr@@": 8192, 
  "особого": 8193, 
  "коль@@": 8194, 
  "семинаров": 8195, 
  "ЕНИЕ": 8196, 
  "поддерж@@": 8197, 
  "Род@@": 8198, 
  "соответствующую": 8199, 
  "поруч@@": 8200, 
  "глад@@": 8201, 
  "влиянием": 8202, 
  "круглый": 8203, 
  "хранить": 8204, 
  "горных": 8205, 
  "опасных": 8206, 
  "офисе": 8207, 
  "создавая": 8208, 
  "сопостав@@": 8209, 
  "случая": 8210, 
  "сетевых": 8211, 
  "брать": 8212, 
  "настройка": 8213, 
  "руководителя": 8214, 
  "солнце": 8215, 
  "сферу": 8216, 
  "Inter@@": 8217, 
  "весел@@": 8218, 
  "дальнейшей": 8219, 
  "анному": 8220, 
  "выводу": 8221, 
  "предлагаемых": 8222, 
  "Good": 8223, 
  "be@@": 8224, 
  "двигателя": 8225, 
  "хот@@": 8226, 
  "участка": 8227, 
  "ительность": 8228, 
  "пр.": 8229, 
  "активной": 8230, 
  "администратора": 8231, 
  "хода": 8232, 
  "операция": 8233, 
  "полезных": 8234, 
  "общаться": 8235, 
  "занимают": 8236, 
  "настоятельно": 8237, 
  "Express": 8238, 
  "ber@@": 8239, 
  "ai": 8240, 
  "Дмитрий": 8241, 
  "овало": 8242, 
  "добавлена": 8243, 
  "ознаком@@": 8244, 
  "пытались": 8245, 
  "ёл": 8246, 
  "признаки": 8247, 
  "правительственных": 8248, 
  "алу": 8249, 
  "неудач@@": 8250, 
  "ееся": 8251, 
  "Le@@": 8252, 
  "совещания": 8253, 
  "СПИД": 8254, 
  "мирного": 8255, 
  "готовности": 8256, 
  "Греция": 8257, 
  "социально-@@": 8258, 
  "привел": 8259, 
  "браузера": 8260, 
  "Молдовы": 8261, 
  "неизбеж@@": 8262, 
  "запуск": 8263, 
  "принципу": 8264, 
  "мотив@@": 8265, 
  "сим@@": 8266, 
  "звон@@": 8267, 
  "годами": 8268, 
  "Польша": 8269, 
  "прит@@": 8270, 
  "науч@@": 8271, 
  "AS@@": 8272, 
  "ово": 8273, 
  "обстановке": 8274, 
  "протеста": 8275, 
  "Ф": 8276, 
  "вниманию": 8277, 
  "вреда": 8278, 
  "pas": 8279, 
  "обработке": 8280, 
  "ровать": 8281, 
  "Media": 8282, 
  "каталога": 8283, 
  "Центрального": 8284, 
  "конкретного": 8285, 
  "предпринять": 8286, 
  "короткий": 8287, 
  "ФРС": 8288, 
  "Детская": 8289, 
  "²": 8290, 
  "Spa": 8291, 
  "food": 8292, 
  "тировать": 8293, 
  "}": 8294, 
  "нагрузки": 8295, 
  "недостатки": 8296, 
  "дор@@": 8297, 
  "блог": 8298, 
  "лот@@": 8299, 
  "инд@@": 8300, 
  "иваться": 8301, 
  "ассоци@@": 8302, 
  "руд@@": 8303, 
  "world": 8304, 
  "Аг@@": 8305, 
  "Египта": 8306, 
  "просмотр": 8307, 
  "Вашу": 8308, 
  "Nero": 8309, 
  "AM@@": 8310, 
  "страхование": 8311, 
  "одерж@@": 8312, 
  "ют@@": 8313, 
  "акты": 8314, 
  "пом": 8315, 
  "субъектов": 8316, 
  "рассмотрим": 8317, 
  "Ам@@": 8318, 
  "уважения": 8319, 
  "най@@": 8320, 
  "недостаток": 8321, 
  "необходимый": 8322, 
  "числу": 8323, 
  "Мат@@": 8324, 
  "живой": 8325, 
  "акт": 8326, 
  "иро@@": 8327, 
  "российским": 8328, 
  "яющий": 8329, 
  "немало": 8330, 
  "детской": 8331, 
  "пары": 8332, 
  "стекла": 8333, 
  "иды": 8334, 
  "зала": 8335, 
  "линию": 8336, 
  "пытался": 8337, 
  "ован": 8338, 
  "Н.@@": 8339, 
  "удается": 8340, 
  "блест@@": 8341, 
  "особые": 8342, 
  "надел@@": 8343, 
  "центральных": 8344, 
  "властями": 8345, 
  "проч@@": 8346, 
  "встречу": 8347, 
  "магнит@@": 8348, 
  "указывают": 8349, 
  "Ираном": 8350, 
  "выразил": 8351, 
  "налогообложения": 8352, 
  "ha": 8353, 
  "признает": 8354, 
  "охватывает": 8355, 
  "П.": 8356, 
  "76": 8357, 
  "участки": 8358, 
  "мир@@": 8359, 
  "Ди@@": 8360, 
  "российская": 8361, 
  "оператора": 8362, 
  "авторов": 8363, 
  "3D": 8364, 
  "третьим": 8365, 
  "важны": 8366, 
  "использовал": 8367, 
  "изучить": 8368, 
  "указано": 8369, 
  "передачу": 8370, 
  "обрабат@@": 8371, 
  "notre": 8372, 
  "передавать": 8373, 
  "планирование": 8374, 
  "побережья": 8375, 
  "ждут": 8376, 
  "люблю": 8377, 
  "один@@": 8378, 
  "Band": 8379, 
  "set": 8380, 
  "restaurants": 8381, 
  "наступ@@": 8382, 
  "комфорт": 8383, 
  "86": 8384, 
  "пользователями": 8385, 
  "напряжения": 8386, 
  "That": 8387, 
  "ичность": 8388, 
  "парламент@@": 8389, 
  "черный": 8390, 
  "комнату": 8391, 
  "защит@@": 8392, 
  "лесов": 8393, 
  "внешним": 8394, 
  "военный": 8395, 
  "ско@@": 8396, 
  "ОР@@": 8397, 
  "шагов": 8398, 
  "белый": 8399, 
  "see": 8400, 
  "привлек@@": 8401, 
  "кр@@": 8402, 
  "приходят": 8403, 
  "считаются": 8404, 
  "заметно": 8405, 
  "браузер": 8406, 
  "pi@@": 8407, 
  "Inc": 8408, 
  "принятых": 8409, 
  "отмеч@@": 8410, 
  "очереди": 8411, 
  "настоящем": 8412, 
  "увлек@@": 8413, 
  "Old": 8414, 
  "ИС@@": 8415, 
  "эффективный": 8416, 
  "оваться": 8417, 
  "процедуру": 8418, 
  "ивную": 8419, 
  "зер@@": 8420, 
  "лу": 8421, 
  "наказ@@": 8422, 
  "головы": 8423, 
  "консуль@@": 8424, 
  "давлением": 8425, 
  "цов": 8426, 
  "77": 8427, 
  "Австрии": 8428, 
  "ованная": 8429, 
  "кож@@": 8430, 
  "фак@@": 8431, 
  "агресс@@": 8432, 
  "районы": 8433, 
  "ент": 8434, 
  "ti@@": 8435, 
  "ї": 8436, 
  "наслаждаться": 8437, 
  "долгосрочных": 8438, 
  "китайских": 8439, 
  "министерства": 8440, 
  "поклон@@": 8441, 
  "деревьев": 8442, 
  "рассматриваются": 8443, 
  "имости": 8444, 
  "Закон": 8445, 
  "Villa": 8446, 
  "помещение": 8447, 
  "ка-@@": 8448, 
  "инг": 8449, 
  "выразить": 8450, 
  "адаптации": 8451, 
  "счету": 8452, 
  "прозрачности": 8453, 
  "Верховного": 8454, 
  "сто": 8455, 
  "юридической": 8456, 
  "предусмотрено": 8457, 
  "освобождения": 8458, 
  "ощущ@@": 8459, 
  "программами": 8460, 
  "рисунке": 8461, 
  "энергетических": 8462, 
  "еля": 8463, 
  "сенс@@": 8464, 
  "доступные": 8465, 
  "объясняет": 8466, 
  "Управления": 8467, 
  "сделаны": 8468, 
  "дра@@": 8469, 
  "реалист@@": 8470, 
  "Интернету": 8471, 
  "аэропорту": 8472, 
  "КА": 8473, 
  "I-@@": 8474, 
  "литературы": 8475, 
  "ошибке": 8476, 
  "отмечается": 8477, 
  "900": 8478, 
  "коммерческие": 8479, 
  "выступил": 8480, 
  "комплект": 8481, 
  "строке": 8482, 
  "надзора": 8483, 
  "вред@@": 8484, 
  "прихода": 8485, 
  "88": 8486, 
  "необходимого": 8487, 
  "сравнении": 8488, 
  "подарок": 8489, 
  "отчасти": 8490, 
  "отдельной": 8491, 
  "народу": 8492, 
  "тек@@": 8493, 
  "заявила": 8494, 
  "уничтожения": 8495, 
  "бронирование": 8496, 
  "маршрут": 8497, 
  "ализма": 8498, 
  "part": 8499, 
  "техническим": 8500, 
  "евро@@": 8501, 
  "ленным": 8502, 
  "King": 8503, 
  "вест@@": 8504, 
  "глобальные": 8505, 
  "приготовления": 8506, 
  "расслабиться": 8507, 
  "винов@@": 8508, 
  "ока": 8509, 
  "лением": 8510, 
  "обычные": 8511, 
  "me@@": 8512, 
  "74": 8513, 
  "лось": 8514, 
  "предусматрив@@": 8515, 
  "прер@@": 8516, 
  "идеальное": 8517, 
  "прош@@": 8518, 
  "попытке": 8519, 
  "спортивных": 8520, 
  "необходимыми": 8521, 
  "опублик@@": 8522, 
  "определены": 8523, 
  "Бог@@": 8524, 
  "sh@@": 8525, 
  "радик@@": 8526, 
  "участию": 8527, 
  "ившего": 8528, 
  "печать": 8529, 
  "ot": 8530, 
  "христиан@@": 8531, 
  "выбор@@": 8532, 
  "нейтр@@": 8533, 
  "Израилем": 8534, 
  "ON": 8535, 
  "сохраняется": 8536, 
  "член@@": 8537, 
  "ИЗ@@": 8538, 
  "03": 8539, 
  "анский": 8540, 
  "заставляет": 8541, 
  "составили": 8542, 
  "сертификации": 8543, 
  "достигает": 8544, 
  "J": 8545, 
  "ывались": 8546, 
  "золото": 8547, 
  "присутствия": 8548, 
  "посещ@@": 8549, 
  "оборон@@": 8550, 
  "глобальном": 8551, 
  "71": 8552, 
  "севере": 8553, 
  "учреждениях": 8554, 
  "Sp@@": 8555, 
  "очным": 8556, 
  "аро@@": 8557, 
  "San": 8558, 
  "мог@@": 8559, 
  "способствуют": 8560, 
  "известным": 8561, 
  "населением": 8562, 
  "рам": 8563, 
  "искусств": 8564, 
  "трат@@": 8565, 
  "электронный": 8566, 
  "временно": 8567, 
  "aus": 8568, 
  "международную": 8569, 
  "наука": 8570, 
  "соответствующее": 8571, 
  "территория": 8572, 
  "сильной": 8573, 
  "para": 8574, 
  "Пешие": 8575, 
  "AR@@": 8576, 
  "обработ@@": 8577, 
  "нынешнего": 8578, 
  "walking": 8579, 
  "располаг@@": 8580, 
  "эпоху": 8581, 
  "школах": 8582, 
  "судебного": 8583, 
  "зон": 8584, 
  "перемещения": 8585, 
  "PHP": 8586, 
  "музыкальных": 8587, 
  "ивы": 8588, 
  "входящих": 8589, 
  "участвует": 8590, 
  "сть": 8591, 
  "критики": 8592, 
  "ляются": 8593, 
  "философ@@": 8594, 
  "IBM": 8595, 
  "Ad@@": 8596, 
  "Вал@@": 8597, 
  "нав@@": 8598, 
  "декор@@": 8599, 
  "ыва@@": 8600, 
  "подготовить": 8601, 
  "зону": 8602, 
  "CO@@": 8603, 
  "национальными": 8604, 
  "Royal": 8605, 
  "налоговых": 8606, 
  "кондиционер": 8607, 
  "автоматизации": 8608, 
  "op@@": 8609, 
  "установление": 8610, 
  "спокойно": 8611, 
  "небольшая": 8612, 
  "Bank": 8613, 
  "телефоны": 8614, 
  "пок@@": 8615, 
  "спасти": 8616, 
  "особых": 8617, 
  "Де@@": 8618, 
  "вижу": 8619, 
  "формой": 8620, 
  "учрежд@@": 8621, 
  "ащ@@": 8622, 
  "Directory": 8623, 
  "подобным": 8624, 
  "пик@@": 8625, 
  "образовательных": 8626, 
  "Management": 8627, 
  "ano": 8628, 
  "Ник@@": 8629, 
  "специализированных": 8630, 
  "безупреч@@": 8631, 
  "since": 8632, 
  "проведены": 8633, 
  "Z": 8634, 
  "разработок": 8635, 
  "заметить": 8636, 
  "ade": 8637, 
  "ленное": 8638, 
  "желез@@": 8639, 
  "ени": 8640, 
  "кухней": 8641, 
  "подходят": 8642, 
  "Вин@@": 8643, 
  "воплощ@@": 8644, 
  "сооружений": 8645, 
  "созданные": 8646, 
  "проводиться": 8647, 
  "идеолог@@": 8648, 
  "наст@@": 8649, 
  "мечты": 8650, 
  "сона": 8651, 
  "украинской": 8652, 
  "пополн@@": 8653, 
  "предоставляемых": 8654, 
  "инов": 8655, 
  "голод@@": 8656, 
  "рисками": 8657, 
  "пожалуй": 8658, 
  "смогла": 8659, 
  "50-@@": 8660, 
  "делая": 8661, 
  "сервером": 8662, 
  "произведений": 8663, 
  "System": 8664, 
  "огонь": 8665, 
  "семью": 8666, 
  "Ассамблеи": 8667, 
  "era": 8668, 
  "озеро": 8669, 
  "телевидения": 8670, 
  "достижений": 8671, 
  "существу": 8672, 
  "лиценз@@": 8673, 
  "месторождений": 8674, 
  "имися": 8675, 
  "крупным": 8676, 
  "Украину": 8677, 
  "прошлое": 8678, 
  "общественное": 8679, 
  "думают": 8680, 
  "ru@@": 8681, 
  "Fl@@": 8682, 
  "реформ@@": 8683, 
  "лицу": 8684, 
  "минуту": 8685, 
  "X-@@": 8686, 
  "Михаил": 8687, 
  "ресурсам": 8688, 
  "равенства": 8689, 
  "заполнить": 8690, 
  "модулей": 8691, 
  "ули": 8692, 
  "продуктами": 8693, 
  "поколений": 8694, 
  "крит@@": 8695, 
  "судебной": 8696, 
  "еки": 8697, 
  "цин@@": 8698, 
  "справа": 8699, 
  "каталоге": 8700, 
  "обнаружили": 8701, 
  "золота": 8702, 
  "находящиеся": 8703, 
  "длина": 8704, 
  "нередко": 8705, 
  "up@@": 8706, 
  "services": 8707, 
  "заповед@@": 8708, 
  "мобильной": 8709, 
  "укрепить": 8710, 
  "характеристик": 8711, 
  "дольше": 8712, 
  "180": 8713, 
  "простран@@": 8714, 
  "особенностей": 8715, 
  "ввод@@": 8716, 
  "организм": 8717, 
  "отдельным": 8718, 
  "итоги": 8719, 
  "НЫХ": 8720, 
  "культурные": 8721, 
  "утро": 8722, 
  "ентов": 8723, 
  "Организация": 8724, 
  "региональном": 8725, 
  "жу": 8726, 
  "слушать": 8727, 
  "Лу@@": 8728, 
  "границе": 8729, 
  "ёр@@": 8730, 
  "ящим": 8731, 
  "макро@@": 8732, 
  "сроком": 8733, 
  "аспектов": 8734, 
  "численности": 8735, 
  "обнаружить": 8736, 
  "командной": 8737, 
  "ноч@@": 8738, 
  "купл@@": 8739, 
  "половину": 8740, 
  "деревни": 8741, 
  "делегации": 8742, 
  "библиотека": 8743, 
  "ke": 8744, 
  "ответов": 8745, 
  "болезнь": 8746, 
  "кать": 8747, 
  "eg@@": 8748, 
  "чиком": 8749, 
  "контракта": 8750, 
  "вышли": 8751, 
  "ающаяся": 8752, 
  "мышления": 8753, 
  "объемом": 8754, 
  "очищ@@": 8755, 
  "ийского": 8756, 
  "ута": 8757, 
  "необ@@": 8758, 
  "наш@@": 8759, 
  "создано": 8760, 
  "прекрасным": 8761, 
  "гар@@": 8762, 
  "китайские": 8763, 
  "судна": 8764, 
  "любят": 8765, 
  "next": 8766, 
  "перев@@": 8767, 
  "десятилетие": 8768, 
  "Сувенирный": 8769, 
  "советской": 8770, 
  "шар@@": 8771, 
  "Киева": 8772, 
  "овской": 8773, 
  "ремонта": 8774, 
  "научиться": 8775, 
  "ми@@": 8776, 
  "пользование": 8777, 
  "ISA": 8778, 
  "ственная": 8779, 
  "вышла": 8780, 
  "гарантиров@@": 8781, 
  "лад@@": 8782, 
  "включена": 8783, 
  "надежду": 8784, 
  "иными": 8785, 
  "веб": 8786, 
  "выполнены": 8787, 
  "what": 8788, 
  "поиске": 8789, 
  "сильным": 8790, 
  "развер@@": 8791, 
  "гражданам": 8792, 
  "специализируется": 8793, 
  "проведена": 8794, 
  "ленной": 8795, 
  "исторические": 8796, 
  "сопротивление": 8797, 
  "â": 8798, 
  "Version": 8799, 
  "накоп@@": 8800, 
  "осуществ@@": 8801, 
  "имость": 8802, 
  "важными": 8803, 
  "прямые": 8804, 
  "яния": 8805, 
  "кош@@": 8806, 
  "ничто": 8807, 
  "способами": 8808, 
  "much": 8809, 
  "загад@@": 8810, 
  "российском": 8811, 
  "сквозь": 8812, 
  "двум": 8813, 
  "самолетов": 8814, 
  "расследование": 8815, 
  "вала": 8816, 
  "прогноз": 8817, 
  "административных": 8818, 
  "пищевых": 8819, 
  "эль": 8820, 
  "услугу": 8821, 
  "предположительно": 8822, 
  "драмат@@": 8823, 
  "ленная": 8824, 
  "Том@@": 8825, 
  "ВИ@@": 8826, 
  "рассматриваться": 8827, 
  "физические": 8828, 
  "закрыть": 8829, 
  "ателю": 8830, 
  "находясь": 8831, 
  "дер": 8832, 
  "меняется": 8833, 
  "енностью": 8834, 
  "участвуют": 8835, 
  "подразделений": 8836, 
  "кровь": 8837, 
  "обслужив@@": 8838, 
  "уйти": 8839, 
  "думал": 8840, 
  "туристических": 8841, 
  "стоять": 8842, 
  "инициатив": 8843, 
  "прочего": 8844, 
  "мах": 8845, 
  "ируйте": 8846, 
  "вним@@": 8847, 
  "Am@@": 8848, 
  "Мари@@": 8849, 
  "обращайтесь": 8850, 
  "врач": 8851, 
  "нение": 8852, 
  "ниц": 8853, 
  "Active": 8854, 
  "ice": 8855, 
  "Сан-@@": 8856, 
  "большом": 8857, 
  "lo": 8858, 
  "численность": 8859, 
  "выбрали": 8860, 
  "заявили": 8861, 
  "правосудия": 8862, 
  "вс@@": 8863, 
  "познакомиться": 8864, 
  "мастер": 8865, 
  "Пал@@": 8866, 
  "академии": 8867, 
  "Испания": 8868, 
  "рукой": 8869, 
  "произойти": 8870, 
  "бесплатным": 8871, 
  "президентских": 8872, 
  "списки": 8873, 
  "сотрудник": 8874, 
  "магазинах": 8875, 
  "мик@@": 8876, 
  "ta@@": 8877, 
  "религиозные": 8878, 
  "чайник": 8879, 
  "предсказ@@": 8880, 
  "атомной": 8881, 
  "удел@@": 8882, 
  "расширению": 8883, 
  "принципа": 8884, 
  "хо@@": 8885, 
  "чай": 8886, 
  "Куб@@": 8887, 
  "уход": 8888, 
  "oc@@": 8889, 
  "постоянный": 8890, 
  "пришла": 8891, 
  "ённый": 8892, 
  "конфликты": 8893, 
  "игра@@": 8894, 
  "заново": 8895, 
  "регулирование": 8896, 
  "обращении": 8897, 
  "Уч@@": 8898, 
  "национальная": 8899, 
  "вок@@": 8900, 
  "создав@@": 8901, 
  "von": 8902, 
  "большинством": 8903, 
  "прямого": 8904, 
  "Q": 8905, 
  "неприят@@": 8906, 
  "Ю": 8907, 
  "участником": 8908, 
  "мощностью": 8909, 
  "изменениями": 8910, 
  "инге": 8911, 
  "объектив@@": 8912, 
  "аду": 8913, 
  "ственных": 8914, 
  "иан@@": 8915, 
  "алами": 8916, 
  "сей": 8917, 
  "народного": 8918, 
  "Пот@@": 8919, 
  "make": 8920, 
  "чистый": 8921, 
  "вино": 8922, 
  "кер@@": 8923, 
  "звучит": 8924, 
  "сильный": 8925, 
  "политическими": 8926, 
  "ывала": 8927, 
  "вмешательство": 8928, 
  "рыбы": 8929, 
  "вали": 8930, 
  "городом": 8931, 
  "Par@@": 8932, 
  "Египет": 8933, 
  "применяться": 8934, 
  "прочитать": 8935, 
  "ове": 8936, 
  "теннис": 8937, 
  "work": 8938, 
  "выш@@": 8939, 
  "05": 8940, 
  "тока": 8941, 
  "å@@": 8942, 
  "слоя": 8943, 
  "брат": 8944, 
  "Рима": 8945, 
  "авшей": 8946, 
  "-L@@": 8947, 
  "ующий": 8948, 
  "заняться": 8949, 
  "предприятиями": 8950, 
  "pl@@": 8951, 
  "убежища": 8952, 
  "обновить": 8953, 
  "ощут@@": 8954, 
  "использов@@": 8955, 
  "специалист": 8956, 
  "креп@@": 8957, 
  "Западе": 8958, 
  "еств@@": 8959, 
  "жены": 8960, 
  "рисков@@": 8961, 
  "учебные": 8962, 
  "демократической": 8963, 
  "картину": 8964, 
  "возможна": 8965, 
  "спорт": 8966, 
  "трав@@": 8967, 
  "Комиссия": 8968, 
  "тиров@@": 8969, 
  "ситуаций": 8970, 
  "аяся": 8971, 
  "лидерами": 8972, 
  "волшеб@@": 8973, 
  "тестирование": 8974, 
  "комфортабельными": 8975, 
  "справоч@@": 8976, 
  "морского": 8977, 
  "свят@@": 8978, 
  "слоев": 8979, 
  "ийской": 8980, 
  "передав@@": 8981, 
  "начнет": 8982, 
  "революция": 8983, 
  "ону": 8984, 
  "приоритетов": 8985, 
  "ak@@": 8986, 
  "событиях": 8987, 
  "удостовер@@": 8988, 
  "кн@@": 8989, 
  "волны": 8990, 
  "Ас@@": 8991, 
  "ł@@": 8992, 
  "внезапно": 8993, 
  "выходят": 8994, 
  "ton": 8995, 
  "ствует": 8996, 
  "изацию": 8997, 
  "переход@@": 8998, 
  "храм": 8999, 
  "учреждениями": 9000, 
  "ill@@": 9001, 
  "возглавля@@": 9002, 
  "металла": 9003, 
  "специальное": 9004, 
  "известна": 9005, 
  "ну@@": 9006, 
  "иза": 9007, 
  "Big": 9008, 
  "SC@@": 9009, 
  "волосы": 9010, 
  "народы": 9011, 
  "способ@@": 9012, 
  "облегч@@": 9013, 
  "свидетель@@": 9014, 
  "программных": 9015, 
  "миним@@": 9016, 
  "ado": 9017, 
  "Хол@@": 9018, 
  "применению": 9019, 
  "искус@@": 9020, 
  "выглядеть": 9021, 
  "URL": 9022, 
  "звонки": 9023, 
  "реальный": 9024, 
  "zu": 9025, 
  "принимали": 9026, 
  "78": 9027, 
  "коллектив@@": 9028, 
  "надеяться": 9029, 
  "рецеп@@": 9030, 
  "сдержив@@": 9031, 
  "праве": 9032, 
  "аним@@": 9033, 
  "назв@@": 9034, 
  "Visual": 9035, 
  "нищеты": 9036, 
  "запрет": 9037, 
  "предыдущие": 9038, 
  "ph@@": 9039, 
  "государственном": 9040, 
  "знаки": 9041, 
  "высших": 9042, 
  "Майкрософт": 9043, 
  "стратегического": 9044, 
  "местный": 9045, 
  "самолет": 9046, 
  "мобильный": 9047, 
  "кус@@": 9048, 
  "и.@@": 9049, 
  "нижней": 9050, 
  "выраз@@": 9051, 
  "Word": 9052, 
  "пациента": 9053, 
  "доказать": 9054, 
  "Access": 9055, 
  "усиления": 9056, 
  "регионы": 9057, 
  "возвращается": 9058, 
  "Girl": 9059, 
  "финансовыми": 9060, 
  "сторонников": 9061, 
  "выполните": 9062, 
  "объясняется": 9063, 
  "ard": 9064, 
  "Суд": 9065, 
  "какими": 9066, 
  "Bel@@": 9067, 
  "топл@@": 9068, 
  "судя": 9069, 
  "выд@@": 9070, 
  "ere": 9071, 
  "атак@@": 9072, 
  "асс@@": 9073, 
  "приводят": 9074, 
  "Бор@@": 9075, 
  "добавления": 9076, 
  "Виктор": 9077, 
  "73": 9078, 
  "требовать": 9079, 
  "восточной": 9080, 
  "ii": 9081, 
  "делал": 9082, 
  "подъем@@": 9083, 
  "расчета": 9084, 
  "ована": 9085, 
  "вып@@": 9086, 
  "votes": 9087, 
  "ичности": 9088, 
  "цивилиз@@": 9089, 
  "напряжение": 9090, 
  "назначение": 9091, 
  "VI@@": 9092, 
  "существующей": 9093, 
  "ier": 9094, 
  "солнца": 9095, 
  "проблемах": 9096, 
  "сомнений": 9097, 
  "точ@@": 9098, 
  "влад@@": 9099, 
  "потребует": 9100, 
  "государств-членов": 9101, 
  "созданием": 9102, 
  "варианта": 9103, 
  "постанов@@": 9104, 
  "ty": 9105, 
  "делового": 9106, 
  "мист@@": 9107, 
  "объектом": 9108, 
  "квартиру": 9109, 
  "уточ@@": 9110, 
  "внуш@@": 9111, 
  "Договора": 9112, 
  "взгляды": 9113, 
  "Бразилия": 9114, 
  "сотен": 9115, 
  "передает": 9116, 
  "Тар@@": 9117, 
  "Web@@": 9118, 
  "ограничить": 9119, 
  "RA@@": 9120, 
  "нах": 9121, 
  "Рай@@": 9122, 
  "мелких": 9123, 
  "учет": 9124, 
  "сопротивления": 9125, 
  "МК@@": 9126, 
  "комнат": 9127, 
  "la@@": 9128, 
  "живых": 9129, 
  "рыб@@": 9130, 
  "деловые": 9131, 
  "очков": 9132, 
  "--@@": 9133, 
  "прик@@": 9134, 
  "озабоченность": 9135, 
  "конкурентоспособности": 9136, 
  "ывание": 9137, 
  "кров@@": 9138, 
  "Северная": 9139, 
  "сравнительно": 9140, 
  "sc@@": 9141, 
  "Восток": 9142, 
  "ционные": 9143, 
  "ещ@@": 9144, 
  "he@@": 9145, 
  "корпоративной": 9146, 
  "заслуж@@": 9147, 
  "остался": 9148, 
  "приостанов@@": 9149, 
  "посред@@": 9150, 
  "потребностям": 9151, 
  "Sun": 9152, 
  "ванна": 9153, 
  "яйте": 9154, 
  "избавиться": 9155, 
  "хорошую": 9156, 
  "коктейль": 9157, 
  "тес@@": 9158, 
  "ящ@@": 9159, 
  "дана": 9160, 
  "ьев": 9161, 
  "загрязнения": 9162, 
  "Буд@@": 9163, 
  "отличное": 9164, 
  "департамента": 9165, 
  "целевой": 9166, 
  "мест@@": 9167, 
  "практ@@": 9168, 
  "ey": 9169, 
  "зависеть": 9170, 
  "оптимиз@@": 9171, 
  "охлаждения": 9172, 
  "окончании": 9173, 
  "имело": 9174, 
  "избегать": 9175, 
  "Бак@@": 9176, 
  "окончательно": 9177, 
  "способна": 9178, 
  "расчет@@": 9179, 
  "исторической": 9180, 
  "орной": 9181, 
  "уголовного": 9182, 
  "отвеч@@": 9183, 
  "исчерп@@": 9184, 
  "based": 9185, 
  "ациях": 9186, 
  "затрон@@": 9187, 
  "ВЫ@@": 9188, 
  "че": 9189, 
  "слад@@": 9190, 
  "Советом": 9191, 
  "авиации": 9192, 
  "and@@": 9193, 
  "условием": 9194, 
  "отдельный": 9195, 
  "аков": 9196, 
  "антов": 9197, 
  "пожелания": 9198, 
  "nicht": 9199, 
  "субботу": 9200, 
  "вания": 9201, 
  "свидетельство": 9202, 
  "замок": 9203, 
  "Free": 9204, 
  "курсе": 9205, 
  "Генеральный": 9206, 
  "сыграть": 9207, 
  "заявок": 9208, 
  "процесс@@": 9209, 
  "владельца": 9210, 
  "связанной": 9211, 
  "ресурс": 9212, 
  "полагают": 9213, 
  "достижении": 9214, 
  "одежду": 9215, 
  "кампания": 9216, 
  "гов@@": 9217, 
  "потерь": 9218, 
  "Шар@@": 9219, 
  "оказанию": 9220, 
  "зон@@": 9221, 
  "международному": 9222, 
  "значительная": 9223, 
  "атом@@": 9224, 
  "попытаться": 9225, 
  "нажать": 9226, 
  "иннов@@": 9227, 
  "92": 9228, 
  "ицей": 9229, 
  "сделан": 9230, 
  "образовании": 9231, 
  "повышает": 9232, 
  "системат@@": 9233, 
  "нел@@": 9234, 
  "приглашает": 9235, 
  "ницей": 9236, 
  "НОЙ": 9237, 
  "Bo@@": 9238, 
  "Вар@@": 9239, 
  "ante": 9240, 
  "11.@@": 9241, 
  "переводы": 9242, 
  "ируем": 9243, 
  "-1": 9244, 
  "обстоятельства": 9245, 
  "рол@@": 9246, 
  "учред@@": 9247, 
  "Бюро": 9248, 
  "лишения": 9249, 
  "асе": 9250, 
  "доступности": 9251, 
  "ОК": 9252, 
  "мент@@": 9253, 
  "рабочая": 9254, 
  "вращ@@": 9255, 
  "иках": 9256, 
  "рассматривает": 9257, 
  "замены": 9258, 
  "ола": 9259, 
  "удовлетворение": 9260, 
  "перем@@": 9261, 
  "подобный": 9262, 
  "оплате": 9263, 
  "носят": 9264, 
  "дерево": 9265, 
  "освобод@@": 9266, 
  "свидетельства": 9267, 
  "французский": 9268, 
  "чиновники": 9269, 
  "накануне": 9270, 
  "чика": 9271, 
  "быстрое": 9272, 
  "художника": 9273, 
  "tout": 9274, 
  "шь": 9275, 
  "невид@@": 9276, 
  "провозглаш@@": 9277, 
  "локальной": 9278, 
  "т-@@": 9279, 
  "отправля@@": 9280, 
  "ликвид@@": 9281, 
  "предпринимательства": 9282, 
  "жилых": 9283, 
  "высоте": 9284, 
  "употребл@@": 9285, 
  "операционных": 9286, 
  "имую": 9287, 
  "ивными": 9288, 
  "приход@@": 9289, 
  "Ян@@": 9290, 
  "конституции": 9291, 
  "фил@@": 9292, 
  "средствах": 9293, 
  "огромной": 9294, 
  "Азербайджане": 9295, 
  "такси": 9296, 
  "нит@@": 9297, 
  "сталь": 9298, 
  "Пред@@": 9299, 
  "Bl@@": 9300, 
  "изменением": 9301, 
  "аемыми": 9302, 
  "исторический": 9303, 
  "стандартами": 9304, 
  "Ирландии": 9305, 
  "поправки": 9306, 
  "прот@@": 9307, 
  "93": 9308, 
  "параллельно": 9309, 
  "ada": 9310, 
  "подходы": 9311, 
  "органом": 9312, 
  "соединений": 9313, 
  "ire": 9314, 
  "отвечают": 9315, 
  "исполнении": 9316, 
  "широким": 9317, 
  "возникли": 9318, 
  "скрип@@": 9319, 
  "ek@@": 9320, 
  "искрен@@": 9321, 
  "произвед@@": 9322, 
  "яло": 9323, 
  "ослабл@@": 9324, 
  "поступления": 9325, 
  "мами": 9326, 
  "организациях": 9327, 
  "Лукашенко": 9328, 
  "поляр@@": 9329, 
  "по-настоящему": 9330, 
  "ata": 9331, 
  "подчеркивает": 9332, 
  "White": 9333, 
  "ek": 9334, 
  "отдал@@": 9335, 
  "истины": 9336, 
  "7.@@": 9337, 
  "сред@@": 9338, 
  "иностранным": 9339, 
  "женщинам": 9340, 
  "услов@@": 9341, 
  "посетители": 9342, 
  "зонах": 9343, 
  "шума": 9344, 
  "поделиться": 9345, 
  "теле@@": 9346, 
  "окружении": 9347, 
  "угл@@": 9348, 
  "ствам": 9349, 
  "добавлен": 9350, 
  "сильное": 9351, 
  "излож@@": 9352, 
  "после@@": 9353, 
  "сторонники": 9354, 
  "Земле": 9355, 
  "вынес@@": 9356, 
  "C.": 9357, 
  "валютного": 9358, 
  "верить": 9359, 
  "масштаба": 9360, 
  "обслуживанию": 9361, 
  "боевых": 9362, 
  "псих@@": 9363, 
  "реклама": 9364, 
  "Ко@@": 9365, 
  "US@@": 9366, 
  "модуля": 9367, 
  "страхов@@": 9368, 
  "клуб@@": 9369, 
  "разрыв": 9370, 
  "Mor@@": 9371, 
  "имом": 9372, 
  "предположить": 9373, 
  "прият@@": 9374, 
  "армия": 9375, 
  "зная": 9376, 
  "провед@@": 9377, 
  "н.": 9378, 
  "подать": 9379, 
  "растут": 9380, 
  "вруч@@": 9381, 
  "Кл@@": 9382, 
  "гот@@": 9383, 
  "Пра@@": 9384, 
  "350": 9385, 
  "авшим": 9386, 
  "коллекция": 9387, 
  "достигла": 9388, 
  "женщинами": 9389, 
  "27@@": 9390, 
  "насел@@": 9391, 
  "EL@@": 9392, 
  "ционный": 9393, 
  "ein": 9394, 
  "his": 9395, 
  "двор@@": 9396, 
  "столом": 9397, 
  "менеджеров": 9398, 
  "серьезной": 9399, 
  "Man@@": 9400, 
  "IC": 9401, 
  "установленные": 9402, 
  "82": 9403, 
  "Са@@": 9404, 
  "длиной": 9405, 
  "пес@@": 9406, 
  "глобальное": 9407, 
  "истских": 9408, 
  "всеобщего": 9409, 
  "предназнач@@": 9410, 
  "IM@@": 9411, 
  "within": 9412, 
  "au@@": 9413, 
  "индивидуальный": 9414, 
  "вов@@": 9415, 
  "натур@@": 9416, 
  "достигнуть": 9417, 
  "we@@": 9418, 
  "производственной": 9419, 
  "содерж@@": 9420, 
  "ион": 9421, 
  "воспользуйтесь": 9422, 
  "дес@@": 9423, 
  "шум@@": 9424, 
  "Firefox": 9425, 
  "оса": 9426, 
  "do@@": 9427, 
  "всякий": 9428, 
  "distance": 9429, 
  "хороших": 9430, 
  "приведены": 9431, 
  "й-@@": 9432, 
  "информационно-@@": 9433, 
  "моему": 9434, 
  "потер@@": 9435, 
  "историческом": 9436, 
  "GmbH": 9437, 
  "АЭС": 9438, 
  "ийский": 9439, 
  "center": 9440, 
  "реестра": 9441, 
  "Николай": 9442, 
  "3,@@": 9443, 
  "И.@@": 9444, 
  "металлов": 9445, 
  "пунктом": 9446, 
  "прод@@": 9447, 
  "объявл@@": 9448, 
  "терм@@": 9449, 
  "авторитар@@": 9450, 
  "Пакистана": 9451, 
  "направлениям": 9452, 
  "воздушных": 9453, 
  "господ@@": 9454, 
  "лам@@": 9455, 
  "встречаются": 9456, 
  "защищены": 9457, 
  "защитой": 9458, 
  "лась": 9459, 
  "черты": 9460, 
  "медицинские": 9461, 
  "элит@@": 9462, 
  "жей": 9463, 
  "ant@@": 9464, 
  "миро@@": 9465, 
  "АС@@": 9466, 
  "просьбой": 9467, 
  "спасения": 9468, 
  "предупреждение": 9469, 
  "массаж": 9470, 
  "04": 9471, 
  "вели": 9472, 
  "Рад@@": 9473, 
  "бат@@": 9474, 
  "Христос": 9475, 
  "Нидерланды": 9476, 
  "автор@@": 9477, 
  "сочет@@": 9478, 
  "ентом": 9479, 
  "постав@@": 9480, 
  "содержатся": 9481, 
  "тран@@": 9482, 
  "оригин@@": 9483, 
  "дал@@": 9484, 
  "Баш@@": 9485, 
  "технологиям": 9486, 
  "автоматического": 9487, 
  "древних": 9488, 
  "Пл@@": 9489, 
  "пош@@": 9490, 
  "pro@@": 9491, 
  "классе": 9492, 
  "важности": 9493, 
  "специальности": 9494, 
  "закуп@@": 9495, 
  "периодически": 9496, 
  "определении": 9497, 
  "слыш@@": 9498, 
  "орные": 9499, 
  "годовой": 9500, 
  "период@@": 9501, 
  "perfect": 9502, 
  "совершить": 9503, 
  "продолжали": 9504, 
  "кризисом": 9505, 
  "широкие": 9506, 
  "a.@@": 9507, 
  "сед@@": 9508, 
  "Москву": 9509, 
  "аренда": 9510, 
  "освобожд@@": 9511, 
  "успехи": 9512, 
  "Star": 9513, 
  "издержки": 9514, 
  "зд@@": 9515, 
  "ату": 9516, 
  "аналитики": 9517, 
  "юридические": 9518, 
  "документ@@": 9519, 
  "определяют": 9520, 
  "выросли": 9521, 
  "нужд": 9522, 
  "сей@@": 9523, 
  "Can": 9524, 
  "инвестиционные": 9525, 
  "ПР@@": 9526, 
  "проф@@": 9527, 
  "Алексей": 9528, 
  "долгов": 9529, 
  "преподавателей": 9530, 
  "подряд": 9531, 
  "королев@@": 9532, 
  "р.": 9533, 
  "троп@@": 9534, 
  "полезным": 9535, 
  "работающие": 9536, 
  "право@@": 9537, 
  "ицу": 9538, 
  "предоставит": 9539, 
  "опция": 9540, 
  "ценой": 9541, 
  "ционной": 9542, 
  "вались": 9543, 
  "уре": 9544, 
  "выдачи": 9545, 
  "методами": 9546, 
  "Джордж": 9547, 
  "стабилиз@@": 9548, 
  "тратить": 9549, 
  "Ro@@": 9550, 
  "луч@@": 9551, 
  "ствами": 9552, 
  "обед@@": 9553, 
  "особой": 9554, 
  "дой": 9555, 
  "a-@@": 9556, 
  "продовольствия": 9557, 
  "лыжах": 9558, 
  "млад@@": 9559, 
  "API": 9560, 
  "проповед@@": 9561, 
  "крупный": 9562, 
  "train": 9563, 
  "усиление": 9564, 
  "EC@@": 9565, 
  "повседневной": 9566, 
  "шла": 9567, 
  "НОГО": 9568, 
  "провал@@": 9569, 
  "направить": 9570, 
  "учителя": 9571, 
  "особый": 9572, 
  "провела": 9573, 
  "согласны": 9574, 
  "подписали": 9575, 
  "Way": 9576, 
  "прист@@": 9577, 
  "сообщениями": 9578, 
  "лок@@": 9579, 
  "простое": 9580, 
  "стек@@": 9581, 
  "обычного": 9582, 
  "тип@@": 9583, 
  "углубл@@": 9584, 
  "Пакистан": 9585, 
  "различие": 9586, 
  "ворота": 9587, 
  "фик@@": 9588, 
  "Мет@@": 9589, 
  "противореч@@": 9590, 
  "определенным": 9591, 
  "иона": 9592, 
  "пониж@@": 9593, 
  "включение": 9594, 
  "банке": 9595, 
  "карточки": 9596, 
  "китайской": 9597, 
  "упаков@@": 9598, 
  "широком": 9599, 
  "разработкой": 9600, 
  "композиций": 9601, 
  "ue": 9602, 
  "техническую": 9603, 
  "освещения": 9604, 
  "принципах": 9605, 
  "флажок": 9606, 
  "стандартный": 9607, 
  "требу@@": 9608, 
  "Баз@@": 9609, 
  "стороной": 9610, 
  "ом-@@": 9611, 
  "ИТ-@@": 9612, 
  "устранить": 9613, 
  "вызова": 9614, 
  "ийских": 9615, 
  "посл@@": 9616, 
  "Дол@@": 9617, 
  "value": 9618, 
  "курорта": 9619, 
  "избир@@": 9620, 
  "круга": 9621, 
  "Группа": 9622, 
  "потоки": 9623, 
  "планете": 9624, 
  "сообщила": 9625, 
  "прекращ@@": 9626, 
  "богатый": 9627, 
  "термин@@": 9628, 
  "богатства": 9629, 
  "кандидат": 9630, 
  "If": 9631, 
  "ст.": 9632, 
  "кап@@": 9633, 
  "учащихся": 9634, 
  "творчества": 9635, 
  "вают": 9636, 
  "ира@@": 9637, 
  "услышать": 9638, 
  "движении": 9639, 
  "тое": 9640, 
  "тенденцию": 9641, 
  "кондиционирования": 9642, 
  "философии": 9643, 
  "кодекса": 9644, 
  "подают": 9645, 
  "фон": 9646, 
  "торговлю": 9647, 
  "направлениях": 9648, 
  "работала": 9649, 
  "опасения": 9650, 
  "легкой": 9651, 
  "ждения": 9652, 
  "доступной": 9653, 
  "made": 9654, 
  "чт@@": 9655, 
  "арии": 9656, 
  "имеющиеся": 9657, 
  "профиль": 9658, 
  "знамен@@": 9659, 
  "небольшое": 9660, 
  "учреждение": 9661, 
  "продвижение": 9662, 
  "диагност@@": 9663, 
  "прилож@@": 9664, 
  "являясь": 9665, 
  "Excel": 9666, 
  "планиру@@": 9667, 
  "площадки": 9668, 
  "хотела": 9669, 
  "укрепл@@": 9670, 
  "край@@": 9671, 
  "заведений": 9672, 
  "инвестиционной": 9673, 
  "Ближнего": 9674, 
  "моч@@": 9675, 
  "содержанием": 9676, 
  "разработчики": 9677, 
  "крупного": 9678, 
  "доказ@@": 9679, 
  "отверг@@": 9680, 
  "1988": 9681, 
  "смерт@@": 9682, 
  "тя@@": 9683, 
  "Канады": 9684, 
  "тарифы": 9685, 
  "противостоять": 9686, 
  "обеспечивается": 9687, 
  "содержимого": 9688, 
  "ующим": 9689, 
  "Саудовской": 9690, 
  "репутацию": 9691, 
  "традиций": 9692, 
  "у-@@": 9693, 
  "дем@@": 9694, 
  "старше": 9695, 
  "статьей": 9696, 
  "нац@@": 9697, 
  "памятников": 9698, 
  "El@@": 9699, 
  "жертвы": 9700, 
  "уда": 9701, 
  "разб@@": 9702, 
  "Мас@@": 9703, 
  "C-@@": 9704, 
  "уведом@@": 9705, 
  "Крытый": 9706, 
  "радость": 9707, 
  "контрактов": 9708, 
  "ау@@": 9709, 
  "IT@@": 9710, 
  "ающегося": 9711, 
  "примера": 9712, 
  "инвестировать": 9713, 
  "остановиться": 9714, 
  "бир@@": 9715, 
  "настоящая": 9716, 
  "лю": 9717, 
  "Tra@@": 9718, 
  "пытаясь": 9719, 
  "опл@@": 9720, 
  "юстиции": 9721, 
  "страд@@": 9722, 
  "200@@": 9723, 
  "привлекает": 9724, 
  "дополнительное": 9725, 
  "сервисы": 9726, 
  "профиля": 9727, 
  "приборов": 9728, 
  "северной": 9729, 
  "свободный": 9730, 
  "вым": 9731, 
  "физ@@": 9732, 
  "экс@@": 9733, 
  "опции": 9734, 
  "сегодняшнего": 9735, 
  "мощный": 9736, 
  "самолета": 9737, 
  "16-@@": 9738, 
  "прокат": 9739, 
  "объединить": 9740, 
  "оператор": 9741, 
  "результатами": 9742, 
  "том@@": 9743, 
  "максимальный": 9744, 
  "лай@@": 9745, 
  "порой": 9746, 
  "ируемых": 9747, 
  "Информ@@": 9748, 
  "социальная": 9749, 
  "аромат@@": 9750, 
  "уютный": 9751, 
  "ds": 9752, 
  "elle": 9753, 
  "коллег": 9754, 
  "месторождения": 9755, 
  "бывают": 9756, 
  "проект@@": 9757, 
  "платеж@@": 9758, 
  "ближайшем": 9759, 
  "Святой": 9760, 
  "XX": 9761, 
  "Will": 9762, 
  "изум@@": 9763, 
  "секторов": 9764, 
  "восстановлению": 9765, 
  "комплект@@": 9766, 
  "ующего": 9767, 
  "вооружений": 9768, 
  "владельцы": 9769, 
  "овер@@": 9770, 
  "выполнению": 9771, 
  "атак": 9772, 
  "ценным": 9773, 
  "оборот": 9774, 
  "превращ@@": 9775, 
  "узел": 9776, 
  "увеличив@@": 9777, 
  "час@@": 9778, 
  "зарегистрированных": 9779, 
  "ОВ": 9780, 
  "консоли": 9781, 
  "попул@@": 9782, 
  "ленными": 9783, 
  "говор@@": 9784, 
  "крупнейшим": 9785, 
  "победа": 9786, 
  "курения": 9787, 
  "езда": 9788, 
  "даль@@": 9789, 
  "поднять": 9790, 
  "9001": 9791, 
  "социальную": 9792, 
  "VPN": 9793, 
  "шел@@": 9794, 
  "достоинства": 9795, 
  "тян@@": 9796, 
  "магазине": 9797, 
  "упомин@@": 9798, 
  "домашнего": 9799, 
  "реклам@@": 9800, 
  "спир@@": 9801, 
  "Салон": 9802, 
  "транспортировки": 9803, 
  "Сред@@": 9804, 
  "центрах": 9805, 
  "появилось": 9806, 
  "вынужд@@": 9807, 
  "сайтах": 9808, 
  "исправлена": 9809, 
  "дель@@": 9810, 
  "оплатить": 9811, 
  "Bad": 9812, 
  "журналисты": 9813, 
  "южной": 9814, 
  "технологиями": 9815, 
  "благо": 9816, 
  "заключении": 9817, 
  "лиц@@": 9818, 
  "ционных": 9819, 
  "минер@@": 9820, 
  "Бур@@": 9821, 
  "решила": 9822, 
  "лич@@": 9823, 
  "ВО@@": 9824, 
  "углерода": 9825, 
  "санкций": 9826, 
  "европейцы": 9827, 
  "марок": 9828, 
  "чес@@": 9829, 
  "1980": 9830, 
  "хост@@": 9831, 
  "магазина": 9832, 
  "site": 9833, 
  "nos": 9834, 
  "планах": 9835, 
  "аря": 9836, 
  "street": 9837, 
  "GPS": 9838, 
  "ef@@": 9839, 
  "инфраструктура": 9840, 
  "поражения": 9841, 
  "огромным": 9842, 
  "одних": 9843, 
  "стен": 9844, 
  "бюджетных": 9845, 
  "подел@@": 9846, 
  "смертности": 9847, 
  "основную": 9848, 
  "общественная": 9849, 
  "available": 9850, 
  "ационная": 9851, 
  "тихом": 9852, 
  "модули": 9853, 
  "выросла": 9854, 
  "ico": 9855, 
  "ti": 9856, 
  "E-@@": 9857, 
  "We@@": 9858, 
  "style": 9859, 
  "съем@@": 9860, 
  "самоуправления": 9861, 
  "реагировать": 9862, 
  "vos": 9863, 
  "участвовали": 9864, 
  "учесть": 9865, 
  "открытии": 9866, 
  "всемирно": 9867, 
  "конкур@@": 9868, 
  "лено": 9869, 
  "берега": 9870, 
  "ini": 9871, 
  "желаете": 9872, 
  "дв@@": 9873, 
  "Израиле": 9874, 
  "заплатить": 9875, 
  "тест": 9876, 
  "гео@@": 9877, 
  "председателем": 9878, 
  "Сем@@": 9879, 
  "сервисов": 9880, 
  "балл@@": 9881, 
  "учителей": 9882, 
  "пищевой": 9883, 
  "С.@@": 9884, 
  "шпион@@": 9885, 
  "усилить": 9886, 
  "прилаг@@": 9887, 
  "гостиниц": 9888, 
  "поглощ@@": 9889, 
  "голос@@": 9890, 
  "декларации": 9891, 
  "еда": 9892, 
  "мало@@": 9893, 
  "периоды": 9894, 
  "ающему": 9895, 
  "эффекты": 9896, 
  "элементами": 9897, 
  "130": 9898, 
  "беспокойство": 9899, 
  "педагог@@": 9900, 
  "кампанию": 9901, 
  "83": 9902, 
  "атах": 9903, 
  "предприятием": 9904, 
  "ach@@": 9905, 
  "стомат@@": 9906, 
  "собственными": 9907, 
  "независимой": 9908, 
  "дикт@@": 9909, 
  "сотрудникам": 9910, 
  "Париж": 9911, 
  "уничтожить": 9912, 
  "сохранению": 9913, 
  "спада": 9914, 
  "посад@@": 9915, 
  "знаков": 9916, 
  "110": 9917, 
  "iv@@": 9918, 
  "лан@@": 9919, 
  "начальник": 9920, 
  "подобной": 9921, 
  "Институт": 9922, 
  "ографии": 9923, 
  "крупнейший": 9924, 
  "силь@@": 9925, 
  "точкой": 9926, 
  "оту": 9927, 
  "ступ@@": 9928, 
  "возврат@@": 9929, 
  "коммуникаций": 9930, 
  "схема": 9931, 
  "everything": 9932, 
  "После": 9933, 
  "ама": 9934, 
  "изменениям": 9935, 
  "подвиж@@": 9936, 
  "Net@@": 9937, 
  "сиров@@": 9938, 
  "элементом": 9939, 
  "стимулирования": 9940, 
  "ательно": 9941, 
  "относиться": 9942, 
  "влож@@": 9943, 
  "возможного": 9944, 
  "МОТ": 9945, 
  "эры": 9946, 
  "олог@@": 9947, 
  "собираются": 9948, 
  "выращ@@": 9949, 
  "af@@": 9950, 
  "around": 9951, 
  "переб@@": 9952, 
  "Су@@": 9953, 
  "религиозной": 9954, 
  "тах": 9955, 
  "округа": 9956, 
  "совершенствования": 9957, 
  "зар@@": 9958, 
  "портал": 9959, 
  "рекоменд@@": 9960, 
  "Пор@@": 9961, 
  "открытые": 9962, 
  "игровой": 9963, 
  "РУ@@": 9964, 
  "хор@@": 9965, 
  "составить": 9966, 
  "Мария": 9967, 
  "хи": 9968, 
  "дост@@": 9969, 
  "поль@@": 9970, 
  "Ассоциация": 9971, 
  "завершить": 9972, 
  "прощ@@": 9973, 
  "убийство": 9974, 
  "основанный": 9975, 
  "роб@@": 9976, 
  "назначен": 9977, 
  "сетью": 9978, 
  "агентов": 9979, 
  "разъ@@": 9980, 
  "неожиданно": 9981, 
  "Euro@@": 9982, 
  "ась": 9983, 
  "глав@@": 9984, 
  "поставку": 9985, 
  "разделы": 9986, 
  "огня": 9987, 
  "лер": 9988, 
  "регламент@@": 9989, 
  "множеством": 9990, 
  "чат@@": 9991, 
  "Бан@@": 9992, 
  "конструкций": 9993, 
  "определенно": 9994, 
  "определенную": 9995, 
  "ser@@": 9996, 
  "Кир@@": 9997, 
  "крупными": 9998, 
  "постоянным": 9999, 
  "подходов": 10000, 
  "ссылке": 10001, 
  "понедельник": 10002, 
  "convenient": 10003, 
  "лом@@": 10004, 
  "символы": 10005, 
  "заказчиков": 10006, 
  "Ол@@": 10007, 
  "лагеря": 10008, 
  "Председателя": 10009, 
  "рассчитывать": 10010, 
  "процвет@@": 10011, 
  "служащих": 10012, 
  "фильме": 10013, 
  "государственная": 10014, 
  "повлиять": 10015, 
  "охот@@": 10016, 
  "мов@@": 10017, 
  "Север@@": 10018, 
  "дик@@": 10019, 
  "распространять": 10020, 
  "группам": 10021, 
  "money": 10022, 
  "целого": 10023, 
  "посетили": 10024, 
  "гром@@": 10025, 
  "рыночных": 10026, 
  "принята": 10027, 
  "мут@@": 10028, 
  "персональных": 10029, 
  "анских": 10030, 
  "владеет": 10031, 
  "доказательств": 10032, 
  "Л.": 10033, 
  "очист@@": 10034, 
  "выпуске": 10035, 
  "вдвое": 10036, 
  "американским": 10037, 
  "больший": 10038, 
  "препараты": 10039, 
  "немецкий": 10040, 
  "следуя": 10041, 
  "конкурентов": 10042, 
  "думаете": 10043, 
  "ния": 10044, 
  "изготовление": 10045, 
  "основанные": 10046, 
  "Ро@@": 10047, 
  "не-@@": 10048, 
  "выступать": 10049, 
  "reception": 10050, 
  "общими": 10051, 
  "анализ@@": 10052, 
  "периодом": 10053, 
  "представил": 10054, 
  "указаны": 10055, 
  "залива": 10056, 
  "отменить": 10057, 
  "плод@@": 10058, 
  "вначале": 10059, 
  "используемый": 10060, 
  "покор@@": 10061, 
  "соседей": 10062, 
  "основанная": 10063, 
  "электронного": 10064, 
  "уникальной": 10065, 
  "Декларации": 10066, 
  "стоял": 10067, 
  "8.@@": 10068, 
  "опуст@@": 10069, 
  "правду": 10070, 
  "считаться": 10071, 
  "благ@@": 10072, 
  "CH@@": 10073, 
  "онос@@": 10074, 
  "неповтор@@": 10075, 
  "сравнения": 10076, 
  "временного": 10077, 
  "визы": 10078, 
  "действиях": 10079, 
  "перел@@": 10080, 
  "предлагать": 10081, 
  "дала": 10082, 
  "базой": 10083, 
  "during": 10084, 
  "равных": 10085, 
  "лицензию": 10086, 
  "узлов": 10087, 
  "иц": 10088, 
  "коалиции": 10089, 
  "отмен@@": 10090, 
  "индустри@@": 10091, 
  "награды": 10092, 
  "платежи": 10093, 
  ".С@@": 10094, 
  "Are": 10095, 
  "Литвы": 10096, 
  "ликвидности": 10097, 
  "зи": 10098, 
  "понадобится": 10099, 
  "ИЕ": 10100, 
  "phone": 10101, 
  "цифровых": 10102, 
  "авшись": 10103, 
  "пошел": 10104, 
  "ящими": 10105, 
  "градусов": 10106, 
  "жесткой": 10107, 
  "семинары": 10108, 
  "Co@@": 10109, 
  "участке": 10110, 
  "важная": 10111, 
  "мин.": 10112, 
  "развив@@": 10113, 
  "ведущим": 10114, 
  "деревне": 10115, 
  "полезно": 10116, 
  "end@@": 10117, 
  "s-@@": 10118, 
  "последнем": 10119, 
  "коррект@@": 10120, 
  "преступ@@": 10121, 
  "гражданства": 10122, 
  "получены": 10123, 
  "С-@@": 10124, 
  "гу": 10125, 
  "возвыш@@": 10126, 
  "ствовать": 10127, 
  "mi@@": 10128, 
  "Велоспорт": 10129, 
  "топливо": 10130, 
  "акцент": 10131, 
  "~": 10132, 
  "ah": 10133, 
  "инициатива": 10134, 
  "разнообраз@@": 10135, 
  "террористов": 10136, 
  "ве@@": 10137, 
  "торг@@": 10138, 
  "отчете": 10139, 
  "арх@@": 10140, 
  "исполнительный": 10141, 
  "увеличением": 10142, 
  "нераз@@": 10143, 
  "погибли": 10144, 
  "ЕТ": 10145, 
  "уникальным": 10146, 
  "учит@@": 10147, 
  "Ев@@": 10148, 
  "элиты": 10149, 
  "eur": 10150, 
  "аюсь": 10151, 
  "War": 10152, 
  "выходные": 10153, 
  "инвестиционного": 10154, 
  "подписания": 10155, 
  "случаю": 10156, 
  "вносить": 10157, 
  "видеок@@": 10158, 
  "значительного": 10159, 
  "палаты": 10160, 
  "пород@@": 10161, 
  "non": 10162, 
  "двигатель": 10163, 
  "исправить": 10164, 
  "ющую": 10165, 
  "du@@": 10166, 
  "фигур@@": 10167, 
  "собственностью": 10168, 
  "home": 10169, 
  "комментарий": 10170, 
  "79": 10171, 
  "перейдите": 10172, 
  "облигации": 10173, 
  "старший": 10174, 
  "сравнение": 10175, 
  "El": 10176, 
  "тепла": 10177, 
  "масса": 10178, 
  "федерального": 10179, 
  "видение": 10180, 
  "nous": 10181, 
  "недавнего": 10182, 
  "аемую": 10183, 
  "добавлять": 10184, 
  "яете": 10185, 
  "привлечение": 10186, 
  "прекращения": 10187, 
  "страха": 10188, 
  "фантаст@@": 10189, 
  "Саркози": 10190, 
  "Пос@@": 10191, 
  "интереса": 10192, 
  "тенденций": 10193, 
  "юридического": 10194, 
  "муч@@": 10195, 
  "возникла": 10196, 
  "падает": 10197, 
  "умы": 10198, 
  "циям": 10199, 
  "обществу": 10200, 
  "эм@@": 10201, 
  "91": 10202, 
  "настроение": 10203, 
  "текстов": 10204, 
  "ающееся": 10205, 
  "хозяй@@": 10206, 
  "помню": 10207, 
  "Тор@@": 10208, 
  "судей": 10209, 
  "net": 10210, 
  "исследовании": 10211, 
  "утверждать": 10212, 
  "термо@@": 10213, 
  "партнер@@": 10214, 
  "дочь": 10215, 
  "СПИДу": 10216, 
  "заявляет": 10217, 
  "саду": 10218, 
  "Северо-@@": 10219, 
  "летней": 10220, 
  "Away": 10221, 
  "languages": 10222, 
  "выплат": 10223, 
  "преоблад@@": 10224, 
  "относ@@": 10225, 
  "Хан@@": 10226, 
  "Чили": 10227, 
  "разговор": 10228, 
  "просторные": 10229, 
  "арабских": 10230, 
  "пом@@": 10231, 
  "EN@@": 10232, 
  "продовольственной": 10233, 
  "максимальное": 10234, 
  "песню": 10235, 
  "радостью": 10236, 
  "рек": 10237, 
  "прояв@@": 10238, 
  "психолог@@": 10239, 
  "составля@@": 10240, 
  "представленных": 10241, 
  "мус@@": 10242, 
  "борту": 10243, 
  "поражение": 10244, 
  "свободе": 10245, 
  "ящая": 10246, 
  "аетесь": 10247, 
  "Ne@@": 10248, 
  "тканей": 10249, 
  "погруз@@": 10250, 
  "хан@@": 10251, 
  "китайского": 10252, 
  "поставля@@": 10253, 
  "расчет": 10254, 
  "Все@@": 10255, 
  "Б.": 10256, 
  "90-х": 10257, 
  "рабочим": 10258, 
  "последовательно": 10259, 
  "подается": 10260, 
  "указанный": 10261, 
  "природные": 10262, 
  "упор@@": 10263, 
  "красный": 10264, 
  "4,@@": 10265, 
  "такому": 10266, 
  "строительству": 10267, 
  "государству": 10268, 
  "ослаб@@": 10269, 
  "предпис@@": 10270, 
  "кс": 10271, 
  "корт": 10272, 
[...]
