{
  "eos": 0, 
  "UNK": 1, 
  ".": 2, 
  ",": 3, 
  "a": 4, 
  "se": 5, 
  "to": 6, 
  "?": 7, 
  "na": 8, 
  "je": 9, 
  "v": 10, 
  "&quot;": 11, 
  "že": 12, 
  "jsem": 13, 
  "...": 14, 
  "s": 15, 
  "!": 16, 
  "o": 17, 
  "si": 18, 
  "co": 19, 
  ")": 20, 
  "z": 21, 
  "ale": 22, 
  "do": 23, 
  "pro": 24, 
  "tak": 25, 
  "(": 26, 
  "k": 27, 
  "-": 28, 
  "by": 29, 
  "za": 30, 
  "/": 31, 
  "jako": 32, 
  "nebo": 33, 
  "mi": 34, 
  "jak": 35, 
  ":": 36, 
  "ve": 37, 
  "ne": 38, 
  "já": 39, 
  "mě": 40, 
  "jsi": 41, 
  "když": 42, 
  "ty": 43, 
  "jsou": 44, 
  "@-@": 45, 
  "být": 46, 
  "už": 47, 
  "aby": 48, 
  "jen": 49, 
  "ho": 50, 
  "byl": 51, 
  "tu": 52, 
  "jsme": 53, 
  "které": 54, 
  "jste": 55, 
  "po": 56, 
  "ti": 57, 
  "ne@@": 58, 
  "není": 59, 
  "bude": 60, 
  "u": 61, 
  "i": 62, 
  "byla": 63, 
  "bylo": 64, 
  "od": 65, 
  "jeho": 66, 
  "než": 67, 
  "toho": 68, 
  "tady": 69, 
  "ze": 70, 
  "něco": 71, 
  "má": 72, 
  "ten": 73, 
  "tam": 74, 
  "teď": 75, 
  "pokud": 76, 
  "tě": 77, 
  "1": 78, 
  "mu": 79, 
  "ji": 80, 
  "jo": 81, 
  "bych": 82, 
  "mám": 83, 
  "který": 84, 
  "no": 85, 
  "tohle": 86, 
  "Komise": 87, 
  "ještě": 88, 
  "tom": 89, 
  "proč": 90, 
  "podle": 91, 
  "až": 92, 
  "vám": 93, 
  "měl": 94, 
  "nic": 95, 
  "vás": 96, 
  "ani": 97, 
  "tím": 98, 
  "dobře": 99, 
  "protože": 100, 
  "ano": 101, 
  "takže": 102, 
  ";": 103, 
  "před": 104, 
  "musí": 105, 
  "která": 106, 
  "2": 107, 
  "kde": 108, 
  "při": 109, 
  "%": 110, 
  "pak": 111, 
  "jestli": 112, 
  "jejich": 113, 
  "I": 114, 
  "jí": 115, 
  "může": 116, 
  "kdo": 117, 
  "dne": 118, 
  "ta": 119, 
  "řekl": 120, 
  "nás": 121, 
  "pane": 122, 
  "mezi": 123, 
  "tomu": 124, 
  "nikdy": 125, 
  "nařízení": 126, 
  "možná": 127, 
  "ní": 128, 
  "všechno": 129, 
  "ke": 130, 
  "myslím": 131, 
  "vy": 132, 
  "moc": 133, 
  "můj": 134, 
  "své": 135, 
  "&apos;": 136, 
  "rozhodnutí": 137, 
  "všechny": 138, 
  "nám": 139, 
  "další": 140, 
  "byly": 141, 
  "měla": 142, 
  "mít": 143, 
  "máš": 144, 
  "chci": 145, 
  "3": 146, 
  "on": 147, 
  "sem": 148, 
  "víš": 149, 
  "EU": 150, 
  "č.": 151, 
  "odst": 152, 
  "vy@@": 153, 
  "ES": 154, 
  "této": 155, 
  "opatření": 156, 
  "bez": 157, 
  "taky": 158, 
  "proto": 159, 
  "jde": 160, 
  "vím": 161, 
  "kdy": 162, 
  "řízení": 163, 
  "také": 164, 
  "mohl": 165, 
  "C": 166, 
  "čl": 167, 
  "tohoto": 168, 
  "její": 169, 
  "asi": 170, 
  "ním": 171, 
  "prosím": 172, 
  "moje": 173, 
  "máme": 174, 
  "třeba": 175, 
  "po@@": 176, 
  "tebe": 177, 
  "li": 178, 
  "všichni": 179, 
  "říct": 180, 
  "někdo": 181, 
  "na@@": 182, 
  "případě": 183, 
  "tento": 184, 
  "oblasti": 185, 
  "trochu": 186, 
  "budou": 187, 
  "z@@": 188, 
  "věci": 189, 
  "budu": 190, 
  "my": 191, 
  "let": 192, 
  "&#91;": 193, 
  "&#93;": 194, 
  "jeden": 195, 
  "ně": 196, 
  "mají": 197, 
  "však": 198, 
  "4": 199, 
  "první": 200, 
  "dva": 201, 
  "velmi": 202, 
  "abych": 203, 
  "směrnice": 204, 
  "musím": 205, 
  "chceš": 206, 
  "ku": 207, 
  "jim": 208, 
  "u@@": 209, 
  "článek": 210, 
  "pouze": 211, 
  "od@@": 212, 
  "tyto": 213, 
  "víc": 214, 
  "proti": 215, 
  "státy": 216, 
  "pod": 217, 
  "den": 218, 
  "měli": 219, 
  "chtěl": 220, 
  "rád": 221, 
  "jít": 222, 
  "jenom": 223, 
  "právě": 224, 
  "opravdu": 225, 
  "těchto": 226, 
  "&#124;": 227, 
  "pořád": 228, 
  "ka": 229, 
  "5": 230, 
  "tato": 231, 
  "ky": 232, 
  "musíme": 233, 
  "nevím": 234, 
  "Společenství": 235, 
  "souladu": 236, 
  "té": 237, 
  "bys": 238, 
  "za@@": 239, 
  "rámci": 240, 
  "máte": 241, 
  "Evropské": 242, 
  "kterou": 243, 
  "tedy": 244, 
  "něj": 245, 
  "kdyby": 246, 
  "toto": 247, 
  "dnes": 248, 
  "byli": 249, 
  "místo": 250, 
  "svou": 251, 
  "prostě": 252, 
  "ať": 253, 
  "článku": 254, 
  "10": 255, 
  "základě": 256, 
  "mohou": 257, 
  "dělat": 258, 
  "roz@@": 259, 
  "kteří": 260, 
  "dost": 261, 
  "stejně": 262, 
  "kvůli": 263, 
  "či": 264, 
  "pro@@": 265, 
  "pár": 266, 
  "udělat": 267, 
  "nikdo": 268, 
  "budeš": 269, 
  "práce": 270, 
  "informace": 271, 
  "nou": 272, 
  "díky": 273, 
  "více": 274, 
  "všech": 275, 
  "myslíš": 276, 
  "život": 277, 
  "tři": 278, 
  "ona": 279, 
  "vůbec": 280, 
  "každý": 281, 
  "mnou": 282, 
  "mně": 283, 
  "pře@@": 284, 
  "řekla": 285, 
  "budeme": 286, 
  "žádné": 287, 
  "roku": 288, 
  "bychom": 289, 
  "ou": 290, 
  "jednou": 291, 
  "..": 292, 
  "znovu": 293, 
  "lidi": 294, 
  "dobrý": 295, 
  "vaše": 296, 
  "pořádku": 297, 
  "tomto": 298, 
  "mohla": 299, 
  "v@@": 300, 
  "stále": 301, 
  "ů": 302, 
  "S@@": 303, 
  "tvůj": 304, 
  "práci": 305, 
  "společnosti": 306, 
  "zejména": 307, 
  "sám": 308, 
  "naše": 309, 
  "sebe": 310, 
  "nad": 311, 
  "6": 312, 
  "ný": 313, 
  "roce": 314, 
  "í": 315, 
  "vážně": 316, 
  "A": 317, 
  "můžu": 318, 
  "ni": 319, 
  "unie": 320, 
  "víte": 321, 
  "e": 322, 
  "nich": 323, 
  "nemůžu": 324, 
  "né": 325, 
  "říkal": 326, 
  "em": 327, 
  "de": 328, 
  "již": 329, 
  "ové": 330, 
  "čas": 331, 
  "přes": 332, 
  "nejsou": 333, 
  "stát": 334, 
  "hned": 335, 
  "svého": 336, 
  "což": 337, 
  "stalo": 338, 
  "lidé": 339, 
  "věc": 340, 
  "ová": 341, 
  "můžeš": 342, 
  "viděl": 343, 
  "takhle": 344, 
  "rovněž": 345, 
  "ses": 346, 
  "období": 347, 
  "la": 348, 
  "b": 349, 
  "hej": 350, 
  "členských": 351, 
  "zpátky": 352, 
  "zase": 353, 
  "poslední": 354, 
  "hodně": 355, 
  "byste": 356, 
  "ná": 357, 
  "během": 358, 
  "*": 359, 
  "udělal": 360, 
  "chvíli": 361, 
  "svůj": 362, 
  "vědět": 363, 
  "Rady": 364, 
  "dlouho": 365, 
  "chce": 366, 
  "tebou": 367, 
  "nebude": 368, 
  "nebyl": 369, 
  "chcete": 370, 
  "L": 371, 
  "dvě": 372, 
  "s@@": 373, 
  "můžete": 374, 
  "můžeme": 375, 
  "vždycky": 376, 
  "mé": 377, 
  "lidí": 378, 
  "členské": 379, 
  "myslel": 380, 
  "zda": 381, 
  "te": 382, 
  "musíš": 383, 
  "do@@": 384, 
  "vlastní": 385, 
  "paní": 386, 
  "trhu": 387, 
  "ovat": 388, 
  "států": 389, 
  "někdy": 390, 
  "těch": 391, 
  "se@@": 392, 
  "žádný": 393, 
  "2006": 394, 
  "spolu": 395, 
  "dál": 396, 
  "bod": 397, 
  "rok": 398, 
  "tvoje": 399, 
  "s.": 400, 
  "o@@": 401, 
  "ovi": 402, 
  "ce": 403, 
  "l": 404, 
  "práva": 405, 
  "vlastně": 406, 
  "jiné": 407, 
  "rychle": 408, 
  "přesně": 409, 
  "váš": 410, 
  "právní": 411, 
  "vypadá": 412, 
  "nechci": 413, 
  "potom": 414, 
  "ustanovení": 415, 
  "jež": 416, 
  "nejsem": 417, 
  "možné": 418, 
  "země": 419, 
  "2009": 420, 
  "uvedené": 421, 
  "V": 422, 
  "nějaké": 423, 
  "7": 424, 
  "ahoj": 425, 
  "včetně": 426, 
  "d": 427, 
  "2008": 428, 
  "orgány": 429, 
  "K@@": 430, 
  "vidět": 431, 
  "ím": 432, 
  "kolem": 433, 
  "nové": 434, 
  "2007": 435, 
  "á": 436, 
  "pravdu": 437, 
  "snad": 438, 
  "mohli": 439, 
  "jedna": 440, 
  "nemám": 441, 
  "Z@@": 442, 
  "jasně": 443, 
  "příliš": 444, 
  "O@@": 445, 
  "výše": 446, 
  "děti": 447, 
  "dále": 448, 
  "domů": 449, 
  "dostat": 450, 
  "k@@": 451, 
  "A@@": 452, 
  "in": 453, 
  "mluvit": 454, 
  "nějaký": 455, 
  "pryč": 456, 
  "nebylo": 457, 
  "znamená": 458, 
  "8": 459, 
  "dobrá": 460, 
  "š@@": 461, 
  "zařízení": 462, 
  "ě": 463, 
  "ného": 464, 
  "dokud": 465, 
  "nejlepší": 466, 
  "lepší": 467, 
  "peníze": 468, 
  "celý": 469, 
  "ci": 470, 
  "finanční": 471, 
  "12": 472, 
  "oval": 473, 
  "y": 474, 
  "přímo": 475, 
  "nemůže": 476, 
  "the": 477, 
  "kam": 478, 
  "20": 479, 
  "určitě": 480, 
  "muž": 481, 
  "říká": 482, 
  "dal": 483, 
  "systému": 484, 
  "t": 485, 
  "abys": 486, 
  "člověk": 487, 
  "podpory": 488, 
  "ostatní": 489, 
  "týkající": 490, 
  "nej@@": 491, 
  "nu": 492, 
  "žena": 493, 
  "dobu": 494, 
  "úplně": 495, 
  "svých": 496, 
  "tobě": 497, 
  "při@@": 498, 
  "budete": 499, 
  "T@@": 500, 
  "_": 501, 
  "pod@@": 502, 
  "ných": 503, 
  "ným": 504, 
  "2004": 505, 
  "jméno": 506, 
  "n": 507, 
  "nevy@@": 508, 
  "večer": 509, 
  "problém": 510, 
  "nemá": 511, 
  "kromě": 512, 
  "2005": 513, 
  "2010": 514, 
  "měly": 515, 
  "zvláštní": 516, 
  "pojď": 517, 
  "sebou": 518, 
  "chtěla": 519, 
  "dítě": 520, 
  "ské": 521, 
  "celé": 522, 
  "sobě": 523, 
  "2011": 524, 
  "č@@": 525, 
  "přišel": 526, 
  "služby": 527, 
  "d@@": 528, 
  "dej": 529, 
  "t@@": 530, 
  "dobré": 531, 
  "lze": 532, 
  "jednoho": 533, 
  "ráda": 534, 
  "noc": 535, 
  "mělo": 536, 
  "cílem": 537, 
  "stanoví": 538, 
  "takové": 539, 
  "nebyla": 540, 
  "někoho": 541, 
  "ila": 542, 
  "Komisi": 543, 
  "věděl": 544, 
  "tuto": 545, 
  "sakra": 546, 
  "15": 547, 
  "ví": 548, 
  "strany": 549, 
  "ování": 550, 
  "část": 551, 
  "D@@": 552, 
  "podívej": 553, 
  "jednu": 554, 
  "é": 555, 
  "nyní": 556, 
  "pomoc": 557, 
  "státu": 558, 
  "oh": 559, 
  "pan": 560, 
  "ráno": 561, 
  "použití": 562, 
  "V@@": 563, 
  "vše": 564, 
  "ven": 565, 
  "společnost": 566, 
  "9": 567, 
  "náš": 568, 
  "neměl": 569, 
  "dostal": 570, 
  "odvětví": 571, 
  "11": 572, 
  "vzhledem": 573, 
  "oči": 574, 
  "i@@": 575, 
  "EUR": 576, 
  "zde": 577, 
  "kterým": 578, 
  "podporu": 579, 
  "-@@": 580, 
  "řekni": 581, 
  "P@@": 582, 
  "muset": 583, 
  "dát": 584, 
  "údajů": 585, 
  "B@@": 586, 
  "celou": 587, 
  "přece": 588, 
  "najít": 589, 
  "kolik": 590, 
  "m": 591, 
  "dohody": 592, 
  "mého": 593, 
  "sis": 594, 
  "uje": 595, 
  "otec": 596, 
  "30": 597, 
  "několik": 598, 
  "dokonce": 599, 
  "en": 600, 
  "samozřejmě": 601, 
  "ý": 602, 
  "e@@": 603, 
  "jednání": 604, 
  "jedno": 605, 
  "zrovna": 606, 
  "ili": 607, 
  "hele": 608, 
  "tenhle": 609, 
  "Unie": 610, 
  "děje": 611, 
  "číslo": 612, 
  "systém": 613, 
  "návrh": 614, 
  "ruce": 615, 
  "2013": 616, 
  "informací": 617, 
  "nový": 618, 
  "kem": 619, 
  "svým": 620, 
  "možnost": 621, 
  "údaje": 622, 
  "kou": 623, 
  "děláš": 624, 
  "věst": 625, 
  "přístup": 626, 
  "oni": 627, 
  "jinak": 628, 
  "části": 629, 
  "programu": 630, 
  "M@@": 631, 
  "abychom": 632, 
  "podmínky": 633, 
  "mimo": 634, 
  "il": 635, 
  "úrovni": 636, 
  "Úř.": 637, 
  "viz": 638, 
  "prostředí": 639, 
  "činnosti": 640, 
  "služeb": 641, 
  "zemi": 642, 
  "á@@": 643, 
  "čím": 644, 
  "li@@": 645, 
  "větší": 646, 
  "Evropského": 647, 
  "ský": 648, 
  "jiného": 649, 
  "j@@": 650, 
  "H@@": 651, 
  "ních": 652, 
  "účelem": 653, 
  "způsobem": 654, 
  "m@@": 655, 
  "druhé": 656, 
  "pět": 657, 
  "vždy": 658, 
  "ú@@": 659, 
  "všem": 660, 
  "2012": 661, 
  "jaké": 662, 
  "le@@": 663, 
  "E@@": 664, 
  "nech": 665, 
  "fakt": 666, 
  "mg": 667, 
  "ům": 668, 
  "musel": 669, 
  "it": 670, 
  "zemí": 671, 
  "době": 672, 
  "jistě": 673, 
  "provádění": 674, 
  "takový": 675, 
  "ro@@": 676, 
  "zprávy": 677, 
  "sama": 678, 
  "dělá": 679, 
  "ovou": 680, 
  "ly": 681, 
  "abyste": 682, 
  "hlavní": 683, 
  "minut": 684, 
  "oba": 685, 
  "mohlo": 686, 
  "tolik": 687, 
  "a@@": 688, 
  "pravda": 689, 
  "ch@@": 690, 
  "před@@": 691, 
  "tímto": 692, 
  "doby": 693, 
  "pomoci": 694, 
  "U@@": 695, 
  "n@@": 696, 
  "jaký": 697, 
  "13": 698, 
  "důvod": 699, 
  "la@@": 700, 
  "zítra": 701, 
  "straně": 702, 
  "Ne@@": 703, 
  "ků": 704, 
  "prostřednictvím": 705, 
  "právo": 706, 
  "000": 707, 
  "například": 708, 
  "vý@@": 709, 
  "kdybych": 710, 
  "důvodu": 711, 
  "ala": 712, 
  "ko@@": 713, 
  "an@@": 714, 
  "myslíte": 715, 
  "G@@": 716, 
  "ženy": 717, 
  "in@@": 718, 
  "ta@@": 719, 
  "života": 720, 
  "něm": 721, 
  "2003": 722, 
  "ská": 723, 
  "čem": 724, 
  "světě": 725, 
  "ob@@": 726, 
  "l@@": 727, 
  "musíte": 728, 
  "jiných": 729, 
  "zá@@": 730, 
  "místě": 731, 
  "pravidla": 732, 
  "b@@": 733, 
  "náklady": 734, 
  "vzít": 735, 
  "buď": 736, 
  "50": 737, 
  "ny": 738, 
  ".@@": 739, 
  "ném": 740, 
  "šel": 741, 
  "času": 742, 
  "N@@": 743, 
  "jdeme": 744, 
  "skoro": 745, 
  "hodin": 746, 
  "uvedených": 747, 
  "dveře": 748, 
  "noci": 749, 
  "později": 750, 
  "muže": 751, 
  "nost": 752, 
  "ým": 753, 
  "í@@": 754, 
  "požadavky": 755, 
  "at": 756, 
  "jdu": 757, 
  "ovala": 758, 
  "ti@@": 759, 
  "j": 760, 
  "děkuji": 761, 
  "--": 762, 
  "žádná": 763, 
  "velký": 764, 
  "nelze": 765, 
  "konečně": 766, 
  "ého": 767, 
  "dneska": 768, 
  "auto": 769, 
  "me": 770, 
  "navíc": 771, 
  "neu@@": 772, 
  "zpět": 773, 
  "čtyři": 774, 
  "C@@": 775, 
  "svém": 776, 
  "trh": 777, 
  "ního": 778, 
  "ž@@": 779, 
  "mnoho": 780, 
  "Bože": 781, 
  "ohledem": 782, 
  "I@@": 783, 
  "14": 784, 
  "doufám": 785, 
  "of": 786, 
  "nakonec": 787, 
  "zlato": 788, 
  "nými": 789, 
  "nimi": 790, 
  "ského": 791, 
  "le": 792, 
  "hlavu": 793, 
  "zdá": 794, 
  "r@@": 795, 
  "říkám": 796, 
  "c": 797, 
  "nechat": 798, 
  "skutečnosti": 799, 
  "předtím": 800, 
  "myslela": 801, 
  "dám": 802, 
  "ových": 803, 
  "slyšel": 804, 
  "dvou": 805, 
  "počkej": 806, 
  "některé": 807, 
  "zatímco": 808, 
  "F@@": 809, 
  "velké": 810, 
  "en@@": 811, 
  "ový": 812, 
  "dolů": 813, 
  "vidím": 814, 
  "ují": 815, 
  "mou": 816, 
  "h@@": 817, 
  "ná@@": 818, 
  "politiky": 819, 
  "potřebuju": 820, 
  "námi": 821, 
  "skutečně": 822, 
  "re@@": 823, 
  "třetí": 824, 
  "parlamentu": 825, 
  "de@@": 826, 
  "c@@": 827, 
  "problémy": 828, 
  "důležité": 829, 
  "zní": 830, 
  "L@@": 831, 
  "ali": 832, 
  "doma": 833, 
  "lo": 834, 
  "myslí": 835, 
  "posouzení": 836, 
  "začal": 837, 
  "způsob": 838, 
  "jiný": 839, 
  "ka@@": 840, 
  "mnohem": 841, 
  "souvislosti": 842, 
  "alespoň": 843, 
  "státní": 844, 
  "1.": 845, 
  "tvé": 846, 
  "ra@@": 847, 
  "nějak": 848, 
  "da": 849, 
  "nepo@@": 850, 
  "prosince": 851, 
  "al@@": 852, 
  "neza@@": 853, 
  "srdce": 854, 
  "ohledně": 855, 
  "žádost": 856, 
  "tou": 857, 
  "II": 858, 
  "odůvodnění": 859, 
  "J@@": 860, 
  "roky": 861, 
  "nemůžeš": 862, 
  "skupiny": 863, 
  "y@@": 864, 
  "18": 865, 
  "nějakou": 866, 
  "dalších": 867, 
  "cích": 868, 
  "množství": 869, 
  "pří@@": 870, 
  "muži": 871, 
  "naší": 872, 
  "svět": 873, 
  "nebudu": 874, 
  "hospodářské": 875, 
  "zabít": 876, 
  "ých": 877, 
  "věcí": 878, 
  "&amp;": 879, 
  "podmínek": 880, 
  "and": 881, 
  "našel": 882, 
  "smyslu": 883, 
  "promiň": 884, 
  "p@@": 885, 
  "al": 886, 
  "vámi": 887, 
  "otázky": 888, 
  "řešení": 889, 
  "R@@": 890, 
  "ruku": 891, 
  "st@@": 892, 
  "jedné": 893, 
  "plán": 894, 
  "25": 895, 
  "daleko": 896, 
  "hodnocení": 897, 
  "počet": 898, 
  "dá": 899, 
  "řeknu": 900, 
  "T": 901, 
  "#": 902, 
  "docela": 903, 
  "omlouvám": 904, 
  "fajn": 905, 
  "ských": 906, 
  "zboží": 907, 
  "skou": 908, 
  "+": 909, 
  "předpisy": 910, 
  "štěstí": 911, 
  "teda": 912, 
  "došlo": 913, 
  "pocit": 914, 
  "nákladů": 915, 
  "předmět": 916, 
  "změny": 917, 
  "ko": 918, 
  "S": 919, 
  "příloze": 920, 
  "kurva": 921, 
  "vzal": 922, 
  "totiž": 923, 
  "nemohl": 924, 
  "říkala": 925, 
  "nější": 926, 
  "brzy": 927, 
  "jej": 928, 
  "g@@": 929, 
  "zprávu": 930, 
  "100": 931, 
  "tyhle": 932, 
  "nez@@": 933, 
  "ilo": 934, 
  "seznam": 935, 
  "přípravku": 936, 
  "cestu": 937, 
  "program": 938, 
  "16": 939, 
  "vnitrostátní": 940, 
  "dům": 941, 
  "er@@": 942, 
  "použít": 943, 
  "pracovní": 944, 
  "loď": 945, 
  "matka": 946, 
  "aspoň": 947, 
  "viděla": 948, 
  "místa": 949, 
  "prostředky": 950, 
  "vrátit": 951, 
  "stane": 952, 
  "situace": 953, 
  "2001": 954, 
  "nosti": 955, 
  "CS": 956, 
  "17": 957, 
  "mne": 958, 
  "f@@": 959, 
  "dřív": 960, 
  "B": 961, 
  "ochrany": 962, 
  "2002": 963, 
  "nezbytné": 964, 
  "aniž": 965, 
  "E": 966, 
  "ohledu": 967, 
  "ok": 968, 
  "zpráva": 969, 
  "pomoct": 970, 
  "24": 971, 
  "měsíců": 972, 
  "00": 973, 
  "často": 974, 
  "zatím": 975, 
  "chlap": 976, 
  "účely": 977, 
  "povolení": 978, 
  "někde": 979, 
  "č": 980, 
  "40": 981, 
  "téměř": 982, 
  "území": 983, 
  "zabil": 984, 
  "ina": 985, 
  "případ": 986, 
  "hodnoty": 987, 
  "jestliže": 988, 
  "neboť": 989, 
  "včera": 990, 
  "mami": 991, 
  "jich": 992, 
  "malé": 993, 
  "O": 994, 
  "vždyť": 995, 
  "pacientů": 996, 
  "znění": 997, 
  "sk@@": 998, 
  "méně": 999, 
  "poté": 1000, 
  "ar@@": 1001, 
  "tuhle": 1002, 
  "jediný": 1003, 
  "ém": 1004, 
  "dolarů": 1005, 
  "venku": 1006, 
  "at@@": 1007, 
  "předpisů": 1008, 
  "právních": 1009, 
  "jdi": 1010, 
  "smrti": 1011, 
  "nichž": 1012, 
  "zajistit": 1013, 
  "ceny": 1014, 
  "dovnitř": 1015, 
  "dispozici": 1016, 
  "spojení": 1017, 
  "nutné": 1018, 
  "el@@": 1019, 
  "Rada": 1020, 
  "é@@": 1021, 
  "ily": 1022, 
  "mohu": 1023, 
  "taková": 1024, 
  "ovali": 1025, 
  "vedle": 1026, 
  "tělo": 1027, 
  "r": 1028, 
  "každé": 1029, 
  "‑": 1030, 
  "Článek": 1031, 
  "existuje": 1032, 
  "ochranu": 1033, 
  "jelikož": 1034, 
  "zcela": 1035, 
  "kterých": 1036, 
  "dala": 1037, 
  "práv": 1038, 
  "velice": 1039, 
  "naši": 1040, 
  "hodiny": 1041, 
  "2014": 1042, 
  "bezpečnosti": 1043, 
  "ru@@": 1044, 
  "kterého": 1045, 
  "bodě": 1046, 
  "přijde": 1047, 
  "nechal": 1048, 
  "slovo": 1049, 
  "g": 1050, 
  "promiňte": 1051, 
  "týden": 1052, 
  "června": 1053, 
  "íš": 1054, 
  "financování": 1055, 
  "energie": 1056, 
  "malý": 1057, 
  "pozor": 1058, 
  "líto": 1059, 
  "pomocí": 1060, 
  "cíle": 1061, 
  "te@@": 1062, 
  "zdraví": 1063, 
  "přípravek": 1064, 
  "D": 1065, 
  "podniků": 1066, 
  "vody": 1067, 
  "znám": 1068, 
  "di@@": 1069, 
  "neměla": 1070, 
  "víme": 1071, 
  "táta": 1072, 
  "tahle": 1073, 
  "čí": 1074, 
  "snížení": 1075, 
  "ov@@": 1076, 
  "situaci": 1077, 
  "hrát": 1078, 
  "tati": 1079, 
  "prostředků": 1080, 
  "Evropská": 1081, 
  "ma": 1082, 
  "čku": 1083, 
  "nemůžeme": 1084, 
  "pohodě": 1085, 
  "koho": 1086, 
  "žít": 1087, 
  "žádosti": 1088, 
  "líbí": 1089, 
  "potřebujeme": 1090, 
  "nových": 1091, 
  "odpověď": 1092, 
  "udělala": 1093, 
  "ma@@": 1094, 
  "uvnitř": 1095, 
  "du": 1096, 
  "letech": 1097, 
  "máma": 1098, 
  "jistý": 1099, 
  "osoby": 1100, 
  "konec": 1101, 
  "dejte": 1102, 
  "čky": 1103, 
  "inu": 1104, 
  "sociální": 1105, 
  "zůstat": 1106, 
  "společností": 1107, 
  "prohlášení": 1108, 
  "čka": 1109, 
  "správně": 1110, 
  "2000": 1111, 
  "slova": 1112, 
  "ník": 1113, 
  "rukou": 1114, 
  "nesmí": 1115, 
  "výbor": 1116, 
  "vyšší": 1117, 
  "výši": 1118, 
  "dny": 1119, 
  "spolupráci": 1120, 
  "0@@": 1121, 
  "če": 1122, 
  "spolupráce": 1123, 
  "nejsi": 1124, 
  "ového": 1125, 
  "svoje": 1126, 
  "ova": 1127, 
  "Úřední": 1128, 
  "září": 1129, 
  "zajištění": 1130, 
  "uvedeného": 1131, 
  "obsahuje": 1132, 
  "nemáš": 1133, 
  "dní": 1134, 
  "vaší": 1135, 
  "ře": 1136, 
  "ými": 1137, 
  "jakmile": 1138, 
  "ode": 1139, 
  "důsledku": 1140, 
  "21": 1141, 
  "podívejte": 1142, 
  "orgán": 1143, 
  "ř@@": 1144, 
  "ček": 1145, 
  "věstník": 1146, 
  "některých": 1147, 
  "domu": 1148, 
  "cestě": 1149, 
  "kámo": 1150, 
  "příslušné": 1151, 
  "zeptal": 1152, 
  "stojí": 1153, 
  "patří": 1154, 
  "mohly": 1155, 
  "hlavy": 1156, 
  "stejné": 1157, 
  "dělal": 1158, 
  "šest": 1159, 
  "němu": 1160, 
  "P": 1161, 
  "jejichž": 1162, 
  "19": 1163, 
  "odsud": 1164, 
  "povinnosti": 1165, 
  "hlas": 1166, 
  "návrhu": 1167, 
  "platnost": 1168, 
  "veřejné": 1169, 
  "tehdy": 1170, 
  "promluvit": 1171, 
  "nému": 1172, 
  "ované": 1173, 
  "on@@": 1174, 
  "světa": 1175, 
  "druhý": 1176, 
  "podniku": 1177, 
  "cokoliv": 1178, 
  "července": 1179, 
  "nout": 1180, 
  "podniky": 1181, 
  "pá@@": 1182, 
  "du@@": 1183, 
  "přílohy": 1184, 
  "deset": 1185, 
  "lety": 1186, 
  "EHS": 1187, 
  "milionů": 1188, 
  "is": 1189, 
  "města": 1190, 
  "omezení": 1191, 
  "poprvé": 1192, 
  "nápad": 1193, 
  "tvrdí": 1194, 
  "případech": 1195, 
  "bodu": 1196, 
  "státech": 1197, 
  "členského": 1198, 
  "finančních": 1199, 
  "ve@@": 1200, 
  "písm.": 1201, 
  "vá": 1202, 
  "an": 1203, 
  "jasné": 1204, 
  "0": 1205, 
  "vyplývá": 1206, 
  "zdrojů": 1207, 
  "nahoru": 1208, 
  "plánu": 1209, 
  "ledna": 1210, 
  "K": 1211, 
  "jménem": 1212, 
  "několika": 1213, 
  "kové": 1214, 
  "strach": 1215, 
  "žalobkyně": 1216, 
  "obchodní": 1217, 
  "zájmu": 1218, 
  "zbraň": 1219, 
  "radši": 1220, 
  "základní": 1221, 
  "dělám": 1222, 
  "kon@@": 1223, 
  "osob": 1224, 
  "moci": 1225, 
  "okamžitě": 1226, 
  "ův": 1227, 
  "oznámení": 1228, 
  "pr@@": 1229, 
  "sice": 1230, 
  "takového": 1231, 
  "tem": 1232, 
  "tu@@": 1233, 
  "vaši": 1234, 
  "výsledky": 1235, 
  "stanovené": 1236, 
  "ními": 1237, 
  "to@@": 1238, 
  "mezinárodní": 1239, 
  "přišla": 1240, 
  "součástí": 1241, 
  "or@@": 1242, 
  "společně": 1243, 
  "lu": 1244, 
  "vá@@": 1245, 
  "ch": 1246, 
  "nová": 1247, 
  "chtít": 1248, 
  "těžké": 1249, 
  "ni@@": 1250, 
  "přijetí": 1251, 
  "otázku": 1252, 
  "království": 1253, 
  "podpora": 1254, 
  "uvidíme": 1255, 
  "chtějí": 1256, 
  "x": 1257, 
  "ení": 1258, 
  "půl": 1259, 
  "týká": 1260, 
  "nechtěl": 1261, 
  "Smlouvy": 1262, 
  "špatně": 1263, 
  "pozdě": 1264, 
  "běž": 1265, 
  "jehož": 1266, 
  "orgánů": 1267, 
  "organizace": 1268, 
  "=": 1269, 
  "cítím": 1270, 
  "potřebuje": 1271, 
  "naprosto": 1272, 
  "22": 1273, 
  "každého": 1274, 
  "smlouvy": 1275, 
  "Mar@@": 1276, 
  "března": 1277, 
  "podívat": 1278, 
  "každou": 1279, 
  "otázka": 1280, 
  "cí": 1281, 
  "společného": 1282, 
  "bu@@": 1283, 
  "ženu": 1284, 
  "většina": 1285, 
  "lépe": 1286, 
  "23": 1287, 
  "íme": 1288, 
  "vůči": 1289, 
  "různých": 1290, 
  "lo@@": 1291, 
  "listopadu": 1292, 
  "nebyly": 1293, 
  "životě": 1294, 
  "pra@@": 1295, 
  "body": 1296, 
  "stavu": 1297, 
  "najednou": 1298, 
  "skutečnost": 1299, 
  "jakož": 1300, 
  "našli": 1301, 
  "dy": 1302, 
  "W@@": 1303, 
  "pánové": 1304, 
  "nemáme": 1305, 
  "obchodu": 1306, 
  "platí": 1307, 
  "evropské": 1308, 
  "činnost": 1309, 
  "pravděpodobně": 1310, 
  "mo@@": 1311, 
  "nej": 1312, 
  "avšak": 1313, 
  "věděla": 1314, 
  "chvilku": 1315, 
  "kontroly": 1316, 
  "obvykle": 1317, 
  "me@@": 1318, 
  "lodi": 1319, 
  "půjdu": 1320, 
  "Co": 1321, 
  "it@@": 1322, 
  "N": 1323, 
  "vrátil": 1324, 
  "přijít": 1325, 
  "poslouchej": 1326, 
  "je@@": 1327, 
  "cesty": 1328, 
  "vidíš": 1329, 
  "Ne": 1330, 
  "aly": 1331, 
  "Š@@": 1332, 
  "ským": 1333, 
  "New": 1334, 
  "žádnou": 1335, 
  "jasný": 1336, 
  "mí@@": 1337, 
  "tomhle": 1338, 
  "nadále": 1339, 
  "lu@@": 1340, 
  "získat": 1341, 
  "členský": 1342, 
  "října": 1343, 
  "nechceš": 1344, 
  "ku@@": 1345, 
  "šetření": 1346, 
  "nicméně": 1347, 
  "udělám": 1348, 
  "5@@": 1349, 
  "nového": 1350, 
  "nejdřív": 1351, 
  "ené": 1352, 
  "opět": 1353, 
  "neviděl": 1354, 
  "společenství": 1355, 
  "ká@@": 1356, 
  "h": 1357, 
  "pracovat": 1358, 
  "pomalu": 1359, 
  "říkat": 1360, 
  "F": 1361, 
  "ické": 1362, 
  "auta": 1363, 
  "soud": 1364, 
  "7@@": 1365, 
  "pojďme": 1366, 
  "iny": 1367, 
  "nem": 1368, 
  "p": 1369, 
  "hlavou": 1370, 
  "nejde": 1371, 
  "změnit": 1372, 
  "května": 1373, 
  "bez@@": 1374, 
  "především": 1375, 
  "cíl": 1376, 
  "výboru": 1377, 
  "ha@@": 1378, 
  "mým": 1379, 
  "mluvil": 1380, 
  "ován": 1381, 
  "starý": 1382, 
  "dříve": 1383, 
  "přesto": 1384, 
  "ach": 1385, 
  "spíš": 1386, 
  "krev": 1387, 
  "ském": 1388, 
  "ři": 1389, 
  "věřit": 1390, 
  "níž": 1391, 
  "druhou": 1392, 
  "zvýšení": 1393, 
  "členskými": 1394, 
  "ovšem": 1395, 
  "ie": 1396, 
  "pana": 1397, 
  "rozhodl": 1398, 
  "typu": 1399, 
  "jídlo": 1400, 
  "9@@": 1401, 
  "Odpověď": 1402, 
  "přičemž": 1403, 
  "ot@@": 1404, 
  "podání": 1405, 
  "ému": 1406, 
  "moji": 1407, 
  "prvním": 1408, 
  "představuje": 1409, 
  "ra": 1410, 
  "sa@@": 1411, 
  "no@@": 1412, 
  "dvůr": 1413, 
  "lem": 1414, 
  "holka": 1415, 
  "dě@@": 1416, 
  "ovány": 1417, 
  "is@@": 1418, 
  "pěkně": 1419, 
  "následující": 1420, 
  "kterém": 1421, 
  "dubna": 1422, 
  "velká": 1423, 
  "lí@@": 1424, 
  "6@@": 1425, 
  "vě@@": 1426, 
  "našich": 1427, 
  "počkat": 1428, 
  "jedná": 1429, 
  "dvěma": 1430, 
  "novou": 1431, 
  "žen": 1432, 
  "největší": 1433, 
  "město": 1434, 
  "výrobků": 1435, 
  "hlediska": 1436, 
  "otce": 1437, 
  "kluk": 1438, 
  "režimu": 1439, 
  "cen": 1440, 
  "přítel": 1441, 
  "Po@@": 1442, 
  "rozvoj": 1443, 
  "ý@@": 1444, 
  "konci": 1445, 
  "přestaň": 1446, 
  "vi@@": 1447, 
  "alo": 1448, 
  "smrt": 1449, 
  "skvělý": 1450, 
  "ry": 1451, 
  "jedním": 1452, 
  "např.": 1453, 
  "potřebovat": 1454, 
  "našeho": 1455, 
  "zároveň": 1456, 
  "stačí": 1457, 
  "di": 1458, 
  "mění": 1459, 
  "měsíce": 1460, 
  "rozhodně": 1461, 
  "takovou": 1462, 
  "syn": 1463, 
  "vede": 1464, 
  "celá": 1465, 
  "nohy": 1466, 
  "komise": 1467, 
  "ující": 1468, 
  "rozdíl": 1469, 
  "osobní": 1470, 
  "snažil": 1471, 
  "přijmout": 1472, 
  "ovaly": 1473, 
  "íte": 1474, 
  "místní": 1475, 
  "šanci": 1476, 
  "nepro@@": 1477, 
  "pojďte": 1478, 
  "ci@@": 1479, 
  "doktor": 1480, 
  "mu@@": 1481, 
  "8@@": 1482, 
  "člověka": 1483, 
  "ví@@": 1484, 
  "šlo": 1485, 
  "začít": 1486, 
  "chyba": 1487, 
  "bezpečnost": 1488, 
  "oblast": 1489, 
  "ané": 1490, 
  "povinnost": 1491, 
  "miluju": 1492, 
  "ře@@": 1493, 
  "seznamu": 1494, 
  "ba": 1495, 
  "smysl": 1496, 
  "U": 1497, 
  "uvádí": 1498, 
  "tys": 1499, 
  "přitom": 1500, 
  "dobrou": 1501, 
  "směrem": 1502, 
  "pravidel": 1503, 
  "tvář": 1504, 
  "cenu": 1505, 
  "těla": 1506, 
  "nechte": 1507, 
  "ický": 1508, 
  "jaká": 1509, 
  "ostatních": 1510, 
  "střední": 1511, 
  "š": 1512, 
  "raději": 1513, 
  "postupy": 1514, 
  "kami": 1515, 
  "malá": 1516, 
  "průběhu": 1517, 
  "vlasy": 1518, 
  "si@@": 1519, 
  "lá@@": 1520, 
  "60": 1521, 
  "musela": 1522, 
  "pokračovat": 1523, 
  "policie": 1524, 
  "as": 1525, 
  "činností": 1526, 
  "zřejmě": 1527, 
  "ak@@": 1528, 
  "postup": 1529, 
  "pohled": 1530, 
  "vláda": 1531, 
  "jakou": 1532, 
  "porušení": 1533, 
  "Evropský": 1534, 
  "peněz": 1535, 
  "tr@@": 1536, 
  "tvá": 1537, 
  "obchod": 1538, 
  "mi@@": 1539, 
  "čas.": 1540, 
  "pozornost": 1541, 
  "su@@": 1542, 
  "školy": 1543, 
  "M": 1544, 
  "mě@@": 1545, 
  "27": 1546, 
  "1999": 1547, 
  "lidem": 1548, 
  "mrtvý": 1549, 
  "dole": 1550, 
  "jet": 1551, 
  "tvou": 1552, 
  "příloha": 1553, 
  "pe@@": 1554, 
  "životní": 1555, 
  "ální": 1556, 
  "vězení": 1557, 
  "jediná": 1558, 
  "kov@@": 1559, 
  "rozsudek": 1560, 
  "možnosti": 1561, 
  "zásady": 1562, 
  "neřekl": 1563, 
  "šla": 1564, 
  "vr@@": 1565, 
  "nějaká": 1566, 
  "název": 1567, 
  "výrobky": 1568, 
  "ců": 1569, 
  "osoba": 1570, 
  "prvního": 1571, 
  "nemyslím": 1572, 
  "nejspíš": 1573, 
  "pu@@": 1574, 
  "rozsahu": 1575, 
  "velkou": 1576, 
  "Komisí": 1577, 
  "všude": 1578, 
  "produktů": 1579, 
  "rizika": 1580, 
  "potřebuji": 1581, 
  "bo@@": 1582, 
  "nejméně": 1583, 
  "ř": 1584, 
  "zjistit": 1585, 
  "něho": 1586, 
  "snaží": 1587, 
  "mých": 1588, 
  "To": 1589, 
  "soudu": 1590, 
  "nímu": 1591, 
  "důvodů": 1592, 
  "spoustu": 1593, 
  "kách": 1594, 
  "Le@@": 1595, 
  "rozsudku": 1596, 
  "má@@": 1597, 
  "ově": 1598, 
  "um": 1599, 
  "říkáš": 1600, 
  "látky": 1601, 
  "bi@@": 1602, 
  "nul": 1603, 
  "dětí": 1604, 
  "státě": 1605, 
  "32": 1606, 
  "R": 1607, 
  "cem": 1608, 
  "val": 1609, 
  "přístupu": 1610, 
  "každém": 1611, 
  "zdroje": 1612, 
  "posledních": 1613, 
  "rozpočtu": 1614, 
  "úroveň": 1615, 
  "jejím": 1616, 
  "vz@@": 1617, 
  "Č@@": 1618, 
  "28": 1619, 
  "veřejných": 1620, 
  "odpověděl": 1621, 
  "ována": 1622, 
  "vhodné": 1623, 
  "orgánu": 1624, 
  "používání": 1625, 
  "ó@@": 1626, 
  "90": 1627, 
  "němž": 1628, 
  "vztahuje": 1629, 
  "Z": 1630, 
  "ho@@": 1631, 
  "3@@": 1632, 
  "jejího": 1633, 
  "správní": 1634, 
  "00@@": 1635, 
  "chápu": 1636, 
  "dostala": 1637, 
  "děláte": 1638, 
  "nikoho": 1639, 
  "hodnota": 1640, 
  "chceme": 1641, 
  "slečno": 1642, 
  "tým": 1643, 
  "om@@": 1644, 
  "Je": 1645, 
  "dosažení": 1646, 
  "městě": 1647, 
  "vztahu": 1648, 
  "doporučení": 1649, 
  "daně": 1650, 
  "typ": 1651, 
  "sen": 1652, 
  "dostali": 1653, 
  "ovaných": 1654, 
  "kdybys": 1655, 
  "Cože": 1656, 
  "klidně": 1657, 
  "il@@": 1658, 
  "ana": 1659, 
  "společné": 1660, 
  "funkce": 1661, 
  "postavení": 1662, 
  "telefon": 1663, 
  "strategie": 1664, 
  "er": 1665, 
  "Re@@": 1666, 
  "málo": 1667, 
  "zbraně": 1668, 
  "hlavně": 1669, 
  "řekněte": 1670, 
  "dvora": 1671, 
  "svoji": 1672, 
  "začala": 1673, 
  "konce": 1674, 
  "op@@": 1675, 
  "ou@@": 1676, 
  "skupina": 1677, 
  "zemích": 1678, 
  "ň@@": 1679, 
  "systémy": 1680, 
  "národní": 1681, 
  "vat": 1682, 
  "ě@@": 1683, 
  "nemají": 1684, 
  "nástroje": 1685, 
  "týkajících": 1686, 
  "neměli": 1687, 
  "cílů": 1688, 
  "copak": 1689, 
  "jediné": 1690, 
  "účinky": 1691, 
  "bezpečnostní": 1692, 
  "Bůh": 1693, 
  "jte": 1694, 
  "mysli": 1695, 
  "myslet": 1696, 
  "veškeré": 1697, 
  "ri@@": 1698, 
  "35": 1699, 
  "ovaný": 1700, 
  "III": 1701, 
  "února": 1702, 
  "id@@": 1703, 
  "označení": 1704, 
  "jednotlivých": 1705, 
  "potřeby": 1706, 
  "skvělé": 1707, 
  "tisíc": 1708, 
  "dali": 1709, 
  "el": 1710, 
  "ická": 1711, 
  "původu": 1712, 
  "riziko": 1713, 
  "takto": 1714, 
  "rá@@": 1715, 
  "vo@@": 1716, 
  "prodej": 1717, 
  "dámy": 1718, 
  "viděli": 1719, 
  "sou@@": 1720, 
  "vem": 1721, 
  "místnosti": 1722, 
  "mojí": 1723, 
  "stran": 1724, 
  "hodinu": 1725, 
  "odejít": 1726, 
  "chtěli": 1727, 
  "všechna": 1728, 
  "význam": 1729, 
  "zbytek": 1730, 
  "jmenuje": 1731, 
  "26": 1732, 
  "zájem": 1733, 
  "45": 1734, 
  "ena": 1735, 
  "ovým": 1736, 
  "ha": 1737, 
  "plně": 1738, 
  "29": 1739, 
  "večeři": 1740, 
  "nice": 1741, 
  "jistá": 1742, 
  "sky": 1743, 
  "členským": 1744, 
  "článkem": 1745, 
  "podnik": 1746, 
  "pracovních": 1747, 
  "01": 1748, 
  "přátelé": 1749, 
  "spát": 1750, 
  "řádu": 1751, 
  "ze@@": 1752, 
  "sa": 1753, 
  "přišli": 1754, 
  "ční": 1755, 
  "nad@@": 1756, 
  "uvedený": 1757, 
  "2@@": 1758, 
  "vzdělávání": 1759, 
  "rámec": 1760, 
  "cítil": 1761, 
  "seš": 1762, 
  "pokoj": 1763, 
  "odtud": 1764, 
  "zvířat": 1765, 
  "slyšet": 1766, 
  "ně@@": 1767, 
  "akce": 1768, 
  "nejen": 1769, 
  "čemu": 1770, 
  "ere": 1771, 
  "cesta": 1772, 
  "známky": 1773, 
  "sami": 1774, 
  "kám": 1775, 
  "poskytování": 1776, 
  "dosud": 1777, 
  "čísla": 1778, 
  "rodiče": 1779, 
  "pokoji": 1780, 
  "sdělení": 1781, 
  "tomuto": 1782, 
  "De@@": 1783, 
  "subjekty": 1784, 
  "celkem": 1785, 
  "ováním": 1786, 
  "pravomoci": 1787, 
  "obě": 1788, 
  "nechce": 1789, 
  "nebezpečí": 1790, 
  "téhle": 1791, 
  "ad@@": 1792, 
  "účetní": 1793, 
  "nemůžete": 1794, 
  "be@@": 1795, 
  "banky": 1796, 
  "dem": 1797, 
  "pokoje": 1798, 
  "USA": 1799, 
  "mém": 1800, 
  "pa@@": 1801, 
  "systémů": 1802, 
  "et": 1803, 
  "určité": 1804, 
  "dáme": 1805, 
  "ru": 1806, 
  "....": 1807, 
  "dělej": 1808, 
  "vání": 1809, 
  "31.": 1810, 
  "vašeho": 1811, 
  "důvody": 1812, 
  "plnění": 1813, 
  "chlape": 1814, 
  "syna": 1815, 
  "Evropě": 1816, 
  "mnoha": 1817, 
  "tří": 1818, 
  "nevěděl": 1819, 
  "nebudou": 1820, 
  "dostane": 1821, 
  "sítě": 1822, 
  "nemohu": 1823, 
  "va@@": 1824, 
  "zastavit": 1825, 
  "někteří": 1826, 
  "provedení": 1827, 
  "tentokrát": 1828, 
  "věku": 1829, 
  "vrátí": 1830, 
  "nutí": 1831, 
  "dopad": 1832, 
  "čeká": 1833, 
  "kapitáne": 1834, 
  "kom@@": 1835, 
  "rodina": 1836, 
  "zlepšení": 1837, 
  "pi@@": 1838, 
  "názoru": 1839, 
  "říkají": 1840, 
  "světlo": 1841, 
  "hlasování": 1842, 
  "měsíc": 1843, 
  "kým": 1844, 
  "zeptat": 1845, 
  "Ar@@": 1846, 
  "domě": 1847, 
  "dat": 1848, 
  "dohoda": 1849, 
  "špatné": 1850, 
  "občas": 1851, 
  "nemohla": 1852, 
  "vysoké": 1853, 
  "man@@": 1854, 
  "31": 1855, 
  "čekat": 1856, 
  "uh": 1857, 
  "chování": 1858, 
  "druh": 1859, 
  "nemáte": 1860, 
  "maximální": 1861, 
  "ám": 1862, 
  "odstavci": 1863, 
  "tajemství": 1864, 
  "oblastech": 1865, 
  "ovalo": 1866, 
  "zasedání": 1867, 
  "ml": 1868, 
  "ží": 1869, 
  "blízko": 1870, 
  "bratr": 1871, 
  "příběh": 1872, 
  "snažím": 1873, 
  "vliv": 1874, 
  "studie": 1875, 
  "ter@@": 1876, 
  "stal": 1877, 
  "okolností": 1878, 
  "aný": 1879, 
  "kontrolu": 1880, 
  "operace": 1881, 
  "uji": 1882, 
  "dvakrát": 1883, 
  "pan@@": 1884, 
  "kou@@": 1885, 
  "rádi": 1886, 
  "procesu": 1887, 
  "bezpečí": 1888, 
  "tudíž": 1889, 
  "produkty": 1890, 
  "ar": 1891, 
  "podíval": 1892, 
  "Vy@@": 1893, 
  "H": 1894, 
  "čeho": 1895, 
  "lé": 1896, 
  "vyžaduje": 1897, 
  "začíná": 1898, 
  "data": 1899, 
  "nění": 1900, 
  "ických": 1901, 
  "ká": 1902, 
  "programů": 1903, 
  "vytvořit": 1904, 
  "dává": 1905, 
  "dnů": 1906, 
  "ženou": 1907, 
  "Y@@": 1908, 
  "doktore": 1909, 
  "udělali": 1910, 
  "ováno": 1911, 
  "provést": 1912, 
  "ek": 1913, 
  "vlády": 1914, 
  "ž": 1915, 
  "věřím": 1916, 
  "příslušných": 1917, 
  "druhého": 1918, 
  "Al@@": 1919, 
  "jdeš": 1920, 
  "hotel": 1921, 
  "případně": 1922, 
  "vozidla": 1923, 
  "ovaná": 1924, 
  "důkazy": 1925, 
  "stanovení": 1926, 
  "počtu": 1927, 
  "děkuju": 1928, 
  "instituce": 1929, 
  "lí": 1930, 
  "ran@@": 1931, 
  "mluví": 1932, 
  "schválení": 1933, 
  "menší": 1934, 
  "úsilí": 1935, 
  "pla@@": 1936, 
  "vzduchu": 1937, 
  "doba": 1938, 
  "tvého": 1939, 
  "stav": 1940, 
  "těm": 1941, 
  "Soudní": 1942, 
  "cena": 1943, 
  "vezmu": 1944, 
  "pí@@": 1945, 
  "nahoře": 1946, 
  "nařízením": 1947, 
  "or": 1948, 
  "vést": 1949, 
  "pole": 1950, 
  "životního": 1951, 
  "vnitrostátních": 1952, 
  "jiným": 1953, 
  "stanovisko": 1954, 
  "říci": 1955, 
  "přibližně": 1956, 
  "dosáhnout": 1957, 
  "znáš": 1958, 
  "oddělení": 1959, 
  "současné": 1960, 
  "obou": 1961, 
  "par@@": 1962, 
  "těmi": 1963, 
  "podíl": 1964, 
  "80": 1965, 
  "bu": 1966, 
  "mužů": 1967, 
  "tá@@": 1968, 
  "su": 1969, 
  "očí": 1970, 
  "st": 1971, 
  "f": 1972, 
  "zem": 1973, 
  "svému": 1974, 
  "zajistí": 1975, 
  "ích": 1976, 
  "vnitřní": 1977, 
  "x@@": 1978, 
  "cid": 1979, 
  "rodiny": 1980, 
  "uvedená": 1981, 
  "zjistil": 1982, 
  "Ú@@": 1983, 
  "regionální": 1984, 
  "okamžiku": 1985, 
  "nim": 1986, 
  "era": 1987, 
  "ej": 1988, 
  "půjde": 1989, 
  "naposledy": 1990, 
  "představit": 1991, 
  "zavolat": 1992, 
  "EN": 1993, 
  "Dr.": 1994, 
  "předmětem": 1995, 
  "zdálo": 1996, 
  "stanovit": 1997, 
  "hospodářství": 1998, 
  "používat": 1999, 
  "líp": 2000, 
  "všeho": 2001, 
  "výdajů": 2002, 
  "konkrétní": 2003, 
  "$": 2004, 
  "EHP": 2005, 
  "nižší": 2006, 
  "stanovených": 2007, 
  "krize": 2008, 
  "názor": 2009, 
  "stál": 2010, 
  "36": 2011, 
  "kritéria": 2012, 
  "soutěže": 2013, 
  "super": 2014, 
  "stejný": 2015, 
  "kům": 2016, 
  "krok": 2017, 
  "tý": 2018, 
  "členském": 2019, 
  "ce@@": 2020, 
  "dáš": 2021, 
  "úvahu": 2022, 
  "ja": 2023, 
  "třetích": 2024, 
  "ností": 2025, 
  "částky": 2026, 
  "ší": 2027, 
  "napadlo": 2028, 
  "lý": 2029, 
  "ami": 2030, 
  "otázce": 2031, 
  "bojovat": 2032, 
  "výrobce": 2033, 
  "ková": 2034, 
  "zástupce": 2035, 
  "ovy": 2036, 
  "hodnotu": 2037, 
  "různé": 2038, 
  "našla": 2039, 
  "uděláme": 2040, 
  "vzala": 2041, 
  "holky": 2042, 
  "vytvoření": 2043, 
  "ště@@": 2044, 
  "vozidel": 2045, 
  "týdny": 2046, 
  "neexistuje": 2047, 
  "předsedající": 2048, 
  "Bo@@": 2049, 
  "výdaje": 2050, 
  "bolest": 2051, 
  "odkud": 2052, 
  "odpovídající": 2053, 
  "starší": 2054, 
  "dělají": 2055, 
  "1@@": 2056, 
  "bal@@": 2057, 
  "nebudeš": 2058, 
  "klid": 2059, 
  "slyšela": 2060, 
  "celém": 2061, 
  "sledovat": 2062, 
  "hrozně": 2063, 
  "odpovědi": 2064, 
  "jenže": 2065, 
  "prostoru": 2066, 
  "uplatňování": 2067, 
  "X": 2068, 
  "normální": 2069, 
  "Car@@": 2070, 
  "pěti": 2071, 
  "drž": 2072, 
  "Jo": 2073, 
  "předběžné": 2074, 
  "hlavě": 2075, 
  "poslal": 2076, 
  "obsah": 2077, 
  "náhodou": 2078, 
  "neví": 2079, 
  "použije": 2080, 
  "světla": 2081, 
  "aná": 2082, 
  "projektu": 2083, 
  "ochranné": 2084, 
  "sledování": 2085, 
  "míst": 2086, 
  "odešel": 2087, 
  "dopravy": 2088, 
  "každá": 2089, 
  "rodinu": 2090, 
  "plné": 2091, 
  "dávno": 2092, 
  "stranu": 2093, 
  "ech": 2094, 
  "An@@": 2095, 
  "ono": 2096, 
  "for": 2097, 
  "am@@": 2098, 
  "tů": 2099, 
  "napadeného": 2100, 
  "zaměstnanců": 2101, 
  "ut@@": 2102, 
  "mr@@": 2103, 
  "jednom": 2104, 
  "prý": 2105, 
  "držet": 2106, 
  "soubor": 2107, 
  "fungování": 2108, 
  "slunce": 2109, 
  "žije": 2110, 
  "tě@@": 2111, 
  "kapitán": 2112, 
  "dr@@": 2113, 
  "finančního": 2114, 
  "škole": 2115, 
  "kluci": 2116, 
  "kan@@": 2117, 
  "prospěch": 2118, 
  "většinou": 2119, 
  "související": 2120, 
  "změna": 2121, 
  "příležitost": 2122, 
  "kapitola": 2123, 
  "pořádně": 2124, 
  "nes@@": 2125, 
  "jinou": 2126, 
  "Ano": 2127, 
  "tí": 2128, 
  "neod@@": 2129, 
  "jenž": 2130, 
  "str@@": 2131, 
  "kg": 2132, 
  "chodit": 2133, 
  "ickou": 2134, 
  "evropských": 2135, 
  "využití": 2136, 
  "sedm": 2137, 
  "soutěž": 2138, 
  "one": 2139, 
  "někam": 2140, 
  "vztah": 2141, 
  "pos@@": 2142, 
  "per@@": 2143, 
  "zahrnuje": 2144, 
  "dostatečně": 2145, 
  "ť": 2146, 
  "řadě": 2147, 
  "odstavce": 2148, 
  "důkaz": 2149, 
  "vývoj": 2150, 
  "ju": 2151, 
  "působnosti": 2152, 
  "dohromady": 2153, 
  "ací": 2154, 
  "stá@@": 2155, 
  "ští": 2156, 
  "síly": 2157, 
  "počkejte": 2158, 
  "určení": 2159, 
  "vidíte": 2160, 
  "takových": 2161, 
  "umožňuje": 2162, 
  "vypadáš": 2163, 
  "kový": 2164, 
  "prostor": 2165, 
  "minimální": 2166, 
  "pl@@": 2167, 
  "růst": 2168, 
  "lidské": 2169, 
  "hospodářskou": 2170, 
  "kdysi": 2171, 
  "dané": 2172, 
  "správné": 2173, 
  "4@@": 2174, 
  "výzkumu": 2175, 
  "zákona": 2176, 
  "ode@@": 2177, 
  "postupů": 2178, 
  "svými": 2179, 
  "návrhy": 2180, 
  "Ro@@": 2181, 
  "34": 2182, 
  "kovi": 2183, 
  "úřad": 2184, 
  "záleží": 2185, 
  "Ma@@": 2186, 
  "uprostřed": 2187, 
  "jiná": 2188, 
  "skvěle": 2189, 
  "10@@": 2190, 
  "staré": 2191, 
  "případu": 2192, 
  "uju": 2193, 
  "95": 2194, 
  "vodu": 2195, 
  "zemřel": 2196, 
  "nevadí": 2197, 
  "nemusí": 2198, 
  "postupu": 2199, 
  "poskytnout": 2200, 
  "rozvoje": 2201, 
  "Bar@@": 2202, 
  "37": 2203, 
  "ur@@": 2204, 
  "kla@@": 2205, 
  "ří@@": 2206, 
  "státům": 2207, 
  "půjdeme": 2208, 
  "investice": 2209, 
  "Pro@@": 2210, 
  "ty@@": 2211, 
  "potřebuješ": 2212, 
  "rybolovu": 2213, 
  "začátku": 2214, 
  "používá": 2215, 
  "ulici": 2216, 
  "provozu": 2217, 
  "pohyb": 2218, 
  "závěru": 2219, 
  "ujeme": 2220, 
  "sta@@": 2221, 
  "nikomu": 2222, 
  "spousta": 2223, 
  "částka": 2224, 
  "us": 2225, 
  "70": 2226, 
  "33": 2227, 
  "kat": 2228, 
  "43": 2229, 
  "datum": 2230, 
  "kousek": 2231, 
  "ní@@": 2232, 
  "nevíš": 2233, 
  "proti@@": 2234, 
  "ice": 2235, 
  "stará": 2236, 
  "ený": 2237, 
  "Harry": 2238, 
  "dalšího": 2239, 
  "příslušný": 2240, 
  "potřeba": 2241, 
  "nedo@@": 2242, 
  "režim": 2243, 
  "kapitálu": 2244, 
  "vedení": 2245, 
  "osm": 2246, 
  "lidmi": 2247, 
  "hlava": 2248, 
  "touto": 2249, 
  "rozumí": 2250, 
  "platnosti": 2251, 
  "existují": 2252, 
  "prdele": 2253, 
  "jinými": 2254, 
  "vala": 2255, 
  "zrušení": 2256, 
  "ed@@": 2257, 
  "rady": 2258, 
  "žil": 2259, 
  "mluvíš": 2260, 
  "denně": 2261, 
  "jazyk": 2262, 
  "pre@@": 2263, 
  "závazky": 2264, 
  "týče": 2265, 
  "druhá": 2266, 
  "projektů": 2267, 
  "proces": 2268, 
  "uješ": 2269, 
  "sex": 2270, 
  "sestra": 2271, 
  "nemusíš": 2272, 
  "ii": 2273, 
  "hledat": 2274, 
  "růstu": 2275, 
  "zpracování": 2276, 
  "rozhodnutím": 2277, 
  "výběr": 2278, 
  "celkové": 2279, 
  "ň": 2280, 
  "ol@@": 2281, 
  "zahájení": 2282, 
  "páni": 2283, 
  "et@@": 2284, 
  "ke@@": 2285, 
  "usnesení": 2286, 
  "příští": 2287, 
  "bejt": 2288, 
  "Se@@": 2289, 
  "če@@": 2290, 
  "špatný": 2291, 
  "látek": 2292, 
  "lil": 2293, 
  "boj": 2294, 
  "kategorie": 2295, 
  "48": 2296, 
  "ge@@": 2297, 
  "chlapi": 2298, 
  "cítit": 2299, 
  "ztratil": 2300, 
  "chvíle": 2301, 
  "bohužel": 2302, 
  "programy": 2303, 
  "vyšetřování": 2304, 
  "museli": 2305, 
  "moře": 2306, 
  "lov@@": 2307, 
  "technické": 2308, 
  "sil": 2309, 
  "partnerství": 2310, 
  "ického": 2311, 
  "níky": 2312, 
  "Soudního": 2313, 
  "řekli": 2314, 
  "ace": 2315, 
  "strana": 2316, 
  "ul@@": 2317, 
  "nejsme": 2318, 
  "kal": 2319, 
  "jděte": 2320, 
  "ří": 2321, 
  "jednotky": 2322, 
  "položky": 2323, 
  "ber@@": 2324, 
  "manžel": 2325, 
  "aných": 2326, 
  "horší": 2327, 
  "zas": 2328, 
  "ver@@": 2329, 
  "hotelu": 2330, 
  "G": 2331, 
  "uvedeno": 2332, 
  "starosti": 2333, 
  "těmito": 2334, 
  "vstupu": 2335, 
  "využívání": 2336, 
  "šli": 2337, 
  "pamatuješ": 2338, 
  "zacházení": 2339, 
  "EHSV": 2340, 
  "J": 2341, 
  "výrobku": 2342, 
  "kr@@": 2343, 
  "sto@@": 2344, 
  "va": 2345, 
  "udělá": 2346, 
  "čení": 2347, 
  "žení": 2348, 
  "sílu": 2349, 
  "osobně": 2350, 
  "38": 2351, 
  "dnem": 2352, 
  "dávky": 2353, 
  "strašně": 2354, 
  "okamžik": 2355, 
  "kl": 2356, 
  "prů@@": 2357, 
  "dcera": 2358, 
  "kdybyste": 2359, 
  "cestou": 2360, 
  "dalším": 2361, 
  "uvěřit": 2362, 
  "teprve": 2363, 
  "rov@@": 2364, 
  "projekt": 2365, 
  "samé": 2366, 
  "dostanu": 2367, 
  "osvědčení": 2368, 
  "madam": 2369, 
  "unii": 2370, 
  "dohledu": 2371, 
  "očima": 2372, 
  "ší@@": 2373, 
  "čí@@": 2374, 
  "ů@@": 2375, 
  "výjimkou": 2376, 
  "zbraní": 2377, 
  "šaty": 2378, 
  "zavolám": 2379, 
  "44": 2380, 
  "oblastí": 2381, 
  "87": 2382, 
  "ukázat": 2383, 
  "lidských": 2384, 
  "jejích": 2385, 
  "há@@": 2386, 
  "nejste": 2387, 
  "nebudeme": 2388, 
  "stávající": 2389, 
  "sy@@": 2390, 
  "agentury": 2391, 
  "Německo": 2392, 
  "malou": 2393, 
  "pohybu": 2394, 
  "prachy": 2395, 
  "využít": 2396, 
  "pojištění": 2397, 
  "naopak": 2398, 
  "aci": 2399, 
  "výzkum": 2400, 
  "základ": 2401, 
  "nit": 2402, 
  "200": 2403, 
  "právního": 2404, 
  "vzhůru": 2405, 
  "500": 2406, 
  "celní": 2407, 
  "39": 2408, 
  "výroby": 2409, 
  "problémů": 2410, 
  "ukončení": 2411, 
  "někým": 2412, 
  "ane": 2413, 
  "výkonu": 2414, 
  "da@@": 2415, 
  "níci": 2416, 
  "voda": 2417, 
  "2.": 2418, 
  "čekal": 2419, 
  "30.": 2420, 
  "zu": 2421, 
  "nastavení": 2422, 
  "lá": 2423, 
  "so@@": 2424, 
  "jících": 2425, 
  "ukázal": 2426, 
  "přípravky": 2427, 
  "Charlie": 2428, 
  "hu@@": 2429, 
  "náhle": 2430, 
  "kla": 2431, 
  "hu": 2432, 
  "rizik": 2433, 
  "nechala": 2434, 
  "ela": 2435, 
  "řekne": 2436, 
  "republika": 2437, 
  "podstatě": 2438, 
  "mat@@": 2439, 
  "potravin": 2440, 
  "75": 2441, 
  "Ch@@": 2442, 
  "správy": 2443, 
  "Já": 2444, 
  "skými": 2445, 
  "04": 2446, 
  "níků": 2447, 
  "znáte": 2448, 
  "uj": 2449, 
  "http": 2450, 
  "hor@@": 2451, 
  "nechtěla": 2452, 
  "zapomněl": 2453, 
  "formě": 2454, 
  "lé@@": 2455, 
  "any": 2456, 
  "úkol": 2457, 
  "plány": 2458, 
  "Lu@@": 2459, 
  "dokázal": 2460, 
  "nejvyšší": 2461, 
  "Evropy": 2462, 
  "čil": 2463, 
  "články": 2464, 
  "nev@@": 2465, 
  "vrátím": 2466, 
  "jící": 2467, 
  "zachránit": 2468, 
  "aného": 2469, 
  "jel": 2470, 
  "platby": 2471, 
  "Be@@": 2472, 
  "zi": 2473, 
  "vedoucí": 2474, 
  "nepře@@": 2475, 
  "míry": 2476, 
  "as@@": 2477, 
  "pracovníků": 2478, 
  "jím": 2479, 
  "podobné": 2480, 
  "koně": 2481, 
  "bože": 2482, 
  "02": 2483, 
  "všemi": 2484, 
  "tan@@": 2485, 
  "ky@@": 2486, 
  "zi@@": 2487, 
  "války": 2488, 
  "dotčené": 2489, 
  "níka": 2490, 
  "rozhodnout": 2491, 
  "naživu": 2492, 
  "krve": 2493, 
  "výraz": 2494, 
  "zabezpečení": 2495, 
  "dopis": 2496, 
  "začne": 2497, 
  "pracuje": 2498, 
  "mm": 2499, 
  "­": 2500, 
  "evropského": 2501, 
  "ovací": 2502, 
  "žes": 2503, 
  "klidu": 2504, 
  "spolu@@": 2505, 
  "volal": 2506, 
  "někomu": 2507, 
  "ex": 2508, 
  "nemohou": 2509, 
  "ď@@": 2510, 
  "sl@@": 2511, 
  "nechám": 2512, 
  "dohodu": 2513, 
  "nástrojů": 2514, 
  "veřejného": 2515, 
  "soudní": 2516, 
  "dostaneme": 2517, 
  "kód": 2518, 
  "současně": 2519, 
  "hranice": 2520, 
  "Jack": 2521, 
  "uvedeny": 2522, 
  "sto": 2523, 
  "účinnosti": 2524, 
  "mluvím": 2525, 
  "těmto": 2526, 
  "jména": 2527, 
  "metrů": 2528, 
  "účet": 2529, 
  "řídit": 2530, 
  "anou": 2531, 
  "Mo@@": 2532, 
  "dvacet": 2533, 
  "otázek": 2534, 
  "onu": 2535, 
  "jseš": 2536, 
  "udělej": 2537, 
  "ted": 2538, 
  "kus": 2539, 
  "ine": 2540, 
  "Ru@@": 2541, 
  "žené": 2542, 
  "obecně": 2543, 
  "spíše": 2544, 
  "srovnání": 2545, 
  "92": 2546, 
  "fondu": 2547, 
  "nijak": 2548, 
  "případů": 2549, 
  "subjektů": 2550, 
  "blázen": 2551, 
  "odpovědnost": 2552, 
  "adresu": 2553, 
  "předseda": 2554, 
  "ten@@": 2555, 
  "vezmi": 2556, 
  "nemocnice": 2557, 
  "42": 2558, 
  "cí@@": 2559, 
  "nil": 2560, 
  "koupit": 2561, 
  "kar@@": 2562, 
  "změnu": 2563, 
  "Vám": 2564, 
  "proboha": 2565, 
  "nu@@": 2566, 
  "stopy": 2567, 
  "poz@@": 2568, 
  "pomůže": 2569, 
  "neboj": 2570, 
  "původním": 2571, 
  "úřadu": 2572, 
  "léčby": 2573, 
  "nikoli": 2574, 
  "něte": 2575, 
  "zpráv": 2576, 
  "zákon": 2577, 
  "budoucnost": 2578, 
  "2015": 2579, 
  "tvrzení": 2580, 
  "základního": 2581, 
  "postupem": 2582, 
  "šance": 2583, 
  "stolu": 2584, 
  "něž": 2585, 
  "es": 2586, 
  "pě@@": 2587, 
  "tj.": 2588, 
  "kdybychom": 2589, 
  "skutečné": 2590, 
  "stala": 2591, 
  "století": 2592, 
  "roli": 2593, 
  "podařilo": 2594, 
  "chybí": 2595, 
  "yho": 2596, 
  "dokáže": 2597, 
  "bar@@": 2598, 
  "IV": 2599, 
  "snadno": 2600, 
  "odpoledne": 2601, 
  "roční": 2602, 
  "král": 2603, 
  "láska": 2604, 
  "jícího": 2605, 
  "rande": 2606, 
  "skupinu": 2607, 
  "funguje": 2608, 
  "otevřít": 2609, 
  "dojde": 2610, 
  "chlapec": 2611, 
  "protokolu": 2612, 
  "zavedení": 2613, 
  "by@@": 2614, 
  "obličej": 2615, 
  "vin@@": 2616, 
  "dnešní": 2617, 
  "prodeje": 2618, 
  "av@@": 2619, 
  "Co@@": 2620, 
  "chodí": 2621, 
  "politika": 2622, 
  "uvést": 2623, 
  "kanceláře": 2624, 
  "říkáte": 2625, 
  "pokyny": 2626, 
  "chu": 2627, 
  "plný": 2628, 
  "th@@": 2629, 
  "nutno": 2630, 
  "policii": 2631, 
  "tra@@": 2632, 
  "změn": 2633, 
  "támhle": 2634, 
  "hou@@": 2635, 
  "členů": 2636, 
  "základních": 2637, 
  "98": 2638, 
  "jakým": 2639, 
  "nejprve": 2640, 
  "mladý": 2641, 
  "týdnů": 2642, 
  "Du@@": 2643, 
  "odpovídá": 2644, 
  "otočil": 2645, 
  "zdravotní": 2646, 
  "přestože": 2647, 
  "ita": 2648, 
  "lou@@": 2649, 
  "dáte": 2650, 
  "zůstal": 2651, 
  "men@@": 2652, 
  "cen@@": 2653, 
  "kroky": 2654, 
  "míru": 2655, 
  "okolo": 2656, 
  "DPH": 2657, 
  "val@@": 2658, 
  "účinné": 2659, 
  "požadavků": 2660, 
  "&gt;": 2661, 
  "ple@@": 2662, 
  "brát": 2663, 
  "jeme": 2664, 
  "dělala": 2665, 
  "čního": 2666, 
  "hra": 2667, 
  "lodí": 2668, 
  "smluvní": 2669, 
  "vysvětlit": 2670, 
  "pomohl": 2671, 
  "us@@": 2672, 
  "X@@": 2673, 
  "čila": 2674, 
  "re": 2675, 
  "gu@@": 2676, 
  "reakce": 2677, 
  "46": 2678, 
  "w@@": 2679, 
  "úpravy": 2680, 
  "Y": 2681, 
  "ď": 2682, 
  "zvedl": 2683, 
  "15.": 2684, 
  "sy": 2685, 
  "lit": 2686, 
  "Har@@": 2687, 
  "vej": 2688, 
  "potíže": 2689, 
  "okna": 2690, 
  "setkání": 2691, 
  "rozhodla": 2692, 
  "nedělej": 2693, 
  "kovou": 2694, 
  "pracoval": 2695, 
  "41": 2696, 
  "ovaného": 2697, 
  "čili": 2698, 
  "sku": 2699, 
  "Joe": 2700, 
  "původní": 2701, 
  "třídy": 2702, 
  "In@@": 2703, 
  "jedeme": 2704, 
  "můžou": 2705, 
  "Mc@@": 2706, 
  "neudělal": 2707, 
  "tří@@": 2708, 
  "Na": 2709, 
  "stejnou": 2710, 
  "připraven": 2711, 
  "Me@@": 2712, 
  "sp@@": 2713, 
  "be": 2714, 
  "tka": 2715, 
  "tvým": 2716, 
  "metody": 2717, 
  "dívat": 2718, 
  "přítele": 2719, 
  "91": 2720, 
  "politické": 2721, 
  "politik": 2722, 
  "tní": 2723, 
  "kop@@": 2724, 
  "schopnost": 2725, 
  "též": 2726, 
  "čkou": 2727, 
  "ec": 2728, 
  "Yorku": 2729, 
  "sotva": 2730, 
  "ť@@": 2731, 
  "zuby": 2732, 
  "az@@": 2733, 
  "ství": 2734, 
  "tiše": 2735, 
  "obecné": 2736, 
  "hr@@": 2737, 
  "nejdříve": 2738, 
  "začali": 2739, 
  "un@@": 2740, 
  "parlament": 2741, 
  "dívka": 2742, 
  "49": 2743, 
  "potřeboval": 2744, 
  "jdou": 2745, 
  "sí@@": 2746, 
  "budoucnosti": 2747, 
  "ách": 2748, 
  "opatrně": 2749, 
  "Evropa": 2750, 
  "souboru": 2751, 
  "neříkej": 2752, 
  "tí@@": 2753, 
  "Do@@": 2754, 
  "prsty": 2755, 
  "ovu": 2756, 
  "rada": 2757, 
  "minulosti": 2758, 
  "nechápu": 2759, 
  "jakékoli": 2760, 
  "dovolit": 2761, 
  "ist@@": 2762, 
  "jícím": 2763, 
  "záznamy": 2764, 
  "mrzí": 2765, 
  "podávání": 2766, 
  "schopnosti": 2767, 
  "neznamená": 2768, 
  "ickým": 2769, 
  "zastavil": 2770, 
  "týkají": 2771, 
  "dokumenty": 2772, 
  "cokoli": 2773, 
  "postele": 2774, 
  "povinností": 2775, 
  "Francie": 2776, 
  "mal@@": 2777, 
  "zprávě": 2778, 
  "ic@@": 2779, 
  "ag@@": 2780, 
  "94": 2781, 
  "sch@@": 2782, 
  "níku": 2783, 
  "kterému": 2784, 
  "še": 2785, 
  "že@@": 2786, 
  "věděli": 2787, 
  "stranou": 2788, 
  "sektoru": 2789, 
  "del": 2790, 
  "poskytuje": 2791, 
  "Ž@@": 2792, 
  "pat@@": 2793, 
  "2020": 2794, 
  "rové": 2795, 
  "vou": 2796, 
  "domnívá": 2797, 
  "úrovně": 2798, 
  "hraje": 2799, 
  "příště": 2800, 
  "ä@@": 2801, 
  "centrální": 2802, 
  "Věc": 2803, 
  "1.@@": 2804, 
  "ujete": 2805, 
  "určit": 2806, 
  "řekneš": 2807, 
  "zvuk": 2808, 
  "či@@": 2809, 
  "Mor@@": 2810, 
  "Pe@@": 2811, 
  "še@@": 2812, 
  "Radě": 2813, 
  "říkali": 2814, 
  "ste@@": 2815, 
  "stůl": 2816, 
  "96": 2817, 
  "bá@@": 2818, 
  "anebo": 2819, 
  "Vás": 2820, 
  "chlapa": 2821, 
  "ješ": 2822, 
  "Spojené": 2823, 
  "zvláště": 2824, 
  "20.": 2825, 
  "03": 2826, 
  "děláme": 2827, 
  "ochraně": 2828, 
  "tímhle": 2829, 
  "kra@@": 2830, 
  "trvat": 2831, 
  "klíč": 2832, 
  "so": 2833, 
  "druhy": 2834, 
  "ac@@": 2835, 
  "05": 2836, 
  "fi@@": 2837, 
  "noční": 2838, 
  "dalo": 2839, 
  "čase": 2840, 
  "len@@": 2841, 
  "zapotřebí": 2842, 
  "mimochodem": 2843, 
  "ga": 2844, 
  "Jacku": 2845, 
  "lou": 2846, 
  "Na@@": 2847, 
  "vypadal": 2848, 
  "hospodářského": 2849, 
  "zení": 2850, 
  "°": 2851, 
  "cím": 2852, 
  "trvání": 2853, 
  "dle": 2854, 
  "ovém": 2855, 
  "umožní": 2856, 
  "ovanou": 2857, 
  "HDP": 2858, 
  "ená": 2859, 
  "ba@@": 2860, 
  "rem": 2861, 
  "boty": 2862, 
  "Aha": 2863, 
  "objevil": 2864, 
  "John": 2865, 
  "účinnost": 2866, 
  "es@@": 2867, 
  "mar@@": 2868, 
  "my@@": 2869, 
  "domácí": 2870, 
  "malých": 2871, 
  "krát": 2872, 
  "dobrej": 2873, 
  "Pane": 2874, 
  "veřejnosti": 2875, 
  "93": 2876, 
  "skončí": 2877, 
  "ši": 2878, 
  "dovozu": 2879, 
  "bí@@": 2880, 
  "hle@@": 2881, 
  "závěr": 2882, 
  "emisí": 2883, 
  "rozšíření": 2884, 
  "hry": 2885, 
  "trošku": 2886, 
  "cos": 2887, 
  "ině": 2888, 
  "dveří": 2889, 
  "komu": 2890, 
  "stře@@": 2891, 
  "vají": 2892, 
  "projekty": 2893, 
  "zjevně": 2894, 
  "eny": 2895, 
  "ry@@": 2896, 
  "tlak": 2897, 
  "závazků": 2898, 
  "podporovat": 2899, 
  "pěkný": 2900, 
  "záležitosti": 2901, 
  "republiky": 2902, 
  "díval": 2903, 
  "65": 2904, 
  "jíst": 2905, 
  "přestat": 2906, 
  "mil": 2907, 
  "celého": 2908, 
  "kol@@": 2909, 
  "kových": 2910, 
  "Unii": 2911, 
  "ačkoli": 2912, 
  "kterými": 2913, 
  "neustále": 2914, 
  "nástroj": 2915, 
  "zvířata": 2916, 
  "rozumím": 2917, 
  "technologie": 2918, 
  "vybavení": 2919, 
  "sociálního": 2920, 
  "nějakého": 2921, 
  "ici": 2922, 
  "Evropskou": 2923, 
  "tky": 2924, 
  "hy": 2925, 
  "určitých": 2926, 
  "šek": 2927, 
  "film": 2928, 
  "vybrat": 2929, 
  "něné": 2930, 
  "výkon": 2931, 
  "provádí": 2932, 
  "kvality": 2933, 
  "PO@@": 2934, 
  "srpna": 2935, 
  "vrať": 2936, 
  "žen@@": 2937, 
  "dech": 2938, 
  "přijala": 2939, 
  "možno": 2940, 
  "nov@@": 2941, 
  "88": 2942, 
  "poskytnutí": 2943, 
  "výsledků": 2944, 
  "případy": 2945, 
  "druhů": 2946, 
  "hlavním": 2947, 
  "sta": 2948, 
  "organizací": 2949, 
  "seděl": 2950, 
  "55": 2951, 
  "zdravím": 2952, 
  "subjekt": 2953, 
  "čce": 2954, 
  "vydání": 2955, 
  "účast": 2956, 
  "provádět": 2957, 
  "51": 2958, 
  "mem": 2959, 
  "koupil": 2960, 
  "Viz": 2961, 
  "řečeno": 2962, 
  "obavy": 2963, 
  "uvědomil": 2964, 
  "lan@@": 2965, 
  "ost": 2966, 
  "km": 2967, 
  "bě@@": 2968, 
  "chlapče": 2969, 
  "orgánům": 2970, 
  "zad@@": 2971, 
  "politiku": 2972, 
  "připomínky": 2973, 
  "ovo": 2974, 
  "představují": 2975, 
  "prostředku": 2976, 
  "považuje": 2977, 
  "ticho": 2978, 
  "til": 2979, 
  "dlouhé": 2980, 
  "autě": 2981, 
  "dostaneš": 2982, 
  "Kar@@": 2983, 
  "krku": 2984, 
  "OSN": 2985, 
  "běžte": 2986, 
  "směrnici": 2987, 
  "07": 2988, 
  "brzo": 2989, 
  "vědomí": 2990, 
  "dokument": 2991, 
  "vašich": 2992, 
  "služba": 2993, 
  "nebyli": 2994, 
  "rozporu": 2995, 
  "06": 2996, 
  "neš": 2997, 
  "vzduch": 2998, 
  "poslouchejte": 2999, 
  "čau": 3000, 
  "jede": 3001, 
  "ává": 3002, 
  "ing@@": 3003, 
  "přísahám": 3004, 
  "chránit": 3005, 
  "požádat": 3006, 
  "sen@@": 3007, 
  "Bu@@": 3008, 
  "zásadní": 3009, 
  "přezkumu": 3010, 
  "rozhod@@": 3011, 
  "věcech": 3012, 
  "ia": 3013, 
  "vu": 3014, 
  "2.@@": 3015, 
  "pes": 3016, 
  "zůstaň": 3017, 
  "jiném": 3018, 
  "příteli": 3019, 
  "bysme": 3020, 
  "směrnicí": 3021, 
  "rámce": 3022, 
  "300": 3023, 
  "pu": 3024, 
  "rána": 3025, 
  "47": 3026, 
  "text": 3027, 
  "chy@@": 3028, 
  "rovnou": 3029, 
  "eli": 3030, 
  "zjištění": 3031, 
  "službu": 3032, 
  "sá@@": 3033, 
  "jednotlivé": 3034, 
  "závěry": 3035, 
  "činí": 3036, 
  "nejhorší": 3037, 
  "hru": 3038, 
  "sedět": 3039, 
  "tek": 3040, 
  "vnější": 3041, 
  "3.": 3042, 
  "08": 3043, 
  "bratra": 3044, 
  "schopen": 3045, 
  "zkusit": 3046, 
  "p.m.": 3047, 
  "tvoří": 3048, 
  "ev@@": 3049, 
  "den@@": 3050, 
  "šéfe": 3051, 
  "dí": 3052, 
  "článků": 3053, 
  "nezbytná": 3054, 
  "ňuje": 3055, 
  "užívání": 3056, 
  "uděláš": 3057, 
  "Ber@@": 3058, 
  "stránky": 3059, 
  "účasti": 3060, 
  "mrtvá": 3061, 
  "ýho": 3062, 
  "držel": 3063, 
  "IT": 3064, 
  "najdeme": 3065, 
  "vým": 3066, 
  "podaná": 3067, 
  "zkušenosti": 3068, 
  "produkce": 3069, 
  "sová": 3070, 
  "obchodních": 3071, 
  "krá@@": 3072, 
  "radost": 3073, 
  "anti@@": 3074, 
  "žený": 3075, 
  "šťastný": 3076, 
  "pen@@": 3077, 
  "lin@@": 3078, 
  "považovat": 3079, 
  "cení": 3080, 
  "letiště": 3081, 
  "mozek": 3082, 
  "poznal": 3083, 
  "ším": 3084, 
  "drží": 3085, 
  "man": 3086, 
  "eno": 3087, 
  "odstavec": 3088, 
  "čit": 3089, 
  "sh@@": 3090, 
  "zvýšit": 3091, 
  "šéf": 3092, 
  "jednat": 3093, 
  "znova": 3094, 
  "aplikace": 3095, 
  "nedávno": 3096, 
  "výrobní": 3097, 
  "nelíbí": 3098, 
  "čer@@": 3099, 
  "vol@@": 3100, 
  "najdu": 3101, 
  "jedinou": 3102, 
  "čním": 3103, 
  "plá@@": 3104, 
  "příjmů": 3105, 
  "3.@@": 3106, 
  "1998": 3107, 
  "dodržování": 3108, 
  "oblečení": 3109, 
  "prvky": 3110, 
  "kot@@": 3111, 
  "bodů": 3112, 
  "moment": 3113, 
  "FBI": 3114, 
  "dra@@": 3115, 
  "ži@@": 3116, 
  "právem": 3117, 
  "dojem": 3118, 
  "úmluvy": 3119, 
  "zavolal": 3120, 
  "0,@@": 3121, 
  "13@@": 3122, 
  "neroz@@": 3123, 
  "4.": 3124, 
  "ska": 3125, 
  "rozpočet": 3126, 
  "Jak": 3127, 
  "zdi": 3128, 
  "zeměmi": 3129, 
  "spo@@": 3130, 
  "nahrazuje": 3131, 
  "ši@@": 3132, 
  "věř": 3133, 
  "tro@@": 3134, 
  "prohlásil": 3135, 
  "sexy": 3136, 
  "bolí": 3137, 
  "účinek": 3138, 
  "icky": 3139, 
  "tvoji": 3140, 
  "zůstane": 3141, 
  "šesti": 3142, 
  "skvělá": 3143, 
  "18@@": 3144, 
  "os@@": 3145, 
  "technologií": 3146, 
  "málem": 3147, 
  "vel@@": 3148, 
  "váme": 3149, 
  "silný": 3150, 
  "agentura": 3151, 
  "nedá": 3152, 
  "státem": 3153, 
  "sle@@": 3154, 
  "dají": 3155, 
  "ral": 3156, 
  "udržet": 3157, 
  "obsahu": 3158, 
  "pou@@": 3159, 
  "poslat": 3160, 
  "neřekla": 3161, 
  "infrastruktury": 3162, 
  "odkaz": 3163, 
  "napsal": 3164, 
  "97": 3165, 
  "druhém": 3166, 
  "nikam": 3167, 
  "boji": 3168, 
  "podobě": 3169, 
  "výsledek": 3170, 
  "posuzování": 3171, 
  "řadu": 3172, 
  "prezident": 3173, 
  "52": 3174, 
  "pobytu": 3175, 
  "Mon@@": 3176, 
  "boje": 3177, 
  "matku": 3178, 
  "kůže": 3179, 
  "dělali": 3180, 
  "fe@@": 3181, 
  "ření": 3182, 
  "12@@": 3183, 
  "státních": 3184, 
  "změně": 3185, 
  "neme": 3186, 
  "vypadat": 3187, 
  "53": 3188, 
  "tváře": 3189, 
  "druhu": 3190, 
  "řada": 3191, 
  "aktivní": 3192, 
  "duše": 3193, 
  "em@@": 3194, 
  "ženě": 3195, 
  "náhradu": 3196, 
  "ených": 3197, 
  "vesmíru": 3198, 
  "myšlenky": 3199, 
  "zatraceně": 3200, 
  "ukaž": 3201, 
  "miláčku": 3202, 
  "sti@@": 3203, 
  "vali": 3204, 
  "tak@@": 3205, 
  "níkem": 3206, 
  "vod@@": 3207, 
  "zajímá": 3208, 
  "chlapci": 3209, 
  "požádal": 3210, 
  "občanů": 3211, 
  "velikost": 3212, 
  "zavolej": 3213, 
  "16.": 3214, 
  "nejpozději": 3215, 
  "řídí": 3216, 
  "mysleli": 3217, 
  "tech": 3218, 
  "ste": 3219, 
  "svojí": 3220, 
  "posílení": 3221, 
  "roze@@": 3222, 
  "obsahující": 3223, 
  "pití": 3224, 
  "stanoviska": 3225, 
  "posteli": 3226, 
  "Man@@": 3227, 
  "tudy": 3228, 
  "hlášení": 3229, 
  "popis": 3230, 
  "nepři@@": 3231, 
  "dávat": 3232, 
  "sko": 3233, 
  "svá": 3234, 
  "skončil": 3235, 
  "rozsah": 3236, 
  "oběti": 3237, 
  "umění": 3238, 
  "normy": 3239, 
  "pevně": 3240, 
  "Per@@": 3241, 
  "85": 3242, 
  "týmu": 3243, 
  "přemýšlel": 3244, 
  "81": 3245, 
  "příjmy": 3246, 
  "čních": 3247, 
  "Pokud": 3248, 
  "palubě": 3249, 
  "cům": 3250, 
  "devět": 3251, 
  "novým": 3252, 
  "zeptala": 3253, 
  "věstníku": 3254, 
  "rukama": 3255, 
  "našem": 3256, 
  "začalo": 3257, 
  "jete": 3258, 
  "7.": 3259, 
  "zemědělství": 3260, 
  "mluvila": 3261, 
  "im@@": 3262, 
  "referenční": 3263, 
  "změnil": 3264, 
  "knihy": 3265, 
  "lodě": 3266, 
  "lové": 3267, 
  "56": 3268, 
  "mon@@": 3269, 
  "ECB": 3270, 
  "obávám": 3271, 
  "pokaždé": 3272, 
  "skutečný": 3273, 
  "Od@@": 3274, 
  "získal": 3275, 
  "párty": 3276, 
  "slečna": 3277, 
  "vychází": 3278, 
  "maso": 3279, 
  "institucí": 3280, 
  "vrah": 3281, 
  "zásadě": 3282, 
  "umí": 3283, 
  "nici": 3284, 
  "klimatu": 3285, 
  "plavidla": 3286, 
  "cítila": 3287, 
  "obraz": 3288, 
  "vlastnictví": 3289, 
  "možností": 3290, 
  "pivo": 3291, 
  "poslouchat": 3292, 
  "řil": 3293, 
  "předpokladu": 3294, 
  "Li@@": 3295, 
  "nechcete": 3296, 
  "válka": 3297, 
  "síla": 3298, 
  "těžko": 3299, 
  "vzali": 3300, 
  "zachování": 3301, 
  "policejní": 3302, 
  "skupin": 3303, 
  "zat@@": 3304, 
  "licence": 3305, 
  "pokroku": 3306, 
  "vztahy": 3307, 
  "souvisejících": 3308, 
  "mí": 3309, 
  "zdroj": 3310, 
  "přípravků": 3311, 
  "péče": 3312, 
  "překvapení": 3313, 
  "nachází": 3314, 
  "byt": 3315, 
  "zástupci": 3316, 
  "níže": 3317, 
  "investic": 3318, 
  "ab@@": 3319, 
  "signál": 3320, 
  "ap@@": 3321, 
  "pán": 3322, 
  "dí@@": 3323, 
  "beru": 3324, 
  "vedl": 3325, 
  "Ale": 3326, 
  "vlastnosti": 3327, 
  "min@@": 3328, 
  "osobních": 3329, 
  "ata": 3330, 
  "vrátila": 3331, 
  "produktu": 3332, 
  "ruky": 3333, 
  "projít": 3334, 
  "Mary": 3335, 
  "lila": 3336, 
  "zkus": 3337, 
  "dni": 3338, 
  "znal": 3339, 
  "zachránil": 3340, 
  "přípravkem": 3341, 
  "definice": 3342, 
  "rovi": 3343, 
  "nat@@": 3344, 
  "ony": 3345, 
  "21.": 3346, 
  "zvlášť": 3347, 
  "platit": 3348, 
  "gi@@": 3349, 
  "hubu": 3350, 
  "SFEU": 3351, 
  "ihned": 3352, 
  "hlavních": 3353, 
  "snažila": 3354, 
  "budoucí": 3355, 
  "go": 3356, 
  "deseti": 3357, 
  "prdel": 3358, 
  "oddíl": 3359, 
  "tohohle": 3360, 
  "společný": 3361, 
  "uvedeným": 3362, 
  "are": 3363, 
  "5.": 3364, 
  "sledoval": 3365, 
  "lhůty": 3366, 
  "příspěvek": 3367, 
  "kanceláři": 3368, 
  "71": 3369, 
  "ostatními": 3370, 
  "určené": 3371, 
  "úkoly": 3372, 
  "hrál": 3373, 
  "předchozí": 3374, 
  "pravomoc": 3375, 
  "chuť": 3376, 
  "potřebujete": 3377, 
  "ukazuje": 3378, 
  "Vý@@": 3379, 
  "koukni": 3380, 
  "prací": 3381, 
  "aktiv": 3382, 
  "částí": 3383, 
  "nejvíc": 3384, 
  "19.": 3385, 
  "velikosti": 3386, 
  "Evropských": 3387, 
  "relevantní": 3388, 
  "žila": 3389, 
  "škoda": 3390, 
  "ama": 3391, 
  "dceru": 3392, 
  "09": 3393, 
  "krásná": 3394, 
  "Par@@": 3395, 
  "ujte": 3396, 
  "vztahují": 3397, 
  "kor@@": 3398, 
  "hnout": 3399, 
  "zkoušky": 3400, 
  "poslyš": 3401, 
  "otevřel": 3402, 
  "zničit": 3403, 
  "vývoje": 3404, 
  "poznámky": 3405, 
  "vidí": 3406, 
  "registraci": 3407, 
  "99": 3408, 
  "způsoby": 3409, 
  "4.@@": 3410, 
  "úžasné": 3411, 
  "tisíce": 3412, 
  "rychlost": 3413, 
  "musejí": 3414, 
  "vysokou": 3415, 
  "televizi": 3416, 
  "tvých": 3417, 
  "šení": 3418, 
  "tal": 3419, 
  "záležitost": 3420, 
  "prostředek": 3421, 
  "zaplatit": 3422, 
  "Ver@@": 3423, 
  "čné": 3424, 
  "hospodářský": 3425, 
  "drahá": 3426, 
  "dovoz": 3427, 
  "cla": 3428, 
  "DE": 3429, 
  "výrobci": 3430, 
  "zu@@": 3431, 
  "přezkum": 3432, 
  "he@@": 3433, 
  "předem": 3434, 
  "89": 3435, 
  "zmizel": 3436, 
  "ostatním": 3437, 
  "St@@": 3438, 
  "léta": 3439, 
  "nohou": 3440, 
  "zájmy": 3441, 
  "El@@": 3442, 
  "oheň": 3443, 
  "Spojených": 3444, 
  "potřebují": 3445, 
  "neviděla": 3446, 
  "chybu": 3447, 
  "aným": 3448, 
  "11.": 3449, 
  "dokumentu": 3450, 
  "půjdeš": 3451, 
  "odborné": 3452, 
  "6.": 3453, 
  "něji": 3454, 
  "telefonu": 3455, 
  "Su@@": 3456, 
  "holku": 3457, 
  "pokrytí": 3458, 
  "pe": 3459, 
  "54": 3460, 
  "os": 3461, 
  "14.": 3462, 
  "Di@@": 3463, 
  "stává": 3464, 
  "ři@@": 3465, 
  "hezký": 3466, 
  "ity": 3467, 
  "pochopit": 3468, 
  "s.r.o.": 3469, 
  "8.": 3470, 
  "čně": 3471, 
  "stupně": 3472, 
  "Ostatní": 3473, 
  "zaměstnání": 3474, 
  "vlastních": 3475, 
  "vypadalo": 3476, 
  "án": 3477, 
  "budovy": 3478, 
  "výborně": 3479, 
  "mor@@": 3480, 
  "lení": 3481, 
  "požadavek": 3482, 
  "průmyslu": 3483, 
  "svobody": 3484, 
  "smě@@": 3485, 
  "fázi": 3486, 
  "vyjádření": 3487, 
  "téma": 3488, 
  "vlastního": 3489, 
  "škody": 3490, 
  "rozkaz": 3491, 
  "tvojí": 3492, 
  "álních": 3493, 
  "bolesti": 3494, 
  "většinu": 3495, 
  "cu@@": 3496, 
  "vysvětlení": 3497, 
  "významné": 3498, 
  "dis@@": 3499, 
  "pohledu": 3500, 
  "současnosti": 3501, 
  "17.": 3502, 
  "Jo@@": 3503, 
  "Ko@@": 3504, 
  "mikro@@": 3505, 
  "dosaženo": 3506, 
  "mod@@": 3507, 
  "členy": 3508, 
  "letadlo": 3509, 
  "sítí": 3510, 
  "zná": 3511, 
  "ztráty": 3512, 
  "navzdory": 3513, 
  "stanovena": 3514, 
  "Itálie": 3515, 
  "investiční": 3516, 
  "slyším": 3517, 
  "nezáleží": 3518, 
  "stí": 3519, 
  "test": 3520, 
  "částečně": 3521, 
  "18.": 3522, 
  "chlápek": 3523, 
  "ačkoliv": 3524, 
  "bere": 3525, 
  "doopravdy": 3526, 
  "zabili": 3527, 
  "vysoce": 3528, 
  "Zemi": 3529, 
  "kontrolní": 3530, 
  "součást": 3531, 
  "jednacího": 3532, 
  "12.": 3533, 
  "kového": 3534, 
  "okolí": 3535, 
  "vě": 3536, 
  "nos": 3537, 
  "5.@@": 3538, 
  "všiml": 3539, 
  "Parlamentu": 3540, 
  "gen@@": 3541, 
  "události": 3542, 
  "id": 3543, 
  "pozici": 3544, 
  "balení": 3545, 
  "mo": 3546, 
  "cké": 3547, 
  "nemělo": 3548, 
  "úprava": 3549, 
  "cítíš": 3550, 
  "eur": 3551, 
  "oběd": 3552, 
  "útok": 3553, 
  "upřímně": 3554, 
  "ent@@": 3555, 
  "obrátil": 3556, 
  "pokračoval": 3557, 
  "sporu": 3558, 
  "letadla": 3559, 
  "energii": 3560, 
  "odpovědnosti": 3561, 
  "skému": 3562, 
  "déle": 3563, 
  "moři": 3564, 
  "psa": 3565, 
  "dil": 3566, 
  "trhy": 3567, 
  "lhůtě": 3568, 
  "úspěch": 3569, 
  "ST@@": 3570, 
  "nili": 3571, 
  "dobou": 3572, 
  "zůstává": 3573, 
  "ovými": 3574, 
  "hezké": 3575, 
  "pozice": 3576, 
  "žili": 3577, 
  "operaci": 3578, 
  "žalobní": 3579, 
  "14@@": 3580, 
  "dohod": 3581, 
  "15@@": 3582, 
  "příslušným": 3583, 
  "minulý": 3584, 
  "částku": 3585, 
  "10.": 3586, 
  "vysoký": 3587, 
  "globální": 3588, 
  "vytváření": 3589, 
  "nemocnici": 3590, 
  "kur@@": 3591, 
  "tvém": 3592, 
  "zadek": 3593, 
  "lásku": 3594, 
  "Je@@": 3595, 
  "nete": 3596, 
  "šku": 3597, 
  "pad@@": 3598, 
  "baru": 3599, 
  "včas": 3600, 
  "tri@@": 3601, 
  "zabiju": 3602, 
  "star@@": 3603, 
  "připravit": 3604, 
  "zí@@": 3605, 
  "ochrana": 3606, 
  "doktora": 3607, 
  "Vaše": 3608, 
  "přinejmenším": 3609, 
  "22.": 3610, 
  "br@@": 3611, 
  "itu": 3612, 
  "trvalo": 3613, 
  "stří@@": 3614, 
  "léky": 3615, 
  "58": 3616, 
  "nevíme": 3617, 
  "milionu": 3618, 
  "Con@@": 3619, 
  "vytáhl": 3620, 
  "miluji": 3621, 
  "sebe@@": 3622, 
  "haló": 3623, 
  "číst": 3624, 
  "záznam": 3625, 
  "nestalo": 3626, 
  "manželství": 3627, 
  "jem": 3628, 
  "pěkné": 3629, 
  "ck@@": 3630, 
  "žaloby": 3631, 
  "lej": 3632, 
  "podpoře": 3633, 
  "Ó": 3634, 
  "zabránit": 3635, 
  "volný": 3636, 
  "dně": 3637, 
  "57": 3638, 
  "naučil": 3639, 
  "Ř@@": 3640, 
  "ovaným": 3641, 
  "prováděcí": 3642, 
  "papíry": 3643, 
  "miluje": 3644, 
  "der": 3645, 
  "knihu": 3646, 
  "jednoduché": 3647, 
  "schůzku": 3648, 
  "navždy": 3649, 
  "jed@@": 3650, 
  "6.@@": 3651, 
  "skupině": 3652, 
  "nějších": 3653, 
  "akci": 3654, 
  "masa": 3655, 
  "znamenat": 3656, 
  "rová": 3657, 
  "ok@@": 3658, 
  "fungovat": 3659, 
  "álního": 3660, 
  "regionu": 3661, 
  "valy": 3662, 
  "ora": 3663, 
  "meč": 3664, 
  "četl": 3665, 
  "očích": 3666, 
  "ňují": 3667, 
  "příkaz": 3668, 
  "jisté": 3669, 
  "příslušnými": 3670, 
  "mozku": 3671, 
  "duši": 3672, 
  "kluka": 3673, 
  "fin@@": 3674, 
  "jednoduše": 3675, 
  "oběť": 3676, 
  "vlastním": 3677, 
  "59": 3678, 
  "získání": 3679, 
  "právními": 3680, 
  "nemohli": 3681, 
  "žádostí": 3682, 
  "hal": 3683, 
  "He@@": 3684, 
  "kej": 3685, 
  "mise": 3686, 
  "zemřít": 3687, 
  "mezinárodních": 3688, 
  "očividně": 3689, 
  "nevidím": 3690, 
  "pravé": 3691, 
  "stroje": 3692, 
  "daňové": 3693, 
  "dostupné": 3694, 
  "jí@@": 3695, 
  "závislosti": 3696, 
  "Soudu": 3697, 
  "pravidelně": 3698, 
  "Johne": 3699, 
  "mluvili": 3700, 
  "23.": 3701, 
  "16@@": 3702, 
  "složky": 3703, 
  "doprava": 3704, 
  "nevěděla": 3705, 
  "úlohu": 3706, 
  "gu": 3707, 
  "členové": 3708, 
  "zy": 3709, 
  "navzájem": 3710, 
  "dotčených": 3711, 
  "síť": 3712, 
  "vydal": 3713, 
  "uz@@": 3714, 
  "činu": 3715, 
  "spojené": 3716, 
  "žená": 3717, 
  "9.": 3718, 
  "mému": 3719, 
  "spotřebitele": 3720, 
  "dohodě": 3721, 
  "ější": 3722, 
  "nějším": 3723, 
  "ulice": 3724, 
  "předloží": 3725, 
  "argumenty": 3726, 
  "ic": 3727, 
  "jinde": 3728, 
  "použijí": 3729, 
  "sbohem": 3730, 
  "úmyslu": 3731, 
  "64": 3732, 
  "der@@": 3733, 
  "přichází": 3734, 
  "Á@@": 3735, 
  "divné": 3736, 
  "vzadu": 3737, 
  "oz@@": 3738, 
  "srandu": 3739, 
  "odešla": 3740, 
  "dávka": 3741, 
  "ely": 3742, 
  "jdete": 3743, 
  "krásné": 3744, 
  "nese": 3745, 
  "Cor@@": 3746, 
  "působí": 3747, 
  "nula": 3748, 
  "72": 3749, 
  "výrobu": 3750, 
  "ávat": 3751, 
  "blíž": 3752, 
  "leží": 3753, 
  "ner@@": 3754, 
  "nebezpečné": 3755, 
  "zbavit": 3756, 
  "potřebné": 3757, 
  "námořní": 3758, 
  "13.": 3759, 
  "jícími": 3760, 
  "moct": 3761, 
  "existenci": 3762, 
  "důležitý": 3763, 
  "nejvíce": 3764, 
  "naučit": 3765, 
  "pomyslel": 3766, 
  "tit": 3767, 
  "předpokládám": 3768, 
  "příležitosti": 3769, 
  "informační": 3770, 
  "nen@@": 3771, 
  "ino": 3772, 
  "povahy": 3773, 
  "nily": 3774, 
  "násilí": 3775, 
  "příjemce": 3776, 
  "ška": 3777, 
  "ah": 3778, 
  "iz@@": 3779, 
  "dochází": 3780, 
  "snížit": 3781, 
  "konkrétně": 3782, 
  "podporuje": 3783, 
  "George": 3784, 
  "světle": 3785, 
  "ro": 3786, 
  "kru@@": 3787, 
  "otevřené": 3788, 
  "nabídky": 3789, 
  "zabije": 3790, 
  "černé": 3791, 
  "banka": 3792, 
  "následujících": 3793, 
  "chovat": 3794, 
  "takovým": 3795, 
  "dá@@": 3796, 
  "rokem": 3797, 
  "vsadím": 3798, 
  "tla@@": 3799, 
  "iniciativy": 3800, 
  "zlepšit": 3801, 
  "Podle": 3802, 
  "buďte": 3803, 
  "20@@": 3804, 
  "hm": 3805, 
  "Jane": 3806, 
  "hodit": 3807, 
  "kovat": 3808, 
  "ukázalo": 3809, 
  "ruka": 3810, 
  "panu": 3811, 
  "vašem": 3812, 
  "Kon@@": 3813, 
  "28.": 3814, 
  "sedí": 3815, 
  "hod@@": 3816, 
  "matky": 3817, 
  "odstranění": 3818, 
  "smlouva": 3819, 
  "injekční": 3820, 
  "Žaloba": 3821, 
  "léčbě": 3822, 
  "navrhuje": 3823, 
  "položka": 3824, 
  "tržní": 3825, 
  "připraveni": 3826, 
  "návrhů": 3827, 
  "vole": 3828, 
  "chy": 3829, 
  "paměti": 3830, 
  "fáze": 3831, 
  "používají": 3832, 
  "1997": 3833, 
  "dojít": 3834, 
  "pal@@": 3835, 
  "okolnosti": 3836, 
  "vedlejší": 3837, 
  "ký": 3838, 
  "dárek": 3839, 
  "nevěřím": 3840, 
  "nevíte": 3841, 
  "přání": 3842, 
  "ad": 3843, 
  "spojených": 3844, 
  "bodech": 3845, 
  "hodnot": 3846, 
  "analýzy": 3847, 
  "ženo": 3848, 
  "válce": 3849, 
  "oru": 3850, 
  "hla": 3851, 
  "Dohody": 3852, 
  "rychleji": 3853, 
  "vodou": 3854, 
  "skrz": 3855, 
  "Za@@": 3856, 
  "hospodářských": 3857, 
  "vítejte": 3858, 
  "sed@@": 3859, 
  "hl": 3860, 
  "zaměstnanci": 3861, 
  "přinesl": 3862, 
  "nbsp": 3863, 
  "EN@@": 3864, 
  "perfektní": 3865, 
  "vyřešit": 3866, 
  "řádně": 3867, 
  "svě@@": 3868, 
  "knout": 3869, 
  "jedu": 3870, 
  "vědí": 3871, 
  "řešit": 3872, 
  "pri@@": 3873, 
  "hlad": 3874, 
  "vý": 3875, 
  "hezky": 3876, 
  "člověče": 3877, 
  "kontrolou": 3878, 
  "agent": 3879, 
  "trvá": 3880, 
  "odstranit": 3881, 
  "tváří": 3882, 
  "zadní": 3883, 
  "jediným": 3884, 
  "dnech": 3885, 
  "�": 3886, 
  "af@@": 3887, 
  "váte": 3888, 
  "dou": 3889, 
  "ptal": 3890, 
  "mrtví": 3891, 
  "ničemu": 3892, 
  "operací": 3893, 
  "strategii": 3894, 
  "slyšeli": 3895, 
  "mil@@": 3896, 
  "spá@@": 3897, 
  "bou": 3898, 
  "Výboru": 3899, 
  "polo@@": 3900, 
  "slíbil": 3901, 
  "kůži": 3902, 
  "vítr": 3903, 
  "osti": 3904, 
  "bílé": 3905, 
  "přijdu": 3906, 
  "kala": 3907, 
  "nabídku": 3908, 
  "přidat": 3909, 
  "kafe": 3910, 
  "ředitel": 3911, 
  "del@@": 3912, 
  "důsledky": 3913, 
  "skem": 3914, 
  "ží@@": 3915, 
  "určena": 3916, 
  "míře": 3917, 
  "ji@@": 3918, 
  "něný": 3919, 
  "životy": 3920, 
  "písemně": 3921, 
  "obsahovat": 3922, 
  "dokumentů": 3923, 
  "rodině": 3924, 
  "uvedl": 3925, 
  "neslyšel": 3926, 
  "ali@@": 3927, 
  "přijata": 3928, 
  "tý@@": 3929, 
  "fondů": 3930, 
  "trhů": 3931, 
  "25.": 3932, 
  "hy@@": 3933, 
  "smlouvu": 3934, 
  "vraždy": 3935, 
  "něčeho": 3936, 
  "blíží": 3937, 
  "chov@@": 3938, 
  "Henry": 3939, 
  "velkých": 3940, 
  "Tribunál": 3941, 
  "zvíře": 3942, 
  "68": 3943, 
  "přítelkyně": 3944, 
  "přál": 3945, 
  "zí": 3946, 
  "objeví": 3947, 
  "čin@@": 3948, 
  "energetické": 3949, 
  "existence": 3950, 
  "obě@@": 3951, 
  "smluv": 3952, 
  "61": 3953, 
  "17@@": 3954, 
  "ly@@": 3955, 
  "začátek": 3956, 
  "naděje": 3957, 
  "přijme": 3958, 
  "dlouhou": 3959, 
  "spotřebitelů": 3960, 
  "67": 3961, 
  "stanice": 3962, 
  "TA": 3963, 
  "klubu": 3964, 
  "nek": 3965, 
  "líbit": 3966, 
  "{": 3967, 
  "výslovně": 3968, 
  "Sam": 3969, 
  "acích": 3970, 
  "děvče": 3971, 
  "velkého": 3972, 
  "álním": 3973, 
  "uzavření": 3974, 
  "čený": 3975, 
  "tá": 3976, 
  "che": 3977, 
  "počítač": 3978, 
  "sní@@": 3979, 
  "les": 3980, 
  "slovy": 3981, 
  "nebe": 3982, 
  "předložit": 3983, 
  "časem": 3984, 
  "tváři": 3985, 
  "stanovená": 3986, 
  "stop": 3987, 
  "manžela": 3988, 
  "ven@@": 3989, 
  "zač": 3990, 
  "bát": 3991, 
  "pol@@": 3992, 
  "tře@@": 3993, 
  "informaci": 3994, 
  "sla@@": 3995, 
  "Výbor": 3996, 
  "senátu": 3997, 
  "člen": 3998, 
  "nila": 3999, 
  "ex@@": 4000, 
  "beze": 4001, 
  "volného": 4002, 
  "kli@@": 4003, 
  "83": 4004, 
  "objem": 4005, 
  "stav@@": 4006, 
  "vlast@@": 4007, 
  "adresa": 4008, 
  "technických": 4009, 
  "160": 4010, 
  "vypadni": 4011, 
  "neo@@": 4012, 
  "nebudete": 4013, 
  "milovat": 4014, 
  "šťastná": 4015, 
  "začneme": 4016, 
  "kry@@": 4017, 
  "nárok": 4018, 
  "dlouhý": 4019, 
  "znát": 4020, 
  "rat": 4021, 
  "zemřela": 4022, 
  "těžký": 4023, 
  "vid@@": 4024, 
  "Úředním": 4025, 
  "pravidlo": 4026, 
  "řekněme": 4027, 
  "snažit": 4028, 
  "tické": 4029, 
  "tovi": 4030, 
  "tlačítko": 4031, 
  "7.@@": 4032, 
  "ál@@": 4033, 
  "poskytovat": 4034, 
  "ickém": 4035, 
  "výrobců": 4036, 
  "opustit": 4037, 
  "osud": 4038, 
  "dov@@": 4039, 
  "kul@@": 4040, 
  "zahraniční": 4041, 
  "jeď": 4042, 
  "přípravy": 4043, 
  "}": 4044, 
  "van": 4045, 
  "snadné": 4046, 
  "totéž": 4047, 
  "postavit": 4048, 
  "prav@@": 4049, 
  "milý": 4050, 
  "sti": 4051, 
  "počítače": 4052, 
  "víno": 4053, 
  "těsně": 4054, 
  "čný": 4055, 
  "rozdíly": 4056, 
  "úžasný": 4057, 
  "verze": 4058, 
  "au@@": 4059, 
  "bojím": 4060, 
  "minuty": 4061, 
  "subjektu": 4062, 
  "chápeš": 4063, 
  "končí": 4064, 
  "opravy": 4065, 
  "kal@@": 4066, 
  "atd.": 4067, 
  "jednotka": 4068, 
  "plat@@": 4069, 
  "kritérií": 4070, 
  "nilo": 4071, 
  "trhem": 4072, 
  "připojení": 4073, 
  "změní": 4074, 
  "řím": 4075, 
  "postupně": 4076, 
  "číme": 4077, 
  "ir@@": 4078, 
  "koule": 4079, 
  "měsíci": 4080, 
  "73": 4081, 
  "domnívám": 4082, 
  "přátele": 4083, 
  "takovém": 4084, 
  "kle@@": 4085, 
  "správce": 4086, 
  "ením": 4087, 
  "anu": 4088, 
  "nabízí": 4089, 
  "plnou": 4090, 
  "Wil@@": 4091, 
  "zlatíčko": 4092, 
  "pokynů": 4093, 
  "neznám": 4094, 
  "KOM": 4095, 
  "ával": 4096, 
  "san@@": 4097, 
  "obětí": 4098, 
  "cítí": 4099, 
  "63": 4100, 
  "míra": 4101, 
  "Pod@@": 4102, 
  "projednávané": 4103, 
  "lili": 4104, 
  "Gar@@": 4105, 
  "filmu": 4106, 
  "\\": 4107, 
  "zaměstnance": 4108, 
  "kontrol": 4109, 
  "Te@@": 4110, 
  "Pří@@": 4111, 
  "nech@@": 4112, 
  "měření": 4113, 
  "ley": 4114, 
  "silné": 4115, 
  "sazby": 4116, 
  "konečné": 4117, 
  "hledám": 4118, 
  "por@@": 4119, 
  "nově": 4120, 
  "stranami": 4121, 
  "ženská": 4122, 
  "domov": 4123, 
  "ďte": 4124, 
  "výrobek": 4125, 
  "čertu": 4126, 
  "San@@": 4127, 
  "Mi@@": 4128, 
  "postoj": 4129, 
  "pobřeží": 4130, 
  "vzkaz": 4131, 
  "daného": 4132, 
  "pa": 4133, 
  "vedla": 4134, 
  "Pře@@": 4135, 
  "lidská": 4136, 
  "následně": 4137, 
  "nan@@": 4138, 
  "drahý": 4139, 
  "šené": 4140, 
  "chyby": 4141, 
  "volá": 4142, 
  "přijal": 4143, 
  "ence": 4144, 
  "něčím": 4145, 
  "PPE": 4146, 
  "přijel": 4147, 
  "opravného": 4148, 
  "stávajících": 4149, 
  "smí@@": 4150, 
  "zaměstnanosti": 4151, 
  "vodě": 4152, 
  "oběma": 4153, 
  "každopádně": 4154, 
  "sví@@": 4155, 
  "vina": 4156, 
  "há": 4157, 
  "soukromé": 4158, 
  "řady": 4159, 
  "iv@@": 4160, 
  "Soud": 4161, 
  "miliard": 4162, 
  "otče": 4163, 
  "zaprvé": 4164, 
  "zůstala": 4165, 
  "obrázek": 4166, 
  "tito": 4167, 
  "Ra@@": 4168, 
  "át": 4169, 
  "han@@": 4170, 
  "hmotnosti": 4171, 
  "ss@@": 4172, 
  "věří": 4173, 
  "kání": 4174, 
  "For@@": 4175, 
  "tku": 4176, 
  "zajímavé": 4177, 
  "kro@@": 4178, 
  "pacienti": 4179, 
  "vysílání": 4180, 
  "stála": 4181, 
  "oh@@": 4182, 
  "W": 4183, 
  "učinit": 4184, 
  "vzorku": 4185, 
  "ák": 4186, 
  "jakožto": 4187, 
  "pal": 4188, 
  "skončila": 4189, 
  "plus": 4190, 
  "Nor@@": 4191, 
  "zd@@": 4192, 
  "uvidí": 4193, 
  "oproti": 4194, 
  "ňování": 4195, 
  "fotky": 4196, 
  "Zá@@": 4197, 
  "podat": 4198, 
  "tihle": 4199, 
  "prost@@": 4200, 
  "29.": 4201, 
  "dalšími": 4202, 
  "27.": 4203, 
  "stanoveny": 4204, 
  "soudce": 4205, 
  "kontrola": 4206, 
  "podnikání": 4207, 
  "IN@@": 4208, 
  "pozitivní": 4209, 
  "velkým": 4210, 
  "vším": 4211, 
  "nechali": 4212, 
  "akorát": 4213, 
  "kapacity": 4214, 
  "hodný": 4215, 
  "žalobce": 4216, 
  "populace": 4217, 
  "ban@@": 4218, 
  "Mat@@": 4219, 
  "ochranná": 4220, 
  "dě": 4221, 
  "splnění": 4222, 
  "drogy": 4223, 
  "hne": 4224, 
  "zajímalo": 4225, 
  "rozdělení": 4226, 
  "místech": 4227, 
  "go@@": 4228, 
  "osobu": 4229, 
  "zásad": 4230, 
  "hov@@": 4231, 
  "zvláštních": 4232, 
  "jejíž": 4233, 
  "78": 4234, 
  "dokážu": 4235, 
  "uklidni": 4236, 
  "pokus": 4237, 
  "zhruba": 4238, 
  "eni": 4239, 
  "celkový": 4240, 
  "něčem": 4241, 
  "Toto": 4242, 
  "69": 4243, 
  "uvidíš": 4244, 
  "26.": 4245, 
  "poblíž": 4246, 
  "záda": 4247, 
  "nemyslíš": 4248, 
  "Položky": 4249, 
  "cit@@": 4250, 
  "chod@@": 4251, 
  "py": 4252, 
  "ozval": 4253, 
  "62": 4254, 
  "kama": 4255, 
  "um@@": 4256, 
  "plynu": 4257, 
  "muselo": 4258, 
  "nůž": 4259, 
  "usmál": 4260, 
  "pečlivě": 4261, 
  "hledal": 4262, 
  "ben@@": 4263, 
  "pozměňovací": 4264, 
  "klíče": 4265, 
  "svý": 4266, 
  "áš": 4267, 
  "Tato": 4268, 
  "set": 4269, 
  "funkci": 4270, 
  "něhož": 4271, 
  "Bruselu": 4272, 
  "slyšíš": 4273, 
  "Sa@@": 4274, 
  "účinků": 4275, 
  "Recueil": 4276, 
  "výpočtu": 4277, 
  "dotčeného": 4278, 
  "soudržnosti": 4279, 
  "píše": 4280, 
  "výhody": 4281, 
  "užívat": 4282, 
  "divný": 4283, 
  "sdružení": 4284, 
  "podpořit": 4285, 
  "připomíná": 4286, 
  "ujících": 4287, 
  "okay": 4288, 
  "chá@@": 4289, 
  "ík": 4290, 
  "volby": 4291, 
  "Ho@@": 4292, 
  "Evropským": 4293, 
  "chla@@": 4294, 
  "nervózní": 4295, 
  "vyplývající": 4296, 
  "pravý": 4297, 
  "ren@@": 4298, 
  "OHIM": 4299, 
  "výběru": 4300, 
  "76": 4301, 
  "pokrok": 4302, 
  "Ben@@": 4303, 
  "Tak": 4304, 
  "ání": 4305, 
  "nějakej": 4306, 
  "nedokázal": 4307, 
  "sub@@": 4308, 
  "kdykoliv": 4309, 
  "dopředu": 4310, 
  "čisté": 4311, 
  "mladá": 4312, 
  "použil": 4313, 
  "ňovat": 4314, 
  "poněkud": 4315, 
  "laskavost": 4316, 
  "sí": 4317, 
  "82": 4318, 
  "řit": 4319, 
  "mluvíme": 4320, 
  "čte": 4321, 
  "zjistí": 4322, 
  "77": 4323, 
  "mluvíte": 4324, 
  "internetu": 4325, 
  "stejná": 4326, 
  "tamhle": 4327, 
  "dovi": 4328, 
  "karty": 4329, 
  "věnovat": 4330, 
  "cel@@": 4331, 
  "daní": 4332, 
  "brá@@": 4333, 
  "zabila": 4334, 
  "bank": 4335, 
  "čko": 4336, 
  "ickými": 4337, 
  "tel@@": 4338, 
  "stroj": 4339, 
  "zbývá": 4340, 
  "poznámka": 4341, 
  "David": 4342, 
  "cíli": 4343, 
  "len": 4344, 
  "číš": 4345, 
  "najde": 4346, 
  "zveřejnění": 4347, 
  "Jimmy": 4348, 
  "www.@@": 4349, 
  "vína": 4350, 
  "dveřmi": 4351, 
  "150": 4352, 
  "ukážu": 4353, 
  "•": 4354, 
  "zjistila": 4355, 
  "vybral": 4356, 
  "čímž": 4357, 
  "znamení": 4358, 
  "è@@": 4359, 
  "společných": 4360, 
  "dostanete": 4361, 
  "sty@@": 4362, 
  "Ku@@": 4363, 
  "Pro": 4364, 
  "24.": 4365, 
  "speciální": 4366, 
  "ca": 4367, 
  "dávku": 4368, 
  "sv@@": 4369, 
  "přistoupení": 4370, 
  "ění": 4371, 
  "nýbrž": 4372, 
  "ké": 4373, 
  "pracovního": 4374, 
  "ost@@": 4375, 
  "okno": 4376, 
  "úsměv": 4377, 
  "písm": 4378, 
  "enou": 4379, 
  "potkal": 4380, 
  "show": 4381, 
  "pokuty": 4382, 
  "zlé": 4383, 
  "Tribunálu": 4384, 
  "nesnáším": 4385, 
  "uvedla": 4386, 
  "vra@@": 4387, 
  "cov@@": 4388, 
  "norem": 4389, 
  "Sch@@": 4390, 
  "hovno": 4391, 
  "zájmů": 4392, 
  "tabulka": 4393, 
  "nýho": 4394, 
  "jednak": 4395, 
  "ži": 4396, 
  "jeli": 4397, 
  "ton": 4398, 
  "ověření": 4399, 
  "ávají": 4400, 
  "podobně": 4401, 
  "poděkovat": 4402, 
  "zády": 4403, 
  "vzájemné": 4404, 
  "postavil": 4405, 
  "americké": 4406, 
  "připomenout": 4407, 
  "vysoká": 4408, 
  "těší": 4409, 
  "hledání": 4410, 
  "prvních": 4411, 
  "66": 4412, 
  "Mil@@": 4413, 
  "Mer@@": 4414, 
  "záruky": 4415, 
  "zvláštního": 4416, 
  "zakázek": 4417, 
  "áv@@": 4418, 
  "Val@@": 4419, 
  "lékař": 4420, 
  "poznat": 4421, 
  "nena@@": 4422, 
  "fond": 4423, 
  "tko": 4424, 
  "vhodná": 4425, 
  "vezme": 4426, 
  "tová": 4427, 
  "pusť": 4428, 
  "Or@@": 4429, 
  "chlapce": 4430, 
  "krk": 4431, 
  "žených": 4432, 
  "pokusil": 4433, 
  "výchozí": 4434, 
  "Země": 4435, 
  "čest": 4436, 
  "potřebu": 4437, 
  "majetku": 4438, 
  "im": 4439, 
  "soukromí": 4440, 
  "něn": 4441, 
  "zemědělské": 4442, 
  "auto@@": 4443, 
  "jist": 4444, 
  "otázkou": 4445, 
  "itě": 4446, 
  "kre@@": 4447, 
  "itelné": 4448, 
  "vyhrál": 4449, 
  "vážné": 4450, 
  "skutečností": 4451, 
  "jakoby": 4452, 
  "inou": 4453, 
  "šil": 4454, 
  "ô@@": 4455, 
  "válku": 4456, 
  "vnitrostátního": 4457, 
  "La@@": 4458, 
  "obecného": 4459, 
  "onemocnění": 4460, 
  "obchodování": 4461, 
  "of@@": 4462, 
  "bou@@": 4463, 
  "fu@@": 4464, 
  "hol@@": 4465, 
  "lásky": 4466, 
  "DNA": 4467, 
  "čtení": 4468, 
  "letecké": 4469, 
  "dávám": 4470, 
  "normálně": 4471, 
  "vé": 4472, 
  "ton@@": 4473, 
  "synu": 4474, 
  "otci": 4475, 
  "studií": 4476, 
  "stí@@": 4477, 
  "bod@@": 4478, 
  "denní": 4479, 
  "výrazně": 4480, 
  "ov": 4481, 
  "srdci": 4482, 
  "řád": 4483, 
  "nebuď": 4484, 
  "provozní": 4485, 
  "dvoru": 4486, 
  "rozhodne": 4487, 
  "cy@@": 4488, 
  "nky": 4489, 
  "Mal@@": 4490, 
  "nějakým": 4491, 
  "uložit": 4492, 
  "elektronické": 4493, 
  "zavést": 4494, 
  "podpor": 4495, 
  "předpokládá": 4496, 
  "sehnat": 4497, 
  "něno": 4498, 
  "naproti": 4499, 
  "vítězství": 4500, 
  "automaticky": 4501, 
  "porovnání": 4502, 
  "sekund": 4503, 
  "výklad": 4504, 
  "vtip": 4505, 
  "selhání": 4506, 
  "ak": 4507, 
  "lie": 4508, 
  "set@@": 4509, 
  "viď": 4510, 
  "ory": 4511, 
  "des": 4512, 
  "ol": 4513, 
  "důležitá": 4514, 
  "hat": 4515, 
  "nikoliv": 4516, 
  "žádném": 4517, 
  "hra@@": 4518, 
  "využívat": 4519, 
  "jela": 4520, 
  "správný": 4521, 
  "kosti": 4522, 
  "přede": 4523, 
  "dit": 4524, 
  "závisí": 4525, 
  "dítěte": 4526, 
  "podezření": 4527, 
  "oko": 4528, 
  "rány": 4529, 
  "Sal@@": 4530, 
  "krále": 4531, 
  "podnikům": 4532, 
  "nezajímá": 4533, 
  "sny": 4534, 
  "lek": 4535, 
  "No": 4536, 
  "tušení": 4537, 
  "kilometrů": 4538, 
  "ročně": 4539, 
  "půdy": 4540, 
  "poruchy": 4541, 
  "vnitrostátním": 4542, 
  "kamarád": 4543, 
  "plateb": 4544, 
  "vstup": 4545, 
  "finančním": 4546, 
  "dopravní": 4547, 
  "zahrnovat": 4548, 
  "ničeho": 4549, 
  "prokázat": 4550, 
  "stanici": 4551, 
  "známka": 4552, 
  "rozhovor": 4553, 
  "400": 4554, 
  "miliony": 4555, 
  "otcem": 4556, 
  "soubory": 4557, 
  "mezitím": 4558, 
  "připadá": 4559, 
  "bránit": 4560, 
  "přítomnost": 4561, 
  "krásný": 4562, 
  "kontrole": 4563, 
  "zemědělských": 4564, 
  "Ri@@": 4565, 
  "lékaře": 4566, 
  "San": 4567, 
  "Si@@": 4568, 
  "utéct": 4569, 
  "spolupracovat": 4570, 
  "účtu": 4571, 
  "jedině": 4572, 
  "pochopil": 4573, 
  "nestane": 4574, 
  "žá@@": 4575, 
  "8.@@": 4576, 
  "argument": 4577, 
  "učit": 4578, 
  "běžné": 4579, 
  "držte": 4580, 
  "umožnit": 4581, 
  "zkou@@": 4582, 
  "tila": 4583, 
  "The": 4584, 
  "problému": 4585, 
  "ich@@": 4586, 
  "přijdou": 4587, 
  "jídla": 4588, 
  "připravený": 4589, 
  "příklad": 4590, 
  "ju@@": 4591, 
  "OK": 4592, 
  "1,@@": 4593, 
  "objemu": 4594, 
  "příslušného": 4595, 
  "přestal": 4596, 
  "souhlasím": 4597, 
  "značné": 4598, 
  "gener@@": 4599, 
  "zápas": 4600, 
  "uživatele": 4601, 
  "aktiva": 4602, 
  "povahu": 4603, 
  "databáze": 4604, 
  "dvou@@": 4605, 
  "monitorování": 4606, 
  "boku": 4607, 
  "stro@@": 4608, 
  "1996": 4609, 
  "cký": 4610, 
  "mot@@": 4611, 
  "testy": 4612, 
  "přikývl": 4613, 
  "přemýšlet": 4614, 
  "splněny": 4615, 
  "dvoj@@": 4616, 
  "místnost": 4617, 
  "právním": 4618, 
  "AN@@": 4619, 
  "živ@@": 4620, 
  "řila": 4621, 
  "cizí": 4622, 
  "ští@@": 4623, 
  "stálo": 4624, 
  "86": 4625, 
  "znamenalo": 4626, 
  "model": 4627, 
  "materiálů": 4628, 
  "praxi": 4629, 
  "daný": 4630, 
  "Mac@@": 4631, 
  "hospodářská": 4632, 
  "álně": 4633, 
  "položil": 4634, 
  "rozumíš": 4635, 
  "brání": 4636, 
  "lehce": 4637, 
  "zranění": 4638, 
  "rá": 4639, 
  "sociálních": 4640, 
  "negativní": 4641, 
  "velitel": 4642, 
  "Mu@@": 4643, 
  "vyš@@": 4644, 
  "naším": 4645, 
  "vezmeme": 4646, 
  "1994": 4647, 
  "ký@@": 4648, 
  "rovat": 4649, 
  "zdůrazňuje": 4650, 
  "činy": 4651, 
  "vyberte": 4652, 
  "bru@@": 4653, 
  "Ni@@": 4654, 
  "kontextu": 4655, 
  "historii": 4656, 
  "účastníků": 4657, 
  "Nařízení": 4658, 
  "NA": 4659, 
  "výsledkem": 4660, 
  "něna": 4661, 
  "stat@@": 4662, 
  "nejlépe": 4663, 
  "uviděl": 4664, 
  "závazek": 4665, 
  "najdete": 4666, 
  "léčivé": 4667, 
  "doufal": 4668, 
  "To@@": 4669, 
  "přiznat": 4670, 
  "nohu": 4671, 
  "volala": 4672, 
  "obličeje": 4673, 
  "pově@@": 4674, 
  "serveru": 4675, 
  "pustil": 4676, 
  "nie": 4677, 
  "hlasem": 4678, 
  "platné": 4679, 
  "hodil": 4680, 
  "Platby": 4681, 
  "čaj": 4682, 
  "inem": 4683, 
  "pěkná": 4684, 
  "rty": 4685, 
  "kontakt": 4686, 
  "původně": 4687, 
  "transakce": 4688, 
  "politických": 4689, 
  "úkolů": 4690, 
  "firmy": 4691, 
  "čtyř": 4692, 
  "schopni": 4693, 
  "tre@@": 4694, 
  "zak@@": 4695, 
  "stan@@": 4696, 
  "mer@@": 4697, 
  "jednotek": 4698, 
  "las": 4699, 
  "zo@@": 4700, 
  "barvy": 4701, 
  "čů": 4702, 
  "aktu": 4703, 
  "So@@": 4704, 
  "RO@@": 4705, 
  "lých": 4706, 
  "dání": 4707, 
  "ris@@": 4708, 
  "miloval": 4709, 
  "provedl": 4710, 
  "kdykoli": 4711, 
  "om": 4712, 
  "video": 4713, 
  "zrušit": 4714, 
  "hluboko": 4715, 
  "účel": 4716, 
  "ati@@": 4717, 
  "mak@@": 4718, 
  "nežádoucí": 4719, 
  "opatřeních": 4720, 
  "bit@@": 4721, 
  "Microsoft": 4722, 
  "vývozu": 4723, 
  "ukradl": 4724, 
  "dostatečné": 4725, 
  "poměr": 4726, 
  "pustit": 4727, 
  "třemi": 4728, 
  "zavolejte": 4729, 
  "přímé": 4730, 
  "elektro@@": 4731, 
  "spal": 4732, 
  "panebože": 4733, 
  "koval": 4734, 
  "uplatnění": 4735, 
  "dokázat": 4736, 
  "dani": 4737, 
  "dopadu": 4738, 
  "probíhá": 4739, 
  "ekonomické": 4740, 
  "orgánem": 4741, 
  "rostlin": 4742, 
  "čením": 4743, 
  "posílit": 4744, 
  "nedokážu": 4745, 
  "očekává": 4746, 
  "hala": 4747, 
  "řeči": 4748, 
  "vnitřního": 4749, 
  "zen@@": 4750, 
  "Bur@@": 4751, 
  "bezpečné": 4752, 
  "zlý": 4753, 
  "školu": 4754, 
  "občanské": 4755, 
  "Danny": 4756, 
  "zahraničí": 4757, 
  "ón": 4758, 
  "let@@": 4759, 
  "vnitrostátními": 4760, 
  "1995": 4761, 
  "financí": 4762, 
  "est@@": 4763, 
  "oprávnění": 4764, 
  "Ge@@": 4765, 
  "dodatečné": 4766, 
  "zákaz": 4767, 
  "vůdce": 4768, 
  "provoz": 4769, 
  "umím": 4770, 
  "osvobození": 4771, 
  "vojáci": 4772, 
  "rový": 4773, 
  "věřil": 4774, 
  "Za": 4775, 
  "zahrnují": 4776, 
  "Vi@@": 4777, 
  "péči": 4778, 
  "nů": 4779, 
  "opustil": 4780, 
  "un": 4781, 
  "lovi": 4782, 
  "kámen": 4783, 
  "řem": 4784, 
  "inter@@": 4785, 
  "celkového": 4786, 
  "ová@@": 4787, 
  "Windows": 4788, 
  "duchu": 4789, 
  "ýma": 4790, 
  "sil@@": 4791, 
  "§": 4792, 
  "posledně": 4793, 
  "Tu@@": 4794, 
  "tun": 4795, 
  "jmenuji": 4796, 
  "žením": 4797, 
  "trzích": 4798, 
  "79": 4799, 
  "mý": 4800, 
  "spočívá": 4801, 
  "čarou": 4802, 
  "Michael": 4803, 
  "bro@@": 4804, 
  "dával": 4805, 
  "určeny": 4806, 
  "osobám": 4807, 
  "organizaci": 4808, 
  "tlaku": 4809, 
  "co@@": 4810, 
  "spí": 4811, 
  "bor@@": 4812, 
  "dohled": 4813, 
  "Gu@@": 4814, 
  "pít": 4815, 
  "žit": 4816, 
  "nedostatek": 4817, 
  "au": 4818, 
  "ori@@": 4819, 
  "vypadala": 4820, 
  "svobodu": 4821, 
  "šíření": 4822, 
  "ani@@": 4823, 
  "ide@@": 4824, 
  "přestaňte": 4825, 
  "každým": 4826, 
  "výrobního": 4827, 
  "konzultace": 4828, 
  "delší": 4829, 
  "kdokoliv": 4830, 
  "hon@@": 4831, 
  "dob@@": 4832, 
  "plánování": 4833, 
  "roztok": 4834, 
  "regionů": 4835, 
  "námitky": 4836, 
  "kancelář": 4837, 
  "Čl": 4838, 
  "tele@@": 4839, 
  "stačilo": 4840, 
  "hledá": 4841, 
  "bli@@": 4842, 
  "lová": 4843, 
  "složení": 4844, 
  "souhlasil": 4845, 
  "tvrdě": 4846, 
  "zápisu": 4847, 
  "klu@@": 4848, 
  "nemožné": 4849, 
  "post@@": 4850, 
  "šky": 4851, 
  "určených": 4852, 
  "víkend": 4853, 
  "zapomenout": 4854, 
  "zav@@": 4855, 
  "hrá@@": 4856, 
  "lid@@": 4857, 
  "každej": 4858, 
  "icí": 4859, 
  "Závazky": 4860, 
  "obje@@": 4861, 
  "restaurace": 4862, 
  "sně@@": 4863, 
  "nic@@": 4864, 
  "Evropskému": 4865, 
  "itou": 4866, 
  "zkušeností": 4867, 
  "oper@@": 4868, 
  "čená": 4869, 
  "odkazy": 4870, 
  "otevři": 4871, 
  "son@@": 4872, 
  "celej": 4873, 
  "posoudit": 4874, 
  "útoku": 4875, 
  "něná": 4876, 
  "mužem": 4877, 
  "her@@": 4878, 
  "kne": 4879, 
  "radu": 4880, 
  "dlouhá": 4881, 
  "Bal@@": 4882, 
  "vzdělání": 4883, 
  "bavit": 4884, 
  "Kate": 4885, 
  "aktiv@@": 4886, 
  "místních": 4887, 
  "přesvědčit": 4888, 
  "ü@@": 4889, 
  "Ju@@": 4890, 
  "řů": 4891, 
  "řeč": 4892, 
  "generální": 4893, 
  "uvidím": 4894, 
  "Dan@@": 4895, 
  "vedlo": 4896, 
  "umístění": 4897, 
  "hoši": 4898, 
  "hal@@": 4899, 
  "hroz@@": 4900, 
  "pusu": 4901, 
  "černý": 4902, 
  "materiál": 4903, 
  "uvedení": 4904, 
  "řeky": 4905, 
  "zobrazit": 4906, 
  "určitou": 4907, 
  "Ke@@": 4908, 
  "prezidenta": 4909, 
  "vodní": 4910, 
  "cha": 4911, 
  "obrovské": 4912, 
  "pojem": 4913, 
  "způsobilosti": 4914, 
  "nerozumím": 4915, 
  "ari@@": 4916, 
  "umíš": 4917, 
  "rozvoji": 4918, 
  "důkazů": 4919, 
  "vezměte": 4920, 
  "ó": 4921, 
  "lin": 4922, 
  "tátu": 4923, 
  "cku": 4924, 
  "starost": 4925, 
  "významem": 4926, 
  "Bel@@": 4927, 
  "Španělsko": 4928, 
  "nejdůležitější": 4929, 
  "zapomeň": 4930, 
  "materiálu": 4931, 
  "vraždu": 4932, 
  "bal": 4933, 
  "plavidel": 4934, 
  "oprav@@": 4935, 
  "jistotu": 4936, 
  "Dar@@": 4937, 
  "nemusíte": 4938, 
  "sexuální": 4939, 
  "zařazení": 4940, 
  "Roz@@": 4941, 
  "nikde": 4942, 
  "konečném": 4943, 
  "am": 4944, 
  "přiměřené": 4945, 
  "daň": 4946, 
  "každému": 4947, 
  "vaším": 4948, 
  "och@@": 4949, 
  "vedou": 4950, 
  "nemyslel": 4951, 
  "třech": 4952, 
  "stanoveno": 4953, 
  "cené": 4954, 
  "vyhrát": 4955, 
  "kolo": 4956, 
  "třetím": 4957, 
  "podal": 4958, 
  "mysl": 4959, 
  "svět@@": 4960, 
  "emise": 4961, 
  "protokol": 4962, 
  "vlak": 4963, 
  "10.@@": 4964, 
  "slib": 4965, 
  "Tony": 4966, 
  "jakékoliv": 4967, 
  "ustanoveními": 4968, 
  "Pan@@": 4969, 
  "super@@": 4970, 
  "kéž": 4971, 
  "CH@@": 4972, 
  "třicet": 4973, 
  "lého": 4974, 
  "poslali": 4975, 
  "mámu": 4976, 
  "příspěvky": 4977, 
  "malého": 4978, 
  "té@@": 4979, 
  "kuje": 4980, 
  "žijí": 4981, 
  "tický": 4982, 
  "Her@@": 4983, 
  "studii": 4984, 
  "dar": 4985, 
  "vost": 4986, 
  "řek": 4987, 
  "stránce": 4988, 
  "nějšího": 4989, 
  "dor@@": 4990, 
  "dovolte": 4991, 
  "zr@@": 4992, 
  "evropský": 4993, 
  "letu": 4994, 
  "mý@@": 4995, 
  "IS@@": 4996, 
  "žádá": 4997, 
  "uvedenou": 4998, 
  "Bra@@": 4999, 
  "ehm": 5000, 
  "Rachel": 5001, 
  "čené": 5002, 
  "poskytne": 5003, 
  "zam@@": 5004, 
  "správu": 5005, 
  "důstojník": 5006, 
  "historie": 5007, 
  "těle": 5008, 
  "směru": 5009, 
  "celková": 5010, 
  "očekávání": 5011, 
  "Hu@@": 5012, 
  "dobrého": 5013, 
  "jou": 5014, 
  "Plnění": 5015, 
  "neb@@": 5016, 
  "dom@@": 5017, 
  "analýzu": 5018, 
  "večeře": 5019, 
  "administrativní": 5020, 
  "pomoz": 5021, 
  "uznání": 5022, 
  "použitím": 5023, 
  "fo@@": 5024, 
  "sestry": 5025, 
  "líbilo": 5026, 
  "analýza": 5027, 
  "Richard": 5028, 
  "silnější": 5029, 
  "Paul": 5030, 
  "řené": 5031, 
  "tov@@": 5032, 
  "Dobře": 5033, 
  "ště": 5034, 
  "omezit": 5035, 
  "zdanění": 5036, 
  "rohu": 5037, 
  "reakci": 5038, 
  "slouží": 5039, 
  "občany": 5040, 
  "mezi@@": 5041, 
  "74": 5042, 
  "odpovědět": 5043, 
  "nohama": 5044, 
  "nabídka": 5045, 
  "přijatých": 5046, 
  "odpověděla": 5047, 
  "rou@@": 5048, 
  "VI": 5049, 
  "umřít": 5050, 
  "obvinění": 5051, 
  "matce": 5052, 
  "inovace": 5053, 
  "rameno": 5054, 
  "varování": 5055, 
  "neměly": 5056, 
  "já@@": 5057, 
  "tablety": 5058, 
  "elo": 5059, 
  "stromy": 5060, 
  "tuje": 5061, 
  "fil@@": 5062, 
  "hou": 5063, 
  "sal@@": 5064, 
  "Cal@@": 5065, 
  "nku": 5066, 
  "některá": 5067, 
  "sleduje": 5068, 
  "pravomocí": 5069, 
  "Wal@@": 5070, 
  "zúčastněné": 5071, 
  "necháme": 5072, 
  "soukromého": 5073, 
  "mimoto": 5074, 
  "narozeniny": 5075, 
  "hádám": 5076, 
  "vod": 5077, 
  "rozkazy": 5078, 
  "honem": 5079, 
  "potvrzení": 5080, 
  "upravit": 5081, 
  "zemře": 5082, 
  "ë@@": 5083, 
  "kalhoty": 5084, 
  "šť@@": 5085, 
  "ublížit": 5086, 
  "04@@": 5087, 
  "ováni": 5088, 
  "ovoce": 5089, 
  "fen@@": 5090, 
  "vrací": 5091, 
  "koncentrace": 5092, 
  "cky": 5093, 
  "odpo@@": 5094, 
  "starých": 5095, 
  "ved@@": 5096, 
  "podívala": 5097, 
  "minutu": 5098, 
  "dodávky": 5099, 
  "natolik": 5100, 
  "dokážeš": 5101, 
  "ránu": 5102, 
  "společným": 5103, 
  "van@@": 5104, 
  "připravená": 5105, 
  "cel": 5106, 
  "vrátíme": 5107, 
  "přišlo": 5108, 
  "lal": 5109, 
  "šená": 5110, 
  "objevila": 5111, 
  "předložení": 5112, 
  "chytit": 5113, 
  "list@@": 5114, 
  "postarám": 5115, 
  "prvé": 5116, 
  "oto@@": 5117, 
  "přijímání": 5118, 
  "veškerá": 5119, 
  "milé": 5120, 
  "FR": 5121, 
  "poměrně": 5122, 
  "žalobu": 5123, 
  "středu": 5124, 
  "vývozní": 5125, 
  "lit@@": 5126, 
  "mas@@": 5127, 
  "cemi": 5128, 
  "možný": 5129, 
  "alizace": 5130, 
  "84": 5131, 
  "dozadu": 5132, 
  "up@@": 5133, 
  "řské": 5134, 
  "hvězdy": 5135, 
  "ur": 5136, 
  "udrž@@": 5137, 
  "ki": 5138, 
  "funkcí": 5139, 
  "gh@@": 5140, 
  "zakázky": 5141, 
  "ztratila": 5142, 
  "nické": 5143, 
  "Sarah": 5144, 
  "látka": 5145, 
  "eného": 5146, 
  "Rozhodnutí": 5147, 
  "mra@@": 5148, 
  "ingu": 5149, 
  "Han@@": 5150, 
  "ge": 5151, 
  "časté": 5152, 
  "dová": 5153, 
  "bur@@": 5154, 
  "požadované": 5155, 
  "čekala": 5156, 
  "léčbu": 5157, 
  "specifické": 5158, 
  "pot@@": 5159, 
  "Sta@@": 5160, 
  "Franku": 5161, 
  "způsobit": 5162, 
  "prsten": 5163, 
  "que": 5164, 
  "prakticky": 5165, 
  "výhradně": 5166, 
  "produkt": 5167, 
  "oddílu": 5168, 
  "vzájemně": 5169, 
  "we": 5170, 
  "Bohu": 5171, 
  "Ba@@": 5172, 
  "zpoždění": 5173, 
  "níkovi": 5174, 
  "střílet": 5175, 
  "stránkách": 5176, 
  "zvládnu": 5177, 
  "aktuální": 5178, 
  "pamatuju": 5179, 
  "line": 5180, 
  "úplné": 5181, 
  "for@@": 5182, 
  "ér": 5183, 
  "zjistili": 5184, 
  "bí": 5185, 
  "zohlednit": 5186, 
  "výrobě": 5187, 
  "pohledem": 5188, 
  "naději": 5189, 
  "akty": 5190, 
  "systémem": 5191, 
  "hodná": 5192, 
  "zapomněla": 5193, 
  "SE": 5194, 
  "zima": 5195, 
  "cukru": 5196, 
  "stejným": 5197, 
  "03@@": 5198, 
  "pododstavec": 5199, 
  "mléka": 5200, 
  "sklá@@": 5201, 
  "vypadají": 5202, 
  "konstatovat": 5203, 
  "ID": 5204, 
  "nerad": 5205, 
  "sankce": 5206, 
  "vteřin": 5207, 
  "souhlasí": 5208, 
  "ast@@": 5209, 
  "napětí": 5210, 
  "stránka": 5211, 
  "ene": 5212, 
  "právu": 5213, 
  "Í@@": 5214, 
  "uvedeném": 5215, 
  "čistý": 5216, 
  "předložila": 5217, 
  "ukázala": 5218, 
  "čela": 5219, 
  "kniha": 5220, 
  "typy": 5221, 
  "doporučuje": 5222, 
  "závažné": 5223, 
  "psát": 5224, 
  "řství": 5225, 
  "plná": 5226, 
  "brácho": 5227, 
  "Same": 5228, 
  "výpočet": 5229, 
  "ę@@": 5230, 
  "projednávaném": 5231, 
  "hlasy": 5232, 
  "metoda": 5233, 
  "stránku": 5234, 
  "Boha": 5235, 
  "žádám": 5236, 
  "kamaráde": 5237, 
  "Steve": 5238, 
  "sel@@": 5239, 
  "ö@@": 5240, 
  "Ty": 5241, 
  "najevo": 5242, 
  "vůle": 5243, 
  "Ty@@": 5244, 
  "kombinaci": 5245, 
  "obyvatel": 5246, 
  "vl@@": 5247, 
  "uni@@": 5248, 
  "ń@@": 5249, 
  "zábava": 5250, 
  "poplatky": 5251, 
  "duch": 5252, 
  "expozice": 5253, 
  "přev@@": 5254, 
  "strávil": 5255, 
  "přední": 5256, 
  "cestujících": 5257, 
  "špatného": 5258, 
  "mladých": 5259, 
  "nemusím": 5260, 
  "sestru": 5261, 
  "bar": 5262, 
  "starého": 5263, 
  "ale@@": 5264, 
  "šený": 5265, 
  "parku": 5266, 
  "Ben": 5267, 
  "horní": 5268, 
  "dot@@": 5269, 
  "vnitřním": 5270, 
  "reformy": 5271, 
  "mýho": 5272, 
  "tin@@": 5273, 
  "platební": 5274, 
  "váž@@": 5275, 
  "KOMISE": 5276, 
  "změnila": 5277, 
  "zna@@": 5278, 
  "navštívit": 5279, 
  "čními": 5280, 
  "ád@@": 5281, 
  "dý@@": 5282, 
  "dávají": 5283, 
  "mechanismus": 5284, 
  "poskytují": 5285, 
  "dopravu": 5286, 
  "dávej": 5287, 
  "ŕ@@": 5288, 
  "bílý": 5289, 
  "pomohla": 5290, 
  "rozpočtové": 5291, 
  "prodat": 5292, 
  "prošel": 5293, 
  "utekl": 5294, 
  "vládu": 5295, 
  "mír": 5296, 
  "ukáže": 5297, 
  "Lan@@": 5298, 
  "něných": 5299, 
  "Billy": 5300, 
  "číte": 5301, 
  "vstal": 5302, 
  "republice": 5303, 
  "lech": 5304, 
  "hrozné": 5305, 
  "nosit": 5306, 
  "krizi": 5307, 
  "poškození": 5308, 
  "posledního": 5309, 
  "téhož": 5310, 
  "mladší": 5311, 
  "pomáhá": 5312, 
  "dívky": 5313, 
  "politice": 5314, 
  "stu@@": 5315, 
  "jmen@@": 5316, 
  "ších": 5317, 
  "Ti@@": 5318, 
  "dětem": 5319, 
  "samo@@": 5320, 
  "rozpětí": 5321, 
  "mobil": 5322, 
  "představ@@": 5323, 
  "ál": 5324, 
  "něny": 5325, 
  "aliz@@": 5326, 
  "hla@@": 5327, 
  "počasí": 5328, 
  "chodil": 5329, 
  "kasačního": 5330, 
  "Ka@@": 5331, 
  "krevní": 5332, 
  "dostanou": 5333, 
  "zúčastněných": 5334, 
  "letí": 5335, 
  "jiní": 5336, 
  "Col@@": 5337, 
  "Tra@@": 5338, 
  "lhůta": 5339, 
  "léčba": 5340, 
  "přispět": 5341, 
  "Francii": 5342, 
  "udělení": 5343, 
  "krátce": 5344, 
  "cený": 5345, 
  "Ježíši": 5346, 
  "Amy": 5347, 
  "čná": 5348, 
  "bydlí": 5349, 
  "slu@@": 5350, 
  "západní": 5351, 
  "aj@@": 5352, 
  "fotku": 5353, 
  "akcí": 5354, 
  "KO@@": 5355, 
  "vyjádřit": 5356, 
  "vo": 5357, 
  "obsahují": 5358, 
  "ryby": 5359, 
  "napsat": 5360, 
  "ele": 5361, 
  "skončit": 5362, 
  "standardní": 5363, 
  "hranici": 5364, 
  "protiprávního": 5365, 
  "silou": 5366, 
  "indi@@": 5367, 
  "předsednictví": 5368, 
  "zůstaňte": 5369, 
  "uvedenými": 5370, 
  "lep@@": 5371, 
  "podívám": 5372, 
  "sko@@": 5373, 
  "CIA": 5374, 
  "pravidly": 5375, 
  "Ca@@": 5376, 
  "účty": 5377, 
  "drahoušku": 5378, 
  "Í": 5379, 
  "ista": 5380, 
  "uveden": 5381, 
  "souhlas": 5382, 
  "lepšího": 5383, 
  "son": 5384, 
  "hodnotě": 5385, 
  "qu@@": 5386, 
  "stovky": 5387, 
  "En@@": 5388, 
  "prodloužení": 5389, 
  "ES@@": 5390, 
  "daném": 5391, 
  "narušení": 5392, 
  "daří": 5393, 
  "vla@@": 5394, 
  "zřejmé": 5395, 
  "you": 5396, 
  "jedno@@": 5397, 
  "posti@@": 5398, 
  "praxe": 5399, 
  "přednost": 5400, 
  "lon@@": 5401, 
  "národních": 5402, 
  "kapitoly": 5403, 
  "sranda": 5404, 
  "dek": 5405, 
  "ivý": 5406, 
  "James": 5407, 
  "internetových": 5408, 
  "ité": 5409, 
  "Hol@@": 5410, 
  "19@@": 5411, 
  "armáda": 5412, 
  "9.@@": 5413, 
  "začaly": 5414, 
  "výměnu": 5415, 
  "Marie": 5416, 
  "ujistit": 5417, 
  "gar@@": 5418, 
  "ujícím": 5419, 
  "planety": 5420, 
  "značně": 5421, 
  "ml@@": 5422, 
  "akt": 5423, 
  "hání": 5424, 
  "šu@@": 5425, 
  "AD@@": 5426, 
  "existovat": 5427, 
  "nabídnout": 5428, 
  "atelné": 5429, 
  "poplatků": 5430, 
  "ˇ@@": 5431, 
  "chytil": 5432, 
  "py@@": 5433, 
  "tenkrát": 5434, 
  "ovacích": 5435, 
  "formou": 5436, 
  "rám": 5437, 
  "snižování": 5438, 
  "Bobby": 5439, 
  "miluješ": 5440, 
  "škola": 5441, 
  "ponětí": 5442, 
  "informovat": 5443, 
  "zásada": 5444, 
  "chytrý": 5445, 
  "formy": 5446, 
  "dostupných": 5447, 
  "bál": 5448, 
  "tové": 5449, 
  "níme": 5450, 
  "Johnny": 5451, 
  "pododstavce": 5452, 
  "kt@@": 5453, 
  "padesát": 5454, 
  "zem@@": 5455, 
  "kce": 5456, 
  "Návrh": 5457, 
  "Soudnímu": 5458, 
  "podstatné": 5459, 
  "způsobu": 5460, 
  "detektiv": 5461, 
  "ovlá@@": 5462, 
  "předpisu": 5463, 
  "přeshraniční": 5464, 
  "Gal@@": 5465, 
  "ser@@": 5466, 
  "zved@@": 5467, 
  "opravný": 5468, 
  "rů": 5469, 
  "požádala": 5470, 
  "ú": 5471, 
  "liší": 5472, 
  "slov": 5473, 
  "zabývat": 5474, 
  "východ": 5475, 
  "posledním": 5476, 
  "Německu": 5477, 
  "chrá@@": 5478, 
  "napl@@": 5479, 
  "čist@@": 5480, 
  "povím": 5481, 
  "Kra@@": 5482, 
  "stole": 5483, 
  "krom": 5484, 
  "vynikající": 5485, 
  "Cha@@": 5486, 
  "poskytnuté": 5487, 
  "nutím": 5488, 
  "stu": 5489, 
  "tabulky": 5490, 
  "znalosti": 5491, 
  "nabí@@": 5492, 
  "struktury": 5493, 
  "daly": 5494, 
  "občané": 5495, 
  "cho@@": 5496, 
  "ativní": 5497, 
  "bě": 5498, 
  "psal": 5499, 
  "akční": 5500, 
  "počátku": 5501, 
  "vykon@@": 5502, 
  "polovinu": 5503, 
  "anů": 5504, 
  "eným": 5505, 
  "rovná": 5506, 
  "sun@@": 5507, 
  "klad@@": 5508, 
  "vůli": 5509, 
  "ztratili": 5510, 
  "mana": 5511, 
  "bytu": 5512, 
  "out": 5513, 
  "papír": 5514, 
  "přípravu": 5515, 
  "myslíme": 5516, 
  "vydrž": 5517, 
  "spoj@@": 5518, 
  "výjimky": 5519, 
  "vzpomínám": 5520, 
  "nejlepších": 5521, 
  "zne@@": 5522, 
  "maz@@": 5523, 
  "kterej": 5524, 
  "číslem": 5525, 
  "majetek": 5526, 
  "funkční": 5527, 
  "starat": 5528, 
  "silná": 5529, 
  "léčivých": 5530, 
  "kých": 5531, 
  "střel@@": 5532, 
  "obtížné": 5533, 
  "ul": 5534, 
  "výměny": 5535, 
  "zachovat": 5536, 
  "tru@@": 5537, 
  "vyšel": 5538, 
  "výkladu": 5539, 
  "potřebovala": 5540, 
  "zovat": 5541, 
  "protiprávní": 5542, 
  "hodí": 5543, 
  "mladé": 5544, 
  "čily": 5545, 
  "drá@@": 5546, 
  "vybí@@": 5547, 
  "Bi@@": 5548, 
  "dodal": 5549, 
  "nenapadlo": 5550, 
  "Lo@@": 5551, 
  "poslala": 5552, 
  "styl": 5553, 
  "žadatel": 5554, 
  "šílený": 5555, 
  "poli": 5556, 
  "zobrazení": 5557, 
  "rozhodování": 5558, 
  "pochybnosti": 5559, 
  "uvádění": 5560, 
  "Název": 5561, 
  "měj": 5562, 
  "splňuje": 5563, 
  "ztratit": 5564, 
  "světové": 5565, 
  "známe": 5566, 
  "judikatury": 5567, 
  "povol@@": 5568, 
  "pracovníky": 5569, 
  "miliardy": 5570, 
  "ant": 5571, 
  "několikrát": 5572, 
  "was": 5573, 
  "ící": 5574, 
  "Parlament": 5575, 
  "druhým": 5576, 
  "&lt;": 5577, 
  "podívejme": 5578, 
  "dopadů": 5579, 
  "kost@@": 5580, 
  "lů": 5581, 
  "vyhnout": 5582, 
  "neprodleně": 5583, 
  "Far@@": 5584, 
  "hmm": 5585, 
  "pravou": 5586, 
  "venkova": 5587, 
  "třikrát": 5588, 
  "nahlas": 5589, 
  "železniční": 5590, 
  "pusťte": 5591, 
  "náhrady": 5592, 
  "významný": 5593, 
  "změ@@": 5594, 
  "plyn": 5595, 
  "Sar@@": 5596, 
  "hem": 5597, 
  "vzdálenost": 5598, 
  "údajně": 5599, 
  "CE": 5600, 
  "vzorků": 5601, 
  "dívku": 5602, 
  "přidružení": 5603, 
  "těhotná": 5604, 
  "provede": 5605, 
  "dé@@": 5606, 
  "dveřím": 5607, 
  "dro@@": 5608, 
  "přijdeš": 5609, 
  "řeknete": 5610, 
  "leh@@": 5611, 
  "postel": 5612, 
  "podrobnosti": 5613, 
  "uši": 5614, 
  "Rozsudek": 5615, 
  "volba": 5616, 
  "milá": 5617, 
  "dostatek": 5618, 
  "tomuhle": 5619, 
  "spravedlnosti": 5620, 
  "kola": 5621, 
  "ig@@": 5622, 
  "poměru": 5623, 
  "koordin@@": 5624, 
  "Pa@@": 5625, 
  "klepněte": 5626, 
  "postarat": 5627, 
  "poj@@": 5628, 
  "ore": 5629, 
  "zápis": 5630, 
  "náma": 5631, 
  "nazdar": 5632, 
  "11.@@": 5633, 
  "materiály": 5634, 
  "matkou": 5635, 
  "ředitelství": 5636, 
  "povrchu": 5637, 
  "KY": 5638, 
  "pomůžu": 5639, 
  "lhal": 5640, 
  "nemusel": 5641, 
  "Poznámky": 5642, 
  "stejného": 5643, 
  "jemu": 5644, 
  "čekají": 5645, 
  "bojí": 5646, 
  "poč@@": 5647, 
  "umřel": 5648, 
  "pas@@": 5649, 
  "obrovský": 5650, 
  "přístavu": 5651, 
  "snídani": 5652, 
  "připravte": 5653, 
  "špatná": 5654, 
  "ye": 5655, 
  "důvodem": 5656, 
  "skla": 5657, 
  "třetího": 5658, 
  "tická": 5659, 
  "myšlenka": 5660, 
  "ověřit": 5661, 
  "lev@@": 5662, 
  "uš@@": 5663, 
  "mrtvé": 5664, 
  "zapojení": 5665, 
  "provedena": 5666, 
  "nesmíš": 5667, 
  "kávu": 5668, 
  "zřízení": 5669, 
  "promluvil": 5670, 
  "řili": 5671, 
  "případné": 5672, 
  "nevypadá": 5673, 
  "raz@@": 5674, 
  "vstupuje": 5675, 
  "No@@": 5676, 
  "podmínkách": 5677, 
  "zap@@": 5678, 
  "poznámce": 5679, 
  "mus": 5680, 
  "kají": 5681, 
  "koordinace": 5682, 
  "vypl@@": 5683, 
  "kuchyni": 5684, 
  "Tome": 5685, 
  "krvi": 5686, 
  "Ha@@": 5687, 
  "silně": 5688, 
  "uvidíte": 5689, 
  "průmysl": 5690, 
  "pit@@": 5691, 
  "lat@@": 5692, 
  "SA": 5693, 
  "zásadu": 5694, 
  "vrátili": 5695, 
  "obchod@@": 5696, 
  "ter": 5697, 
  "vysoko": 5698, 
  "poznamenal": 5699, 
  "použity": 5700, 
  "City": 5701, 
  "Americe": 5702, 
  "đ@@": 5703, 
  "řádné": 5704, 
  "kouzlo": 5705, 
  "ostatně": 5706, 
  "jindy": 5707, 
  "záv@@": 5708, 
  "vztahů": 5709, 
  "city": 5710, 
  "začnou": 5711, 
  "hlá@@": 5712, 
  "takovej": 5713, 
  "považují": 5714, 
  "snažíš": 5715, 
  "důvěru": 5716, 
  "centra": 5717, 
  "tvr@@": 5718, 
  "valo": 5719, 
  "Směrnice": 5720, 
  "hledáme": 5721, 
  "vrá@@": 5722, 
  "Žalobkyně": 5723, 
  "volně": 5724, 
  "účinku": 5725, 
  "vyžadují": 5726, 
  "barvu": 5727, 
  "poru@@": 5728, 
  "anými": 5729, 
  "vyloučení": 5730, 
  "dovol@@": 5731, 
  "pomáhat": 5732, 
  "bezpečnostních": 5733, 
  "nedošlo": 5734, 
  "podílu": 5735, 
  "vojenské": 5736, 
  "bydliště": 5737, 
  "pátek": 5738, 
  "ent": 5739, 
  "pohlédl": 5740, 
  "kolena": 5741, 
  "zločin": 5742, 
  "ISO": 5743, 
  "příspěvku": 5744, 
  "paměť": 5745, 
  "uplatňuje": 5746, 
  "Pal@@": 5747, 
  "komunikace": 5748, 
  "sklo": 5749, 
  "straš@@": 5750, 
  "NÍ": 5751, 
  "hodinky": 5752, 
  "rozhodli": 5753, 
  "1993": 5754, 
  "per": 5755, 
  "kat@@": 5756, 
  "šit": 5757, 
  "procent": 5758, 
  "kovým": 5759, 
  "obnov@@": 5760, 
  "î@@": 5761, 
  "hrdina": 5762, 
  "nákladní": 5763, 
  "služebního": 5764, 
  "rání": 5765, 
  "COMP": 5766, 
  "představení": 5767, 
  "událostí": 5768, 
  "server": 5769, 
  "plan@@": 5770, 
  "rychlosti": 5771, 
  "Kor@@": 5772, 
  "rychlé": 5773, 
  "různými": 5774, 
  "správnou": 5775, 
  "úkolem": 5776, 
  "oficiální": 5777, 
  "vými": 5778, 
  "sloužit": 5779, 
  "kli": 5780, 
  "tisk@@": 5781, 
  "dod@@": 5782, 
  "stvím": 5783, 
  "modré": 5784, 
  "naštěstí": 5785, 
  "podala": 5786, 
  "spánku": 5787, 
  "čistě": 5788, 
  "kyně": 5789, 
  "idiot": 5790, 
  "kostí": 5791, 
  "vyvol@@": 5792, 
  "dokončit": 5793, 
  "balíček": 5794, 
  "mane": 5795, 
  "generál": 5796, 
  "Pi@@": 5797, 
  "setkat": 5798, 
  "eri@@": 5799, 
  "povede": 5800, 
  "zajít": 5801, 
  "zadruhé": 5802, 
  "nevz@@": 5803, 
  "soustředit": 5804, 
  "vemte": 5805, 
  "moderní": 5806, 
  "dáv@@": 5807, 
  "vzpomínky": 5808, 
  "uživatelů": 5809, 
  "cího": 5810, 
  "shody": 5811, 
  "přinést": 5812, 
  "jedem": 5813, 
  "bankovní": 5814, 
  "atele": 5815, 
  "ztráta": 5816, 
  "armády": 5817, 
  "stačit": 5818, 
  "poly@@": 5819, 
  "rovou": 5820, 
  "zelené": 5821, 
  "zůstanu": 5822, 
  "napůl": 5823, 
  "telefonní": 5824, 
  "smrtí": 5825, 
  "mou@@": 5826, 
  "čných": 5827, 
  "elu": 5828, 
  "haly": 5829, 
  "hajzlu": 5830, 
  "tl": 5831, 
  "kaz@@": 5832, 
  "ostí": 5833, 
  "mámě": 5834, 
  "snu": 5835, 
  "chu@@": 5836, 
  "Del@@": 5837, 
  "not@@": 5838, 
  "rala": 5839, 
  "slibuju": 5840, 
  "Hotel": 5841, 
  "My@@": 5842, 
  "nit@@": 5843, 
  "tou@@": 5844, 
  "var@@": 5845, 
  "zadku": 5846, 
  "ační": 5847, 
  "ber": 5848, 
  "pistoli": 5849, 
  "býval": 5850, 
  "zmizela": 5851, 
  "Vánoce": 5852, 
  "AT@@": 5853, 
  "Dra@@": 5854, 
  "výzvy": 5855, 
  "vývoji": 5856, 
  "přístroje": 5857, 
  "noviny": 5858, 
  "potenciál": 5859, 
  "ym": 5860, 
  "vyp@@": 5861, 
  "ble@@": 5862, 
  "dal@@": 5863, 
  "ptát": 5864, 
  "pracovala": 5865, 
  "mag@@": 5866, 
  "rně": 5867, 
  "udělejte": 5868, 
  "správa": 5869, 
  "vše@@": 5870, 
  "mluv": 5871, 
  "och": 5872, 
  "živé": 5873, 
  "promluvíme": 5874, 
  "soudem": 5875, 
  "álu": 5876, 
  "službě": 5877, 
  "ležel": 5878, 
  "uvedena": 5879, 
  "koukej": 5880, 
  "Výroba": 5881, 
  "atel@@": 5882, 
  "kapsy": 5883, 
  "ostrov": 5884, 
  "atel": 5885, 
  "Qu@@": 5886, 
  "hostů": 5887, 
  "Star@@": 5888, 
  "volat": 5889, 
  "vypadám": 5890, 
  "cenou": 5891, 
  "ki@@": 5892, 
  "paliva": 5893, 
  "manželka": 5894, 
  "slí@@": 5895, 
  "prudce": 5896, 
  "veřejnou": 5897, 
  "níš": 5898, 
  "generace": 5899, 
  "250": 5900, 
  "min": 5901, 
  "ukazují": 5902, 
  "nezapomeň": 5903, 
  "určitý": 5904, 
  "narodil": 5905, 
  "oznámí": 5906, 
  "přijímat": 5907, 
  "vpřed": 5908, 
  "Ste@@": 5909, 
  "ňoval": 5910, 
  "orem": 5911, 
  "České": 5912, 
  "pochází": 5913, 
  "tabulce": 5914, 
  "livý": 5915, 
  "čekám": 5916, 
  "jediného": 5917, 
  "kého": 5918, 
  "Er@@": 5919, 
  "přeprav@@": 5920, 
  "podíváme": 5921, 
  "úspěšně": 5922, 
  "prvek": 5923, 
  "tat": 5924, 
  "poručíku": 5925, 
  "rozpočtový": 5926, 
  "čilo": 5927, 
  "úředníků": 5928, 
  "samý": 5929, 
  "gy": 5930, 
  "kování": 5931, 
  "zásoby": 5932, 
  "červené": 5933, 
  "zru@@": 5934, 
  "přihlédnutím": 5935, 
  "Radou": 5936, 
  "Proč": 5937, 
  "počítači": 5938, 
  "rod@@": 5939, 
  "fer@@": 5940, 
  "Eddie": 5941, 
  "podél": 5942, 
  "poli@@": 5943, 
  "dialog": 5944, 
  "zlo": 5945, 
  "přehled": 5946, 
  "rý@@": 5947, 
  "nechá": 5948, 
  "zuje": 5949, 
  "tajné": 5950, 
  "vraťte": 5951, 
  "hlavního": 5952, 
  "žádnej": 5953, 
  "přijat": 5954, 
  "Lee": 5955, 
  "CD": 5956, 
  "dáma": 5957, 
  "souborů": 5958, 
  "zkuste": 5959, 
  "bem": 5960, 
  "bra@@": 5961, 
  "vzniku": 5962, 
  "odtamtud": 5963, 
  "ROZHODNUTÍ": 5964, 
  "otevření": 5965, 
  "koordinaci": 5966, 
  "vek": 5967, 
  "zapla@@": 5968, 
  "čích": 5969, 
  "vozidlo": 5970, 
  "nechceme": 5971, 
  "důležitější": 5972, 
  "Tri@@": 5973, 
  "neviděli": 5974, 
  "elektrické": 5975, 
  "něčemu": 5976, 
  "minulost": 5977, 
  "1992": 5978, 
  "trest": 5979, 
  "učení": 5980, 
  "ově@@": 5981, 
  "namísto": 5982, 
  "dopady": 5983, 
  "AL@@": 5984, 
  "uložení": 5985, 
  "ukončit": 5986, 
  "La": 5987, 
  "York": 5988, 
  "har@@": 5989, 
  "ga@@": 5990, 
  "dlouhodobé": 5991, 
  "pravá": 5992, 
  "Ná@@": 5993, 
  "acím": 5994, 
  "zal@@": 5995, 
  "Al": 5996, 
  "regulační": 5997, 
  "nale@@": 5998, 
  "stěny": 5999, 
  "inovací": 6000, 
  "tal@@": 6001, 
  "uvol@@": 6002, 
  "pověz": 6003, 
  "příspěvků": 6004, 
  "vzdát": 6005, 
  "ekonomiky": 6006, 
  "cestující": 6007, 
  "ă@@": 6008, 
  "nepotřebuju": 6009, 
  "zahájit": 6010, 
  "veřejnost": 6011, 
  "ujícího": 6012, 
  "Pol@@": 6013, 
  "skočil": 6014, 
  "kost": 6015, 
  "věřte": 6016, 
  "klá@@": 6017, 
  "Bre@@": 6018, 
  "centrum": 6019, 
  "říme": 6020, 
  "stupeň": 6021, 
  "ate@@": 6022, 
  "dvanáct": 6023, 
  "zaplatil": 6024, 
  "ER@@": 6025, 
  "M.@@": 6026, 
  "kvalitu": 6027, 
  "vycházející": 6028, 
  "Pre@@": 6029, 
  "Peter": 6030, 
  "zaslouží": 6031, 
  "samotné": 6032, 
  "mů": 6033, 
  "ĺ@@": 6034, 
  "hře": 6035, 
  "čin": 6036, 
  "IT@@": 6037, 
  "plukovníku": 6038, 
  "ps@@": 6039, 
  "míň": 6040, 
  "luje": 6041, 
  "značky": 6042, 
  "večírek": 6043, 
  "najdeš": 6044, 
  "Jan@@": 6045, 
  "verzi": 6046, 
  "čel": 6047, 
  "Tar@@": 6048, 
  "fa@@": 6049, 
  "počáteční": 6050, 
  "Mike": 6051, 
  "ls": 6052, 
  "osobě": 6053, 
  "plynů": 6054, 
  "vzorek": 6055, 
  "prodeji": 6056, 
  "nepřišel": 6057, 
  "malým": 6058, 
  "nestačí": 6059, 
  "fot@@": 6060, 
  "zeď": 6061, 
  "zavřít": 6062, 
  "klo@@": 6063, 
  "vydat": 6064, 
  "získala": 6065, 
  "jícímu": 6066, 
  "čkem": 6067, 
  "demokracie": 6068, 
  "bůh": 6069, 
  "tami": 6070, 
  "odkazuje": 6071, 
  "registrace": 6072, 
  "odpovídajícím": 6073, 
  "předchozích": 6074, 
  "We@@": 6075, 
  "šk@@": 6076, 
  "velkej": 6077, 
  "con@@": 6078, 
  "pole@@": 6079, 
  "cosi": 6080, 
  "nka": 6081, 
  "Street": 6082, 
  "jinýho": 6083, 
  "Ta@@": 6084, 
  "sme@@": 6085, 
  "tají": 6086, 
  "aktivity": 6087, 
  "hudbu": 6088, 
  "и@@": 6089, 
  "jen@@": 6090, 
  "dy@@": 6091, 
  "přátel": 6092, 
  "požaduje": 6093, 
  "skej": 6094, 
  "nutně": 6095, 
  "ovanými": 6096, 
  "váním": 6097, 
  "stre@@": 6098, 
  "pozadí": 6099, 
  "vyhlášení": 6100, 
  "necháš": 6101, 
  "itelný": 6102, 
  "zadejte": 6103, 
  "w": 6104, 
  "teorie": 6105, 
  "čá@@": 6106, 
  "with": 6107, 
  "přijmou": 6108, 
  "kulturní": 6109, 
  "fondy": 6110, 
  "dokončení": 6111, 
  "planetě": 6112, 
  "členem": 6113, 
  "kartu": 6114, 
  "záležitostí": 6115, 
  "Ab@@": 6116, 
  "určí": 6117, 
  "přítomnosti": 6118, 
  "lený": 6119, 
  "fe": 6120, 
  "ovaní": 6121, 
  "ø@@": 6122, 
  "černá": 6123, 
  "vět@@": 6124, 
  "ance": 6125, 
  "role": 6126, 
  "doslova": 6127, 
  "prvků": 6128, 
  "čuje": 6129, 
  "došel": 6130, 
  "pacienta": 6131, 
  "Pra@@": 6132, 
  "položek": 6133, 
  "právník": 6134, 
  "muž@@": 6135, 
  "uplatňovat": 6136, 
  "otisky": 6137, 
  "sedni": 6138, 
  "hudba": 6139, 
  "použitelné": 6140, 
  "palubu": 6141, 
  "vůz": 6142, 
  "chová": 6143, 
  "dělejte": 6144, 
  "pohlaví": 6145, 
  "m.": 6146, 
  "pem": 6147, 
  "nefunguje": 6148, 
  "budem": 6149, 
  "lým": 6150, 
  "silnici": 6151, 
  "založení": 6152, 
  "radi@@": 6153, 
  "níte": 6154, 
  "skutečná": 6155, 
  "očekávat": 6156, 
  "přezkoumání": 6157, 
  "Jean": 6158, 
  "tvo@@": 6159, 
  "Kom@@": 6160, 
  "mléko": 6161, 
  "šených": 6162, 
  "ger@@": 6163, 
  "ary": 6164, 
  "Datum": 6165, 
  "infekce": 6166, 
  "shod@@": 6167, 
  "Indie": 6168, 
  "stejném": 6169, 
  "Ser@@": 6170, 
  "časy": 6171, 
  "zen": 6172, 
  "kopie": 6173, 
  "Tan@@": 6174, 
  "pomozte": 6175, 
  "kamery": 6176, 
  "leg@@": 6177, 
  "lená": 6178, 
  "úvěrů": 6179, 
  "nízké": 6180, 
  "spatřil": 6181, 
  "řený": 6182, 
  "podaří": 6183, 
  "tovat": 6184, 
  "vyšetř@@": 6185, 
  "východní": 6186, 
  "ara": 6187, 
  "sní": 6188, 
  "hvězda": 6189, 
  "cenné": 6190, 
  "pododstavci": 6191, 
  "začínám": 6192, 
  "látku": 6193, 
  "ply@@": 6194, 
  "stě@@": 6195, 
  "zničil": 6196, 
  "sovi": 6197, 
  "chal": 6198, 
  "bil": 6199, 
  "produkci": 6200, 
  "roval": 6201, 
  "díte": 6202, 
  "Mag@@": 6203, 
  "výlet": 6204, 
  "Gra@@": 6205, 
  "naštvaná": 6206, 
  "stability": 6207, 
  "hrozný": 6208, 
  "upozornění": 6209, 
  "cká": 6210, 
  "kontaktu": 6211, 
  "non": 6212, 
  "kuchyně": 6213, 
  "É": 6214, 
  "naposled": 6215, 
  "nal@@": 6216, 
  "měnit": 6217, 
  "zkušební": 6218, 
  "dobrých": 6219, 
  "dík": 6220, 
  "papíru": 6221, 
  "integrace": 6222, 
  "malej": 6223, 
  "ohně": 6224, 
  "požadovat": 6225, 
  "hádat": 6226, 
  "začlenění": 6227, 
  "choval": 6228, 
  "aktů": 6229, 
  "vající": 6230, 
  "nešlo": 6231, 
  "jinému": 6232, 
  "ověřování": 6233, 
  "hle": 6234, 
  "eru": 6235, 
  "náladu": 6236, 
  "cu": 6237, 
  "severní": 6238, 
  "snažili": 6239, 
  "chá": 6240, 
  "jme": 6241, 
  "vyz@@": 6242, 
  "dokonale": 6243, 
  "strachu": 6244, 
  "vedly": 6245, 
  "lese": 6246, 
  "připravena": 6247, 
  "zbývající": 6248, 
  "průměru": 6249, 
  "poskytnuta": 6250, 
  "přesvědčen": 6251, 
  "povolání": 6252, 
  "obnovení": 6253, 
  "nehoda": 6254, 
  "rku": 6255, 
  "panem": 6256, 
  "díš": 6257, 
  "vědecké": 6258, 
  "nejmenší": 6259, 
  "dluhu": 6260, 
  "bodem": 6261, 
  "královna": 6262, 
  "DO@@": 6263, 
  "zkontrolovat": 6264, 
  "aspekty": 6265, 
  "povinné": 6266, 
  "dovozní": 6267, 
  "knu": 6268, 
  "ňující": 6269, 
  "dětmi": 6270, 
  "pou": 6271, 
  "dřeva": 6272, 
  "spotřeby": 6273, 
  "ovlivnit": 6274, 
  "motor": 6275, 
  "doklady": 6276, 
  "ván": 6277, 
  "středních": 6278, 
  "spojit": 6279, 
  "Tommy": 6280, 
  "získané": 6281, 
  "ústa": 6282, 
  "anem": 6283, 
  "mrtvých": 6284, 
  "svatbu": 6285, 
  "rychlostí": 6286, 
  "vého": 6287, 
  "pracovníci": 6288, 
  "ckou": 6289, 
  "ávala": 6290, 
  "volání": 6291, 
  "lilo": 6292, 
  "elektřiny": 6293, 
  "th": 6294, 
  "představovat": 6295, 
  "bat": 6296, 
  "děl@@": 6297, 
  "významně": 6298, 
  "oč@@": 6299, 
  "odborníků": 6300, 
  "příjem": 6301, 
  "GmbH": 6302, 
  "vyzývá": 6303, 
  "vlá@@": 6304, 
  "Bri@@": 6305, 
  "pust@@": 6306, 
  "elektronických": 6307, 
  "odpadu": 6308, 
  "vzpomněl": 6309, 
  "důchodu": 6310, 
  "ika": 6311, 
  "zle": 6312, 
  "příjmu": 6313, 
  "vývoz": 6314, 
  "senát": 6315, 
  "tam@@": 6316, 
  "známo": 6317, 
  "Ří@@": 6318, 
  "fyzické": 6319, 
  "120": 6320, 
  "povolit": 6321, 
  "fon@@": 6322, 
  "kamarádka": 6323, 
  "bývalý": 6324, 
  "24@@": 6325, 
  "dávek": 6326, 
  "IP": 6327, 
  "~": 6328, 
  "silnice": 6329, 
  "vypadnout": 6330, 
  "samotě": 6331, 
  "partnery": 6332, 
  "znalostí": 6333, 
  "faktory": 6334, 
  "děkujeme": 6335, 
  "pravděpodobné": 6336, 
  "provádějí": 6337, 
  "Andy": 6338, 
  "dotyčné": 6339, 
  "transakcí": 6340, 
  "studiích": 6341, 
  "itý": 6342, 
  "fu": 6343, 
  "výsledku": 6344, 
  "zákazu": 6345, 
  "vní": 6346, 
  "kroků": 6347, 
  "výhodu": 6348, 
  "dat@@": 6349, 
  "ery": 6350, 
  "hrála": 6351, 
  "vzpomínáš": 6352, 
  "přinesla": 6353, 
  "ran": 6354, 
  "vytváří": 6355, 
  "řilo": 6356, 
  "zádech": 6357, 
  "Tur@@": 6358, 
  "konkrétních": 6359, 
  "samostatně": 6360, 
  "vejte": 6361, 
  "jednotného": 6362, 
  "tace": 6363, 
  "příznaky": 6364, 
  "čtyř@@": 6365, 
  "dotčený": 6366, 
  "plánů": 6367, 
  "zákony": 6368, 
  "přímý": 6369, 
  "ele@@": 6370, 
  "ženým": 6371, 
  "pracuju": 6372, 
  "heslo": 6373, 
  "novém": 6374, 
  "sek@@": 6375, 
  "nosí": 6376, 
  "daňových": 6377, 
  "nalo@@": 6378, 
  "ají": 6379, 
  "misi": 6380, 
  "nevztahuje": 6381, 
  "přemýšlím": 6382, 
  "něnou": 6383, 
  "posádky": 6384, 
  "podlaze": 6385, 
  "legislativní": 6386, 
  "Por@@": 6387, 
  "níkům": 6388, 
  "zpívat": 6389, 
  "kombinace": 6390, 
  "nemůžou": 6391, 
  "obzvláště": 6392, 
  "volno": 6393, 
  "peč@@": 6394, 
  "poh@@": 6395, 
  "prováděcích": 6396, 
  "dostalo": 6397, 
  "vejce": 6398, 
  "odvahu": 6399, 
  "2.1": 6400, 
  "fa": 6401, 
  "diskriminace": 6402, 
  "rky": 6403, 
  "vstoupil": 6404, 
  "známý": 6405, 
  "školní": 6406, 
  "Max": 6407, 
  "hranic": 6408, 
  "soudního": 6409, 
  "volám": 6410, 
  "Ki@@": 6411, 
  "Char@@": 6412, 
  "mal": 6413, 
  "jakosti": 6414, 
  "Ry@@": 6415, 
  "ukazatele": 6416, 
  "dokázala": 6417, 
  "překážky": 6418, 
  "získ@@": 6419, 
  "západ": 6420, 
  "uskuteč@@": 6421, 
  "nalézt": 6422, 
  "pošlu": 6423, 
  "třída": 6424, 
  "lhát": 6425, 
  "samo": 6426, 
  "původního": 6427, 
  "ine@@": 6428, 
  "mírně": 6429, 
  "oka": 6430, 
  "žím": 6431, 
  "jas@@": 6432, 
  "opi@@": 6433, 
  "počítat": 6434, 
  "přivedl": 6435, 
  "provoz@@": 6436, 
  "ženého": 6437, 
  "najdi": 6438, 
  "ředitele": 6439, 
  "kategorií": 6440, 
  "rají": 6441, 
  "kri@@": 6442, 
  "AR@@": 6443, 
  "ny@@": 6444, 
  "rových": 6445, 
  "píseň": 6446, 
  "25@@": 6447, 
  "gra@@": 6448, 
  "у@@": 6449, 
  "zaměstnanost": 6450, 
  "Lin@@": 6451, 
  "lidského": 6452, 
  "Emily": 6453, 
  "osobou": 6454, 
  "sever": 6455, 
  "Q@@": 6456, 
  "sm@@": 6457, 
  "NAŘÍZENÍ": 6458, 
  "Vě@@": 6459, 
  "nictví": 6460, 
  "cti@@": 6461, 
  "Da@@": 6462, 
  "reagovat": 6463, 
  "hory": 6464, 
  "důležitou": 6465, 
  "Ter@@": 6466, 
  "pobí@@": 6467, 
  "jejímž": 6468, 
  "Com@@": 6469, 
  "в@@": 6470, 
  "krátké": 6471, 
  "lily": 6472, 
  "bratře": 6473, 
  "Při@@": 6474, 
  "vezmeš": 6475, 
  "nemoc": 6476, 
  "věříš": 6477, 
  "společná": 6478, 
  "obchodního": 6479, 
  "lež": 6480, 
  "KN": 6481, 
  "umožňují": 6482, 
  "ávali": 6483, 
  "společnou": 6484, 
  "textu": 6485, 
  "Text": 6486, 
  "Kim": 6487, 
  "Á": 6488, 
  "konference": 6489, 
  "pocity": 6490, 
  "barva": 6491, 
  "uplynutí": 6492, 
  "ca@@": 6493, 
  "nicí": 6494, 
  "kamarádi": 6495, 
  "Před@@": 6496, 
  "ç@@": 6497, 
  "pracují": 6498, 
  "otevřete": 6499, 
  "zo": 6500, 
  "dan@@": 6501, 
  "bud@@": 6502, 
  "pána": 6503, 
  "hro@@": 6504, 
  "kapitál": 6505, 
  "dokumentace": 6506, 
  "tradiční": 6507, 
  "lené": 6508, 
  "přírodní": 6509, 
  "med@@": 6510, 
  "založené": 6511, 
  "800": 6512, 
  "ochranných": 6513, 
  "příslušnosti": 6514, 
  "zadávání": 6515, 
  "dodávek": 6516, 
  "lož@@": 6517, 
  "ptám": 6518, 
  "aty": 6519, 
  "vraha": 6520, 
  "wi@@": 6521, 
  "tor@@": 6522, 
  "individuální": 6523, 
  "Čína": 6524, 
  "Bene": 6525, 
  "rozhodující": 6526, 
  "Ger@@": 6527, 
  "ňte": 6528, 
  "odjet": 6529, 
  "splnit": 6530, 
  "ot": 6531, 
  "jednomu": 6532, 
  "starej": 6533, 
  "bel@@": 6534, 
  "představu": 6535, 
  "složku": 6536, 
  "podrobné": 6537, 
  "vzdálenosti": 6538, 
  "propojení": 6539, 
  "dialogu": 6540, 
  "zace": 6541, 
  "chat": 6542, 
  "souvisí": 6543, 
  "naštvaný": 6544, 
  "čkách": 6545, 
  "samy": 6546, 
  "četla": 6547, 
  "babička": 6548, 
  "tisk": 6549, 
  "dosa@@": 6550, 
  "É@@": 6551, 
  "třídě": 6552, 
  "chlápka": 6553, 
  "huje": 6554, 
  "přijaté": 6555, 
  "stránek": 6556, 
  "jmenování": 6557, 
  "Tre@@": 6558, 
  "án@@": 6559, 
  "ukládá": 6560, 
  "hmotnost": 6561, 
  "ledvin": 6562, 
  "tvý": 6563, 
  "názory": 6564, 
  "těma": 6565, 
  "mezinárodního": 6566, 
  "jedeš": 6567, 
  "Sb.": 6568, 
  "bo": 6569, 
  "zásadou": 6570, 
  "šílenství": 6571, 
  "Che@@": 6572, 
  "strá@@": 6573, 
  "Alex": 6574, 
  "všemu": 6575, 
  "slyšíte": 6576, 
  "Ban@@": 6577, 
  "odmítnout": 6578, 
  "pošlete": 6579, 
  "změnilo": 6580, 
  "mail": 6581, 
  "poznala": 6582, 
  "rop@@": 6583, 
  "tám": 6584, 
  "prá@@": 6585, 
  "rameny": 6586, 
  "jednotné": 6587, 
  "obe@@": 6588, 
  "nal": 6589, 
  "Ji@@": 6590, 
  "chyb": 6591, 
  "cm": 6592, 
  "zvláštním": 6593, 
  "dohod@@": 6594, 
  "příslušná": 6595, 
  "dívala": 6596, 
  "kém": 6597, 
  "něním": 6598, 
  "uděláte": 6599, 
  "hloupý": 6600, 
  "položit": 6601, 
  "cestovní": 6602, 
  "skutečnou": 6603, 
  "provedla": 6604, 
  "zavřel": 6605, 
  "článcích": 6606, 
  "láhev": 6607, 
  "vis@@": 6608, 
  "pondělí": 6609, 
  "ct": 6610, 
  "roztoku": 6611, 
  "cvičení": 6612, 
  "sprav@@": 6613, 
  "Miles": 6614, 
  "příležitostí": 6615, 
  "prosazování": 6616, 
  "našim": 6617, 
  "sednout": 6618, 
  "internetové": 6619, 
  "hezká": 6620, 
  "Lily": 6621, 
  "slyšení": 6622, 
  "pis@@": 6623, 
  "čas@@": 6624, 
  "hran@@": 6625, 
  "zkouška": 6626, 
  "Mezinárodní": 6627, 
  "restrukturalizace": 6628, 
  "př@@": 6629, 
  "átu": 6630, 
  "PRO@@": 6631, 
  "nahradit": 6632, 
  "daných": 6633, 
  "nesmírně": 6634, 
  "neumím": 6635, 
  "sek": 6636, 
  "aní": 6637, 
  "snažíme": 6638, 
  "potraviny": 6639, 
  "drž@@": 6640, 
  "are@@": 6641, 
  "dcery": 6642, 
  "ada": 6643, 
  "pamatuj": 6644, 
  "významu": 6645, 
  "fér": 6646, 
  "začnu": 6647, 
  "strom": 6648, 
  "správních": 6649, 
  "zemím": 6650, 
  "mrtvej": 6651, 
  "OV@@": 6652, 
  "drob@@": 6653, 
  "hlí@@": 6654, 
  "děcka": 6655, 
  "televize": 6656, 
  "aném": 6657, 
  "návštěvu": 6658, 
  "zasa@@": 6659, 
  "stanovenými": 6660, 
  "kři@@": 6661, 
  "ct@@": 6662, 
  "náhrada": 6663, 
  "kni": 6664, 
  "přesné": 6665, 
  "Jižní": 6666, 
  "Ve@@": 6667, 
  "lost": 6668, 
  "opat@@": 6669, 
  "vrátíš": 6670, 
  "odmítl": 6671, 
  "nské": 6672, 
  "sedmi": 6673, 
  "roztr@@": 6674, 
  "efektivní": 6675, 
  "vidíme": 6676, 
  "založena": 6677, 
  "Ameriky": 6678, 
  "přečíst": 6679, 
  "čekali": 6680, 
  "řad@@": 6681, 
  "oznámil": 6682, 
  "nemocný": 6683, 
  "cená": 6684, 
  "rozhraní": 6685, 
  "600": 6686, 
  "záznamů": 6687, 
  "Martin": 6688, 
  "Frank": 6689, 
  "stroj@@": 6690, 
  "patnáct": 6691, 
  "přežít": 6692, 
  "regionálních": 6693, 
  "nedal": 6694, 
  "zodpovědnost": 6695, 
  "volné": 6696, 
  "nimž": 6697, 
  "El": 6698, 
  "bral": 6699, 
  "omezené": 6700, 
  "restauraci": 6701, 
  "žek": 6702, 
  "30@@": 6703, 
  "předložené": 6704, 
  "Kal@@": 6705, 
  "jak@@": 6706, 
  "les@@": 6707, 
  "trá@@": 6708, 
  "vyrazit": 6709, 
  "sone": 6710, 
  "prosinci": 6711, 
  "LO@@": 6712, 
  "vána": 6713, 
  "Belgie": 6714, 
  "kámoš": 6715, 
  "riskovat": 6716, 
  "sin@@": 6717, 
  "dodatku": 6718, 
  "nedostal": 6719, 
  "následky": 6720, 
  "přináší": 6721, 
  "dové": 6722, 
  "údolí": 6723, 
  "rejstříku": 6724, 
  "RA@@": 6725, 
  "ET@@": 6726, 
  "vyloučit": 6727, 
  "nastavit": 6728, 
  "podob@@": 6729, 
  "dku": 6730, 
  "fuk": 6731, 
  "Sha@@": 6732, 
  "tického": 6733, 
  "čelit": 6734, 
  "tablet": 6735, 
  "ivá": 6736, 
  "směr": 6737, 
  "enu": 6738, 
  "účastníci": 6739, 
  "н@@": 6740, 
  "nemoci": 6741, 
  "jaderné": 6742, 
  "určen": 6743, 
  "aplikaci": 6744, 
  "úst": 6745, 
  "stra@@": 6746, 
  "auditu": 6747, 
  "vrácení": 6748, 
  "Don@@": 6749, 
  "doleva": 6750, 
  "Hor@@": 6751, 
  "seržante": 6752, 
  "rychlý": 6753, 
  "Jsem": 6754, 
  "vší": 6755, 
  "názvem": 6756, 
  "počí@@": 6757, 
  "12.@@": 6758, 
  "PRO": 6759, 
  "vlaku": 6760, 
  "svýho": 6761, 
  "nách": 6762, 
  "kočka": 6763, 
  "vyk@@": 6764, 
  "přenesené": 6765, 
  "účinně": 6766, 
  "výroční": 6767, 
  "ise": 6768, 
  "metod": 6769, 
  "pořadí": 6770, 
  "Georgi": 6771, 
  "pozoroval": 6772, 
  "с@@": 6773, 
  "ovaném": 6774, 
  "nejlepším": 6775, 
  "získali": 6776, 
  "losti": 6777, 
  "álními": 6778, 
  "narození": 6779, 
  "považována": 6780, 
  "hi@@": 6781, 
  "prstů": 6782, 
  "ler@@": 6783, 
  "zvážit": 6784, 
  "voják": 6785, 
  "staly": 6786, 
  "odůvod@@": 6787, 
  "spravedlnost": 6788, 
  "větru": 6789, 
  "we@@": 6790, 
  "die": 6791, 
  "schopný": 6792, 
  "tv@@": 6793, 
  "jazyce": 6794, 
  "nepří@@": 6795, 
  "odhad@@": 6796, 
  "mel@@": 6797, 
  "nesmíme": 6798, 
  "ár@@": 6799, 
  "dopisem": 6800, 
  "zjednodu@@": 6801, 
  "zastav": 6802, 
  "podrob@@": 6803, 
  "napřed": 6804, 
  "konkurenceschopnost": 6805, 
  "trpí": 6806, 
  "bla": 6807, 
  "tur@@": 6808, 
  "ang@@": 6809, 
  "nedostatky": 6810, 
  "vražda": 6811, 
  "určuje": 6812, 
  "přizpůsobení": 6813, 
  "nenávidím": 6814, 
  "potenciální": 6815, 
  "vyjde": 6816, 
  "Mel@@": 6817, 
  "CO": 6818, 
  "bojíš": 6819, 
  "vycházet": 6820, 
  "žilo": 6821, 
  "nos@@": 6822, 
  "šením": 6823, 
  "nenechám": 6824, 
  "RE@@": 6825, 
  "významnou": 6826, 
  "neexistují": 6827, 
  "živý": 6828, 
  "ryb": 6829, 
  "Jan": 6830, 
  "tone": 6831, 
  "regiony": 6832, 
  "lesa": 6833, 
  "jakém": 6834, 
  "bratři": 6835, 
  "jater": 6836, 
  "stanoveným": 6837, 
  "и": 6838, 
  "chystá": 6839, 
  "din@@": 6840, 
  "tům": 6841, 
  "vesnice": 6842, 
  "mechanismu": 6843, 
  "nebezpečný": 6844, 
  "ster@@": 6845, 
  "ář": 6846, 
  "službách": 6847, 
  "ismus": 6848, 
  "omluvit": 6849, 
  "gal@@": 6850, 
  "dokon@@": 6851, 
  "babek": 6852, 
  "Tento": 6853, 
  "divně": 6854, 
  "užití": 6855, 
  "bytě": 6856, 
  "ir": 6857, 
  "pacienty": 6858, 
  "Ky@@": 6859, 
  "ovládat": 6860, 
  "cením": 6861, 
  "pacient": 6862, 
  "Evropu": 6863, 
  "přijato": 6864, 
  "ská@@": 6865, 
  "samotného": 6866, 
  "Ken@@": 6867, 
  "had@@": 6868, 
  "přátelství": 6869, 
  "klinických": 6870, 
  "minimálně": 6871, 
  "atelé": 6872, 
  "ána": 6873, 
  "milion": 6874, 
  "řením": 6875, 
  "zdůraznit": 6876, 
  "atelný": 6877, 
  "celkovou": 6878, 
  "nejvýše": 6879, 
  "VÝ@@": 6880, 
  "zmizet": 6881, 
  "ment@@": 6882, 
  "přáteli": 6883, 
  "ate": 6884, 
  "bezva": 6885, 
  "kapitána": 6886, 
  "nedokáže": 6887, 
  "pustili": 6888, 
  "shromáždění": 6889, 
  "neříkal": 6890, 
  "polovina": 6891, 
  "vypracování": 6892, 
  "kontra@@": 6893, 
  "levé": 6894, 
  "říš": 6895, 
  "životem": 6896, 
  "ovacího": 6897, 
  "menu": 6898, 
  "letět": 6899, 
  "hů": 6900, 
  "uznávání": 6901, 
  "hráli": 6902, 
  "entní": 6903, 
  "dospělých": 6904, 
  "tvrdil": 6905, 
  "odpovídat": 6906, 
  "hli": 6907, 
  "připojit": 6908, 
  "prázdné": 6909, 
  "amerických": 6910, 
  "hodila": 6911, 
  "lásko": 6912, 
  "pamatovat": 6913, 
  "dobro": 6914, 
  "ner": 6915, 
  "považovány": 6916, 
  "soustavy": 6917, 
  "objekt": 6918, 
  "cer@@": 6919, 
  "jed": 6920, 
  "vypadáte": 6921, 
  "nebojte": 6922, 
  "plném": 6923, 
  "strukturální": 6924, 
  "smluvních": 6925, 
  "tických": 6926, 
  "nedělá": 6927, 
  "starou": 6928, 
  "ite": 6929, 
  "dla": 6930, 
  "událost": 6931, 
  "kurz": 6932, 
  "splňují": 6933, 
  "autem": 6934, 
  "nima": 6935, 
  "člověku": 6936, 
  "převážně": 6937, 
  "priority": 6938, 
  "zisku": 6939, 
  "schodech": 6940, 
  "částek": 6941, 
  "šed@@": 6942, 
  "hlu@@": 6943, 
  "papírů": 6944, 
  "držela": 6945, 
  "most": 6946, 
  "berou": 6947, 
  "zamítnutí": 6948, 
  "koupila": 6949, 
  "převod": 6950, 
  "Spojeného": 6951, 
  "stupňů": 6952, 
  "cvi@@": 6953, 
  "přidě@@": 6954, 
  "Ahoj": 6955, 
  "šá@@": 6956, 
  "obchodním": 6957, 
  "liber": 6958, 
  "tili": 6959, 
  "obrá@@": 6960, 
  "zajišťuje": 6961, 
  "1000": 6962, 
  "rad@@": 6963, 
  "pozval": 6964, 
  "tickou": 6965, 
  "propad@@": 6966, 
  "způsobilé": 6967, 
  "far@@": 6968, 
  "rozum": 6969, 
  "zticha": 6970, 
  "ohrožení": 6971, 
  "míří": 6972, 
  "ľ@@": 6973, 
  "aktualizace": 6974, 
  "příjemci": 6975, 
  "zavolala": 6976, 
  "dokázali": 6977, 
  "firma": 6978, 
  "přiznání": 6979, 
  "napadené": 6980, 
  "provedeny": 6981, 
  "pokračujte": 6982, 
  "plukovník": 6983, 
  "zkusím": 6984, 
  "Annie": 6985, 
  "Ob@@": 6986, 
  "šímu": 6987, 
  "zisk": 6988, 
  "žal@@": 6989, 
  "slou@@": 6990, 
  "sé@@": 6991, 
  "spl@@": 6992, 
  "EL@@": 6993, 
  "krvácení": 6994, 
  "jdem": 6995, 
  "lace": 6996, 
  "bohu": 6997, 
  "díry": 6998, 
  "chlapík": 6999, 
  "buněk": 7000, 
  "rostoucí": 7001, 
  "AC@@": 7002, 
  "písmeno": 7003, 
  "mými": 7004, 
  "hnutí": 7005, 
  "řídící": 7006, 
  "přežití": 7007, 
  "nesprávného": 7008, 
  "fiskální": 7009, 
  "zařídit": 7010, 
  "klí@@": 7011, 
  "Susan": 7012, 
  "dětství": 7013, 
  "Rozpočtový": 7014, 
  "otevřela": 7015, 
  "úpravu": 7016, 
  "Tom@@": 7017, 
  "idu": 7018, 
  "vyhodit": 7019, 
  "naj@@": 7020, 
  "mladí": 7021, 
  "akcií": 7022, 
  "Jednací": 7023, 
  "TR@@": 7024, 
  "vad@@": 7025, 
  "ač": 7026, 
  "ústřední": 7027, 
  "д@@": 7028, 
  "oblek": 7029, 
  "oficiálně": 7030, 
  "Commission": 7031, 
  "eho": 7032, 
  "označování": 7033, 
  "hodnotou": 7034, 
  "pocházející": 7035, 
  "přezkoumat": 7036, 
  "pekla": 7037, 
  "polda": 7038, 
  "lan": 7039, 
  "kří@@": 7040, 
  "smr@@": 7041, 
  "buňky": 7042, 
  "nejbližší": 7043, 
  "Fre@@": 7044, 
  "uvědomila": 7045, 
  "řá@@": 7046, 
  "námitek": 7047, 
  "chi": 7048, 
  "výroba": 7049, 
  "vější": 7050, 
  "následek": 7051, 
  "pokračuj": 7052, 
  "postav@@": 7053, 
  "gay": 7054, 
  "mistr": 7055, 
  "Ly@@": 7056, 
  "met@@": 7057, 
  "zaměřit": 7058, 
  "odvolání": 7059, 
  "all": 7060, 
  "kapitole": 7061, 
  "jinam": 7062, 
  "EM@@": 7063, 
  "správná": 7064, 
  "dodržovat": 7065, 
  "budoucnu": 7066, 
  "101": 7067, 
  "rybolov": 7068, 
  "kontrolovat": 7069, 
  "minulou": 7070, 
  "operační": 7071, 
  "vysvětlil": 7072, 
  "padl": 7073, 
  "trik": 7074, 
  "účelu": 7075, 
  "Ali@@": 7076, 
  "Q": 7077, 
  "from": 7078, 
  "posí@@": 7079, 
  "jih": 7080, 
  "plí@@": 7081, 
  "men": 7082, 
  "týdne": 7083, 
  "Číny": 7084, 
  "sad@@": 7085, 
  "stvoření": 7086, 
  "ach@@": 7087, 
  "uplatnit": 7088, 
  "líme": 7089, 
  "informačních": 7090, 
  "stop@@": 7091, 
  "diskuse": 7092, 
  "přeci": 7093, 
  "strávit": 7094, 
  "pora@@": 7095, 
  "Sou@@": 7096, 
  "poznávám": 7097, 
  "úžasná": 7098, 
  "přijatá": 7099, 
  "Sam@@": 7100, 
  "stopu": 7101, 
  "vládou": 7102, 
  "zjednodušení": 7103, 
  "che@@": 7104, 
  "kvóty": 7105, 
  "nepřítel": 7106, 
  "veřejný": 7107, 
  "omluvte": 7108, 
  "nádherné": 7109, 
  "sech": 7110, 
  "kusy": 7111, 
  "danou": 7112, 
  "ا@@": 7113, 
  "převodu": 7114, 
  "profesionální": 7115, 
  "zajišť@@": 7116, 
  "list": 7117, 
  "židli": 7118, 
  "pozorně": 7119, 
  "sk": 7120, 
  "dána": 7121, 
  "úsměvem": 7122, 
  "alo@@": 7123, 
  "většině": 7124, 
  "tví": 7125, 
  "Go@@": 7126, 
  "člověkem": 7127, 
  "kousky": 7128, 
  "dopisy": 7129, 
  "zích": 7130, 
  "107": 7131, 
  "itel": 7132, 
  "prask@@": 7133, 
  "bomba": 7134, 
  "víru": 7135, 
  "vzorky": 7136, 
  "cítíte": 7137, 
  "potěšení": 7138, 
  "Den@@": 7139, 
  "à": 7140, 
  "uzná@@": 7141, 
  "zkoušel": 7142, 
  "proud": 7143, 
  "Claire": 7144, 
  "známé": 7145, 
  "dobří": 7146, 
  "rob@@": 7147, 
  "mov@@": 7148, 
  "síti": 7149, 
  "bydlet": 7150, 
  "ejch": 7151, 
  "tic@@": 7152, 
  "anovi": 7153, 
  "potvrzuje": 7154, 
  "A.@@": 7155, 
  "zvyšování": 7156, 
  "předchozího": 7157, 
  "Radu": 7158, 
  "ukon@@": 7159, 
  "rou": 7160, 
  "podobný": 7161, 
  "kt": 7162, 
  "podporou": 7163, 
  "hrají": 7164, 
  "linie": 7165, 
  "dovolenou": 7166, 
  "vyžadovat": 7167, 
  "lom@@": 7168, 
  "záchod": 7169, 
  "áte": 7170, 
  "jistoty": 7171, 
  "dopravě": 7172, 
  "kůň": 7173, 
  "ida": 7174, 
  "celních": 7175, 
  "návrat": 7176, 
  "sejdeme": 7177, 
  "Hal@@": 7178, 
  "Řecko": 7179, 
  "zdarma": 7180, 
  "chápete": 7181, 
  "sazba": 7182, 
  "vymě@@": 7183, 
  "bývá": 7184, 
  "mis@@": 7185, 
  "dávce": 7186, 
  "brány": 7187, 
  "obchodě": 7188, 
  "kameny": 7189, 
  "tor": 7190, 
  "sobotu": 7191, 
  "třetími": 7192, 
  "tem@@": 7193, 
  "konzultaci": 7194, 
  "charakter": 7195, 
  "půj@@": 7196, 
  "vysvět@@": 7197, 
  "zv@@": 7198, 
  "těž@@": 7199, 
  "jídlu": 7200, 
  "pokoušel": 7201, 
  "zlom@@": 7202, 
  "27@@": 7203, 
  "organiz@@": 7204, 
  "slzy": 7205, 
  "úplný": 7206, 
  "ženský": 7207, 
  "vykonávat": 7208, 
  "publi@@": 7209, 
  "schopna": 7210, 
  "půjdete": 7211, 
  "náhoda": 7212, 
  "zásob": 7213, 
  "Boží": 7214, 
  "používané": 7215, 
  "motoru": 7216, 
  "schopná": 7217, 
  "alkoholu": 7218, 
  "Čer@@": 7219, 
  "nedělám": 7220, 
  "idy": 7221, 
  "půl@@": 7222, 
  "dotčena": 7223, 
  "předsedy": 7224, 
  "stali": 7225, 
  "dočkat": 7226, 
  "olu": 7227, 
  "dozvěděl": 7228, 
  "vstoupit": 7229, 
  "přizpůsob@@": 7230, 
  "party": 7231, 
  "Min@@": 7232, 
  "žádného": 7233, 
  "stáli": 7234, 
  "com@@": 7235, 
  "komplexní": 7236, 
  "úvěrové": 7237, 
  "EL": 7238, 
  "Itálii": 7239, 
  "hraješ": 7240, 
  "dluh": 7241, 
  "škod@@": 7242, 
  "Ře@@": 7243, 
  "IBM": 7244, 
  "otázkách": 7245, 
  "bý@@": 7246, 
  "osla@@": 7247, 
  "klíčové": 7248, 
  "přemýšlela": 7249, 
  "neudělala": 7250, 
  "utrpení": 7251, 
  "použité": 7252, 
  "následovat": 7253, 
  "jmenoval": 7254, 
  "Irsko": 7255, 
  "lém": 7256, 
  "hyper@@": 7257, 
  "tvaru": 7258, 
  "děl": 7259, 
  "slibuji": 7260, 
  "klobouk": 7261, 
  "vládní": 7262, 
  "Pr@@": 7263, 
  "předstírat": 7264, 
  "inteligentní": 7265, 
  "posadil": 7266, 
  "požadavkům": 7267, 
  "jakého": 7268, 
  "pů@@": 7269, 
  "sdílení": 7270, 
  "hlas@@": 7271, 
  "odpovídají": 7272, 
  "obrany": 7273, 
  "problémem": 7274, 
  "Fran@@": 7275, 
  "nepochybně": 7276, 
  "Rusko": 7277, 
  "Gor@@": 7278, 
  "vyhlá@@": 7279, 
  "Ů": 7280, 
  "dospěl": 7281, 
  "PL": 7282, 
  "souhlasit": 7283, 
  "potkala": 7284, 
  "sbí@@": 7285, 
  "Ex@@": 7286, 
  "uzavřít": 7287, 
  "nar@@": 7288, 
  "zan@@": 7289, 
  "nabíd@@": 7290, 
  "Bon@@": 7291, 
  "sme": 7292, 
  "bílá": 7293, 
  "odchodu": 7294, 
  "lými": 7295, 
  "situací": 7296, 
  "kopii": 7297, 
  "prodal": 7298, 
  "м@@": 7299, 
  "věk": 7300, 
  "skončilo": 7301, 
  "dnešek": 7302, 
  "proudu": 7303, 
  "národů": 7304, 
  "blbost": 7305, 
  "lady": 7306, 
  "Do": 7307, 
  "Van": 7308, 
  "upřímný": 7309, 
  "přítelkyni": 7310, 
  "ĺ": 7311, 
  "nepodařilo": 7312, 
  "informacím": 7313, 
  "tin": 7314, 
  "košili": 7315, 
  "stanu": 7316, 
  "Ve": 7317, 
  "stín": 7318, 
  "napad@@": 7319, 
  "kompletní": 7320, 
  "sonová": 7321, 
  "spustit": 7322, 
  "najdou": 7323, 
  "Příloha": 7324, 
  "centru": 7325, 
  "Kan@@": 7326, 
  "potřeb": 7327, 
  "pojedeme": 7328, 
  "hové": 7329, 
  "sestav@@": 7330, 
  "kly": 7331, 
  "taci": 7332, 
  "Bor@@": 7333, 
  "vány": 7334, 
  "voz@@": 7335, 
  "budov": 7336, 
  "zobraz@@": 7337, 
  "prach": 7338, 
  "pode@@": 7339, 
  "úřední": 7340, 
  "spol@@": 7341, 
  "blízkosti": 7342, 
  "tonu": 7343, 
  "uprav@@": 7344, 
  "plní": 7345, 
  "emu": 7346, 
  "fotografie": 7347, 
  "transparentnosti": 7348, 
  "veliteli": 7349, 
  "čenou": 7350, 
  "vozu": 7351, 
  "vlo@@": 7352, 
  "nárůst": 7353, 
  "více@@": 7354, 
  "vých": 7355, 
  "unavený": 7356, 
  "velení": 7357, 
  "tala": 7358, 
  "kali": 7359, 
  "ateli": 7360, 
  "dokola": 7361, 
  "kódu": 7362, 
  "odpovědí": 7363, 
  "některý": 7364, 
  "zázrak": 7365, 
  "ja@@": 7366, 
  "kře@@": 7367, 
  "sejít": 7368, 
  "von": 7369, 
  "detaily": 7370, 
  "úřady": 7371, 
  "sty": 7372, 
  "sol@@": 7373, 
  "Santa": 7374, 
  "European": 7375, 
  "žky": 7376, 
  "doporu@@": 7377, 
  "čkami": 7378, 
  "obsahem": 7379, 
  "slov@@": 7380, 
  "celkově": 7381, 
  "jist@@": 7382, 
  "áme": 7383, 
  "SZBP": 7384, 
  "újmy": 7385, 
  "ickému": 7386, 
  "Paní": 7387, 
  "Pete": 7388, 
  "bl@@": 7389, 
  "přijímá": 7390, 
  "aj": 7391, 
  "bre@@": 7392, 
  "schopností": 7393, 
  "Vel@@": 7394, 
  "jeví": 7395, 
  "nesmějí": 7396, 
  "chem": 7397, 
  "přála": 7398, 
  "poručík": 7399, 
  "skří@@": 7400, 
  "oblé@@": 7401, 
  "spala": 7402, 
  "pul@@": 7403, 
  "loni": 7404, 
  "rozvojových": 7405, 
  "našemu": 7406, 
  "přípravě": 7407, 
  "brýle": 7408, 
  "opak@@": 7409, 
  "představ": 7410, 
  "mez@@": 7411, 
  "veřejně": 7412, 
  "průmyslové": 7413, 
  "zvuky": 7414, 
  "pokračuje": 7415, 
  "ceně": 7416, 
  "bon@@": 7417, 
  "přilo@@": 7418, 
  "opo@@": 7419, 
  "stup@@": 7420, 
  "namí@@": 7421, 
  "opatrný": 7422, 
  "liš@@": 7423, 
  "pojist@@": 7424, 
  "tma": 7425, 
  "neřeknu": 7426, 
  "úrovní": 7427, 
  "měsíční": 7428, 
  "přiznal": 7429, 
  "hni": 7430, 
  "mat": 7431, 
  "maximálně": 7432, 
  "vyklá@@": 7433, 
  "Dne": 7434, 
  "břehu": 7435, 
  "nepůjde": 7436, 
  "výlučně": 7437, 
  "návratu": 7438, 
  "odešli": 7439, 
  "ré@@": 7440, 
  "hladiny": 7441, 
  "Fer@@": 7442, 
  "Jed@@": 7443, 
  "lehké": 7444, 
  "rodičů": 7445, 
  "tátovi": 7446, 
  "přinese": 7447, 
  "uží@@": 7448, 
  "ED@@": 7449, 
  "pracovním": 7450, 
  "napravit": 7451, 
  "složek": 7452, 
  "tos": 7453, 
  "zpravodaj": 7454, 
  "zatracený": 7455, 
  "bouře": 7456, 
  "her": 7457, 
  "pokry@@": 7458, 
  "jimiž": 7459, 
  "zena": 7460, 
  "nervy": 7461, 
  "vinu": 7462, 
  "zni@@": 7463, 
  "soukromý": 7464, 
  "rodinou": 7465, 
  "formální": 7466, 
  "licencí": 7467, 
  "Nizozemsko": 7468, 
  "dotčená": 7469, 
  "léto": 7470, 
  "těhotenství": 7471, 
  "mechanismy": 7472, 
  "jejímu": 7473, 
  "upozor@@": 7474, 
  "tátou": 7475, 
  "obecných": 7476, 
  "opatřením": 7477, 
  "polovině": 7478, 
  "rech": 7479, 
  "svědomí": 7480, 
  "lék": 7481, 
  "ptá@@": 7482, 
  "nebi": 7483, 
  "informuje": 7484, 
  "francouzské": 7485, 
  "délka": 7486, 
  "23@@": 7487, 
  "VII": 7488, 
  "zaslechl": 7489, 
  "hám": 7490, 
  "komunikační": 7491, 
  "bojoval": 7492, 
  "povrch": 7493, 
  "přines": 7494, 
  "prsa": 7495, 
  "použita": 7496, 
  "hey": 7497, 
  "vyšetření": 7498, 
  "28@@": 7499, 
  "zpracov@@": 7500, 
  "sexu": 7501, 
  "kó@@": 7502, 
  "poskytl": 7503, 
  "stůj": 7504, 
  "základním": 7505, 
  "špatnou": 7506, 
  "Ltd": 7507, 
  "přítelem": 7508, 
  "úvahy": 7509, 
  "specifikace": 7510, 
  "odhal@@": 7511, 
  "hodnot@@": 7512, 
  "přist@@": 7513, 
  "tilo": 7514, 
  "přepravu": 7515, 
  "legraci": 7516, 
  "odvol@@": 7517, 
  "podlahu": 7518, 
  "zený": 7519, 
  "LE@@": 7520, 
  "touhle": 7521, 
  "splňovat": 7522, 
  "společnostmi": 7523, 
  "sů": 7524, 
  "účtů": 7525, 
  "jakýkoli": 7526, 
  "obzvlášť": 7527, 
  "sídlo": 7528, 
  "záchranu": 7529, 
  "bách": 7530, 
  "rozvojové": 7531, 
  "skal@@": 7532, 
  "zavři": 7533, 
  "aru": 7534, 
  "podstatně": 7535, 
  "seržant": 7536, 
  "â@@": 7537, 
  "způsobené": 7538, 
  "vašemu": 7539, 
  "Jak@@": 7540, 
  "nejrychleji": 7541, 
  "dou@@": 7542, 
  "realiz@@": 7543, 
  "vlny": 7544, 
  "tona": 7545, 
  "zač@@": 7546, 
  "prí@@": 7547, 
  "0,5": 7548, 
  "Mas@@": 7549, 
  "generále": 7550, 
  "tvar": 7551, 
  "vojáků": 7552, 
  "ura": 7553, 
  "novi": 7554, 
  "Kelly": 7555, 
  "ker@@": 7556, 
  "ducha": 7557, 
  "internet": 7558, 
  "ler": 7559, 
  "zoufale": 7560, 
  "alternativní": 7561, 
  "ung": 7562, 
  "šen": 7563, 
  "tar@@": 7564, 
  "cukr": 7565, 
  "určitá": 7566, 
  "vil": 7567, 
  "jménu": 7568, 
  "odjel": 7569, 
  "opra@@": 7570, 
  "led": 7571, 
  "seděla": 7572, 
  "zásah": 7573, 
  "krou@@": 7574, 
  "silniční": 7575, 
  "tom@@": 7576, 
  "form@@": 7577, 
  "odmítnutí": 7578, 
  "mrtvého": 7579, 
  "motory": 7580, 
  "vytvoří": 7581, 
  "б@@": 7582, 
  "milovala": 7583, 
  "bacha": 7584, 
  "přepravy": 7585, 
  "vytvořil": 7586, 
  "sku@@": 7587, 
  "pardon": 7588, 
  "neuro@@": 7589, 
  "put@@": 7590, 
  "rozumíte": 7591, 
  "výhradou": 7592, 
  "koncem": 7593, 
  "civilní": 7594, 
  "přirozeně": 7595, 
  "psy": 7596, 
  "ckých": 7597, 
  "způsobuje": 7598, 
  "104": 7599, 
  "říkáme": 7600, 
  "Jen@@": 7601, 
  "dře@@": 7602, 
  "tha": 7603, 
  "volném": 7604, 
  "Los": 7605, 
  "přejete": 7606, 
  "těžce": 7607, 
  "závazku": 7608, 
  "stejných": 7609, 
  "třebaže": 7610, 
  "trvale": 7611, 
  "filmy": 7612, 
  "čtyřicet": 7613, 
  "zastavte": 7614, 
  "léčených": 7615, 
  "Sol@@": 7616, 
  "vi": 7617, 
  "pustí": 7618, 
  "nedává": 7619, 
  "nevadilo": 7620, 
  "status": 7621, 
  "hůř": 7622, 
  "komisaři": 7623, 
  "černo@@": 7624, 
  "vítej": 7625, 
  "Ga@@": 7626, 
  "atelů": 7627, 
  "reforem": 7628, 
  "rali": 7629, 
  "možných": 7630, 
  "poradenství": 7631, 
  "ropy": 7632, 
  "kultury": 7633, 
  "jimi": 7634, 
  "popis@@": 7635, 
  "bla@@": 7636, 
  "Bla@@": 7637, 
  "ostrově": 7638, 
  "paráda": 7639, 
  "vyvá@@": 7640, 
  "ňovala": 7641, 
  "nezdá": 7642, 
  "spr@@": 7643, 
  "bohatství": 7644, 
  "zabíjet": 7645, 
  "vesmír": 7646, 
  "álů": 7647, 
  "oc@@": 7648, 
  "vydě@@": 7649, 
  "drink": 7650, 
  "zákazníci": 7651, 
  "kolikrát": 7652, 
  "platná": 7653, 
  "řez@@": 7654, 
  "narazil": 7655, 
  "Pu@@": 7656, 
  "boží": 7657, 
  "stanoveného": 7658, 
  "pokles": 7659, 
  "Julie": 7660, 
  "ESVO": 7661, 
  "pořád@@": 7662, 
  "čného": 7663, 
  "Lar@@": 7664, 
  "skladování": 7665, 
  "průměrné": 7666, 
  "učitel": 7667, 
  "B7": 7668, 
  "blo@@": 7669, 
  "jemně": 7670, 
  "modelu": 7671, 
  "široké": 7672, 
  "letišti": 7673, 
  "zabí@@": 7674, 
  "nastav@@": 7675, 
  "opustila": 7676, 
  "shodě": 7677, 
  "žiju": 7678, 
  "poskytla": 7679, 
  "Tor@@": 7680, 
  "hosty": 7681, 
  "nabídl": 7682, 
  "zvládnout": 7683, 
  "rek": 7684, 
  "ěné": 7685, 
  "profesor": 7686, 
  "vymez@@": 7687, 
  "zavádění": 7688, 
  "tableta": 7689, 
  "zástupců": 7690, 
  "šila": 7691, 
  "mnozí": 7692, 
  "řel": 7693, 
  "pí": 7694, 
  "řidič": 7695, 
  "sval@@": 7696, 
  "káš": 7697, 
  "pravil": 7698, 
  "zahra@@": 7699, 
  "ph@@": 7700, 
  "cenných": 7701, 
  "americký": 7702, 
  "žijeme": 7703, 
  "raz": 7704, 
  "hrozí": 7705, 
  "krásně": 7706, 
  "vlasů": 7707, 
  "znaky": 7708, 
  "CO@@": 7709, 
  "podobných": 7710, 
  "domova": 7711, 
  "virus": 7712, 
  "stanovený": 7713, 
  "logické": 7714, 
  "т@@": 7715, 
  "acího": 7716, 
  "účastníky": 7717, 
  "servis": 7718, 
  "vyrazil": 7719, 
  "rámcové": 7720, 
  "můžem": 7721, 
  "soukromých": 7722, 
  "předpis": 7723, 
  "dr": 7724, 
  "zvyšuje": 7725, 
  "hnul": 7726, 
  "propuštění": 7727, 
  "nežádoucích": 7728, 
  "pil@@": 7729, 
  "šen@@": 7730, 
  "zvedla": 7731, 
  "sli@@": 7732, 
  "bran@@": 7733, 
  "čen": 7734, 
  "kovém": 7735, 
  "spadl": 7736, 
  "předloženy": 7737, 
  "ohro@@": 7738, 
  "Lex": 7739, 
  "odměnu": 7740, 
  "gie": 7741, 
  "sousedství": 7742, 
  "skon@@": 7743, 
  "dokumentaci": 7744, 
  "těl": 7745, 
  "pracuješ": 7746, 
  "kdokoli": 7747, 
  "průzkum": 7748, 
  "čnou": 7749, 
  "rozmezí": 7750, 
  "zra@@": 7751, 
  "účinkem": 7752, 
  "nehod@@": 7753, 
  "osmi": 7754, 
  "aut": 7755, 
  "oleje": 7756, 
  "knul": 7757, 
  "dů@@": 7758, 
  "ye@@": 7759, 
  "republikou": 7760, 
  "pozor@@": 7761, 
  "večera": 7762, 
  "spodní": 7763, 
  "řená": 7764, 
  "detektive": 7765, 
  "Petere": 7766, 
  "ome@@": 7767, 
  "nejs@@": 7768, 
  "hají": 7769, 
  "Miku": 7770, 
  "vazby": 7771, 
  "Jerry": 7772, 
  "soudy": 7773, 
  "Kč": 7774, 
  "vlevo": 7775, 
  "sové": 7776, 
  "eme": 7777, 
  "vlastností": 7778, 
  "1990": 7779, 
  "ťte": 7780, 
  "opravdový": 7781, 
  "itelná": 7782, 
  "ČLR": 7783, 
  "05@@": 7784, 
  "příštích": 7785, 
  "up": 7786, 
  "nechoď": 7787, 
  "Bro@@": 7788, 
  "roste": 7789, 
  "ujednání": 7790, 
  "zabývá": 7791, 
  "zar@@": 7792, 
  "žaloba": 7793, 
  "zapad@@": 7794, 
  "Davide": 7795, 
  "organizacemi": 7796, 
  "čným": 7797, 
  "čen@@": 7798, 
  "zůstali": 7799, 
  "strčil": 7800, 
  "stínu": 7801, 
  "plochy": 7802, 
  "mnohé": 7803, 
  "určitého": 7804, 
  "nemohlo": 7805, 
  "vyrovnání": 7806, 
  "pamatujete": 7807, 
  "terorismu": 7808, 
  "přijí@@": 7809, 
  "lékaři": 7810, 
  "Louis": 7811, 
  "všechnu": 7812, 
  "ozna@@": 7813, 
  "jmenuju": 7814, 
  "chemické": 7815, 
  "ek@@": 7816, 
  "BO@@": 7817, 
  "nuté": 7818, 
  "lidskou": 7819, 
  "čelí": 7820, 
  "DN@@": 7821, 
  "pracov@@": 7822, 
  "stem": 7823, 
  "AS@@": 7824, 
  "opatřeními": 7825, 
  "ya": 7826, 
  "ckého": 7827, 
  "letos": 7828, 
  "hý@@": 7829, 
  "označením": 7830, 
  "přede@@": 7831, 
  "rozšířit": 7832, 
  "hmot@@": 7833, 
  "livé": 7834, 
  "lím": 7835, 
  "bit": 7836, 
  "1991": 7837, 
  "všechen": 7838, 
  "psi": 7839, 
  "Larry": 7840, 
  "generálního": 7841, 
  "sr@@": 7842, 
  "lístky": 7843, 
  "pracovali": 7844, 
  "Hel@@": 7845, 
  "udržitelného": 7846, 
  "cími": 7847, 
  "ministr": 7848, 
  "předložil": 7849, 
  "nami": 7850, 
  "prote@@": 7851, 
  "podávat": 7852, 
  "lid": 7853, 
  "krytí": 7854, 
  "čistá": 7855, 
  "použila": 7856, 
  "fra@@": 7857, 
  "dorazil": 7858, 
  "prozatímní": 7859, 
  "nádherný": 7860, 
  "techniky": 7861, 
  "datu": 7862, 
  "zdaleka": 7863, 
  "podmínkami": 7864, 
  "přenos": 7865, 
  "а": 7866, 
  "bereš": 7867, 
  "lidu": 7868, 
  "složité": 7869, 
  "Právní": 7870, 
  "dozoru": 7871, 
  "ys": 7872, 
  "hot@@": 7873, 
  "kupředu": 7874, 
  "dosah": 7875, 
  "řen@@": 7876, 
  "princ": 7877, 
  "can@@": 7878, 
  "ženskou": 7879, 
  "EC": 7880, 
  "vztahovat": 7881, 
  "prázdný": 7882, 
  "pamatuji": 7883, 
  "knize": 7884, 
  "NE@@": 7885, 
  "nestojí": 7886, 
  "olej": 7887, 
  "pokračování": 7888, 
  "odhad": 7889, 
  "čtí": 7890, 
  "vách": 7891, 
  "nutý": 7892, 
  "Jime": 7893, 
  "zaplatí": 7894, 
  "stanou": 7895, 
  "Ě@@": 7896, 
  "tisku": 7897, 
  "budování": 7898, 
  "nutná": 7899, 
  "nezabil": 7900, 
  "108": 7901, 
  "Inter@@": 7902, 
  "io": 7903, 
  "eurozóny": 7904, 
  "ózy": 7905, 
  "vlivu": 7906, 
  "्": 7907, 
  "instal@@": 7908, 
  "užitečné": 7909, 
  "snaze": 7910, 
  "telefon@@": 7911, 
  "čet": 7912, 
  "přeji": 7913, 
  "Mark": 7914, 
  "ef@@": 7915, 
  "rozprava": 7916, 
  "žiješ": 7917, 
  "nemusíme": 7918, 
  "mové": 7919, 
  "IC@@": 7920, 
  "povídat": 7921, 
  "Prostředky": 7922, 
  "stanovenou": 7923, 
  "zásob@@": 7924, 
  "bezpečně": 7925, 
  "nepřítele": 7926, 
  "letectví": 7927, 
  "št@@": 7928, 
  "skončili": 7929, 
  "hledají": 7930, 
  "spadá": 7931, 
  "inách": 7932, 
  "ide": 7933, 
  "potkali": 7934, 
  "poví@@": 7935, 
  "uvědomí": 7936, 
  "určeno": 7937, 
  "nedostatku": 7938, 
  "čího": 7939, 
  "yi": 7940, 
  "povoleno": 7941, 
  "neuvěřitelné": 7942, 
  "Pen@@": 7943, 
  "krokem": 7944, 
  "majitel": 7945, 
  "líš": 7946, 
  "zmínil": 7947, 
  "lor@@": 7948, 
  "UN@@": 7949, 
  "zavr@@": 7950, 
  "půjčky": 7951, 
  "svatební": 7952, 
  "trans@@": 7953, 
  "Robert": 7954, 
  "půjčit": 7955, 
  "zrak": 7956, 
  "Cy@@": 7957, 
  "bin@@": 7958, 
  "nemyslíte": 7959, 
  "zlo@@": 7960, 
  "řily": 7961, 
  "zvyk@@": 7962, 
  "otočila": 7963, 
  "а@@": 7964, 
  "dalšímu": 7965, 
  "stranám": 7966, 
  "ff@@": 7967, 
  "střediska": 7968, 
  "ile": 7969, 
  "vykop@@": 7970, 
  "zavrtěl": 7971, 
  "chudák": 7972, 
  "absolutně": 7973, 
  "PŘ@@": 7974, 
  "raj@@": 7975, 
  "řád@@": 7976, 
  "ničem": 7977, 
  "prodejní": 7978, 
  "provedeno": 7979, 
  "konečného": 7980, 
  "čele": 7981, 
  "pustila": 7982, 
  "stráže": 7983, 
  "daná": 7984, 
  "přes@@": 7985, 
  "Ryan": 7986, 
  "ptáků": 7987, 
  "potěšením": 7988, 
  "světu": 7989, 
  "Bru@@": 7990, 
  "kas@@": 7991, 
  "cha@@": 7992, 
  "dány": 7993, 
  "kyseliny": 7994, 
  "restrukturalizaci": 7995, 
  "Portugalsko": 7996, 
  "žádní": 7997, 
  "klient": 7998, 
  "and@@": 7999, 
  "vystav@@": 8000, 
  "nebo@@": 8001, 
  "vysvětluje": 8002, 
  "odmít@@": 8003, 
  "severu": 8004, 
  "proporcionality": 8005, 
  "měsících": 8006, 
  "nést": 8007, 
  "sklen@@": 8008, 
  "teta": 8009, 
  "uti@@": 8010, 
  "sit": 8011, 
  "nechtějí": 8012, 
  "zjištěno": 8013, 
  "potvrdil": 8014, 
  "stru@@": 8015, 
  "násil@@": 8016, 
  "náhradní": 8017, 
  "strukturálních": 8018, 
  "rat@@": 8019, 
  "původ": 8020, 
  "směrnic": 8021, 
  "4.2": 8022, 
  "baví": 8023, 
  "odlišné": 8024, 
  "pracuji": 8025, 
  "nedostane": 8026, 
  "MO@@": 8027, 
  "veškerou": 8028, 
  "Ze@@": 8029, 
  "náro@@": 8030, 
  "lži": 8031, 
  "vypad@@": 8032, 
  "fre@@": 8033, 
  "ant@@": 8034, 
  "zla": 8035, 
  "chl": 8036, 
  "Bran@@": 8037, 
  "ion@@": 8038, 
  "stabilní": 8039, 
  "spě@@": 8040, 
  "zastavila": 8041, 
  "skutečného": 8042, 
  "něného": 8043, 
  "nevěřil": 8044, 
  "starších": 8045, 
  "navrhl": 8046, 
  "vosti": 8047, 
  "meta@@": 8048, 
  "promě@@": 8049, 
  "Ram@@": 8050, 
  "ion": 8051, 
  "setkal": 8052, 
  "vpravo": 8053, 
  "nese@@": 8054, 
  "divo@@": 8055, 
  "účinnou": 8056, 
  "nikým": 8057, 
  "odpadů": 8058, 
  "krví": 8059, 
  "dívám": 8060, 
  "klub": 8061, 
  "analy@@": 8062, 
  "trestné": 8063, 
  "ovač": 8064, 
  "112": 8065, 
  "ležet": 8066, 
  "kritérium": 8067, 
  "Tom": 8068, 
  "velkém": 8069, 
  "zařízením": 8070, 
  "učí": 8071, 
  "tvému": 8072, 
  "skupinou": 8073, 
  "databázi": 8074, 
  "zbav@@": 8075, 
  "о@@": 8076, 
  "kamen@@": 8077, 
  "Kat@@": 8078, 
  "obrázky": 8079, 
  "doplňuje": 8080, 
  "přispívá": 8081, 
  "е": 8082, 
  "ota": 8083, 
  "vyzvednout": 8084, 
  "hloupé": 8085, 
  "státního": 8086, 
  "jezdit": 8087, 
  "profil": 8088, 
  "kruci": 8089, 
  "Jen": 8090, 
  "mala": 8091, 
  "šílené": 8092, 
  "základem": 8093, 
  "staví": 8094, 
  "paže": 8095, 
  "Chi@@": 8096, 
  "zeptám": 8097, 
  "využívá": 8098, 
  "jednotku": 8099, 
  "ger": 8100, 
  "zvládneš": 8101, 
  "Ví@@": 8102, 
  "lel": 8103, 
  "zatížení": 8104, 
  "celního": 8105, 
  "typů": 8106, 
  "Grace": 8107, 
  "letý": 8108, 
  "dobrým": 8109, 
  "neřekneš": 8110, 
  "Rose": 8111, 
  "hlasovat": 8112, 
  "ì@@": 8113, 
  "už@@": 8114, 
  "kecy": 8115, 
  "obsa@@": 8116, 
  "strategií": 8117, 
  "erem": 8118, 
  "Británie": 8119, 
  "hoř@@": 8120, 
  "oceli": 8121, 
  "našimi": 8122, 
  "čet@@": 8123, 
  "formátu": 8124, 
  "hovor": 8125, 
  "pasti": 8126, 
  "drog": 8127, 
  "vej@@": 8128, 
  "napo@@": 8129, 
  "Veličenstvo": 8130, 
  "běžných": 8131, 
  "kují": 8132, 
  "styku": 8133, 
  "kapitá@@": 8134, 
  "tací": 8135, 
  "politický": 8136, 
  "doplňkové": 8137, 
  "díme": 8138, 
  "zajímat": 8139, 
  "EU@@": 8140, 
  "stavební": 8141, 
  "držitel": 8142, 
  "šly": 8143, 
  "dívej": 8144, 
  "rodu": 8145, 
  "znala": 8146, 
  "spad@@": 8147, 
  "medi@@": 8148, 
  "St": 8149, 
  "bot@@": 8150, 
  "energií": 8151, 
  "EIB": 8152, 
  "clo": 8153, 
  "dýchat": 8154, 
  "3.1": 8155, 
  "zhluboka": 8156, 
  "výskytu": 8157, 
  "inspektor": 8158, 
  "šti": 8159, 
  "blí@@": 8160, 
  "dů": 8161, 
  "Washingtonu": 8162, 
  "sporů": 8163, 
  "soustřed@@": 8164, 
  "zkoušek": 8165, 
  "týhle": 8166, 
  "lidský": 8167, 
  "ály": 8168, 
  "dvaceti": 8169, 
  "ete": 8170, 
  "not": 8171, 
  "Am@@": 8172, 
  "nuly": 8173, 
  "4.4": 8174, 
  "právech": 8175, 
  "pil": 8176, 
  "legrace": 8177, 
  "dovolené": 8178, 
  "použit": 8179, 
  "statistiky": 8180, 
  "žka": 8181, 
  "povaze": 8182, 
  "váma": 8183, 
  "pokračovala": 8184, 
  "udělají": 8185, 
  "Dě@@": 8186, 
  "přivést": 8187, 
  "všimla": 8188, 
  "alkohol": 8189, 
  "vec": 8190, 
  "Amerika": 8191, 
  "zdravot@@": 8192, 
  "Londýně": 8193, 
  "producentů": 8194, 
  "potřebovali": 8195, 
  "křiv@@": 8196, 
  "písemné": 8197, 
  "lík": 8198, 
  "provedené": 8199, 
  "letadel": 8200, 
  "plavidlo": 8201, 
  "předpokládat": 8202, 
  "zeny": 8203, 
  "přestala": 8204, 
  "lov": 8205, 
  "zelen@@": 8206, 
  "dotčeny": 8207, 
  "ština": 8208, 
  "kově": 8209, 
  "forma": 8210, 
  "ik": 8211, 
  "Dave": 8212, 
  "3.2": 8213, 
  "oběhu": 8214, 
  "stat": 8215, 
  "neděli": 8216, 
  "livá": 8217, 
  "Tak@@": 8218, 
  "účinná": 8219, 
  "pov@@": 8220, 
  "rka": 8221, 
  "standardy": 8222, 
  "troj@@": 8223, 
  "úto@@": 8224, 
  "prst": 8225, 
  "uč@@": 8226, 
  "Lucy": 8227, 
  "Severní": 8228, 
  "běží": 8229, 
  "řidiče": 8230, 
  "Paule": 8231, 
  "zaci": 8232, 
  "poch@@": 8233, 
  "doktorka": 8234, 
  "LA": 8235, 
  "uvedenému": 8236, 
  "konkurenceschopnosti": 8237, 
  "slabý": 8238, 
  "mámou": 8239, 
  "ick@@": 8240, 
  "širší": 8241, 
  "získá": 8242, 
  "rozh.": 8243, 
  "řízením": 8244, 
  "had": 8245, 
  "zbláznil": 8246, 
  "110": 8247, 
  "jednoznačně": 8248, 
  "šesté": 8249, 
  "GŘ": 8250, 
  "zasranej": 8251, 
  "Cam@@": 8252, 
  "důvěry": 8253, 
  "hoval": 8254, 
  "50@@": 8255, 
  "osm@@": 8256, 
  "nala": 8257, 
  "ukažte": 8258, 
  "sím": 8259, 
  "tmě": 8260, 
  "Jenny": 8261, 
  "poskytnuty": 8262, 
  "29@@": 8263, 
  "kočky": 8264, 
  "podléhá": 8265, 
  "ec.europa.eu": 8266, 
  "hří@@": 8267, 
  "Část": 8268, 
  "zamýš@@": 8269, 
  "strašné": 8270, 
  "kol": 8271, 
  "planetu": 8272, 
  "euro": 8273, 
  "prášek": 8274, 
  "inové": 8275, 
  "Tede": 8276, 
  "pevné": 8277, 
  "zůstaneš": 8278, 
  "klíčových": 8279, 
  "rí@@": 8280, 
  "mili@@": 8281, 
  "subjektům": 8282, 
  "und": 8283, 
  "předkládání": 8284, 
  "čnost": 8285, 
  "Pot@@": 8286, 
  "podává": 8287, 
  "plác@@": 8288, 
  "poplatek": 8289, 
  "existující": 8290, 
  "plnit": 8291, 
  "jednoduchý": 8292, 
  "dosáhl": 8293, 
  "opakovat": 8294, 
  "necítím": 8295, 
  "požá@@": 8296, 
  "člena": 8297, 
  "2,@@": 8298, 
  "Praha": 8299, 
  "pomohlo": 8300, 
  "erová": 8301, 
  "boj@@": 8302, 
  "spor": 8303, 
  "představa": 8304, 
  "předkládající": 8305, 
  "Cognos": 8306, 
  "vené": 8307, 
  "průvodce": 8308, 
  "zátěž": 8309, 
  "Členské": 8310, 
  "zeptej": 8311, 
  "srdeční": 8312, 
  "COM": 8313, 
  "Van@@": 8314, 
  "zaručit": 8315, 
  "maminka": 8316, 
  "sona": 8317, 
  "hloupá": 8318, 
  "vstávej": 8319, 
  "inform@@": 8320, 
  "Smith": 8321, 
  "bydlení": 8322, 
  "Ý": 8323, 
  "mezinárodním": 8324, 
  "talent": 8325, 
  "přešel": 8326, 
  "odraz@@": 8327, 
  "formu": 8328, 
  "nařídil": 8329, 
  "zrušuje": 8330, 
  "požadavku": 8331, 
  "klinické": 8332, 
  "livě": 8333, 
  "≥": 8334, 
  "poskytované": 8335, 
  "upí@@": 8336, 
  "zeno": 8337, 
  "učinil": 8338, 
  "Když": 8339, 
  "budově": 8340, 
  "RO": 8341, 
  "králov@@": 8342, 
  "čísel": 8343, 
  "judikatura": 8344, 
  "riziku": 8345, 
  "občanům": 8346, 
  "vykřikl": 8347, 
  "řídil": 8348, 
  "stáhnout": 8349, 
  "vag@@": 8350, 
  "anglicky": 8351, 
  "zvě@@": 8352, 
  "uspořádání": 8353, 
  "zaměřené": 8354, 
  "Kel@@": 8355, 
  "váží": 8356, 
  "bála": 8357, 
  "poskytnutých": 8358, 
  "blá@@": 8359, 
  "OR@@": 8360, 
  "zajištěno": 8361, 
  "skrze": 8362, 
  "cest": 8363, 
  "bance": 8364, 
  "vystoupení": 8365, 
  "lékařské": 8366, 
  "zdr@@": 8367, 
  "měk@@": 8368, 
  "zmi@@": 8369, 
  "alizaci": 8370, 
  "zená": 8371, 
  "that": 8372, 
  "vztahující": 8373, 
  "aně": 8374, 
  "tanec": 8375, 
  "Thomas": 8376, 
  "těžší": 8377, 
  "jíc": 8378, 
  "nor@@": 8379, 
  "akcie": 8380, 
  "komisi": 8381, 
  "biologické": 8382, 
  "bi": 8383, 
  "zmí@@": 8384, 
  "zadarmo": 8385, 
  "radě": 8386, 
  "mějte": 8387, 
  "sazeb": 8388, 
  "přeje": 8389, 
  "lar@@": 8390, 
  "kova": 8391, 
  "uznat": 8392, 
  "smrdí": 8393, 
  "chodila": 8394, 
  "přechodu": 8395, 
  "prodávat": 8396, 
  "zahlédl": 8397, 
  "pas": 8398, 
  "Organizace": 8399, 
  "uvedením": 8400, 
  "sel": 8401, 
  "odpad": 8402, 
  "hali": 8403, 
  "všecko": 8404, 
  "evropskou": 8405, 
  "zničí": 8406, 
  "ími": 8407, 
  "Sy@@": 8408, 
  "yeah": 8409, 
  "přeju": 8410, 
  "předávání": 8411, 
  "chlapy": 8412, 
  "územní": 8413, 
  "KA": 8414, 
  "připadalo": 8415, 
  "pozornosti": 8416, 
  "formulář": 8417, 
  "momentálně": 8418, 
  "přírodních": 8419, 
  "vešel": 8420, 
  "skončení": 8421, 
  "proni@@": 8422, 
  "cených": 8423, 
  "matko": 8424, 
  "als": 8425, 
  "atelná": 8426, 
  "polož": 8427, 
  "environmentální": 8428, 
  "poslyšte": 8429, 
  "podána": 8430, 
  "běžně": 8431, 
  "digitální": 8432, 
  "defin@@": 8433, 
  "tzv.": 8434, 
  "hajzle": 8435, 
  "ků@@": 8436, 
  "к@@": 8437, 
  "---": 8438, 
  "plavat": 8439, 
  "sdělí": 8440, 
  "přid@@": 8441, 
  "ničím": 8442, 
  "nákup": 8443, 
  "dob": 8444, 
  "poslouchal": 8445, 
  "emi": 8446, 
  "De": 8447, 
  "přechod": 8448, 
  "zohlednění": 8449, 
  "zapo@@": 8450, 
  "patrně": 8451, 
  "toval": 8452, 
  "rámcového": 8453, 
  "ptala": 8454, 
  "ramena": 8455, 
  "vál@@": 8456, 
  "vhodný": 8457, 
  "stoup@@": 8458, 
  "sporné": 8459, 
  "skry@@": 8460, 
  "nut@@": 8461, 
  "jižní": 8462, 
  "International": 8463, 
  "ing": 8464, 
  "nástrojem": 8465, 
  "počtem": 8466, 
  "NÉ": 8467, 
  "ski": 8468, 
  "druž@@": 8469, 
  "natáhl": 8470, 
  "napsala": 8471, 
  "pojd": 8472, 
  "posil@@": 8473, 
  "pláži": 8474, 
  "krizí": 8475, 
  "škol@@": 8476, 
  "okraji": 8477, 
  "kvalifikace": 8478, 
  "jazyka": 8479, 
  "podvod@@": 8480, 
  "rového": 8481, 
  "nepřijde": 8482, 
  "nepod@@": 8483, 
  "pat": 8484, 
  "zvýší": 8485, 
  "němuž": 8486, 
  "nacházejí": 8487, 
  "vozů": 8488, 
  "technická": 8489, 
  "1,5": 8490, 
  "teplo": 8491, 
  "Eli@@": 8492, 
  "vytá@@": 8493, 
  "ire": 8494, 
  "zachy@@": 8495, 
  "uzavřené": 8496, 
  "ust@@": 8497, 
  "vítá": 8498, 
  "soutěži": 8499, 
  "zkusil": 8500, 
  "jeďte": 8501, 
  "litovat": 8502, 
  "cyklu": 8503, 
  "dílo": 8504, 
  "this": 8505, 
  "čnímu": 8506, 
  "online": 8507, 
  "dodrž@@": 8508, 
  "Lisabonské": 8509, 
  "klid@@": 8510, 
  "plno": 8511, 
  "licenci": 8512, 
  "stěží": 8513, 
  "onovi": 8514, 
  "připo@@": 8515, 
  "lad@@": 8516, 
  "nalé@@": 8517, 
  "koukněte": 8518, 
  "testů": 8519, 
  "překlad": 8520, 
  "chleba": 8521, 
  "hlav@@": 8522, 
  "prou@@": 8523, 
  "zjistíme": 8524, 
  "učil": 8525, 
  "enci": 8526, 
  "nahrá@@": 8527, 
  "stranách": 8528, 
  "zdůraz@@": 8529, 
  "atý": 8530, 
  "Au@@": 8531, 
  "přizpůsobit": 8532, 
  "moc@@": 8533, 
  "týdně": 8534, 
  "podrobně": 8535, 
  "teplota": 8536, 
  "chodím": 8537, 
  "pocházejících": 8538, 
  "dívá": 8539, 
  "ula": 8540, 
  "připrav@@": 8541, 
  "řka": 8542, 
  "dědictví": 8543, 
  "regul@@": 8544, 
  "svá@@": 8545, 
  "Cu@@": 8546, 
  "26@@": 8547, 
  "potvr@@": 8548, 
  "platných": 8549, 
  "výhled": 8550, 
  "obnovit": 8551, 
  "navrhované": 8552, 
  "znělo": 8553, 
  "dotyčného": 8554, 
  "nezávisle": 8555, 
  "jakéhokoli": 8556, 
  "šla@@": 8557, 
  "vaz@@": 8558, 
  "potichu": 8559, 
  "jo@@": 8560, 
  "stanovisku": 8561, 
  "ubytování": 8562, 
  "veškerých": 8563, 
  "posed@@": 8564, 
  "přijede": 8565, 
  "uvažoval": 8566, 
  "doktorko": 8567, 
  "zmizí": 8568, 
  "spisu": 8569, 
  "definici": 8570, 
  "prášky": 8571, 
  "cie": 8572, 
  "žád@@": 8573, 
  "posaďte": 8574, 
  "člen@@": 8575, 
  "regulace": 8576, 
  "pověst": 8577, 
  "·": 8578, 
  "gen": 8579, 
  "Fin@@": 8580, 
  "rny": 8581, 
  "♪": 8582, 
  "ż@@": 8583, 
  "vojáky": 8584, 
  "nimiž": 8585, 
  "dán": 8586, 
  "záznamu": 8587, 
  "přeruš@@": 8588, 
  "říte": 8589, 
  "návaznosti": 8590, 
  "plyne": 8591, 
  "uta@@": 8592, 
  "nutá": 8593, 
  "dočasně": 8594, 
  "nedělejte": 8595, 
  "EC@@": 8596, 
  "délce": 8597, 
  "skvělou": 8598, 
  "eu@@": 8599, 
  "áty": 8600, 
  "Vol@@": 8601, 
  "Iráku": 8602, 
  "zákonem": 8603, 
  "multi@@": 8604, 
  "pěst@@": 8605, 
  "kamaráda": 8606, 
  "gran@@": 8607, 
  "rychlejší": 8608, 
  "televizní": 8609, 
  "úvěry": 8610, 
  "politickou": 8611, 
  "usnadnění": 8612, 
  "sluneční": 8613, 
  "něm.": 8614, 
  "Robin": 8615, 
  "hochu": 8616, 
  "podepsat": 8617, 
  "místem": 8618, 
  "kategorii": 8619, 
  "nevrátí": 8620, 
  "pravděpodobnost": 8621, 
  "uch@@": 8622, 
  "střelil": 8623, 
  "Euratom": 8624, 
  "příběhy": 8625, 
  "liv@@": 8626, 
  "dodání": 8627, 
  "čtvrtek": 8628, 
  "společenstvím": 8629, 
  "škr@@": 8630, 
  "sob@@": 8631, 
  "chodby": 8632, 
  "jedou": 8633, 
  "TO@@": 8634, 
  "žily": 8635, 
  "tra": 8636, 
  "Daniel": 8637, 
  "hluboce": 8638, 
  "formu@@": 8639, 
  "probudil": 8640, 
  "oli@@": 8641, 
  "jeskyně": 8642, 
  "usmála": 8643, 
  "předpisech": 8644, 
  "kin@@": 8645, 
  "Johna": 8646, 
  "OS@@": 8647, 
  "entů": 8648, 
  "instalace": 8649, 
  "vhodných": 8650, 
  "odpovědný": 8651, 
  "získaných": 8652, 
  "cka": 8653, 
  "vodách": 8654, 
  "prozatím": 8655, 
  "Tem@@": 8656, 
  "lně": 8657, 
  "transparentnost": 8658, 
  "boha": 8659, 
  "taj@@": 8660, 
  "scénář": 8661, 
  "představoval": 8662, 
  "duševního": 8663, 
  "nedělal": 8664, 
  "neudělám": 8665, 
  "hrudi": 8666, 
  "technickou": 8667, 
  "Bill": 8668, 
  "Gi@@": 8669, 
  "Evropském": 8670, 
  "con": 8671, 
  "sma@@": 8672, 
  "unií": 8673, 
  "vytvářet": 8674, 
  "vyta@@": 8675, 
  "poptávky": 8676, 
  "šéf@@": 8677, 
  "způsobil": 8678, 
  "mimořádně": 8679, 
  "uvede": 8680, 
  "dvorem": 8681, 
  "zaznamen@@": 8682, 
  "armádu": 8683, 
  "názvu": 8684, 
  "Dun@@": 8685, 
  "běž@@": 8686, 
  "běžet": 8687, 
  "znají": 8688, 
  "zených": 8689, 
  "blbej": 8690, 
  "děvka": 8691, 
  "ukazatelů": 8692, 
  "mořské": 8693, 
  "nároky": 8694, 
  "ovliv@@": 8695, 
  "závod": 8696, 
  "nepatří": 8697, 
  "flu@@": 8698, 
  "jímž": 8699, 
  "práv@@": 8700, 
  "е@@": 8701, 
  "čeny": 8702, 
  "povedlo": 8703, 
  "životu": 8704, 
  "harmonizaci": 8705, 
  "Ham@@": 8706, 
  "měst": 8707, 
  "hel@@": 8708, 
  "nemluv": 8709, 
  "stromu": 8710, 
  "Číně": 8711, 
  "autobus": 8712, 
  "pravidelné": 8713, 
  "mraz@@": 8714, 
  "álnímu": 8715, 
  "zahrnuty": 8716, 
  "lásce": 8717, 
  "zahraničních": 8718, 
  "sna@@": 8719, 
  "kvalitní": 8720, 
  "spor@@": 8721, 
  "šíme": 8722, 
  "Tel": 8723, 
  "podobného": 8724, 
  "vnějších": 8725, 
  "zach@@": 8726, 
  "uvolnění": 8727, 
  "slučitelné": 8728, 
  "lidech": 8729, 
  "přibliž@@": 8730, 
  "vyle@@": 8731, 
  "parametry": 8732, 
  "ztrátu": 8733, 
  "díru": 8734, 
  "rovného": 8735, 
  "pono@@": 8736, 
  "obličeji": 8737, 
  "prošla": 8738, 
  "přínos": 8739, 
  "postava": 8740, 
  "výzkumných": 8741, 
  "představil": 8742, 
  "účetnictví": 8743, 
  "asist@@": 8744, 
  "vydržet": 8745, 
  "květiny": 8746, 
  "německé": 8747, 
  "zahájením": 8748, 
  "car@@": 8749, 
  "zastav@@": 8750, 
  "ron@@": 8751, 
  "koli@@": 8752, 
  "ard": 8753, 
  "varoval": 8754, 
  "unavená": 8755, 
  "zasraný": 8756, 
  "Hy@@": 8757, 
  "pok@@": 8758, 
  "jení": 8759, 
  "držení": 8760, 
  "Perorální": 8761, 
  "pin@@": 8762, 
  "laci": 8763, 
  "tex@@": 8764, 
  "sektor": 8765, 
  "strojů": 8766, 
  "novými": 8767, 
  "slo@@": 8768, 
  "CZ": 8769, 
  "lejší": 8770, 
  "gr@@": 8771, 
  "Bobe": 8772, 
  "kaly": 8773, 
  "ENÍ": 8774, 
  "vyře@@": 8775, 
  "zprávách": 8776, 
  "stvo": 8777, 
  "smlouvě": 8778, 
  "dohodou": 8779, 
  "σ@@": 8780, 
  "nějakém": 8781, 
  "Kyle": 8782, 
  "nedávné": 8783, 
  "jasná": 8784, 
  "významných": 8785, 
  "vyjednávání": 8786, 
  "smích": 8787, 
  "hotovo": 8788, 
  "mnohokrát": 8789, 
  "konferenci": 8790, 
  "zdrojem": 8791, 
  "Petr": 8792, 
  "vypla@@": 8793, 
  "společnostem": 8794, 
  "102": 8795, 
  "schůzky": 8796, 
  "zvol@@": 8797, 
  "odpad@@": 8798, 
  "Maxi": 8799, 
  "zeměpisné": 8800, 
  "řela": 8801, 
  "krabici": 8802, 
  "řených": 8803, 
  "B6": 8804, 
  "špe@@": 8805, 
  "LA@@": 8806, 
  "stromů": 8807, 
  "Paříži": 8808, 
  "černou": 8809, 
  "une": 8810, 
  "obecný": 8811, 
  "zůstávají": 8812, 
  "iná@@": 8813, 
  "magie": 8814, 
  "ární": 8815, 
  "leté": 8816, 
  "xu": 8817, 
  "účastník": 8818, 
  "objevili": 8819, 
  "jezera": 8820, 
  "synku": 8821, 
  "předsedo": 8822, 
  "jimž": 8823, 
  "příprava": 8824, 
  "jakej": 8825, 
  "dobro@@": 8826, 
  "mistře": 8827, 
  "nický": 8828, 
  "překvap@@": 8829, 
  "zkoušku": 8830, 
  "bytosti": 8831, 
  "dorazí": 8832, 
  "laboratoře": 8833, 
  "lej@@": 8834, 
  "6,@@": 8835, 
  "Alice": 8836, 
  "ovému": 8837, 
  "nesl": 8838, 
  "čo": 8839, 
  "Sh@@": 8840, 
  "oceánu": 8841, 
  "zpochyb@@": 8842, 
  "úterý": 8843, 
  "vybav@@": 8844, 
  "způsobilost": 8845, 
  "účin@@": 8846, 
  "AL": 8847, 
  "pozastavení": 8848, 
  "tel": 8849, 
  "з@@": 8850, 
  "zámek": 8851, 
  "celek": 8852, 
  "umožňující": 8853, 
  "Polsko": 8854, 
  "fan@@": 8855, 
  "poznamenat": 8856, 
  "poško@@": 8857, 
  "tvá@@": 8858, 
  "js@@": 8859, 
  "žit@@": 8860, 
  "kriti@@": 8861, 
  "míč": 8862, 
  "ložnice": 8863, 
  "wa@@": 8864, 
  "školení": 8865, 
  "hují": 8866, 
  "rost@@": 8867, 
  "dítěti": 8868, 
  "yl@@": 8869, 
  "jednotlivými": 8870, 
  "součásti": 8871, 
  "vstupní": 8872, 
  "žádat": 8873, 
  "považován": 8874, 
  "čených": 8875, 
  "červená": 8876, 
  "kruhu": 8877, 
  "lístek": 8878, 
  "ženými": 8879, 
  "čelo": 8880, 
  "spal@@": 8881, 
  "děvčata": 8882, 
  "jů": 8883, 
  "tových": 8884, 
  "zíral": 8885, 
  "žlu@@": 8886, 
  "chystal": 8887, 
  "formuláře": 8888, 
  "kodexu": 8889, 
  "dřevo": 8890, 
  "ministerstvo": 8891, 
  "tlu@@": 8892, 
  "šili": 8893, 
  "výhod": 8894, 
  "natá@@": 8895, 
  "použijte": 8896, 
  "lod@@": 8897, 
  "přejít": 8898, 
  "tématu": 8899, 
  "utekla": 8900, 
  "jednodušší": 8901, 
  "advokát": 8902, 
  "Mad@@": 8903, 
  "podmínkou": 8904, 
  "právníka": 8905, 
  "zavolá": 8906, 
  "přijetím": 8907, 
  "klídek": 8908, 
  "uvaž@@": 8909, 
  "óza": 8910, 
  "OD@@": 8911, 
  "připravil": 8912, 
  "každých": 8913, 
  "průměr": 8914, 
  "výměna": 8915, 
  "vyrovná@@": 8916, 
  "uvádě@@": 8917, 
  "fic@@": 8918, 
  "rádio": 8919, 
  "zkrátka": 8920, 
  "ničí": 8921, 
  "kými": 8922, 
  "vymezení": 8923, 
  "né@@": 8924, 
  "lní": 8925, 
  "platebních": 8926, 
  "najděte": 8927, 
  "uhlí": 8928, 
  "komun@@": 8929, 
  "příslušníky": 8930, 
  "naučila": 8931, 
  "vyjít": 8932, 
  "tim": 8933, 
  "přežil": 8934, 
  "účastnit": 8935, 
  "iky": 8936, 
  "výrazem": 8937, 
  "kartelové": 8938, 
  "rodinné": 8939, 
  "Tr@@": 8940, 
  "reg@@": 8941, 
  "vypadněte": 8942, 
  "podpis": 8943, 
  "způsobů": 8944, 
  "chi@@": 8945, 
  "prasat": 8946, 
  "jší": 8947, 
  "mit@@": 8948, 
  "příjemné": 8949, 
  "navrhuji": 8950, 
  "Gre@@": 8951, 
  "termín": 8952, 
  "obdrží": 8953, 
  "peklo": 8954, 
  "kasační": 8955, 
  "prachu": 8956, 
  "Michaele": 8957, 
  "píšu": 8958, 
  "nesplnění": 8959, 
  "formát": 8960, 
  "volali": 8961, 
  "užít": 8962, 
  "pruž@@": 8963, 
  "vykládat": 8964, 
  "komunikaci": 8965, 
  "áři": 8966, 
  "právně": 8967, 
  "vybrané": 8968, 
  "kariéru": 8969, 
  "synem": 8970, 
  "hledáte": 8971, 
  "AKT": 8972, 
  "žadatele": 8973, 
  "acquis": 8974, 
  "povídal": 8975, 
  "vrhl": 8976, 
  "papí@@": 8977, 
  "bek": 8978, 
  "Pat@@": 8979, 
  "sou": 8980, 
  "cin@@": 8981, 
  "trvalé": 8982, 
  "Len@@": 8983, 
  "celým": 8984, 
  "wa": 8985, 
  "vítám": 8986, 
  "tla": 8987, 
  "hodinách": 8988, 
  "átor": 8989, 
  "přij@@": 8990, 
  "šíte": 8991, 
  "Ur@@": 8992, 
  "sebral": 8993, 
  "TOTO": 8994, 
  "pojedu": 8995, 
  "členství": 8996, 
  "technicky": 8997, 
  "zveřejní": 8998, 
  "týdnu": 8999, 
  "službám": 9000, 
  "nabídek": 9001, 
  "otá@@": 9002, 
  "tání": 9003, 
  "zatá@@": 9004, 
  "AS": 9005, 
  "zákon@@": 9006, 
  "míle": 9007, 
  "zajímavý": 9008, 
  "životů": 9009, 
  "IX": 9010, 
  "rovnováhu": 9011, 
  "působení": 9012, 
  "injekce": 9013, 
  "neni": 9014, 
  "kamarády": 9015, 
  "zac@@": 9016, 
  "vyvolat": 9017, 
  "vyrábě@@": 9018, 
  "promluvím": 9019, 
  "celkových": 9020, 
  "dž@@": 9021, 
  "sračky": 9022, 
  "domy": 9023, 
  "WTO": 9024, 
  "vymyslel": 9025, 
  "příslušnému": 9026, 
  "ł@@": 9027, 
  "veterinární": 9028, 
  "odbor@@": 9029, 
  "zásadami": 9030, 
  "kvót": 9031, 
  "vyplývají": 9032, 
  "prima": 9033, 
  "přesvěd@@": 9034, 
  "film.": 9035, 
  "přerušení": 9036, 
  "zavádí": 9037, 
  "vydávání": 9038, 
  "šéfa": 9039, 
  "ěný": 9040, 
  "--@@": 9041, 
  "opravit": 9042, 
  "CHMP": 9043, 
  "vnitřních": 9044, 
  "institucemi": 9045, 
  "výrok": 9046, 
  "itele": 9047, 
  "ini": 9048, 
  "Charles": 9049, 
  "kv@@": 9050, 
  "Už": 9051, 
  "čtvrti": 9052, 
  "symbol": 9053, 
  "ovacím": 9054, 
  "Nicku": 9055, 
  "prase": 9056, 
  "namístě": 9057, 
  "yl": 9058, 
  "lis@@": 9059, 
  "ovce": 9060, 
  "druhému": 9061, 
  "ica": 9062, 
  "itel@@": 9063, 
  "ud@@": 9064, 
  "žádání": 9065, 
  "nemocná": 9066, 
  "AG": 9067, 
  "řský": 9068, 
  "She@@": 9069, 
  "červený": 9070, 
  "absolutní": 9071, 
  "schovat": 9072, 
  "externí": 9073, 
  "příkazy": 9074, 
  "politická": 9075, 
  "podléhají": 9076, 
  "obalu": 9077, 
  "chytrá": 9078, 
  "blbec": 9079, 
  "odráží": 9080, 
  "IA": 9081, 
  "Argument": 9082, 
  "dočasné": 9083, 
  "kuře": 9084, 
  "dila": 9085, 
  "stylu": 9086, 
  "div@@": 9087, 
  "Po": 9088, 
  "přijela": 9089, 
  "jích": 9090, 
  "ima": 9091, 
  "vskutku": 9092, 
  "šeny": 9093, 
  "tový": 9094, 
  "uznává": 9095, 
  "podporují": 9096, 
  "přístroj": 9097, 
  "oslavu": 9098, 
  "utr@@": 9099, 
  "Mur@@": 9100, 
  "padne": 9101, 
  "IS": 9102, 
  "popí@@": 9103, 
  "potvrdit": 9104, 
  "práv.": 9105, 
  "znak": 9106, 
  "105": 9107, 
  "ekonomických": 9108, 
  "křičet": 9109, 
  "5,@@": 9110, 
  "don@@": 9111, 
  "chan@@": 9112, 
  "rozpočtových": 9113, 
  "nádherná": 9114, 
  "nenávidí": 9115, 
  "doplň@@": 9116, 
  "nakládání": 9117, 
  "produ@@": 9118, 
  "Ježíš": 9119, 
  "zastavili": 9120, 
  "zločinu": 9121, 
  "TV": 9122, 
  "výborem": 9123, 
  "zkoumat": 9124, 
  "bum": 9125, 
  "samot@@": 9126, 
  "vyhra@@": 9127, 
  "tiv@@": 9128, 
  "poro@@": 9129, 
  "výkonnosti": 9130, 
  "průmyslových": 9131, 
  "myšlení": 9132, 
  "Win@@": 9133, 
  "novinách": 9134, 
  "ženatý": 9135, 
  "ere@@": 9136, 
  "mech": 9137, 
  "ochránit": 9138, 
  "Euro@@": 9139, 
  "pamatujte": 9140, 
  "zašeptal": 9141, 
  "fyzi@@": 9142, 
  "Ad@@": 9143, 
  "pilot": 9144, 
  "doplňující": 9145, 
  "otevřený": 9146, 
  "ošetř@@": 9147, 
  "mé@@": 9148, 
  "výzkumné": 9149, 
  "zran@@": 9150, 
  "koláč": 9151, 
  "ož@@": 9152, 
  "obchody": 9153, 
  "nezaměstnanosti": 9154, 
  "účetních": 9155, 
  "nat": 9156, 
  "navrh@@": 9157, 
  "2,5": 9158, 
  "ling@@": 9159, 
  "tvrdé": 9160, 
  "šou@@": 9161, 
  "ctí": 9162, 
  "vybrala": 9163, 
  "slabé": 9164, 
  "šího": 9165, 
  "zodpovědný": 9166, 
  "řenou": 9167, 
  "stanoven": 9168, 
  "Angeles": 9169, 
  "kované": 9170, 
  "mezinárodními": 9171, 
  "berte": 9172, 
  "zavě@@": 9173, 
  "manžel@@": 9174, 
  "obrátit": 9175, 
  "integraci": 9176, 
  "Jackie": 9177, 
  "eti@@": 9178, 
  "výrobních": 9179, 
  "ústní": 9180, 
  "identifikovat": 9181, 
  "obranu": 9182, 
  "War@@": 9183, 
  "л@@": 9184, 
  "zabal@@": 9185, 
  "zabit": 9186, 
  "chrání": 9187, 
  "urych@@": 9188, 
  "postoje": 9189, 
  "nel@@": 9190, 
  "klienta": 9191, 
  "ox@@": 9192, 
  "kovy": 9193, 
  "rozhlédl": 9194, 
  "krátký": 9195, 
  "zpomal@@": 9196, 
  "vzácné": 9197, 
  "odmě@@": 9198, 
  "rování": 9199, 
  "přechod@@": 9200, 
  "vědeckých": 9201, 
  "obnovitelných": 9202, 
  "služeb@@": 9203, 
  "vyjádřil": 9204, 
  "předložených": 9205, 
  "speci@@": 9206, 
  "provozních": 9207, 
  "pohřeb": 9208, 
  "navrhla": 9209, 
  "dáváš": 9210, 
  "vní@@": 9211, 
  "bohové": 9212, 
  "časů": 9213, 
  "žaludek": 9214, 
  "umírá": 9215, 
  "Vegas": 9216, 
  "Vo@@": 9217, 
  "ola": 9218, 
  "byť": 9219, 
  "zastoupení": 9220, 
  "pochopitelně": 9221, 
  "regionech": 9222, 
  "soulad": 9223, 
  "Ren@@": 9224, 
  "nesmysl": 9225, 
  "neumí": 9226, 
  "žní": 9227, 
  "klo": 9228, 
  "zčásti": 9229, 
  "padla": 9230, 
  "kovými": 9231, 
  "chutná": 9232, 
  "společném": 9233, 
  "poku@@": 9234, 
  "zemřeli": 9235, 
  "půjdou": 9236, 
  "přenosu": 9237, 
  "nazý@@": 9238, 
  "řích": 9239, 
  "zbytky": 9240, 
  "zobrazí": 9241, 
  "CS.0100@@": 9242, 
  "ÝCH": 9243, 
  "blb@@": 9244, 
  "naklá@@": 9245, 
  "dka": 9246, 
  "chybět": 9247, 
  "šenou": 9248, 
  "Vz@@": 9249, 
  "odchylky": 9250, 
  "krabice": 9251, 
  "stran@@": 9252, 
  "kap@@": 9253, 
  "vyprávěl": 9254, 
  "partneři": 9255, 
  "02@@": 9256, 
  "déšť": 9257, 
  "zastaví": 9258, 
  "Bob": 9259, 
  "ovládání": 9260, 
  "vky": 9261, 
  "jihu": 9262, 
  "značka": 9263, 
  "nezmě@@": 9264, 
  "čnosti": 9265, 
  "základu": 9266, 
  "zbraněmi": 9267, 
  "žu": 9268, 
  "sýr": 9269, 
  "Med@@": 9270, 
  "nečekal": 9271, 
  "Var@@": 9272, 
  "jakýkoliv": 9273, 
  "rní": 9274, 
  "dělo": 9275, 
  "omyl": 9276, 
  "land": 9277, 
  "začínají": 9278, 
  "hlasů": 9279, 
  "kole": 9280, 
  "pohromadě": 9281, 
  "gg@@": 9282, 
  "vydala": 9283, 
  "identifikaci": 9284, 
  "nau@@": 9285, 
  "seru": 9286, 
  "vypracovat": 9287, 
  "oup@@": 9288, 
  "gan@@": 9289, 
  "test@@": 9290, 
  "tok": 9291, 
  "dar@@": 9292, 
  "Společná": 9293, 
  "aktivně": 9294, 
  "šena": 9295, 
  "budoucích": 9296, 
  "kapse": 9297, 
  "cely": 9298, 
  "porazit": 9299, 
  "koukat": 9300, 
  "PR@@": 9301, 
  "hovoří": 9302, 
  "stávají": 9303, 
  "odůvodněné": 9304, 
  "řských": 9305, 
  "úzké": 9306, 
  "žádným": 9307, 
  "Fi@@": 9308, 
  "lhůtu": 9309, 
  "hnu": 9310, 
  "vrcholu": 9311, 
  "leteckých": 9312, 
  "zamě@@": 9313, 
  "eli@@": 9314, 
  "OP@@": 9315, 
  "lat": 9316, 
  "shrnutí": 9317, 
  "bře@@": 9318, 
  "hlídat": 9319, 
  "SO@@": 9320, 
  "Vy": 9321, 
  "he": 9322, 
  "podnikem": 9323, 
  "áz@@": 9324, 
  "VIII": 9325, 
  "tika": 9326, 
  "přerušit": 9327, 
  "Africe": 9328, 
  "Ja@@": 9329, 
  "Mari@@": 9330, 
  "Elizabeth": 9331, 
  "tlakem": 9332, 
  "prevenci": 9333, 
  "položku": 9334, 
  "Ě": 9335, 
  "obyčejný": 9336, 
  "studia": 9337, 
  "vyrovnat": 9338, 
  "sam@@": 9339, 
  "jakoukoli": 9340, 
  "stabilitu": 9341, 
  "kopce": 9342, 
  "křídla": 9343, 
  "odvolací": 9344, 
  "pání": 9345, 
  "cela": 9346, 
  "kontak@@": 9347, 
  "inov@@": 9348, 
  "návštěvy": 9349, 
  "výhod@@": 9350, 
  "největším": 9351, 
  "zneužití": 9352, 
  "příslušníků": 9353, 
  "zahrnující": 9354, 
  "pero": 9355, 
  "ověř@@": 9356, 
  "US": 9357, 
  "ER": 9358, 
  "nenašel": 9359, 
  "vzrušující": 9360, 
  "vadit": 9361, 
  "přidal": 9362, 
  "்": 9363, 
  "oty": 9364, 
  "radostí": 9365, 
  "daňového": 9366, 
  "apli@@": 9367, 
  "následujícího": 9368, 
  "myšlenku": 9369, 
  "děcko": 9370, 
  "hluk": 9371, 
  "ležela": 9372, 
  "náboženství": 9373, 
  "nevšiml": 9374, 
  "kouzel@@": 9375, 
  "podni@@": 9376, 
  "ilu": 9377, 
  "ira": 9378, 
  "prádlo": 9379, 
  "zvedni": 9380, 
  "státním": 9381, 
  "odpočinout": 9382, 
  "jin@@": 9383, 
  "kov": 9384, 
  "smutný": 9385, 
  "nce": 9386, 
  "navrácení": 9387, 
  "vdě@@": 9388, 
  "sluší": 9389, 
  "kluky": 9390, 
  "vymyslet": 9391, 
  "sor@@": 9392, 
  "půdu": 9393, 
  "klou@@": 9394, 
  "skleníkových": 9395, 
  "platný": 9396, 
  "nepomůže": 9397, 
  "Dom@@": 9398, 
  "turist@@": 9399, 
  "piva": 9400, 
  "pravdou": 9401, 
  "obsažené": 9402, 
  "ňá@@": 9403, 
  "názvy": 9404, 
  "odpor": 9405, 
  "pky": 9406, 
  "svaly": 9407, 
  "sat@@": 9408, 
  "obyvatelstva": 9409, 
  "středisko": 9410, 
  "zůstalo": 9411, 
  "vyvážející": 9412, 
  "úvodní": 9413, 
  "dopravce": 9414, 
  "dáno": 9415, 
  "ány": 9416, 
  "fí@@": 9417, 
  "strukturu": 9418, 
  "spočí@@": 9419, 
  "utíkej": 9420, 
  "jíme": 9421, 
  "zkušenost": 9422, 
  "odvětvích": 9423, 
  "čků": 9424, 
  "jíš": 9425, 
  "těžká": 9426, 
  "gon@@": 9427, 
  "počkám": 9428, 
  "dobrovolně": 9429, 
  "inspekce": 9430, 
  "nástroji": 9431, 
  "Rad@@": 9432, 
  "schodku": 9433, 
  "alfa": 9434, 
  "ivé": 9435, 
  "zajištěna": 9436, 
  "Õ": 9437, 
  "osobami": 9438, 
  "okraj": 9439, 
  "využívají": 9440, 
  "předchozím": 9441, 
  "oknem": 9442, 
  "vykaz@@": 9443, 
  "Kol@@": 9444, 
  "IM@@": 9445, 
  "skládá": 9446, 
  "čtvrtý": 9447, 
  "lový": 9448, 
  "Kdo": 9449, 
  "vyprávět": 9450, 
  "poněvadž": 9451, 
  "pokusit": 9452, 
  "obrovská": 9453, 
  "log@@": 9454, 
  "rukojmí": 9455, 
  "dce": 9456, 
  "AM@@": 9457, 
  "přijď": 9458, 
  "ujistil": 9459, 
  "průkaz": 9460, 
  "lana": 9461, 
  "invest@@": 9462, 
  "rol@@": 9463, 
  "vyhodil": 9464, 
  "častěji": 9465, 
  "znečištění": 9466, 
  "oddě@@": 9467, 
  "furt": 9468, 
  "výpověď": 9469, 
  "neobsahuje": 9470, 
  "tón": 9471, 
  "reprodu@@": 9472, 
  "Nej@@": 9473, 
  "og@@": 9474, 
  "shle@@": 9475, 
  "ající": 9476, 
  "dokonalý": 9477, 
  "1.1": 9478, 
  "pošli": 9479, 
  "dotyčný": 9480, 
  "horko": 9481, 
  "překročit": 9482, 
  "kapitálových": 9483, 
  "zkusíme": 9484, 
  "ukaz@@": 9485, 
  "čerstvé": 9486, 
  "nemyslela": 9487, 
  "bav@@": 9488, 
  "váhu": 9489, 
  "přesvědčení": 9490, 
  "účinný": 9491, 
  "základnu": 9492, 
  "neuvěřitelně": 9493, 
  "kraj@@": 9494, 
  "tovou": 9495, 
  "obecná": 9496, 
  "šilo": 9497, 
  "neříkejte": 9498, 
  "vymáhání": 9499, 
  "přísně": 9500, 
  "souvislost": 9501, 
  "umřela": 9502, 
  "doposud": 9503, 
  "Anglie": 9504, 
  "vzdá@@": 9505, 
  "nesmíte": 9506, 
  "sportovní": 9507, 
  "stížnosti": 9508, 
  "Bod": 9509, 
  "velitele": 9510, 
  "Účetní": 9511, 
  "SP@@": 9512, 
  "tajem@@": 9513, 
  "zdě@@": 9514, 
  "východu": 9515, 
  "Tyto": 9516, 
  "zákazníky": 9517, 
  "rozlo@@": 9518, 
  "mask@@": 9519, 
  "ledu": 9520, 
  "Tru@@": 9521, 
  "zvýšené": 9522, 
  "vet@@": 9523, 
  "ck": 9524, 
  "řeny": 9525, 
  "odbo@@": 9526, 
  "wow": 9527, 
  "zůstanou": 9528, 
  "přinesu": 9529, 
  "čeno": 9530, 
  "kdepak": 9531, 
  "mann": 9532, 
  "personál": 9533, 
  "JE": 9534, 
  "agenta": 9535, 
  "pohř@@": 9536, 
  "don": 9537, 
  "rova": 9538, 
  "porozumění": 9539, 
  "miliónů": 9540, 
  "rovné": 9541, 
  "zbož@@": 9542, 
  "xi@@": 9543, 
  "tělem": 9544, 
  "vaný": 9545, 
  "srovná@@": 9546, 
  "drog@@": 9547, 
  "SK@@": 9548, 
  "hoď": 9549, 
  "Není": 9550, 
  "povídá": 9551, 
  "klin@@": 9552, 
  "kapacit": 9553, 
  "vážím": 9554, 
  "125": 9555, 
  "vysokých": 9556, 
  "vysokým": 9557, 
  "přicházejí": 9558, 
  "známek": 9559, 
  "specifických": 9560, 
  "varovat": 9561, 
  "odpovědné": 9562, 
  "dopravních": 9563, 
  "zaví@@": 9564, 
  "IV@@": 9565, 
  "Jake": 9566, 
  "Česká": 9567, 
  "deník": 9568, 
  "sleduj": 9569, 
  "stupni": 9570, 
  "ind@@": 9571, 
  "předat": 9572, 
  "vané": 9573, 
  "vit": 9574, 
  "IE": 9575, 
  "PT": 9576, 
  "směšné": 9577, 
  "Stra@@": 9578, 
  "vztek": 9579, 
  "objektu": 9580, 
  "200@@": 9581, 
  "předcházení": 9582, 
  "char@@": 9583, 
  "prostory": 9584, 
  "nosu": 9585, 
  "Londýna": 9586, 
  "mechan@@": 9587, 
  "předkládá": 9588, 
  "zamířil": 9589, 
  "plu@@": 9590, 
  "automobilů": 9591, 
  "Vzhledem": 9592, 
  "úmrtí": 9593, 
  "přidané": 9594, 
  "pokro@@": 9595, 
  "hrdý": 9596, 
  "sestavy": 9597, 
  "slad@@": 9598, 
  "studoval": 9599, 
  "téže": 9600, 
  "náklad": 9601, 
  "vtipný": 9602, 
  "musely": 9603, 
  "vstoupí": 9604, 
  "hledali": 9605, 
  "partnerů": 9606, 
  "dávkování": 9607, 
  "legrační": 9608, 
  "vze@@": 9609, 
  "pokusí": 9610, 
  "většiny": 9611, 
  "láskou": 9612, 
  "ers": 9613, 
  "povinen": 9614, 
  "áním": 9615, 
  "všeobecné": 9616, 
  "identifikace": 9617, 
  "záměr": 9618, 
  "úvěru": 9619, 
  "vš@@": 9620, 
  "věříte": 9621, 
  "úspěchu": 9622, 
  "vzpomenout": 9623, 
  "spadají": 9624, 
  "tren@@": 9625, 
  "účastní": 9626, 
  "začnete": 9627, 
  "zdroji": 9628, 
  "mobilní": 9629, 
  "noha": 9630, 
  "dokážeme": 9631, 
  "šími": 9632, 
  "obrátila": 9633, 
  "jaderných": 9634, 
  "idů": 9635, 
  "nesou": 9636, 
  "sila": 9637, 
  "upřes@@": 9638, 
  "ury": 9639, 
  "oce@@": 9640, 
  "rej": 9641, 
  "nápady": 9642, 
  "výročí": 9643, 
  "knih": 9644, 
  "enty": 9645, 
  "106": 9646, 
  "mapu": 9647, 
  "kněz": 9648, 
  "přijeli": 9649, 
  "autor@@": 9650, 
  "domem": 9651, 
  "ženské": 9652, 
  "usnadnit": 9653, 
  "very": 9654, 
  "minutku": 9655, 
  "fé@@": 9656, 
  "každoročně": 9657, 
  "synovi": 9658, 
  "bytost": 9659, 
  "úkolu": 9660, 
  "armádě": 9661, 
  "obrovskou": 9662, 
  "poštou": 9663, 
  "přis@@": 9664, 
  "prásk@@": 9665, 
  "doklad": 9666, 
  "vele@@": 9667, 
  "investičních": 9668, 
  "podobná": 9669, 
  "180": 9670, 
  "zají@@": 9671, 
  "Ti": 9672, 
  "šné": 9673, 
  "jejími": 9674, 
  "modul": 9675, 
  "bombu": 9676, 
  "mlá@@": 9677, 
  "jednotný": 9678, 
  "sledov@@": 9679, 
  "xe": 9680, 
  "jezd@@": 9681, 
  "překon@@": 9682, 
  "celku": 9683, 
  "Gil@@": 9684, 
  "stavě@@": 9685, 
  "zer@@": 9686, 
  "makro@@": 9687, 
  "enými": 9688, 
  "popravdě": 9689, 
  "půlnoci": 9690, 
  "ukrást": 9691, 
  "pokrčil": 9692, 
  "lují": 9693, 
  "Men@@": 9694, 
  "Sel@@": 9695, 
  "AB@@": 9696, 
  "Rakousko": 9697, 
  "některým": 9698, 
  "jíte": 9699, 
  "uplat@@": 9700, 
  "procentní": 9701, 
  "adrese": 9702, 
  "výzvu": 9703, 
  "rozpočtového": 9704, 
  "přírody": 9705, 
  "oznámit": 9706, 
  "naš@@": 9707, 
  "sledovala": 9708, 
  "otevře": 9709, 
  "odol@@": 9710, 
  "zahrát": 9711, 
  "ejte": 9712, 
  "rozší@@": 9713, 
  "sloužil": 9714, 
  "podmínka": 9715, 
  "vybranou": 9716, 
  "index": 9717, 
  "zrych@@": 9718, 
  "pistole": 9719, 
  "mání": 9720, 
  "Cas@@": 9721, 
  "svědky": 9722, 
  "svoboda": 9723, 
  "sklad@@": 9724, 
  "zel@@": 9725, 
  "Sto@@": 9726, 
  "pasu": 9727, 
  "OLAF": 9728, 
  "úzce": 9729, 
  "oboru": 9730, 
  "abysme": 9731, 
  "tran@@": 9732, 
  "sra@@": 9733, 
  "ves@@": 9734, 
  "zápěstí": 9735, 
  "útěku": 9736, 
  "Gran@@": 9737, 
  "čtvr@@": 9738, 
  "příkladem": 9739, 
  "probrat": 9740, 
  "letěl": 9741, 
  "žné": 9742, 
  "neznáš": 9743, 
  "áře": 9744, 
  "zachránila": 9745, 
  "partner": 9746, 
  "sundej": 9747, 
  "AD": 9748, 
  "věz@@": 9749, 
  "lovou": 9750, 
  "sekce": 9751, 
  "posílají": 9752, 
  "ie@@": 9753, 
  "násob@@": 9754, 
  "vylou@@": 9755, 
  "profesore": 9756, 
  "pták": 9757, 
  "prodlou@@": 9758, 
  "sledovali": 9759, 
  "Ara@@": 9760, 
  "zah@@": 9761, 
  "kaš@@": 9762, 
  "vací": 9763, 
  "hledáš": 9764, 
  "napá@@": 9765, 
  "považováno": 9766, 
  "založen": 9767, 
  "Ruska": 9768, 
  "pl": 9769, 
  "jednalo": 9770, 
  "Enterprise": 9771, 
  "jakákoli": 9772, 
  "sie": 9773, 
  "Gary": 9774, 
  "Pri@@": 9775, 
  "holčička": 9776, 
  "nebýt": 9777, 
  "obvyklé": 9778, 
  "hledala": 9779, 
  "opice": 9780, 
  "Beth": 9781, 
  "nechápeš": 9782, 
  "ante": 9783, 
  "top@@": 9784, 
  "prezident@@": 9785, 
  "tvrdit": 9786, 
  "kabát": 9787, 
  "hluboké": 9788, 
  "začneš": 9789, 
  "čínské": 9790, 
  "zelená": 9791, 
  "nepřímo": 9792, 
  "předměty": 9793, 
  "brala": 9794, 
  "eně": 9795, 
  "zábavu": 9796, 
  "tábora": 9797, 
  "časové": 9798, 
  "May@@": 9799, 
  "prohlásila": 9800, 
  "ženami": 9801, 
  "metod@@": 9802, 
  "zákazníků": 9803, 
  "seděli": 9804, 
  "smát": 9805, 
  "přijdeme": 9806, 
  "povaha": 9807, 
  "hovat": 9808, 
  "plášť": 9809, 
  "stávajícího": 9810, 
  "prošli": 9811, 
  "oznámeno": 9812, 
  "zauj@@": 9813, 
  "takovýho": 9814, 
  "paži": 9815, 
  "dostává": 9816, 
  "hotovosti": 9817, 
  "kvalita": 9818, 
  "nevidíš": 9819, 
  "hlíd@@": 9820, 
  "neslyšela": 9821, 
  "ren": 9822, 
  "Jas@@": 9823, 
  "chro@@": 9824, 
  "čekáme": 9825, 
  "čící": 9826, 
  "řeknou": 9827, 
  "nenašli": 9828, 
  "souhlasu": 9829, 
  "chodíš": 9830, 
  "chvílí": 9831, 
  "past": 9832, 
  "nemění": 9833, 
  "zabere": 9834, 
  "Velké": 9835, 
  "tali": 9836, 
  "Lor@@": 9837, 
  "pracujeme": 9838, 
  "úvěr": 9839, 
  "výš": 9840, 
  "sté@@": 9841, 
  "dopad@@": 9842, 
  "NL": 9843, 
  "přidělení": 9844, 
  "plod@@": 9845, 
  "strýc": 9846, 
  "net": 9847, 
  "pp@@": 9848, 
  "vypnout": 9849, 
  "celo@@": 9850, 
  "IN": 9851, 
  "pomal@@": 9852, 
  "Bille": 9853, 
  "struktura": 9854, 
  "ocenění": 9855, 
  "hraju": 9856, 
  "chů": 9857, 
  "iniciativ": 9858, 
  "AT": 9859, 
  "obratu": 9860, 
  "agentur": 9861, 
  "nechy@@": 9862, 
  "dím": 9863, 
  "sníží": 9864, 
  "ID@@": 9865, 
  "kódy": 9866, 
  "rozdělit": 9867, 
  "pobyt": 9868, 
  "zastřelil": 9869, 
  "Gri@@": 9870, 
  "Německa": 9871, 
  "pospěš": 9872, 
  "μ@@": 9873, 
  "vka": 9874, 
  "uživatelé": 9875, 
  "mp@@": 9876, 
  "stížnost": 9877, 
  "nap@@": 9878, 
  "dort": 9879, 
  "nutnost": 9880, 
  "Dor@@": 9881, 
  "ut": 9882, 
  "kamarád@@": 9883, 
  "objevit": 9884, 
  "buje": 9885, 
  "vypořádat": 9886, 
  "federální": 9887, 
  "prázdná": 9888, 
  "provozovatel": 9889, 
  "nezastav@@": 9890, 
  "uživatel": 9891, 
  "opilý": 9892, 
  "silnou": 9893, 
  "neh@@": 9894, 
  "klasi@@": 9895, 
  "úpravě": 9896, 
  "nevidí": 9897, 
  "Sil@@": 9898, 
  "půlku": 9899, 
  "budova": 9900, 
  "mel": 9901, 
  "šovat": 9902, 
  "primární": 9903, 
  "pravdy": 9904, 
  "dop@@": 9905, 
  "use": 9906, 
  "net@@": 9907, 
  "otcov@@": 9908, 
  "policista": 9909, 
  "doufala": 9910, 
  "Bil@@": 9911, 
  "ej@@": 9912, 
  "onem": 9913, 
  "důsledkem": 9914, 
  "nezbytných": 9915, 
  "ptáka": 9916, 
  "azyl": 9917, 
  "testu": 9918, 
  "využí@@": 9919, 
  "zkrá@@": 9920, 
  "NA@@": 9921, 
  "pomůžeš": 9922, 
  "kontakty": 9923, 
  "čov@@": 9924, 
  "kolektivní": 9925, 
  "dodavatele": 9926, 
  "207": 9927, 
  "kovu": 9928, 
  "Španělsku": 9929, 
  "navrhnout": 9930, 
  "doufat": 9931, 
  "Ray@@": 9932, 
  "podezřelý": 9933, 
  "samotnou": 9934, 
  "žeš": 9935, 
  "pek": 9936, 
  "drobné": 9937, 
  "ken@@": 9938, 
  "čeného": 9939, 
  "Cre@@": 9940, 
  "úroky": 9941, 
  "podej": 9942, 
  "Rayi": 9943, 
  "hajzl": 9944, 
  "udržovat": 9945, 
  "Nick": 9946, 
  "relativně": 9947, 
  "Anna": 9948, 
  "čovat": 9949, 
  "Fax": 9950, 
  "icích": 9951, 
  "osudu": 9952, 
  "jedete": 9953, 
  "zákonodárce": 9954, 
  "lela": 9955, 
  "out@@": 9956, 
  "kontaktní": 9957, 
  "klasifikace": 9958, 
  "přen@@": 9959, 
  "viny": 9960, 
  "chybě": 9961, 
  "dodat": 9962, 
  "dospěla": 9963, 
  "koupím": 9964, 
  "středně": 9965, 
  "4.1": 9966, 
  "dosáhla": 9967, 
  "většího": 9968, 
  "Nicole": 9969, 
  "skvělej": 9970, 
  "holkou": 9971, 
  "pli@@": 9972, 
  "mer": 9973, 
  "priorit": 9974, 
  "Karen": 9975, 
  "dospě@@": 9976, 
  "měnové": 9977, 
  "vzor": 9978, 
  "podmínkám": 9979, 
  "obočí": 9980, 
  "národního": 9981, 
  "dovol": 9982, 
  "režimy": 9983, 
  "soudržnost": 9984, 
  "soci@@": 9985, 
  "vidění": 9986, 
  "obrat": 9987, 
  "oznámila": 9988, 
  "S.@@": 9989, 
  "trh@@": 9990, 
  "uvolnit": 9991, 
  "chání": 9992, 
  "rozvíjet": 9993, 
  "dostupnost": 9994, 
  "eš": 9995, 
  "nechtěli": 9996, 
  "porušování": 9997, 
  "diskriminaci": 9998, 
  "srovnatelné": 9999, 
  "dav": 10000, 
  "vtip@@": 10001, 
  "opak": 10002, 
  "důvěrné": 10003, 
  "začni": 10004, 
  "VO@@": 10005, 
  "patře": 10006, 
  "hlupák": 10007, 
  "temné": 10008, 
  "stojím": 10009, 
  "ovzduší": 10010, 
  "šest@@": 10011, 
  "mů@@": 10012, 
  "hodlá": 10013, 
  "omezena": 10014, 
  "svatbě": 10015, 
  "Jamesi": 10016, 
  "dostaň": 10017, 
  "žalobního": 10018, 
  "příběhu": 10019, 
  "×": 10020, 
  "trápí": 10021, 
  "váno": 10022, 
  "tily": 10023, 
  "Honor": 10024, 
  "pun@@": 10025, 
  "Edward": 10026, 
  "vesnici": 10027, 
  "bol@@": 10028, 
  "nedokázala": 10029, 
  "zveřej@@": 10030, 
  "vnu@@": 10031, 
  "zbytečně": 10032, 
  "použitých": 10033, 
  "služební": 10034, 
  "výcvik": 10035, 
  "zasmál": 10036, 
  "bio@@": 10037, 
  "nebrání": 10038, 
  "dav@@": 10039, 
  "stráž@@": 10040, 
  "předložena": 10041, 
  "svatba": 10042, 
  "dohledem": 10043, 
  "přísluší": 10044, 
  "průměrná": 10045, 
  "fakta": 10046, 
  "Dánsko": 10047, 
  "obdržela": 10048, 
  "hom@@": 10049, 
  "jedl": 10050, 
  "tej": 10051, 
  "sklapni": 10052, 
  "důraz": 10053, 
  "žíš": 10054, 
  "židle": 10055, 
  "pracujete": 10056, 
  "kom": 10057, 
  "chvá@@": 10058, 
  "Sally": 10059, 
  "řetězce": 10060, 
  "rozhodovat": 10061, 
  "jednot@@": 10062, 
  "červnu": 10063, 
  "vládě": 10064, 
  "pronesl": 10065, 
  "±": 10066, 
  "pomáhal": 10067, 
  "uli@@": 10068, 
  "hlasu": 10069, 
  "urč@@": 10070, 
  "bezprostředně": 10071, 
  "Reg@@": 10072, 
  "hoří": 10073, 
  "policajti": 10074, 
  "fal@@": 10075, 
  "hodinou": 10076, 
  "IEC": 10077, 
  "Molly": 10078, 
  "shi": 10079, 
  "mb@@": 10080, 
  "pojmu": 10081, 
  "dlo": 10082, 
  "dveřích": 10083, 
  "piš": 10084, 
  "sar@@": 10085, 
  "řen": 10086, 
  "Br@@": 10087, 
  "onů": 10088, 
  "technologii": 10089, 
  "necháte": 10090, 
  "přijdete": 10091, 
  "smrtel@@": 10092, 
  "Can@@": 10093, 
  "tělesné": 10094, 
  "směsi": 10095, 
  "omezuje": 10096, 
  "tickým": 10097, 
  "větším": 10098, 
  "jídlem": 10099, 
  "ts": 10100, 
  "ed": 10101, 
  "tvrdý": 10102, 
  "Ray": 10103, 
  "zdravotnictví": 10104, 
  "uru": 10105, 
  "ostrova": 10106, 
  "stabili@@": 10107, 
  "skočit": 10108, 
  "vdaná": 10109, 
  "ac": 10110, 
  "drahé": 10111, 
  "chlad@@": 10112, 
  "Mě@@": 10113, 
  "významným": 10114, 
  "směs": 10115, 
  "hád@@": 10116, 
  "teorii": 10117, 
  "správě": 10118, 
  "PŘIJALA": 10119, 
  "pochopení": 10120, 
  "ologie": 10121, 
  "rozsáhlé": 10122, 
  "Kri@@": 10123, 
  "Ir@@": 10124, 
  "vzdal": 10125, 
  "výzva": 10126, 
  "podruhé": 10127, 
  "uvádějí": 10128, 
  "ρ@@": 10129, 
  "pozvat": 10130, 
  "nedaleko": 10131, 
  "bil@@": 10132, 
  "poradce": 10133, 
  "kostela": 10134, 
  "vor@@": 10135, 
  "porušil": 10136, 
  "pohybuje": 10137, 
  "elle": 10138, 
  "sankcí": 10139, 
  "vytáhnout": 10140, 
  "bat@@": 10141, 
  "překonat": 10142, 
  "Park": 10143, 
  "těším": 10144, 
  "nická": 10145, 
  "AV@@": 10146, 
  "konkrétním": 10147, 
  "zezadu": 10148, 
  "náměstí": 10149, 
  "zvednout": 10150, 
  "žer@@": 10151, 
  "ker": 10152, 
  "východě": 10153, 
  "naznačuje": 10154, 
  "přát": 10155, 
  "dávala": 10156, 
  "dokážete": 10157, 
  "počítá": 10158, 
  "Ol@@": 10159, 
  "lových": 10160, 
  "mist@@": 10161, 
  "vyšla": 10162, 
  "ále": 10163, 
  "dechu": 10164, 
  "utajení": 10165, 
  "át@@": 10166, 
  "neříkám": 10167, 
  "přijímají": 10168, 
  "sedm@@": 10169, 
  "použitelná": 10170, 
  "Soudním": 10171, 
  "vyč@@": 10172, 
  "úlohy": 10173, 
  "umíst@@": 10174, 
  "Jeho": 10175, 
  "NATO": 10176, 
  "překážek": 10177, 
  "letní": 10178, 
  "Randy": 10179, 
  "osvěd@@": 10180, 
  "distribu@@": 10181, 
  "přerušil": 10182, 
  "finančními": 10183, 
  "knihovny": 10184, 
  "Ká@@": 10185, 
  "působit": 10186, 
  "vydává": 10187, 
  "disk": 10188, 
  "dol@@": 10189, 
  "přesný": 10190, 
  "listy": 10191, 
  "náležitě": 10192, 
  "ALDE": 10193, 
  "obdržení": 10194, 
  "vyhledávání": 10195, 
  "poloviny": 10196, 
  "realizaci": 10197, 
  "kombin@@": 10198, 
  "Penny": 10199, 
  "nezávislost": 10200, 
  "snižuje": 10201, 
  "přísa@@": 10202, 
  "ochrannou": 10203, 
  "úrokové": 10204, 
  "vech": 10205, 
  "spuštění": 10206, 
  "kapitálové": 10207, 
  "rozhovoru": 10208, 
  "roh": 10209, 
  "viru": 10210, 
  "napříč": 10211, 
  "uklid@@": 10212, 
  "něným": 10213, 
  "roman@@": 10214, 
  "ismu": 10215, 
  "Mám": 10216, 
  "prevence": 10217, 
  "táhl": 10218, 
  "ţ@@": 10219, 
  "ďá@@": 10220, 
  "CI": 10221, 
  "pustím": 10222, 
  "Stan@@": 10223, 
  "logie": 10224, 
  "provedených": 10225, 
  "Simon": 10226, 
  "přistání": 10227, 
  "média": 10228, 
  "hotové": 10229, 
  "alizovat": 10230, 
  "sníst": 10231, 
  "zamítnout": 10232, 
  "účast@@": 10233, 
  "cia": 10234, 
  "odpočí@@": 10235, 
  "zničení": 10236, 
  "udržitelné": 10237, 
  "doz@@": 10238, 
  "pak@@": 10239, 
  "záruk": 10240, 
  "nezapomeňte": 10241, 
  "čtvrté": 10242, 
  "Pá@@": 10243, 
  "ron": 10244, 
  "hnus@@": 10245, 
  "stopa": 10246, 
  "kotě": 10247, 
  "jakých": 10248, 
  ".cz": 10249, 
  "kole@@": 10250, 
  "půdě": 10251, 
  "posaď": 10252, 
  "zmat@@": 10253, 
  "tvýho": 10254, 
  "spí@@": 10255, 
  "celých": 10256, 
  "konat": 10257, 
  "fy": 10258, 
  "změnám": 10259, 
  "člun": 10260, 
  "určená": 10261, 
  "doufejme": 10262, 
  "zením": 10263, 
  "metodu": 10264, 
  "uvědomit": 10265, 
  "vzhled": 10266, 
  "schvalování": 10267, 
  "určování": 10268, 
  "bomby": 10269, 
  "osvědčených": 10270, 
  "háje": 10271, 
  "oun@@": 10272, 
  "brzd@@": 10273, 
  "otevřená": 10274, 
  "věta": 10275, 
  "past@@": 10276, 
  "jmenuješ": 10277, 
  "sehnal": 10278, 
  "dotyčných": 10279, 
  "kontrolních": 10280, 
  "příčinou": 10281, 
  "nes": 10282, 
  "přátel@@": 10283, 
  "blbý": 10284, 
  "blíže": 10285, 
  "úmluva": 10286, 
  "ade": 10287, 
  "podivné": 10288, 
  "lord": 10289, 
  "itelných": 10290, 
  "τ@@": 10291, 
  "nejlepšího": 10292, 
  "připravené": 10293, 
  "ptá": 10294, 
  "adu": 10295, 
  "směř@@": 10296, 
  "zené": 10297, 
  "způsob@@": 10298, 
  "Joey": 10299, 
  "rozsudky": 10300, 
  "HIV": 10301, 
  "lano": 10302, 
  "rostliny": 10303, 
  "mateřské": 10304, 
  "sdí@@": 10305, 
  "distribuce": 10306, 
  "vážný": 10307, 
  "svat@@": 10308, 
  "nemluví": 10309, 
  "címu": 10310, 
  "kruh": 10311, 
  "brána": 10312, 
  "rozhodnuto": 10313, 
  "tradice": 10314, 
  "evropská": 10315, 
  "újmu": 10316, 
  "inami": 10317, 
  "provozovatele": 10318, 
  "Další": 10319, 
  "Bank": 10320, 
  "op": 10321, 
  "poldové": 10322, 
  "domlu@@": 10323, 
  "kameru": 10324, 
  "prozatímního": 10325, 
  "obvin@@": 10326, 
  "sestro": 10327, 
  "nedostatečné": 10328, 
  "hrdin@@": 10329, 
  "osvět@@": 10330, 
  "Keywords": 10331, 
  "králi": 10332, 
  "souhlasila": 10333, 
  "AK@@": 10334, 
  "lhala": 10335, 
  "chudoby": 10336, 
  "poledne": 10337, 
  "dál@@": 10338, 
  "levou": 10339, 
  "uklidněte": 10340, 
  "vyví@@": 10341, 
  "sezení": 10342, 
  "cové": 10343, 
  "nesprávné": 10344, 
  "směřující": 10345, 
  "planeta": 10346, 
  "morální": 10347, 
  "výjimku": 10348, 
  "ACE": 10349, 
  "objevily": 10350, 
  "balík": 10351, 
  "mimořádné": 10352, 
  "balíčku": 10353, 
  "srdcem": 10354, 
  "hřiště": 10355, 
  "řská": 10356, 
  "CO2": 10357, 
  "desetiletí": 10358, 
  "nejdu": 10359, 
  "7,@@": 10360, 
  "údaji": 10361, 
  "Váš": 10362, 
  "pátrání": 10363, 
  "Nev@@": 10364, 
  "vyvin@@": 10365, 
  "ALE": 10366, 
  "ri": 10367, 
  "předložily": 10368, 
  "dlu@@": 10369, 
  "vykonává": 10370, 
  "Rumunsko": 10371, 
  "odeslání": 10372, 
  "zkoumání": 10373, 
  "jších": 10374, 
  "limit": 10375, 
  "software": 10376, 
  "stavby": 10377, 
  "sili": 10378, 
  "lice": 10379, 
  "doprav@@": 10380, 
  "vyhodnocení": 10381, 
  "HU": 10382, 
  "zloděj": 10383, 
  "personálu": 10384, 
  "podobu": 10385, 
  "šíš": 10386, 
  "prodává": 10387, 
  "statistické": 10388, 
  "Ev@@": 10389, 
  "dozvědět": 10390, 
  "lených": 10391, 
  "vtipné": 10392, 
  "erovi": 10393, 
  "kdekoliv": 10394, 
  "izol@@": 10395, 
  "kvalifikaci": 10396, 
  "proje@@": 10397, 
  "dách": 10398, 
  "hleděl": 10399, 
  "Office": 10400, 
  "členskému": 10401, 
  "dopadne": 10402, 
  "oucí": 10403, 
  "nezávislé": 10404, 
  "časový": 10405, 
  "léčivý": 10406, 
  "vyšlo": 10407, 
  "takovéto": 10408, 
  "řel@@": 10409, 
  "sledují": 10410, 
  "ero": 10411, 
  "pozorování": 10412, 
  "uplatňují": 10413, 
  "fotbal": 10414, 
  "šeně": 10415, 
  "tvrdila": 10416, 
  "faktorů": 10417, 
  "Stu@@": 10418, 
  "usa@@": 10419, 
  "dění": 10420, 
  "nádhera": 10421, 
  "užívá": 10422, 
  "skladu": 10423, 
  "princezna": 10424, 
  "Kam@@": 10425, 
  "potě@@": 10426, 
  "řeč@@": 10427, 
  "áno": 10428, 
  "NÁ@@": 10429, 
  "odvětil": 10430, 
  "IL@@": 10431, 
  "oddíle": 10432, 
  "ther@@": 10433, 
  "konkur@@": 10434, 
  "vytvá@@": 10435, 
  "koliv": 10436, 
  "slušný": 10437, 
  "přesvědčil": 10438, 
  "chyb@@": 10439, 
  "nějakých": 10440, 
  "příjemců": 10441, 
  "ang": 10442, 
  "ped@@": 10443, 
  "áku": 10444, 
  "Zpráva": 10445, 
  "zaplatím": 10446, 
  "hodnotící": 10447, 
  "řetězec": 10448, 
  "zale@@": 10449, 
  "mapy": 10450, 
  "důkladně": 10451, 
  "trestu": 10452, 
  "projev": 10453, 
  "Jar@@": 10454, 
  "্": 10455, 
  "obra@@": 10456, 
  "ztrát": 10457, 
  "analýze": 10458, 
  "kmen": 10459, 
  "venkov@@": 10460, 
  "životním": 10461, 
  "nejnovější": 10462, 
  "cestovat": 10463, 
  "úchy@@": 10464, 
  "vstoupila": 10465, 
  "výsad@@": 10466, 
  "109": 10467, 
  "rací": 10468, 
  "inspi@@": 10469, 
  "Lam@@": 10470, 
  "schválen": 10471, 
  "znamen@@": 10472, 
  "získávání": 10473, 
  "manželku": 10474, 
  "linky": 10475, 
  "zel": 10476, 
  "krása": 10477, 
  "smutné": 10478, 
  "ovatel": 10479, 
  "seznámit": 10480, 
  "post": 10481, 
  "anka": 10482, 
  "stěž@@": 10483, 
  "г@@": 10484, 
  "studentů": 10485, 
  "surovin": 10486, 
  "odi@@": 10487, 
  "maj@@": 10488, 
  "nízkou": 10489, 
  "nepamatuju": 10490, 
  "dobrodružství": 10491, 
  "příslušnost": 10492, 
  "závazné": 10493, 
  "věřila": 10494, 
  "÷": 10495, 
  "una": 10496, 
  "Maria": 10497, 
  "konstatuje": 10498, 
  "ledaže": 10499, 
  "Carol": 10500, 
  "chodbě": 10501, 
  "přínosy": 10502, 
  "volbu": 10503, 
  "mali": 10504, 
  "službami": 10505, 
  "útvary": 10506, 
  "nehody": 10507, 
  "určený": 10508, 
  "správního": 10509, 
  "věř@@": 10510, 
  "evropským": 10511, 
  "udržitelný": 10512, 
  "povídám": 10513, 
  "podí@@": 10514, 
  "upřednost@@": 10515, 
  "vědom": 10516, 
  "snů": 10517, 
  "kapacitu": 10518, 
  "malém": 10519, 
  "demokracii": 10520, 
  "chodili": 10521, 
  "tovali": 10522, 
  "éra": 10523, 
  "žádal": 10524, 
  "anci": 10525, 
  "objektivní": 10526, 
  "q": 10527, 
  "policajt": 10528, 
  "modrá": 10529, 
  "rodin@@": 10530, 
  "popisu": 10531, 
  "lesk@@": 10532, 
  "nemluvil": 10533, 
  "najal": 10534, 
  "opakuji": 10535, 
  "hodné": 10536, 
  "stíny": 10537, 
  "humanitární": 10538, 
  "dolar": 10539, 
  "zmocněnci": 10540, 
  "dlužím": 10541, 
  "lovu": 10542, 
  "procesní": 10543, 
  "potíží": 10544, 
  "meče": 10545, 
  "dobrovol@@": 10546, 
  "kci": 10547, 
  "nuže": 10548, 
  "nevěděli": 10549, 
  "zvýšil": 10550, 
  "složka": 10551, 
  "spotřebitelé": 10552, 
  "poklá@@": 10553, 
  "povězte": 10554, 
  "ženám": 10555, 
  "nekou@@": 10556, 
  "ucha": 10557, 
  "studovat": 10558, 
  "pěšky": 10559, 
  "praktické": 10560, 
  "snažíte": 10561, 
  "ole@@": 10562, 
  "naruš@@": 10563, 
  "dovolil": 10564, 
  "On": 10565, 
  "2.2": 10566, 
  "nará@@": 10567, 
  "konkurenční": 10568, 
  "klon@@": 10569, 
  "písničku": 10570, 
  "kina": 10571, 
  "neplatí": 10572, 
  "injekci": 10573, 
  "telefony": 10574, 
  "mladík": 10575, 
  "dotknout": 10576, 
  "zjistím": 10577, 
  "střed@@": 10578, 
  "nemovitostí": 10579, 
  "ztrá@@": 10580, 
  "Výsosti": 10581, 
  "nezná": 10582, 
  "krásnou": 10583, 
  "okruhu": 10584, 
  "omezený": 10585, 
  "míst@@": 10586, 
  "koneckonců": 10587, 
  "nský": 10588, 
  "politického": 10589, 
  "mínění": 10590, 
  "věříme": 10591, 
  "používaných": 10592, 
  "netuším": 10593, 
  "ŕ": 10594, 
  "stě": 10595, 
  "svol@@": 10596, 
  "ace@@": 10597, 
  "prováděny": 10598, 
  "Nov@@": 10599, 
  "atu@@": 10600, 
  "region": 10601, 
  "umíte": 10602, 
  "panelu": 10603, 
  "zbytečné": 10604, 
  "otře@@": 10605, 
  "zastřelit": 10606, 
  "dohodli": 10607, 
  "došla": 10608, 
  "hraní": 10609, 
  "nutnosti": 10610, 
  "bohatý": 10611, 
  "červen@@": 10612, 
  "OB@@": 10613, 
  "nuta": 10614, 
  "zbylo": 10615, 
  "zují": 10616, 
  "výskyt": 10617, 
  "hovořit": 10618, 
  "odstavcích": 10619, 
  "kovala": 10620, 
  "běžná": 10621, 
  "stanovila": 10622, 
  "automatické": 10623, 
  "Don": 10624, 
  "jednal": 10625, 
  "převzít": 10626, 
  "kter@@": 10627, 
  "adresy": 10628, 
  "vydáv@@": 10629, 
  "udělalo": 10630, 
  "ěním": 10631, 
  "šťast@@": 10632, 
  "mobility": 10633, 
  "násled@@": 10634, 
  "svi@@": 10635, 
  "počkáme": 10636, 
  "palivo": 10637, 
  "kurzu": 10638, 
  "přesunout": 10639, 
  "IAS": 10640, 
  "vložit": 10641, 
  "rované": 10642, 
  "pomohli": 10643, 
  "5.1": 10644, 
  "hrozná": 10645, 
  "karta": 10646, 
  "Chloe": 10647, 
  "teplotě": 10648, 
  "zvolit": 10649, 
  "ponese": 10650, 
  "Sed@@": 10651, 
  "az": 10652, 
  "jazyků": 10653, 
  "vadí": 10654, 
  "testování": 10655, 
  "nezmění": 10656, 
  "teploty": 10657, 
  "interní": 10658, 
  "obrazy": 10659, 
  "nemusela": 10660, 
  "ráme": 10661, 
  "spolufinancování": 10662, 
  "chlapů": 10663, 
  "pořádný": 10664, 
  "prdeli": 10665, 
  "nastal": 10666, 
  "By@@": 10667, 
  "obdržel": 10668, 
  "kapacita": 10669, 
  "jíž": 10670, 
  "zabíjení": 10671, 
  "Účetního": 10672, 
  "п@@": 10673, 
  "americká": 10674, 
  "slabost": 10675, 
  "zvýšila": 10676, 
  "chemických": 10677, 
  "spotřebu": 10678, 
  "Cro@@": 10679, 
  "vedli": 10680, 
  "aktualiz@@": 10681, 
  "zpravidla": 10682, 
  "rozmanitosti": 10683, 
  "West@@": 10684, 
  "zisky": 10685, 
  "reálné": 10686, 
  "lka": 10687, 
  "stvo@@": 10688, 
  "Em@@": 10689, 
  "zaměstnanec": 10690, 
  "využil": 10691, 
  "odchod": 10692, 
  "prozkou@@": 10693, 
  "šo@@": 10694, 
  "majore": 10695, 
  "přiz@@": 10696, 
  "řící": 10697, 
  "věže": 10698, 
  "klidný": 10699, 
  "poradit": 10700, 
  "Cur@@": 10701, 
  "ovan@@": 10702, 
  "vydá": 10703, 
  "regist@@": 10704, 
  "zek": 10705, 
  "eko@@": 10706, 
  "Spojeném": 10707, 
  "prohle@@": 10708, 
  "vylé@@": 10709, 
  "vyměnit": 10710, 
  "úspěšné": 10711, 
  "výjimka": 10712, 
  "utí": 10713, 
  "důležitým": 10714, 
  "důvěř@@": 10715, 
  "kilo": 10716, 
  "příkazu": 10717, 
  "slušně": 10718, 
  "tunelu": 10719, 
  "P6": 10720, 
  "ő@@": 10721, 
  "dodáv@@": 10722, 
  "zabití": 10723, 
  "rezervy": 10724, 
  "cestování": 10725, 
  "zúčastněnými": 10726, 
  "váz@@": 10727, 
  "udělování": 10728, 
  "přímých": 10729, 
  "Zel@@": 10730, 
  "isi": 10731, 
[...]
