{
  "eos": 0, 
  "UNK": 1, 
  ".": 2, 
  ",": 3, 
  "the": 4, 
  "to": 5, 
  "of": 6, 
  "I": 7, 
  "you": 8, 
  "and": 9, 
  "a": 10, 
  "in": 11, 
  "?": 12, 
  "it": 13, 
  "that": 14, 
  "&apos;s": 15, 
  "&quot;": 16, 
  "is": 17, 
  "for": 18, 
  "...": 19, 
  "&apos;t": 20, 
  "on": 21, 
  "be": 22, 
  "this": 23, 
  "@-@": 24, 
  "he": 25, 
  "we": 26, 
  "with": 27, 
  "!": 28, 
  "was": 29, 
  ")": 30, 
  "(": 31, 
  "not": 32, 
  "have": 33, 
  "me": 34, 
  "what": 35, 
  "are": 36, 
  "as": 37, 
  "my": 38, 
  "your": 39, 
  "but": 40, 
  "at": 41, 
  "by": 42, 
  "all": 43, 
  "-": 44, 
  "do": 45, 
  "can": 46, 
  "they": 47, 
  "or": 48, 
  "no": 49, 
  "&apos;m": 50, 
  "&apos;re": 51, 
  "from": 52, 
  "there": 53, 
  "so": 54, 
  "if": 55, 
  "know": 56, 
  ":": 57, 
  "just": 58, 
  "out": 59, 
  "don": 60, 
  "/": 61, 
  "she": 62, 
  "his": 63, 
  "an": 64, 
  "up": 65, 
  "one": 66, 
  "like": 67, 
  "her": 68, 
  "get": 69, 
  "him": 70, 
  "here": 71, 
  "had": 72, 
  "about": 73, 
  "will": 74, 
  "now": 75, 
  "&apos;ll": 76, 
  "right": 77, 
  "which": 78, 
  "go": 79, 
  "&apos;": 80, 
  "been": 81, 
  "were": 82, 
  "would": 83, 
  "well": 84, 
  "when": 85, 
  "got": 86, 
  "has": 87, 
  "how": 88, 
  "time": 89, 
  "&apos;ve": 90, 
  "who": 91, 
  "see": 92, 
  "them": 93, 
  "want": 94, 
  "think": 95, 
  "did": 96, 
  "could": 97, 
  "more": 98, 
  "said": 99, 
  "back": 100, 
  "should": 101, 
  "come": 102, 
  "their": 103, 
  "then": 104, 
  "shall": 105, 
  "Commission": 106, 
  "where": 107, 
  "1": 108, 
  "some": 109, 
  "us": 110, 
  "into": 111, 
  "other": 112, 
  "take": 113, 
  "good": 114, 
  "let": 115, 
  "oh": 116, 
  "any": 117, 
  "only": 118, 
  "our": 119, 
  "down": 120, 
  "man": 121, 
  "going": 122, 
  "its": 123, 
  "why": 124, 
  "gonna": 125, 
  "need": 126, 
  "way": 127, 
  "yeah": 128, 
  "&apos;d": 129, 
  "over": 130, 
  "European": 131, 
  "look": 132, 
  ";": 133, 
  "Article": 134, 
  "than": 135, 
  "make": 136, 
  "these": 137, 
  "two": 138, 
  "must": 139, 
  "tell": 140, 
  "those": 141, 
  "say": 142, 
  "may": 143, 
  "first": 144, 
  "something": 145, 
  "because": 146, 
  "didn": 147, 
  "people": 148, 
  "very": 149, 
  "too": 150, 
  "okay": 151, 
  "2": 152, 
  "off": 153, 
  "Member": 154, 
  "little": 155, 
  "even": 156, 
  "really": 157, 
  "before": 158, 
  "never": 159, 
  "such": 160, 
  "%": 161, 
  "after": 162, 
  "also": 163, 
  "under": 164, 
  "new": 165, 
  "made": 166, 
  "still": 167, 
  "States": 168, 
  "give": 169, 
  "work": 170, 
  "much": 171, 
  "mean": 172, 
  "am": 173, 
  "yes": 174, 
  "hey": 175, 
  "thing": 176, 
  "use": 177, 
  "through": 178, 
  "Regulation": 179, 
  "years": 180, 
  "does": 181, 
  "day": 182, 
  "again": 183, 
  "The": 184, 
  "3": 185, 
  "find": 186, 
  "last": 187, 
  "EU": 188, 
  "long": 189, 
  "No": 190, 
  "life": 191, 
  "put": 192, 
  "thought": 193, 
  "case": 194, 
  "between": 195, 
  "help": 196, 
  "information": 197, 
  "please": 198, 
  "place": 199, 
  "sure": 200, 
  "around": 201, 
  "away": 202, 
  "same": 203, 
  "being": 204, 
  "Union": 205, 
  "EC": 206, 
  "used": 207, 
  "love": 208, 
  "call": 209, 
  "anything": 210, 
  "doing": 211, 
  "maybe": 212, 
  "s": 213, 
  "C": 214, 
  "better": 215, 
  "three": 216, 
  "own": 217, 
  "uh": 218, 
  "nothing": 219, 
  "set": 220, 
  "name": 221, 
  "sorry": 222, 
  "told": 223, 
  "another": 224, 
  "old": 225, 
  "things": 226, 
  "Council": 227, 
  "without": 228, 
  "might": 229, 
  "night": 230, 
  "keep": 231, 
  "State": 232, 
  "each": 233, 
  "talk": 234, 
  "ever": 235, 
  "part": 236, 
  "most": 237, 
  "always": 238, 
  "4": 239, 
  "great": 240, 
  "order": 241, 
  "home": 242, 
  "&#91;": 243, 
  "&#93;": 244, 
  "every": 245, 
  "year": 246, 
  "found": 247, 
  "Mr.": 248, 
  "within": 249, 
  "world": 250, 
  "left": 251, 
  "market": 252, 
  "both": 253, 
  "number": 254, 
  "5": 255, 
  "guy": 256, 
  "won": 257, 
  "stop": 258, 
  "came": 259, 
  "Directive": 260, 
  "everything": 261, 
  "God": 262, 
  "Community": 263, 
  "while": 264, 
  "--": 265, 
  "done": 266, 
  "since": 267, 
  "measures": 268, 
  "law": 269, 
  "many": 270, 
  "point": 271, 
  "10": 272, 
  "&apos;@@": 273, 
  "kind": 274, 
  "national": 275, 
  "against": 276, 
  "believe": 277, 
  "already": 278, 
  "head": 279, 
  "doesn": 280, 
  "leave": 281, 
  "&#124;": 282, 
  "enough": 283, 
  "guys": 284, 
  "end": 285, 
  "feel": 286, 
  "big": 287, 
  "money": 288, 
  "wait": 289, 
  "decision": 290, 
  "following": 291, 
  "next": 292, 
  "lot": 293, 
  "un@@": 294, 
  "wanted": 295, 
  "someone": 296, 
  "once": 297, 
  "second": 298, 
  "system": 299, 
  "went": 300, 
  "hand": 301, 
  "room": 302, 
  "re@@": 303, 
  "men": 304, 
  "took": 305, 
  "course": 306, 
  "face": 307, 
  "Court": 308, 
  "article": 309, 
  "thank": 310, 
  "data": 311, 
  "coming": 312, 
  "house": 313, 
  "until": 314, 
  "together": 315, 
  "means": 316, 
  "looking": 317, 
  "saw": 318, 
  "best": 319, 
  "stay": 320, 
  "financial": 321, 
  "public": 322, 
  "show": 323, 
  "question": 324, 
  "paragraph": 325, 
  "bad": 326, 
  "real": 327, 
  "taken": 328, 
  "girl": 329, 
  "dead": 330, 
  "knew": 331, 
  "6": 332, 
  "isn": 333, 
  "called": 334, 
  "kill": 335, 
  "&apos;il": 336, 
  "days": 337, 
  "however": 338, 
  "mind": 339, 
  "today": 340, 
  "father": 341, 
  "trying": 342, 
  "whole": 343, 
  "aid": 344, 
  "open": 345, 
  "wasn": 346, 
  "therefore": 347, 
  "few": 348, 
  "ask": 349, 
  "son": 350, 
  "seen": 351, 
  "hear": 352, 
  "remember": 353, 
  "period": 354, 
  "getting": 355, 
  "least": 356, 
  "particular": 357, 
  "else": 358, 
  "car": 359, 
  "accordance": 360, 
  "far": 361, 
  "level": 362, 
  "yet": 363, 
  "able": 364, 
  "eyes": 365, 
  "fine": 366, 
  "subject": 367, 
  "actually": 368, 
  "try": 369, 
  "care": 370, 
  "report": 371, 
  "different": 372, 
  "nice": 373, 
  "necessary": 374, 
  "products": 375, 
  "having": 376, 
  "cannot": 377, 
  "high": 378, 
  "heard": 379, 
  "woman": 380, 
  "provided": 381, 
  "♪": 382, 
  "business": 383, 
  "sir": 384, 
  "application": 385, 
  "less": 386, 
  "rules": 387, 
  "during": 388, 
  "side": 389, 
  "countries": 390, 
  "fact": 391, 
  "referred": 392, 
  "wrong": 393, 
  "support": 394, 
  "p": 395, 
  "understand": 396, 
  "S@@": 397, 
  "asked": 398, 
  "job": 399, 
  "change": 400, 
  "start": 401, 
  "taking": 402, 
  "services": 403, 
  "possible": 404, 
  "important": 405, 
  "friend": 406, 
  "family": 407, 
  "authorities": 408, 
  "boy": 409, 
  "given": 410, 
  "body": 411, 
  "line": 412, 
  "listen": 413, 
  "move": 414, 
  "including": 415, 
  "person": 416, 
  "mother": 417, 
  "fucking": 418, 
  "talking": 419, 
  "7": 420, 
  "whether": 421, 
  "e": 422, 
  "happened": 423, 
  "hell": 424, 
  "water": 425, 
  "country": 426, 
  "door": 427, 
  "20": 428, 
  "light": 429, 
  "five": 430, 
  "12": 431, 
  "hard": 432, 
  "control": 433, 
  "concerned": 434, 
  "wouldn": 435, 
  "run": 436, 
  "matter": 437, 
  "working": 438, 
  "*": 439, 
  "8": 440, 
  "Annex": 441, 
  "date": 442, 
  "bring": 443, 
  "account": 444, 
  "conditions": 445, 
  "certain": 446, 
  "2006": 447, 
  "yourself": 448, 
  "looked": 449, 
  "basis": 450, 
  "third": 451, 
  "power": 452, 
  "making": 453, 
  "de": 454, 
  "meet": 455, 
  "shit": 456, 
  "_": 457, 
  "ago": 458, 
  "er": 459, 
  "i": 460, 
  "ensure": 461, 
  "four": 462, 
  "A": 463, 
  "economic": 464, 
  "hold": 465, 
  "o": 466, 
  "in@@": 467, 
  "live": 468, 
  "full": 469, 
  "legal": 470, 
  "action": 471, 
  "human": 472, 
  "A@@": 473, 
  "2009": 474, 
  "30": 475, 
  "L": 476, 
  "um": 477, 
  "based": 478, 
  "baby": 479, 
  "idea": 480, 
  "though": 481, 
  "non": 482, 
  "Parliament": 483, 
  "15": 484, 
  "pretty": 485, 
  "free": 486, 
  "gone": 487, 
  "above": 488, 
  "Mr": 489, 
  "2008": 490, 
  "morning": 491, 
  "provisions": 492, 
  "problem": 493, 
  "wanna": 494, 
  "2007": 495, 
  "later": 496, 
  "play": 497, 
  "procedure": 498, 
  "policy": 499, 
  "clear": 500, 
  "soon": 501, 
  "risk": 502, 
  "area": 503, 
  "ready": 504, 
  "half": 505, 
  "view": 506, 
  "close": 507, 
  "either": 508, 
  "couldn": 509, 
  "small": 510, 
  "es": 511, 
  "bit": 512, 
  "killed": 513, 
  "guess": 514, 
  "probably": 515, 
  "specific": 516, 
  "turn": 517, 
  "11": 518, 
  "respect": 519, 
  "hands": 520, 
  "gotta": 521, 
  "pay": 522, 
  "minutes": 523, 
  "general": 524, 
  "alone": 525, 
  "9": 526, 
  "fuck": 527, 
  "behind": 528, 
  "..": 529, 
  "l": 530, 
  "security": 531, 
  "company": 532, 
  "B": 533, 
  "costs": 534, 
  "everyone": 535, 
  "wife": 536, 
  "months": 537, 
  "myself": 538, 
  "says": 539, 
  "lost": 540, 
  "moment": 541, 
  "almost": 542, 
  "times": 543, 
  "blood": 544, 
  "himself": 545, 
  "die": 546, 
  "appropriate": 547, 
  "product": 548, 
  "anyone": 549, 
  "further": 550, 
  "available": 551, 
  "You": 552, 
  "service": 553, 
  "protection": 554, 
  "gave": 555, 
  "brought": 556, 
  "hope": 557, 
  "t": 558, 
  "young": 559, 
  "hours": 560, 
  "school": 561, 
  "friends": 562, 
  "T@@": 563, 
  "2004": 564, 
  "provide": 565, 
  "party": 566, 
  "development": 567, 
  "rights": 568, 
  "air": 569, 
  "2005": 570, 
  "present": 571, 
  "saying": 572, 
  "haven": 573, 
  "2010": 574, 
  "looks": 575, 
  "huh": 576, 
  "tonight": 577, 
  "check": 578, 
  "force": 579, 
  "Europe": 580, 
  "million": 581, 
  "needs": 582, 
  "list": 583, 
  "2011": 584, 
  "relevant": 585, 
  "amount": 586, 
  "Committee": 587, 
  "value": 588, 
  "children": 589, 
  "dad": 590, 
  "heart": 591, 
  "President": 592, 
  "-@@": 593, 
  "word": 594, 
  "#": 595, 
  "food": 596, 
  "common": 597, 
  "ing": 598, 
  "requirements": 599, 
  "reason": 600, 
  "Decision": 601, 
  "ate": 602, 
  "thinking": 603, 
  "death": 604, 
  "thanks": 605, 
  "inside": 606, 
  "true": 607, 
  "apply": 608, 
  "OK": 609, 
  "plan": 610, 
  "phone": 611, 
  "B@@": 612, 
  "access": 613, 
  "situation": 614, 
  "wants": 615, 
  "ed": 616, 
  "type": 617, 
  "en": 618, 
  "d": 619, 
  "In": 620, 
  "makes": 621, 
  "happy": 622, 
  "turned": 623, 
  "trade": 624, 
  "read": 625, 
  "form": 626, 
  ".&apos;": 627, 
  "13": 628, 
  "n": 629, 
  "watch": 630, 
  "applicant": 631, 
  "b": 632, 
  "fire": 633, 
  "women": 634, 
  "energy": 635, 
  "activities": 636, 
  "brother": 637, 
  "P@@": 638, 
  "cause": 639, 
  "OJ": 640, 
  "G@@": 641, 
  "rest": 642, 
  "whatever": 643, 
  "outside": 644, 
  "table": 645, 
  "tomorrow": 646, 
  "six": 647, 
  "It": 648, 
  "according": 649, 
  "C@@": 650, 
  "deal": 651, 
  "started": 652, 
  "interest": 653, 
  "group": 654, 
  "K@@": 655, 
  "ship": 656, 
  "EUR": 657, 
  "stuff": 658, 
  "regard": 659, 
  "main": 660, 
  "quite": 661, 
  "D": 662, 
  "state": 663, 
  "answer": 664, 
  "ers": 665, 
  "cut": 666, 
  "using": 667, 
  "future": 668, 
  "social": 669, 
  "$": 670, 
  "2013": 671, 
  "met": 672, 
  "implementation": 673, 
  "F@@": 674, 
  "hit": 675, 
  "position": 676, 
  "management": 677, 
  "v": 678, 
  "14": 679, 
  "treatment": 680, 
  "fight": 681, 
  "mom": 682, 
  "single": 683, 
  "special": 684, 
  "late": 685, 
  "front": 686, 
  "ain": 687, 
  "week": 688, 
  "per": 689, 
  "considered": 690, 
  "office": 691, 
  "production": 692, 
  "kid": 693, 
  "across": 694, 
  "2012": 695, 
  "field": 696, 
  "exactly": 697, 
  "along": 698, 
  "E@@": 699, 
  "chance": 700, 
  "upon": 701, 
  "de@@": 702, 
  "D@@": 703, 
  "s@@": 704, 
  "tried": 705, 
  "felt": 706, 
  "e@@": 707, 
  "sent": 708, 
  "established": 709, 
  "required": 710, 
  "effect": 711, 
  "y": 712, 
  "test": 713, 
  "known": 714, 
  "become": 715, 
  "kids": 716, 
  "adopted": 717, 
  "child": 718, 
  "mg": 719, 
  "longer": 720, 
  "knows": 721, 
  "General": 722, 
  "ten": 723, 
  "shot": 724, 
  "patients": 725, 
  "happen": 726, 
  "international": 727, 
  "issue": 728, 
  "voice": 729, 
  "wish": 730, 
  "key": 731, 
  "M@@": 732, 
  "bed": 733, 
  ".@@": 734, 
  "18": 735, 
  "Dr.": 736, 
  "assessment": 737, 
  "supposed": 738, 
  "easy": 739, 
  "somebody": 740, 
  "evidence": 741, 
  "price": 742, 
  "past": 743, 
  "laid": 744, 
  "25": 745, 
  "comes": 746, 
  "ass": 747, 
  "member": 748, 
  "Agreement": 749, 
  "perhaps": 750, 
  "concerning": 751, 
  "everybody": 752, 
  "doctor": 753, 
  "held": 754, 
  "proceedings": 755, 
  "en@@": 756, 
  "g": 757, 
  "g@@": 758, 
  "ah": 759, 
  "cases": 760, 
  "50": 761, 
  "December": 762, 
  "total": 763, 
  "tax": 764, 
  "16": 765, 
  "term": 766, 
  "black": 767, 
  "stand": 768, 
  "ation": 769, 
  "authority": 770, 
  "anyway": 771, 
  "police": 772, 
  "words": 773, 
  "red": 774, 
  "process": 775, 
  "land": 776, 
  "2003": 777, 
  "minute": 778, 
  "agreement": 779, 
  "game": 780, 
  "O@@": 781, 
  "m": 782, 
  "low": 783, 
  "send": 784, 
  "file": 785, 
  "town": 786, 
  "eat": 787, 
  "H@@": 788, 
  "damn": 789, 
  "sound": 790, 
  "reference": 791, 
  "court": 792, 
  "needed": 793, 
  "dis@@": 794, 
  "finally": 795, 
  "story": 796, 
  "age": 797, 
  "forward": 798, 
  "meeting": 799, 
  "17": 800, 
  "others": 801, 
  "war": 802, 
  "cooperation": 803, 
  "24": 804, 
  "mine": 805, 
  "cover": 806, 
  "request": 807, 
  "rather": 808, 
  "current": 809, 
  "ground": 810, 
  "speak": 811, 
  "beautiful": 812, 
  "parties": 813, 
  "break": 814, 
  "em": 815, 
  "sleep": 816, 
  "sit": 817, 
  "led": 818, 
  "programme": 819, 
  "hurt": 820, 
  "health": 821, 
  "waiting": 822, 
  "city": 823, 
  "carried": 824, 
  "crazy": 825, 
  "T": 826, 
  "R@@": 827, 
  "rate": 828, 
  "Journal": 829, 
  "sector": 830, 
  "gets": 831, 
  "goes": 832, 
  "competent": 833, 
  "seems": 834, 
  "walk": 835, 
  "final": 836, 
  "trust": 837, 
  "safety": 838, 
  "And": 839, 
  "hi": 840, 
  "save": 841, 
  "top": 842, 
  "related": 843, 
  "running": 844, 
  "proposal": 845, 
  "L@@": 846, 
  "hello": 847, 
  "couple": 848, 
  "drink": 849, 
  "serious": 850, 
  "hour": 851, 
  "shut": 852, 
  "questions": 853, 
  "purpose": 854, 
  "ated": 855, 
  "worry": 856, 
  "II": 857, 
  "private": 858, 
  "&amp;": 859, 
  "Republic": 860, 
  "Treaty": 861, 
  "systems": 862, 
  "due": 863, 
  "c": 864, 
  "white": 865, 
  "W@@": 866, 
  "safe": 867, 
  "c@@": 868, 
  "large": 869, 
  "afraid": 870, 
  "aren": 871, 
  "act": 872, 
  "Case": 873, 
  "Official": 874, 
  "sometimes": 875, 
  "result": 876, 
  "United": 877, 
  "truth": 878, 
  "legislation": 879, 
  "k": 880, 
  "al": 881, 
  "forget": 882, 
  "died": 883, 
  "I@@": 884, 
  "book": 885, 
  "t@@": 886, 
  "living": 887, 
  "00": 888, 
  "paid": 889, 
  "feet": 890, 
  "gun": 891, 
  "short": 892, 
  "terms": 893, 
  "goods": 894, 
  "return": 895, 
  "government": 896, 
  "N@@": 897, 
  "several": 898, 
  "areas": 899, 
  "d@@": 900, 
  "New": 901, 
  "nobody": 902, 
  "y@@": 903, 
  "principle": 904, 
  "31": 905, 
  "quality": 906, 
  "What": 907, 
  "framework": 908, 
  "local": 909, 
  "100": 910, 
  "V@@": 911, 
  "miss": 912, 
  "21": 913, 
  "hot": 914, 
  "increase": 915, 
  "decided": 916, 
  "address": 917, 
  "19": 918, 
  "applicable": 919, 
  "measure": 920, 
  "fun": 921, 
  "June": 922, 
  "budget": 923, 
  "sort": 924, 
  "seemed": 925, 
  "trouble": 926, 
  "team": 927, 
  "covered": 928, 
  "regulation": 929, 
  "example": 930, 
  "EN": 931, 
  "technical": 932, 
  "transport": 933, 
  "o@@": 934, 
  "telling": 935, 
  "sense": 936, 
  "research": 937, 
  "follow": 938, 
  "daughter": 939, 
  "i@@": 940, 
  "results": 941, 
  "&gt;": 942, 
  "hair": 943, 
  "weeks": 944, 
  "itself": 945, 
  "li@@": 946, 
  "nature": 947, 
  "thus": 948, 
  "road": 949, 
  "opinion": 950, 
  "competition": 951, 
  "husband": 952, 
  "girls": 953, 
  "building": 954, 
  "step": 955, 
  "cost": 956, 
  "lead": 957, 
  "unless": 958, 
  "dark": 959, 
  "relating": 960, 
  "Re@@": 961, 
  "except": 962, 
  "al@@": 963, 
  "er@@": 964, 
  "impact": 965, 
  "points": 966, 
  "22": 967, 
  "x": 968, 
  "ts": 969, 
  "mark": 970, 
  "drive": 971, 
  "include": 972, 
  "additional": 973, 
  "2002": 974, 
  "2001": 975, 
  "companies": 976, 
  "ar@@": 977, 
  "ahead": 978, 
  "alive": 979, 
  "members": 980, 
  "Jack": 981, 
  "23": 982, 
  "sign": 983, 
  "fall": 984, 
  "l@@": 985, 
  "This": 986, 
  "news": 987, 
  "E": 988, 
  "granted": 989, 
  "40": 990, 
  "figure": 991, 
  "share": 992, 
  "effective": 993, 
  "political": 994, 
  "boys": 995, 
  "personal": 996, 
  "operation": 997, 
  "project": 998, 
  "feeling": 999, 
  "procedures": 1000, 
  "ic": 1001, 
  "O": 1002, 
  "pick": 1003, 
  "re": 1004, 
  "stupid": 1005, 
  "married": 1006, 
  "below": 1007, 
  "continue": 1008, 
  "intended": 1009, 
  "effects": 1010, 
  "se@@": 1011, 
  "applied": 1012, 
  "takes": 1013, 
  "resources": 1014, 
  "problems": 1015, 
  "section": 1016, 
  "allow": 1017, 
  "lives": 1018, 
  "strong": 1019, 
  "dog": 1020, 
  "judgment": 1021, 
  "yours": 1022, 
  "individual": 1023, 
  "among": 1024, 
  "kept": 1025, 
  "provides": 1026, 
  "seem": 1027, 
  "excuse": 1028, 
  "anymore": 1029, 
  "January": 1030, 
  "space": 1031, 
  "ar": 1032, 
  "provision": 1033, 
  "persons": 1034, 
  "cold": 1035, 
  "welcome": 1036, 
  "submitted": 1037, 
  "cool": 1038, 
  "industry": 1039, 
  "an@@": 1040, 
  "0@@": 1041, 
  "July": 1042, 
  "reasons": 1043, 
  "buy": 1044, 
  "attention": 1045, 
  "training": 1046, 
  "lose": 1047, 
  "John": 1048, 
  "regards": 1049, 
  "hate": 1050, 
  "early": 1051, 
  "normal": 1052, 
  "responsible": 1053, 
  "investment": 1054, 
  "2014": 1055, 
  "fast": 1056, 
  "sister": 1057, 
  "a@@": 1058, 
  "moving": 1059, 
  "staff": 1060, 
  "box": 1061, 
  "involved": 1062, 
  "Mrs.": 1063, 
  "addition": 1064, 
  "ating": 1065, 
  "eye": 1066, 
  "mm": 1067, 
  "payment": 1068, 
  "leaving": 1069, 
  "May": 1070, 
  "mouth": 1071, 
  "whose": 1072, 
  "floor": 1073, 
  "‑": 1074, 
  "sex": 1075, 
  "works": 1076, 
  "credit": 1077, 
  "ti@@": 1078, 
  "although": 1079, 
  "purposes": 1080, 
  "major": 1081, 
  "THE": 1082, 
  "March": 1083, 
  "received": 1084, 
  "+": 1085, 
  "institutions": 1086, 
  "lady": 1087, 
  "none": 1088, 
  "bodies": 1089, 
  "ted": 1090, 
  "prices": 1091, 
  "0": 1092, 
  "over@@": 1093, 
  "circumstances": 1094, 
  "u@@": 1095, 
  "fully": 1096, 
  "dear": 1097, 
  "instead": 1098, 
  "context": 1099, 
  "contract": 1100, 
  "administrative": 1101, 
  "class": 1102, 
  "especially": 1103, 
  "ran": 1104, 
  "dinner": 1105, 
  "documents": 1106, 
  "28": 1107, 
  "cross": 1108, 
  "27": 1109, 
  "investigation": 1110, 
  "k@@": 1111, 
  "worked": 1112, 
  "moved": 1113, 
  "month": 1114, 
  "giving": 1115, 
  "review": 1116, 
  "internal": 1117, 
  "2000": 1118, 
  "gas": 1119, 
  "pain": 1120, 
  "be@@": 1121, 
  "duty": 1122, 
  "ra@@": 1123, 
  "ch@@": 1124, 
  "pursuant": 1125, 
  "message": 1126, 
  "towards": 1127, 
  "ine": 1128, 
  "n@@": 1129, 
  "often": 1130, 
  "changes": 1131, 
  "existing": 1132, 
  "capital": 1133, 
  "began": 1134, 
  "playing": 1135, 
  "letter": 1136, 
  "actions": 1137, 
  "entire": 1138, 
  "choice": 1139, 
  "Sir": 1140, 
  "OF": 1141, 
  "contact": 1142, 
  "April": 1143, 
  "hotel": 1144, 
  "added": 1145, 
  "near": 1146, 
  "lie": 1147, 
  "Lord": 1148, 
  "co": 1149, 
  "contested": 1150, 
  "anybody": 1151, 
  "honey": 1152, 
  "EEC": 1153, 
  "Articles": 1154, 
  "carry": 1155, 
  "October": 1156, 
  "document": 1157, 
  "study": 1158, 
  "di@@": 1159, 
  "la": 1160, 
  "beyond": 1161, 
  "se": 1162, 
  "king": 1163, 
  "event": 1164, 
  "parents": 1165, 
  "experience": 1166, 
  "funny": 1167, 
  "text": 1168, 
  "growth": 1169, 
  "approach": 1170, 
  "touch": 1171, 
  "significant": 1172, 
  "poor": 1173, 
  "French": 1174, 
  "board": 1175, 
  "sounds": 1176, 
  "That": 1177, 
  "meaning": 1178, 
  "objectives": 1179, 
  "protect": 1180, 
  "natural": 1181, 
  "sick": 1182, 
  "le": 1183, 
  "changed": 1184, 
  "create": 1185, 
  "la@@": 1186, 
  "potential": 1187, 
  "equipment": 1188, 
  "clearly": 1189, 
  "higher": 1190, 
  "direct": 1191, 
  "clean": 1192, 
  "perfect": 1193, 
  "decisions": 1194, 
  "deep": 1195, 
  "themselves": 1196, 
  "role": 1197, 
  "f@@": 1198, 
  "th": 1199, 
  "26": 1200, 
  "=": 1201, 
  "objective": 1202, 
  "expected": 1203, 
  "con@@": 1204, 
  "29": 1205, 
  "bitch": 1206, 
  "ly": 1207, 
  "projects": 1208, 
  "catch": 1209, 
  "ting": 1210, 
  "stopped": 1211, 
  "basic": 1212, 
  "offer": 1213, 
  "th@@": 1214, 
  "straight": 1215, 
  "nor": 1216, 
  "active": 1217, 
  "holding": 1218, 
  "supply": 1219, 
  "win": 1220, 
  "code": 1221, 
  "rule": 1222, 
  "window": 1223, 
  "criteria": 1224, 
  "proposed": 1225, 
  "shoot": 1226, 
  "000": 1227, 
  "piece": 1228, 
  "scope": 1229, 
  "entry": 1230, 
  "caught": 1231, 
  "consider": 1232, 
  "November": 1233, 
  "activity": 1234, 
  "capacity": 1235, 
  "wall": 1236, 
  "worth": 1237, 
  "dose": 1238, 
  "F": 1239, 
  "scheme": 1240, 
  "ta@@": 1241, 
  "programmes": 1242, 
  "w@@": 1243, 
  "asking": 1244, 
  "size": 1245, 
  "ones": 1246, 
  "le@@": 1247, 
  "ex": 1248, 
  "agreed": 1249, 
  "directly": 1250, 
  "indeed": 1251, 
  "bank": 1252, 
  "Germany": 1253, 
  "U@@": 1254, 
  "fish": 1255, 
  "charge": 1256, 
  "co@@": 1257, 
  "shouldn": 1258, 
  "September": 1259, 
  "z": 1260, 
  "limited": 1261, 
  "similar": 1262, 
  "particularly": 1263, 
  "animal": 1264, 
  "assistance": 1265, 
  "history": 1266, 
  "somewhere": 1267, 
  "maximum": 1268, 
  "promise": 1269, 
  "US": 1270, 
  "seeing": 1271, 
  "waste": 1272, 
  "pull": 1273, 
  "directive": 1274, 
  "drop": 1275, 
  "failed": 1276, 
  "meant": 1277, 
  "write": 1278, 
  "happens": 1279, 
  "reached": 1280, 
  "followed": 1281, 
  "computer": 1282, 
  "difficult": 1283, 
  "amended": 1284, 
  "sh@@": 1285, 
  "seven": 1286, 
  "standing": 1287, 
  "ya": 1288, 
  "standards": 1289, 
  "crisis": 1290, 
  "fair": 1291, 
  "defined": 1292, 
  "self": 1293, 
  "issues": 1294, 
  "follows": 1295, 
  "sitting": 1296, 
  "specified": 1297, 
  "J@@": 1298, 
  "regional": 1299, 
  "&apos;i": 1300, 
  "ro@@": 1301, 
  "ates": 1302, 
  "Oh": 1303, 
  "animals": 1304, 
  "secret": 1305, 
  "lay": 1306, 
  "stood": 1307, 
  "learn": 1308, 
  "m@@": 1309, 
  "levels": 1310, 
  "citizens": 1311, 
  "ice": 1312, 
  "written": 1313, 
  "captain": 1314, 
  "p@@": 1315, 
  "immediately": 1316, 
  "P": 1317, 
  "annual": 1318, 
  "expenditure": 1319, 
  "pass": 1320, 
  "blue": 1321, 
  "enter": 1322, 
  "practice": 1323, 
  "der": 1324, 
  "analysis": 1325, 
  "increased": 1326, 
  "completely": 1327, 
  "complete": 1328, 
  "vote": 1329, 
  "Y@@": 1330, 
  "fell": 1331, 
  "hundred": 1332, 
  "allowed": 1333, 
  "R": 1334, 
  "calling": 1335, 
  "eight": 1336, 
  "fishing": 1337, 
  "fear": 1338, 
  "We": 1339, 
  "picture": 1340, 
  "notice": 1341, 
  "b@@": 1342, 
  "interested": 1343, 
  "f": 1344, 
  "on@@": 1345, 
  "likely": 1346, 
  "appeal": 1347, 
  "bar": 1348, 
  "explain": 1349, 
  "quickly": 1350, 
  "glad": 1351, 
  "American": 1352, 
  "closed": 1353, 
  "music": 1354, 
  "murder": 1355, 
  "paper": 1356, 
  "employment": 1357, 
  "gentlemen": 1358, 
  "hmm": 1359, 
  "progress": 1360, 
  "till": 1361, 
  "range": 1362, 
  "arm": 1363, 
  "pressure": 1364, 
  "post": 1365, 
  "lower": 1366, 
  "error": 1367, 
  "worse": 1368, 
  "ma": 1369, 
  "or@@": 1370, 
  "ways": 1371, 
  "attack": 1372, 
  "obligations": 1373, 
  "included": 1374, 
  "note": 1375, 
  "7@@": 1376, 
  "calls": 1377, 
  "Kingdom": 1378, 
  "environment": 1379, 
  "to@@": 1380, 
  "watching": 1381, 
  "weight": 1382, 
  "ladies": 1383, 
  "global": 1384, 
  "exchange": 1385, 
  "dream": 1386, 
  "Z@@": 1387, 
  "minimum": 1388, 
  "various": 1389, 
  "weren": 1390, 
  "reach": 1391, 
  "arms": 1392, 
  "Answer": 1393, 
  "me@@": 1394, 
  "vehicle": 1395, 
  "solution": 1396, 
  "statement": 1397, 
  "markets": 1398, 
  "9@@": 1399, 
  "hang": 1400, 
  "simple": 1401, 
  "funds": 1402, 
  "hospital": 1403, 
  "street": 1404, 
  "certainly": 1405, 
  "environmental": 1406, 
  "round": 1407, 
  "benefit": 1408, 
  "passed": 1409, 
  "France": 1410, 
  "page": 1411, 
  "ring": 1412, 
  "suddenly": 1413, 
  "border": 1414, 
  "network": 1415, 
  "ch": 1416, 
  "monitoring": 1417, 
  "missing": 1418, 
  "content": 1419, 
  "reports": 1420, 
  "starting": 1421, 
  "material": 1422, 
  "policies": 1423, 
  "regarding": 1424, 
  "undertakings": 1425, 
  "ha": 1426, 
  "Yeah": 1427, 
  "record": 1428, 
  "bet": 1429, 
  "connection": 1430, 
  "standard": 1431, 
  "at@@": 1432, 
  "S": 1433, 
  "opened": 1434, 
  "is@@": 1435, 
  "sweet": 1436, 
  "officer": 1437, 
  "60": 1438, 
  "De@@": 1439, 
  "ations": 1440, 
  "ous": 1441, 
  "sea": 1442, 
  "workers": 1443, 
  "official": 1444, 
  "America": 1445, 
  "economy": 1446, 
  "6@@": 1447, 
  "na": 1448, 
  "h": 1449, 
  "toward": 1450, 
  "limit": 1451, 
  "green": 1452, 
  "master": 1453, 
  "st": 1454, 
  "coffee": 1455, 
  "stage": 1456, 
  "ant": 1457, 
  "agree": 1458, 
  "language": 1459, 
  "February": 1460, 
  "performance": 1461, 
  "relationship": 1462, 
  "miles": 1463, 
  "00@@": 1464, 
  "ter": 1465, 
  "mentioned": 1466, 
  "First": 1467, 
  "les": 1468, 
  "als": 1469, 
  "skin": 1470, 
  "expect": 1471, 
  "target": 1472, 
  "knowledge": 1473, 
  "agreements": 1474, 
  "sky": 1475, 
  "....": 1476, 
  "1999": 1477, 
  "scared": 1478, 
  "greater": 1479, 
  "In@@": 1480, 
  "Jesus": 1481, 
  "implementing": 1482, 
  "walked": 1483, 
  "producers": 1484, 
  "remain": 1485, 
  "instruments": 1486, 
  "middle": 1487, 
  "M": 1488, 
  "quick": 1489, 
  "strategy": 1490, 
  "90": 1491, 
  "parts": 1492, 
  "undertaking": 1493, 
  "mo@@": 1494, 
  "simply": 1495, 
  "5@@": 1496, 
  "station": 1497, 
  "fixed": 1498, 
  "equal": 1499, 
  "imports": 1500, 
  "wide": 1501, 
  "writing": 1502, 
  "setting": 1503, 
  "born": 1504, 
  "8@@": 1505, 
  "operations": 1506, 
  "raised": 1507, 
  "property": 1508, 
  "neither": 1509, 
  "infringement": 1510, 
  "bag": 1511, 
  "difference": 1512, 
  "essential": 1513, 
  "throw": 1514, 
  "broke": 1515, 
  "principles": 1516, 
  "dangerous": 1517, 
  "loved": 1518, 
  "transfer": 1519, 
  "ball": 1520, 
  "sat": 1521, 
  "Captain": 1522, 
  "German": 1523, 
  "society": 1524, 
  "glass": 1525, 
  "bye": 1526, 
  "it@@": 1527, 
  "territory": 1528, 
  "h@@": 1529, 
  "plans": 1530, 
  "Miss": 1531, 
  "otherwise": 1532, 
  "export": 1533, 
  "paragraphs": 1534, 
  "speed": 1535, 
  "overall": 1536, 
  "32": 1537, 
  "decide": 1538, 
  "sufficient": 1539, 
  "suppose": 1540, 
  "Agency": 1541, 
  "beat": 1542, 
  "card": 1543, 
  "im@@": 1544, 
  "quiet": 1545, 
  "average": 1546, 
  "freedom": 1547, 
  "cell": 1548, 
  "broken": 1549, 
  "brain": 1550, 
  "ac@@": 1551, 
  "compliance": 1552, 
  "authorisation": 1553, 
  "dude": 1554, 
  "ri@@": 1555, 
  "boat": 1556, 
  "strange": 1557, 
  "acting": 1558, 
  "ad@@": 1559, 
  "relation": 1560, 
  "ans": 1561, 
  "groups": 1562, 
  "interests": 1563, 
  "approval": 1564, 
  "matters": 1565, 
  "lo@@": 1566, 
  "contains": 1567, 
  "bear": 1568, 
  "loss": 1569, 
  "beginning": 1570, 
  "education": 1571, 
  "ride": 1572, 
  "became": 1573, 
  "crime": 1574, 
  "lucky": 1575, 
  "train": 1576, 
  "wow": 1577, 
  "responsibility": 1578, 
  "insurance": 1579, 
  "orders": 1580, 
  "issued": 1581, 
  "anti": 1582, 
  "G": 1583, 
  "China": 1584, 
  "oil": 1585, 
  "Harry": 1586, 
  "da": 1587, 
  "opportunity": 1588, 
  "claim": 1589, 
  "boss": 1590, 
  "el@@": 1591, 
  "response": 1592, 
  "require": 1593, 
  "studies": 1594, 
  "English": 1595, 
  "sub@@": 1596, 
  "source": 1597, 
  "balance": 1598, 
  "choose": 1599, 
  "finished": 1600, 
  "totally": 1601, 
  "seconds": 1602, 
  "spent": 1603, 
  "obligation": 1604, 
  "establish": 1605, 
  "r@@": 1606, 
  "financing": 1607, 
  "states": 1608, 
  "wind": 1609, 
  "lying": 1610, 
  "King": 1611, 
  "earlier": 1612, 
  "luck": 1613, 
  "Al@@": 1614, 
  "determined": 1615, 
  "double": 1616, 
  "machine": 1617, 
  "handle": 1618, 
  "doubt": 1619, 
  "Sam": 1620, 
  "medical": 1621, 
  "et": 1622, 
  "pre@@": 1623, 
  "York": 1624, 
  "bu@@": 1625, 
  "Group": 1626, 
  "herself": 1627, 
  "base": 1628, 
  "customs": 1629, 
  "entered": 1630, 
  "--@@": 1631, 
  "III": 1632, 
  "sell": 1633, 
  "cash": 1634, 
  "site": 1635, 
  "dance": 1636, 
  "military": 1637, 
  "te": 1638, 
  "wonder": 1639, 
  "ling": 1640, 
  "behalf": 1641, 
  "method": 1642, 
  "peace": 1643, 
  "ed@@": 1644, 
  "wine": 1645, 
  "Board": 1646, 
  "35": 1647, 
  "z@@": 1648, 
  "45": 1649, 
  "3@@": 1650, 
  "previous": 1651, 
  "assets": 1652, 
  "imagine": 1653, 
  "stone": 1654, 
  "administration": 1655, 
  "ent": 1656, 
  "Government": 1657, 
  "sales": 1658, 
  "foot": 1659, 
  "condition": 1660, 
  "Earth": 1661, 
  "Mar@@": 1662, 
  "Le@@": 1663, 
  "origin": 1664, 
  "pulled": 1665, 
  "notified": 1666, 
  "2@@": 1667, 
  "spoke": 1668, 
  "prevent": 1669, 
  "grant": 1670, 
  "usually": 1671, 
  "status": 1672, 
  "listed": 1673, 
  "join": 1674, 
  "He": 1675, 
  "search": 1676, 
  "commercial": 1677, 
  "hurry": 1678, 
  "names": 1679, 
  "hearing": 1680, 
  "na@@": 1681, 
  "qu@@": 1682, 
  "approved": 1683, 
  "Dad": 1684, 
  "thinks": 1685, 
  "weird": 1686, 
  "replaced": 1687, 
  "reported": 1688, 
  "el": 1689, 
  "evening": 1690, 
  "showed": 1691, 
  "mad": 1692, 
  "sing": 1693, 
  "patient": 1694, 
  "possibility": 1695, 
  "bo@@": 1696, 
  "accept": 1697, 
  "powers": 1698, 
  "careful": 1699, 
  "To": 1700, 
  "seat": 1701, 
  "N": 1702, 
  "acts": 1703, 
  "hadn": 1704, 
  "press": 1705, 
  "EEA": 1706, 
  "communication": 1707, 
  "moreover": 1708, 
  "guarantee": 1709, 
  "sun": 1710, 
  "designed": 1711, 
  "failure": 1712, 
  "huge": 1713, 
  "talked": 1714, 
  "avoid": 1715, 
  "stick": 1716, 
  "contribution": 1717, 
  "mission": 1718, 
  "unit": 1719, 
  "X": 1720, 
  "region": 1721, 
  "pe@@": 1722, 
  "damage": 1723, 
  "fighting": 1724, 
  "si@@": 1725, 
  "r": 1726, 
  "TV": 1727, 
  "happening": 1728, 
  "add": 1729, 
  "improve": 1730, 
  "benefits": 1731, 
  "per@@": 1732, 
  "original": 1733, 
  "sa@@": 1734, 
  "ne@@": 1735, 
  "positive": 1736, 
  "applications": 1737, 
  "civil": 1738, 
  "Convention": 1739, 
  "reduction": 1740, 
  "ton": 1741, 
  "clothes": 1742, 
  "spend": 1743, 
  "Peter": 1744, 
  "agent": 1745, 
  "slow": 1746, 
  "Ar@@": 1747, 
  "wake": 1748, 
  "payments": 1749, 
  "terrible": 1750, 
  "wearing": 1751, 
  "concluded": 1752, 
  "blow": 1753, 
  "w": 1754, 
  "car@@": 1755, 
  "di": 1756, 
  "movement": 1757, 
  "heading": 1758, 
  "finish": 1759, 
  "01": 1760, 
  "operating": 1761, 
  "claims": 1762, 
  "For": 1763, 
  "risks": 1764, 
  "busy": 1765, 
  "track": 1766, 
  "~": 1767, 
  "fault": 1768, 
  "wear": 1769, 
  "seriously": 1770, 
  "il": 1771, 
  "lines": 1772, 
  "pro@@": 1773, 
  "partner": 1774, 
  "thousand": 1775, 
  "As": 1776, 
  "foreign": 1777, 
  "&apos;cause": 1778, 
  "j@@": 1779, 
  "values": 1780, 
  "do@@": 1781, 
  "po@@": 1782, 
  "killing": 1783, 
  "ge@@": 1784, 
  "calm": 1785, 
  "Michael": 1786, 
  "agricultural": 1787, 
  "worried": 1788, 
  "rock": 1789, 
  "store": 1790, 
  "u": 1791, 
  "evaluation": 1792, 
  "H": 1793, 
  "accounts": 1794, 
  "enjoy": 1795, 
  "mail": 1796, 
  "prove": 1797, 
  "gives": 1798, 
  "chapter": 1799, 
  "treated": 1800, 
  "currently": 1801, 
  "yesterday": 1802, 
  "te@@": 1803, 
  "horse": 1804, 
  "V": 1805, 
  "art": 1806, 
  "All": 1807, 
  "smart": 1808, 
  "exercise": 1809, 
  "organisations": 1810, 
  "professional": 1811, 
  "tired": 1812, 
  "joint": 1813, 
  "species": 1814, 
  "keeping": 1815, 
  "marketing": 1816, 
  "Charlie": 1817, 
  "command": 1818, 
  "net": 1819, 
  "substance": 1820, 
  "device": 1821, 
  "adopt": 1822, 
  "ships": 1823, 
  "st@@": 1824, 
  "funding": 1825, 
  "requested": 1826, 
  "flight": 1827, 
  "external": 1828, 
  "requires": 1829, 
  "gold": 1830, 
  "finding": 1831, 
  "ings": 1832, 
  "ds": 1833, 
  "speaking": 1834, 
  "mistake": 1835, 
  "plant": 1836, 
  "steps": 1837, 
  "concerns": 1838, 
  "driving": 1839, 
  "absolutely": 1840, 
  "rise": 1841, 
  "contracts": 1842, 
  "ability": 1843, 
  "visit": 1844, 
  "central": 1845, 
  "debt": 1846, 
  "establishing": 1847, 
  "produced": 1848, 
  "fix": 1849, 
  "model": 1850, 
  "fat": 1851, 
  "lack": 1852, 
  "concern": 1853, 
  "preliminary": 1854, 
  "disease": 1855, 
  "smile": 1856, 
  "empty": 1857, 
  "authorised": 1858, 
  "lock": 1859, 
  "focus": 1860, 
  "Parties": 1861, 
  "80": 1862, 
  "import": 1863, 
  "os": 1864, 
  "AND": 1865, 
  "ty": 1866, 
  "created": 1867, 
  "version": 1868, 
  "count": 1869, 
  "radio": 1870, 
  "prior": 1871, 
  "ab@@": 1872, 
  "opening": 1873, 
  "recent": 1874, 
  "shows": 1875, 
  "no@@": 1876, 
  "obviously": 1877, 
  "interesting": 1878, 
  "identified": 1879, 
  "walking": 1880, 
  "weapons": 1881, 
  "Con@@": 1882, 
  "heavy": 1883, 
  "stated": 1884, 
  "meat": 1885, 
  "wood": 1886, 
  "technology": 1887, 
  "numbers": 1888, 
  "pre": 1889, 
  "prepared": 1890, 
  "annex": 1891, 
  "nine": 1892, 
  "establishment": 1893, 
  "twenty": 1894, 
  "continued": 1895, 
  "wedding": 1896, 
  "ml": 1897, 
  "planet": 1898, 
  "reading": 1899, 
  "location": 1900, 
  "But": 1901, 
  "aware": 1902, 
  "draw": 1903, 
  "published": 1904, 
  "shown": 1905, 
  "Be@@": 1906, 
  "processing": 1907, 
  "movie": 1908, 
  "film": 1909, 
  "details": 1910, 
  "Czech": 1911, 
  "id": 1912, 
  "containing": 1913, 
  "fly": 1914, 
  "twice": 1915, 
  "anywhere": 1916, 
  "comply": 1917, 
  "picked": 1918, 
  "George": 1919, 
  "saved": 1920, 
  "spot": 1921, 
  "hide": 1922, 
  "David": 1923, 
  "fresh": 1924, 
  "rich": 1925, 
  "36": 1926, 
  "copy": 1927, 
  "plane": 1928, 
  "milk": 1929, 
  "smell": 1930, 
  "rates": 1931, 
  "1@@": 1932, 
  "Financial": 1933, 
  "duties": 1934, 
  "ter@@": 1935, 
  "caused": 1936, 
  "grounds": 1937, 
  "impossible": 1938, 
  "determine": 1939, 
  "go@@": 1940, 
  "em@@": 1941, 
  "arrangements": 1942, 
  "path": 1943, 
  "putting": 1944, 
  "actual": 1945, 
  "wonderful": 1946, 
  "ha@@": 1947, 
  "forms": 1948, 
  "conclusion": 1949, 
  "built": 1950, 
  "memory": 1951, 
  "consumer": 1952, 
  "adoption": 1953, 
  "plus": 1954, 
  "euro": 1955, 
  "learned": 1956, 
  "amounts": 1957, 
  "elements": 1958, 
  "slowly": 1959, 
  "importance": 1960, 
  "filled": 1961, 
  "Car@@": 1962, 
  "ad": 1963, 
  "Joe": 1964, 
  "aim": 1965, 
  "events": 1966, 
  "forever": 1967, 
  "compared": 1968, 
  "tree": 1969, 
  "lived": 1970, 
  "ses": 1971, 
  "institution": 1972, 
  "reduce": 1973, 
  "argument": 1974, 
  "vehicles": 1975, 
  "developed": 1976, 
  "places": 1977, 
  "song": 1978, 
  "mis@@": 1979, 
  "Justice": 1980, 
  "function": 1981, 
  "types": 1982, 
  "hole": 1983, 
  "Joint": 1984, 
  "Yes": 1985, 
  "files": 1986, 
  "accident": 1987, 
  "negative": 1988, 
  "user": 1989, 
  "travel": 1990, 
  "extent": 1991, 
  "providing": 1992, 
  "feed": 1993, 
  "ge": 1994, 
  "submit": 1995, 
  "named": 1996, 
  "chair": 1997, 
  "associated": 1998, 
  "link": 1999, 
  "Tom": 2000, 
  "resolution": 2001, 
  "surprise": 2002, 
  "sold": 2003, 
  "he@@": 2004, 
  "1.@@": 2005, 
  "efforts": 2006, 
  "definitely": 2007, 
  "books": 2008, 
  "ta": 2009, 
  "prison": 2010, 
  "demand": 2011, 
  "applicants": 2012, 
  "object": 2013, 
  "See": 2014, 
  "House": 2015, 
  "bought": 2016, 
  "sight": 2017, 
  "regulatory": 2018, 
  "ma@@": 2019, 
  "selected": 2020, 
  "of@@": 2021, 
  "returned": 2022, 
  "ator": 2023, 
  "com@@": 2024, 
  "separate": 2025, 
  "Fund": 2026, 
  "95": 2027, 
  "signed": 2028, 
  "Paul": 2029, 
  "amendment": 2030, 
  "materials": 2031, 
  "Spain": 2032, 
  "ler": 2033, 
  "missed": 2034, 
  "package": 2035, 
  "inter@@": 2036, 
  "electronic": 2037, 
  "limits": 2038, 
  "detailed": 2039, 
  "ia": 2040, 
  "enable": 2041, 
  "kiss": 2042, 
  "ps": 2043, 
  "ECR": 2044, 
  "population": 2045, 
  "remains": 2046, 
  "ding": 2047, 
  "placed": 2048, 
  "proposals": 2049, 
  "realize": 2050, 
  "as@@": 2051, 
  "begin": 2052, 
  "exist": 2053, 
  "Office": 2054, 
  "man@@": 2055, 
  "trip": 2056, 
  "correct": 2057, 
  "amazing": 2058, 
  "Frank": 2059, 
  "buddy": 2060, 
  "ex@@": 2061, 
  "besides": 2062, 
  "furthermore": 2063, 
  "star": 2064, 
  "achieve": 2065, 
  "earth": 2066, 
  "Bank": 2067, 
  "recital": 2068, 
  "onto": 2069, 
  "tests": 2070, 
  "build": 2071, 
  "operators": 2072, 
  "existence": 2073, 
  "criminal": 2074, 
  "click": 2075, 
  "Italy": 2076, 
  "34": 2077, 
  "described": 2078, 
  "closer": 2079, 
  "heads": 2080, 
  "neck": 2081, 
  "consumers": 2082, 
  "ley": 2083, 
  "magic": 2084, 
  "hasn": 2085, 
  "release": 2086, 
  "emergency": 2087, 
  "Se@@": 2088, 
  "design": 2089, 
  "billion": 2090, 
  "the@@": 2091, 
  "tu@@": 2092, 
  "certificate": 2093, 
  "apartment": 2094, 
  "growing": 2095, 
  "33": 2096, 
  "Chinese": 2097, 
  "considers": 2098, 
  "70": 2099, 
  "ms": 2100, 
  "offered": 2101, 
  "ie": 2102, 
  "distance": 2103, 
  "option": 2104, 
  "regions": 2105, 
  "killer": 2106, 
  "breath": 2107, 
  "program": 2108, 
  "driver": 2109, 
  "ic@@": 2110, 
  "direction": 2111, 
  "mu@@": 2112, 
  "\\": 2113, 
  "bus": 2114, 
  "advice": 2115, 
  "Ben": 2116, 
  "carrying": 2117, 
  "scientific": 2118, 
  "guard": 2119, 
  "former": 2120, 
  "appear": 2121, 
  "nearly": 2122, 
  "37": 2123, 
  "ruling": 2124, 
  "legs": 2125, 
  "notification": 2126, 
  "ordered": 2127, 
  "thereof": 2128, 
  "structure": 2129, 
  "receive": 2130, 
  "strength": 2131, 
  "ni@@": 2132, 
  "am@@": 2133, 
  "Co@@": 2134, 
  "lies": 2135, 
  "reduced": 2136, 
  "ons": 2137, 
  "ne": 2138, 
  "kg": 2139, 
  "drug": 2140, 
  "community": 2141, 
  "informed": 2142, 
  "dropped": 2143, 
  "noted": 2144, 
  "crew": 2145, 
  "v@@": 2146, 
  "appropriations": 2147, 
  "army": 2148, 
  "raise": 2149, 
  "cop": 2150, 
  "soul": 2151, 
  "Authority": 2152, 
  "sustainable": 2153, 
  "users": 2154, 
  "x@@": 2155, 
  "48": 2156, 
  "planning": 2157, 
  "Christmas": 2158, 
  "Party": 2159, 
  "volume": 2160, 
  "climate": 2161, 
  "methods": 2162, 
  "dumping": 2163, 
  "afternoon": 2164, 
  "43": 2165, 
  "apart": 2166, 
  "lunch": 2167, 
  "lawyer": 2168, 
  "watched": 2169, 
  "evil": 2170, 
  "liked": 2171, 
  "registered": 2172, 
  "Whoa": 2173, 
  "suit": 2174, 
  "laws": 2175, 
  "proper": 2176, 
  "surface": 2177, 
  "ru@@": 2178, 
  "Mike": 2179, 
  "regular": 2180, 
  "infrastructure": 2181, 
  "advantage": 2182, 
  "ally": 2183, 
  "weapon": 2184, 
  "planned": 2185, 
  "drawn": 2186, 
  "medicine": 2187, 
  "ze": 2188, 
  "gu@@": 2189, 
  "jobs": 2190, 
  "observed": 2191, 
  "whom": 2192, 
  "On": 2193, 
  "swear": 2194, 
  "video": 2195, 
  "draft": 2196, 
  "August": 2197, 
  "inform": 2198, 
  "p.m.": 2199, 
  "notes": 2200, 
  "Italian": 2201, 
  "sale": 2202, 
  "manner": 2203, 
  "under@@": 2204, 
  "banks": 2205, 
  "dry": 2206, 
  "birthday": 2207, 
  "fit": 2208, 
  "ks": 2209, 
  "accepted": 2210, 
  "despite": 2211, 
  "falling": 2212, 
  "proud": 2213, 
  "physical": 2214, 
  "Protocol": 2215, 
  "van": 2216, 
  "proof": 2217, 
  "participation": 2218, 
  "facts": 2219, 
  "debate": 2220, 
  "implemented": 2221, 
  "dress": 2222, 
  "president": 2223, 
  "select": 2224, 
  "medicinal": 2225, 
  "developing": 2226, 
  "bottom": 2227, 
  "girlfriend": 2228, 
  "reporting": 2229, 
  "out@@": 2230, 
  "truck": 2231, 
  "Your": 2232, 
  "income": 2233, 
  "nuclear": 2234, 
  "fuckin": 2235, 
  "god": 2236, 
  "recovery": 2237, 
  "indicated": 2238, 
  "presented": 2239, 
  "consumption": 2240, 
  "independent": 2241, 
  "EESC": 2242, 
  "Ma@@": 2243, 
  "angry": 2244, 
  "realized": 2245, 
  "lu@@": 2246, 
  "pack": 2247, 
  "87": 2248, 
  "cops": 2249, 
  "extra": 2250, 
  "substances": 2251, 
  "enemy": 2252, 
  "for@@": 2253, 
  "domestic": 2254, 
  "affect": 2255, 
  "throughout": 2256, 
  "worst": 2257, 
  "presence": 2258, 
  "ka": 2259, 
  "scene": 2260, 
  "battle": 2261, 
  "dying": 2262, 
  "4@@": 2263, 
  "develop": 2264, 
  "sugar": 2265, 
  "Richard": 2266, 
  "grow": 2267, 
  "Mrs": 2268, 
  "corner": 2269, 
  "character": 2270, 
  "10@@": 2271, 
  "500": 2272, 
  "ning": 2273, 
  "An@@": 2274, 
  "il@@": 2275, 
  "conduct": 2276, 
  "instrument": 2277, 
  "sh": 2278, 
  "bringing": 2279, 
  "du@@": 2280, 
  "ment": 2281, 
  "sectors": 2282, 
  "plea": 2283, 
  "cu@@": 2284, 
  "75": 2285, 
  "goddamn": 2286, 
  "smoke": 2287, 
  "organisation": 2288, 
  "escape": 2289, 
  "checked": 2290, 
  "200": 2291, 
  "38": 2292, 
  "International": 2293, 
  "44": 2294, 
  "ner": 2295, 
  "match": 2296, 
  "item": 2297, 
  "managed": 2298, 
  "K": 2299, 
  "nose": 2300, 
  "definition": 2301, 
  "operational": 2302, 
  "stuck": 2303, 
  "cat": 2304, 
  "played": 2305, 
  "push": 2306, 
  "consideration": 2307, 
  "39": 2308, 
  "ness": 2309, 
  "tough": 2310, 
  "victim": 2311, 
  "feels": 2312, 
  "ical": 2313, 
  "South": 2314, 
  "possibly": 2315, 
  "forgot": 2316, 
  "apparently": 2317, 
  "ger": 2318, 
  "examination": 2319, 
  "can@@": 2320, 
  "traffic": 2321, 
  "capable": 2322, 
  "contain": 2323, 
  "ing@@": 2324, 
  "ity": 2325, 
  "concentration": 2326, 
  "pointed": 2327, 
  "bi@@": 2328, 
  "If": 2329, 
  "Economic": 2330, 
  "sake": 2331, 
  "locked": 2332, 
  "efficiency": 2333, 
  "Mom": 2334, 
  "id@@": 2335, 
  "mention": 2336, 
  "fuel": 2337, 
  "ag@@": 2338, 
  "http": 2339, 
  "appreciate": 2340, 
  "applies": 2341, 
  "fundamental": 2342, 
  "heat": 2343, 
  "honest": 2344, 
  "IV": 2345, 
  "Other": 2346, 
  "race": 2347, 
  "Programme": 2348, 
  "interpretation": 2349, 
  "summer": 2350, 
  "revenue": 2351, 
  "ded": 2352, 
  "gs": 2353, 
  "imposed": 2354, 
  "surprised": 2355, 
  "ill": 2356, 
  "Part": 2357, 
  "records": 2358, 
  "recently": 2359, 
  "lovely": 2360, 
  "promote": 2361, 
  "protected": 2362, 
  "port": 2363, 
  "partners": 2364, 
  "priority": 2365, 
  "Russia": 2366, 
  "drugs": 2367, 
  "honor": 2368, 
  "equivalent": 2369, 
  "entity": 2370, 
  "unable": 2371, 
  "serve": 2372, 
  "task": 2373, 
  "drunk": 2374, 
  "committed": 2375, 
  "ce@@": 2376, 
  "supported": 2377, 
  "Is": 2378, 
  "recommended": 2379, 
  "warm": 2380, 
  "Netherlands": 2381, 
  "mess": 2382, 
  "beer": 2383, 
  "units": 2384, 
  "par@@": 2385, 
  "vessels": 2386, 
  "customers": 2387, 
  "requirement": 2388, 
  "Bo@@": 2389, 
  "appears": 2390, 
  "lights": 2391, 
  "chief": 2392, 
  "I.": 2393, 
  "James": 2394, 
  "practices": 2395, 
  "helped": 2396, 
  "roll": 2397, 
  "burn": 2398, 
  "pleasure": 2399, 
  "ve": 2400, 
  "Don": 2401, 
  "legislative": 2402, 
  "danger": 2403, 
  "World": 2404, 
  "accordingly": 2405, 
  "amendments": 2406, 
  "ics": 2407, 
  "04": 2408, 
  "absence": 2409, 
  "charges": 2410, 
  "older": 2411, 
  "checks": 2412, 
  "92": 2413, 
  "Pro@@": 2414, 
  "figured": 2415, 
  "fingers": 2416, 
  "affected": 2417, 
  "band": 2418, 
  "kitchen": 2419, 
  "&apos;you": 2420, 
  "eligible": 2421, 
  "oral": 2422, 
  "powerful": 2423, 
  "leading": 2424, 
  "scale": 2425, 
  "wi@@": 2426, 
  "arguments": 2427, 
  "inter": 2428, 
  "registration": 2429, 
  "obtained": 2430, 
  "ensuring": 2431, 
  "helping": 2432, 
  "edge": 2433, 
  "transactions": 2434, 
  "maintain": 2435, 
  "image": 2436, 
  "42": 2437, 
  "emissions": 2438, 
  "achieved": 2439, 
  "op@@": 2440, 
  "stock": 2441, 
  "Ro@@": 2442, 
  "02": 2443, 
  "combination": 2444, 
  "forgive": 2445, 
  "ought": 2446, 
  "Mary": 2447, 
  "turning": 2448, 
  "fool": 2449, 
  "engine": 2450, 
  "ourselves": 2451, 
  "challenge": 2452, 
  "confirmed": 2453, 
  "London": 2454, 
  "sleeping": 2455, 
  "effort": 2456, 
  "Christ": 2457, 
  "easily": 2458, 
  "VAT": 2459, 
  "contrary": 2460, 
  "mass": 2461, 
  "includes": 2462, 
  "shop": 2463, 
  "marry": 2464, 
  "club": 2465, 
  "bridge": 2466, 
  "initial": 2467, 
  "grab": 2468, 
  "Section": 2469, 
  "ho@@": 2470, 
  "innovation": 2471, 
  "favour": 2472, 
  "turns": 2473, 
  "ooh": 2474, 
  "river": 2475, 
  "sad": 2476, 
  "sword": 2477, 
  "desk": 2478, 
  "wrote": 2479, 
  "marks": 2480, 
  "98": 2481, 
  "subparagraph": 2482, 
  "om@@": 2483, 
  "Action": 2484, 
  "description": 2485, 
  "spread": 2486, 
  "via": 2487, 
  "su@@": 2488, 
  "boyfriend": 2489, 
  "so@@": 2490, 
  "enforcement": 2491, 
  "ap@@": 2492, 
  "daily": 2493, 
  "mate": 2494, 
  "factors": 2495, 
  "replied": 2496, 
  "Chapter": 2497, 
  "destroy": 2498, 
  "somehow": 2499, 
  "latter": 2500, 
  "ING": 2501, 
  "mar@@": 2502, 
  "Paris": 2503, 
  "eating": 2504, 
  "ke": 2505, 
  "willing": 2506, 
  "distribution": 2507, 
  "client": 2508, 
  "ci@@": 2509, 
  "camera": 2510, 
  "college": 2511, 
  "remove": 2512, 
  "National": 2513, 
  "sets": 2514, 
  "Internet": 2515, 
  "storage": 2516, 
  "promised": 2517, 
  "leg": 2518, 
  "temporary": 2519, 
  "arrived": 2520, 
  "2015": 2521, 
  "2.@@": 2522, 
  "marriage": 2523, 
  "teach": 2524, 
  "Service": 2525, 
  "contained": 2526, 
  "bloody": 2527, 
  "shoulder": 2528, 
  "trees": 2529, 
  "fe@@": 2530, 
  "relax": 2531, 
  "category": 2532, 
  "91": 2533, 
  "cars": 2534, 
  "ful": 2535, 
  "X@@": 2536, 
  "initiative": 2537, 
  "merely": 2538, 
  "sources": 2539, 
  "regulations": 2540, 
  "treat": 2541, 
  "ry": 2542, 
  "conversation": 2543, 
  "knowing": 2544, 
  "linked": 2545, 
  "gift": 2546, 
  "One": 2547, 
  "ve@@": 2548, 
  "characteristics": 2549, 
  "rose": 2550, 
  "ters": 2551, 
  "e.g.": 2552, 
  "dollars": 2553, 
  "represented": 2554, 
  "eh": 2555, 
  "teeth": 2556, 
  "41": 2557, 
  "contribute": 2558, 
  "spirit": 2559, 
  "Henry": 2560, 
  "ol": 2561, 
  "compensation": 2562, 
  "series": 2563, 
  "96": 2564, 
  "tri@@": 2565, 
  "Bar@@": 2566, 
  "increasing": 2567, 
  "labour": 2568, 
  "alternative": 2569, 
  "admit": 2570, 
  "controls": 2571, 
  "alright": 2572, 
  "City": 2573, 
  "judge": 2574, 
  "46": 2575, 
  "kidding": 2576, 
  "listening": 2577, 
  "expression": 2578, 
  "walls": 2579, 
  "likes": 2580, 
  "media": 2581, 
  "ID": 2582, 
  "pregnant": 2583, 
  "&apos;am": 2584, 
  "sample": 2585, 
  "rejected": 2586, 
  "He@@": 2587, 
  "quit": 2588, 
  "Russian": 2589, 
  "sed": 2590, 
  "pu@@": 2591, 
  "bastard": 2592, 
  "flying": 2593, 
  "yo": 2594, 
  "clinical": 2595, 
  "block": 2596, 
  "fourth": 2597, 
  "declaration": 2598, 
  "introduced": 2599, 
  "understood": 2600, 
  "Me@@": 2601, 
  "operator": 2602, 
  "tight": 2603, 
  "jump": 2604, 
  "94": 2605, 
  "guns": 2606, 
  "carefully": 2607, 
  "producer": 2608, 
  "signs": 2609, 
  "tra@@": 2610, 
  "color": 2611, 
  "ors": 2612, 
  "publication": 2613, 
  "firm": 2614, 
  "White": 2615, 
  "Mark": 2616, 
  "bottle": 2617, 
  "Daddy": 2618, 
  "Law": 2619, 
  "dy": 2620, 
  "Max": 2621, 
  "island": 2622, 
  "tasks": 2623, 
  "49": 2624, 
  "flat": 2625, 
  "forced": 2626, 
  "airport": 2627, 
  "shirt": 2628, 
  "aside": 2629, 
  "removed": 2630, 
  "medium": 2631, 
  "committee": 2632, 
  "justice": 2633, 
  "center": 2634, 
  "ver@@": 2635, 
  "TFEU": 2636, 
  "constitute": 2637, 
  "ir@@": 2638, 
  "successful": 2639, 
  "signal": 2640, 
  "Brussels": 2641, 
  "knife": 2642, 
  "taste": 2643, 
  "headed": 2644, 
  "favor": 2645, 
  "answered": 2646, 
  "located": 2647, 
  "load": 2648, 
  "ys": 2649, 
  "duration": 2650, 
  "ck": 2651, 
  "ES": 2652, 
  "breakfast": 2653, 
  "vessel": 2654, 
  "bar@@": 2655, 
  "North": 2656, 
  "comments": 2657, 
  "wild": 2658, 
  "collection": 2659, 
  "completed": 2660, 
  "Central": 2661, 
  "ber@@": 2662, 
  "invited": 2663, 
  "tea": 2664, 
  "meetings": 2665, 
  "degree": 2666, 
  "items": 2667, 
  "latest": 2668, 
  "arrest": 2669, 
  "resulting": 2670, 
  "easier": 2671, 
  "north": 2672, 
  "soft": 2673, 
  "rooms": 2674, 
  "options": 2675, 
  "ur@@": 2676, 
  "sp@@": 2677, 
  "commitment": 2678, 
  "relevance": 2679, 
  "W": 2680, 
  "construction": 2681, 
  "bunch": 2682, 
  "shape": 2683, 
  "silence": 2684, 
  "reasonable": 2685, 
  "ously": 2686, 
  "IP": 2687, 
  "93": 2688, 
  "gotten": 2689, 
  "idiot": 2690, 
  "competitive": 2691, 
  "fi@@": 2692, 
  "wondering": 2693, 
  "drinking": 2694, 
  "2020": 2695, 
  "ok": 2696, 
  "ss@@": 2697, 
  "ies": 2698, 
  "crap": 2699, 
  "ary": 2700, 
  "efficient": 2701, 
  "server": 2702, 
  "ties": 2703, 
  "Appropriations": 2704, 
  "representative": 2705, 
  "industrial": 2706, 
  "fired": 2707, 
  "3.@@": 2708, 
  "seek": 2709, 
  "regarded": 2710, 
  "es@@": 2711, 
  "implement": 2712, 
  "upset": 2713, 
  "West": 2714, 
  "entitled": 2715, 
  "cited": 2716, 
  "cry": 2717, 
  "map": 2718, 
  "fellow": 2719, 
  "consequently": 2720, 
  "Communities": 2721, 
  "nodded": 2722, 
  "alia": 2723, 
  "men@@": 2724, 
  "dreams": 2725, 
  "ended": 2726, 
  "Security": 2727, 
  "identify": 2728, 
  "dogs": 2729, 
  "guidelines": 2730, 
  "gi@@": 2731, 
  "chest": 2732, 
  "trial": 2733, 
  "Social": 2734, 
  "ically": 2735, 
  "GDP": 2736, 
  "exposure": 2737, 
  "kick": 2738, 
  "Instance": 2739, 
  "leaves": 2740, 
  "65": 2741, 
  "paying": 2742, 
  "everywhere": 2743, 
  "ph@@": 2744, 
  "majority": 2745, 
  "noticed": 2746, 
  "shoes": 2747, 
  "injection": 2748, 
  "connected": 2749, 
  "consequences": 2750, 
  "ten@@": 2751, 
  "°": 2752, 
  "church": 2753, 
  "uses": 2754, 
  "generally": 2755, 
  "Di@@": 2756, 
  "highly": 2757, 
  "88": 2758, 
  "tablets": 2759, 
  "feelings": 2760, 
  "dirty": 2761, 
  "hardly": 2762, 
  "valid": 2763, 
  "aspects": 2764, 
  "bigger": 2765, 
  "laugh": 2766, 
  "Su@@": 2767, 
  "cor@@": 2768, 
  "science": 2769, 
  "joke": 2770, 
  "calculated": 2771, 
  "noise": 2772, 
  "appeared": 2773, 
  "adequate": 2774, 
  "electricity": 2775, 
  "length": 2776, 
  "budgetary": 2777, 
  "recognised": 2778, 
  "Ireland": 2779, 
  "ders": 2780, 
  "throat": 2781, 
  "ls": 2782, 
  "uncle": 2783, 
  "threat": 2784, 
  "doors": 2785, 
  "03": 2786, 
  "ot@@": 2787, 
  "Y": 2788, 
  "hoping": 2789, 
  "lots": 2790, 
  "prepare": 2791, 
  "losing": 2792, 
  "relations": 2793, 
  "lin": 2794, 
  "coordination": 2795, 
  "pictures": 2796, 
  "pool": 2797, 
  "mon@@": 2798, 
  "recognition": 2799, 
  "A.": 2800, 
  "bound": 2801, 
  "staying": 2802, 
  "suggest": 2803, 
  "Mo@@": 2804, 
  "produce": 2805, 
  "Ne@@": 2806, 
  "beside": 2807, 
  "51": 2808, 
  "ches": 2809, 
  "05": 2810, 
  "ker": 2811, 
  "vi@@": 2812, 
  "55": 2813, 
  "reform": 2814, 
  "Man@@": 2815, 
  "corresponding": 2816, 
  "300": 2817, 
  "cute": 2818, 
  "usual": 2819, 
  "Framework": 2820, 
  "amending": 2821, 
  "screen": 2822, 
  "rid": 2823, 
  "i.e.": 2824, 
  "nervous": 2825, 
  "conformity": 2826, 
  "So": 2827, 
  "instance": 2828, 
  "jail": 2829, 
  "opportunities": 2830, 
  "secure": 2831, 
  "testing": 2832, 
  "observations": 2833, 
  "recommendations": 2834, 
  "creation": 2835, 
  "commitments": 2836, 
  "ion": 2837, 
  "zone": 2838, 
  "Colonel": 2839, 
  "camp": 2840, 
  "sought": 2841, 
  "negotiations": 2842, 
  "pi@@": 2843, 
  "prejudice": 2844, 
  "U": 2845, 
  "cre@@": 2846, 
  "referring": 2847, 
  "bright": 2848, 
  "leader": 2849, 
  "success": 2850, 
  "applying": 2851, 
  "south": 2852, 
  "complex": 2853, 
  "flow": 2854, 
  "Spanish": 2855, 
  "website": 2856, 
  "forest": 2857, 
  "showing": 2858, 
  "bird": 2859, 
  "integration": 2860, 
  "selection": 2861, 
  "warning": 2862, 
  "­": 2863, 
  "ish": 2864, 
  "favorite": 2865, 
  "humans": 2866, 
  "da@@": 2867, 
  "soldiers": 2868, 
  "victims": 2869, 
  "Cor@@": 2870, 
  "primary": 2871, 
  "47": 2872, 
  "residence": 2873, 
  "owe": 2874, 
  "With": 2875, 
  "18@@": 2876, 
  "hat": 2877, 
  "excellent": 2878, 
  "thoughts": 2879, 
  "ra": 2880, 
  "COM": 2881, 
  "manufacturer": 2882, 
  "ev@@": 2883, 
  "surveillance": 2884, 
  "rain": 2885, 
  "restaurant": 2886, 
  "hiding": 2887, 
  "specifically": 2888, 
  "07": 2889, 
  "ina": 2890, 
  "weak": 2891, 
  "gate": 2892, 
  "park": 2893, 
  "selling": 2894, 
  "skills": 2895, 
  "06": 2896, 
  "East": 2897, 
  "uniform": 2898, 
  "loves": 2899, 
  "Jim": 2900, 
  "acid": 2901, 
  "inspection": 2902, 
  "Jimmy": 2903, 
  "ou@@": 2904, 
  "ard": 2905, 
  "ative": 2906, 
  "1998": 2907, 
  "gay": 2908, 
  "blame": 2909, 
  "metal": 2910, 
  "97": 2911, 
  "facilities": 2912, 
  "suspect": 2913, 
  "entities": 2914, 
  "reality": 2915, 
  "Mc@@": 2916, 
  "greatest": 2917, 
  "expressed": 2918, 
  "mi@@": 2919, 
  "bathroom": 2920, 
  "agents": 2921, 
  "lips": 2922, 
  "ur": 2923, 
  "letters": 2924, 
  "discuss": 2925, 
  "wh@@": 2926, 
  "Father": 2927, 
  "useful": 2928, 
  "bomb": 2929, 
  "tape": 2930, 
  "blind": 2931, 
  "maintenance": 2932, 
  "audit": 2933, 
  "extended": 2934, 
  "illegal": 2935, 
  "truly": 2936, 
  "explained": 2937, 
  "keys": 2938, 
  "investments": 2939, 
  "pieces": 2940, 
  "den": 2941, 
  "Hey": 2942, 
  "Ex@@": 2943, 
  "Com@@": 2944, 
  "grown": 2945, 
  "jurisdiction": 2946, 
  "52": 2947, 
  "ins": 2948, 
  "shares": 2949, 
  "century": 2950, 
  "My": 2951, 
  "birth": 2952, 
  "hanging": 2953, 
  "pen@@": 2954, 
  "consultation": 2955, 
  "08": 2956, 
  "pants": 2957, 
  "faster": 2958, 
  "judicial": 2959, 
  "figures": 2960, 
  "Mor@@": 2961, 
  "How": 2962, 
  "believed": 2963, 
  "cells": 2964, 
  "delivered": 2965, 
  "pilot": 2966, 
  "influence": 2967, 
  "ir": 2968, 
  "obvious": 2969, 
  "stars": 2970, 
  "grew": 2971, 
  "steel": 2972, 
  "forces": 2973, 
  "entirely": 2974, 
  "53": 2975, 
  "smiled": 2976, 
  "exceed": 2977, 
  "examine": 2978, 
  "Li@@": 2979, 
  "faith": 2980, 
  "chain": 2981, 
  "transmission": 2982, 
  "tiny": 2983, 
  "database": 2984, 
  "properly": 2985, 
  "ECB": 2986, 
  "challenges": 2987, 
  "finger": 2988, 
  "ce": 2989, 
  "4.@@": 2990, 
  "consistent": 2991, 
  "perfectly": 2992, 
  "concept": 2993, 
  "shooting": 2994, 
  "Minister": 2995, 
  "element": 2996, 
  "sudden": 2997, 
  "There": 2998, 
  "Du@@": 2999, 
  "teacher": 3000, 
  "13@@": 3001, 
  "85": 3002, 
  "waited": 3003, 
  "ces": 3004, 
  "hall": 3005, 
  "sc@@": 3006, 
  "understanding": 3007, 
  "introduce": 3008, 
  "aircraft": 3009, 
  "81": 3010, 
  "5.@@": 3011, 
  "addressed": 3012, 
  "fields": 3013, 
  "shook": 3014, 
  "formal": 3015, 
  "Par@@": 3016, 
  "der@@": 3017, 
  "officials": 3018, 
  "des": 3019, 
  "examined": 3020, 
  "harm": 3021, 
  "tions": 3022, 
  "normally": 3023, 
  "Regulations": 3024, 
  "temperature": 3025, 
  "sen": 3026, 
  "Lu@@": 3027, 
  "justified": 3028, 
  "career": 3029, 
  "manage": 3030, 
  "burden": 3031, 
  "whoever": 3032, 
  "hungry": 3033, 
  "occurred": 3034, 
  "ale": 3035, 
  "assume": 3036, 
  "ping": 3037, 
  "plants": 3038, 
  "background": 3039, 
  "stared": 3040, 
  "phase": 3041, 
  "fill": 3042, 
  "stole": 3043, 
  "moon": 3044, 
  "darkness": 3045, 
  "pa@@": 3046, 
  "lord": 3047, 
  "centre": 3048, 
  "profit": 3049, 
  "ideas": 3050, 
  "village": 3051, 
  "breaking": 3052, 
  "categories": 3053, 
  "destroyed": 3054, 
  "reply": 3055, 
  "56": 3056, 
  "slightly": 3057, 
  "tools": 3058, 
  "estimated": 3059, 
  "comfortable": 3060, 
  "vision": 3061, 
  "Greece": 3062, 
  "71": 3063, 
  "bone": 3064, 
  "assess": 3065, 
  "dealing": 3066, 
  "row": 3067, 
  "dressed": 3068, 
  "findings": 3069, 
  "Commissioner": 3070, 
  "restructuring": 3071, 
  "Pe@@": 3072, 
  "Lisbon": 3073, 
  "monitor": 3074, 
  "ke@@": 3075, 
  "Not": 3076, 
  "identification": 3077, 
  "sides": 3078, 
  "schemes": 3079, 
  "carbon": 3080, 
  "threw": 3081, 
  "cards": 3082, 
  "functioning": 3083, 
  "sending": 3084, 
  "button": 3085, 
  "ned": 3086, 
  "99": 3087, 
  "controlled": 3088, 
  "unfortunately": 3089, 
  "learning": 3090, 
  "steal": 3091, 
  "transparency": 3092, 
  "Code": 3093, 
  "plenty": 3094, 
  "effectiveness": 3095, 
  "den@@": 3096, 
  "C.": 3097, 
  "contributions": 3098, 
  "calculation": 3099, 
  "By": 3100, 
  "Hotel": 3101, 
  "IN@@": 3102, 
  "liability": 3103, 
  "windows": 3104, 
  "Africa": 3105, 
  "ours": 3106, 
  "ide": 3107, 
  "discrimination": 3108, 
  "tells": 3109, 
  "supporting": 3110, 
  "ck@@": 3111, 
  "stories": 3112, 
  "stepped": 3113, 
  "balls": 3114, 
  "delay": 3115, 
  "indicate": 3116, 
  "tie": 3117, 
  "yellow": 3118, 
  "har@@": 3119, 
  "mechanism": 3120, 
  "keeps": 3121, 
  "ca": 3122, 
  "delivery": 3123, 
  "af@@": 3124, 
  "innocent": 3125, 
  "licence": 3126, 
  "Danny": 3127, 
  "conclusions": 3128, 
  "students": 3129, 
  "6.@@": 3130, 
  "split": 3131, 
  "raw": 3132, 
  "settled": 3133, 
  "lodged": 3134, 
  "fruit": 3135, 
  "online": 3136, 
  "min@@": 3137, 
  "therapy": 3138, 
  "Communication": 3139, 
  "89": 3140, 
  "barely": 3141, 
  "employees": 3142, 
  "High": 3143, 
  "war@@": 3144, 
  "ators": 3145, 
  "sub": 3146, 
  "cancer": 3147, 
  "creating": 3148, 
  "etc": 3149, 
  "approximately": 3150, 
  "manager": 3151, 
  "changing": 3152, 
  "route": 3153, 
  "Man": 3154, 
  "En@@": 3155, 
  "permit": 3156, 
  "Jake": 3157, 
  "ance": 3158, 
  "discovered": 3159, 
  "ked": 3160, 
  "ca@@": 3161, 
  "brothers": 3162, 
  "extremely": 3163, 
  "waters": 3164, 
  "advance": 3165, 
  "female": 3166, 
  "Per@@": 3167, 
  "Well": 3168, 
  "darling": 3169, 
  "Bob": 3170, 
  "violence": 3171, 
  "refer": 3172, 
  "Of": 3173, 
  "pension": 3174, 
  "09": 3175, 
  "ends": 3176, 
  "geographical": 3177, 
  "7.@@": 3178, 
  "bill": 3179, 
  "facilitate": 3180, 
  "starts": 3181, 
  "bother": 3182, 
  "ancient": 3183, 
  "remained": 3184, 
  "od@@": 3185, 
  "differences": 3186, 
  "54": 3187, 
  "ul@@": 3188, 
  "previously": 3189, 
  "Street": 3190, 
  "12@@": 3191, 
  "statements": 3192, 
  "complaint": 3193, 
  "taught": 3194, 
  "ti": 3195, 
  "guest": 3196, 
  "weekend": 3197, 
  "style": 3198, 
  "Jane": 3199, 
  "officers": 3200, 
  "thousands": 3201, 
  "receiving": 3202, 
  "games": 3203, 
  "Development": 3204, 
  "ky": 3205, 
  "default": 3206, 
  "pocket": 3207, 
  "adverse": 3208, 
  "sheet": 3209, 
  "factor": 3210, 
  "ste@@": 3211, 
  "chosen": 3212, 
  "bs": 3213, 
  "exception": 3214, 
  "declared": 3215, 
  "severe": 3216, 
  "asleep": 3217, 
  "ence": 3218, 
  "mainly": 3219, 
  "Doctor": 3220, 
  "dare": 3221, 
  "considering": 3222, 
  "shared": 3223, 
  "agency": 3224, 
  "finance": 3225, 
  "display": 3226, 
  "ss": 3227, 
  "ite": 3228, 
  "we@@": 3229, 
  "witness": 3230, 
  "cla@@": 3231, 
  "Information": 3232, 
  "knock": 3233, 
  "upstairs": 3234, 
  "injury": 3235, 
  "allows": 3236, 
  "introduction": 3237, 
  "papers": 3238, 
  "loose": 3239, 
  "ny": 3240, 
  "closely": 3241, 
  "you@@": 3242, 
  "tall": 3243, 
  "guilty": 3244, 
  "deliver": 3245, 
  "asshole": 3246, 
  "up@@": 3247, 
  "quantities": 3248, 
  "Po@@": 3249, 
  "host": 3250, 
  "s.r.o.": 3251, 
  "Report": 3252, 
  "DE": 3253, 
  "obtain": 3254, 
  "Staff": 3255, 
  "beneath": 3256, 
  "loan": 3257, 
  "situations": 3258, 
  "chicken": 3259, 
  "cup": 3260, 
  "devices": 3261, 
  "sentence": 3262, 
  "sa": 3263, 
  "detail": 3264, 
  "permanent": 3265, 
  "compatible": 3266, 
  "0.@@": 3267, 
  "confidence": 3268, 
  "zero": 3269, 
  "accounting": 3270, 
  "mostly": 3271, 
  "India": 3272, 
  "cast": 3273, 
  "thin": 3274, 
  "quantity": 3275, 
  "Common": 3276, 
  "percentage": 3277, 
  "experts": 3278, 
  "Nick": 3279, 
  "practical": 3280, 
  "IN": 3281, 
  "Alex": 3282, 
  "stability": 3283, 
  "register": 3284, 
  "thirty": 3285, 
  "Rules": 3286, 
  "goodbye": 3287, 
  "dispute": 3288, 
  "representatives": 3289, 
  "roof": 3290, 
  "storm": 3291, 
  "machines": 3292, 
  "bra@@": 3293, 
  "integrated": 3294, 
  "enterprises": 3295, 
  "laughing": 3296, 
  "wa@@": 3297, 
  "owner": 3298, 
  "invalid": 3299, 
  "letting": 3300, 
  "requests": 3301, 
  "silent": 3302, 
  "touched": 3303, 
  "zed": 3304, 
  "Poland": 3305, 
  "que": 3306, 
  "broad": 3307, 
  "nevertheless": 3308, 
  "covering": 3309, 
  "rare": 3310, 
  "Martin": 3311, 
  "pushed": 3312, 
  "laying": 3313, 
  "breach": 3314, 
  "ery": 3315, 
  "classified": 3316, 
  "whenever": 3317, 
  "ism": 3318, 
  "58": 3319, 
  "Belgium": 3320, 
  "attempt": 3321, 
  "fiscal": 3322, 
  "faces": 3323, 
  "department": 3324, 
  "crying": 3325, 
  "hero": 3326, 
  "They": 3327, 
  "significantly": 3328, 
  "ana": 3329, 
  "survive": 3330, 
  "grade": 3331, 
  "passing": 3332, 
  "horses": 3333, 
  "remaining": 3334, 
  "64": 3335, 
  "bullshit": 3336, 
  "hidden": 3337, 
  "drew": 3338, 
  "assigned": 3339, 
  "ered": 3340, 
  "cal@@": 3341, 
  "mental": 3342, 
  "components": 3343, 
  "drawing": 3344, 
  "defence": 3345, 
  "pair": 3346, 
  "currency": 3347, 
  "Ryan": 3348, 
  "{": 3349, 
  "summary": 3350, 
  "west": 3351, 
  "cultural": 3352, 
  "Act": 3353, 
  "sexual": 3354, 
  "tender": 3355, 
  "57": 3356, 
  "attached": 3357, 
  "ba@@": 3358, 
  "male": 3359, 
  "Title": 3360, 
  "weather": 3361, 
  "grand": 3362, 
  "served": 3363, 
  "dialogue": 3364, 
  "motion": 3365, 
  "passengers": 3366, 
  "eventually": 3367, 
  "performed": 3368, 
  "namely": 3369, 
  "ster": 3370, 
  "famous": 3371, 
  "ars": 3372, 
  "British": 3373, 
  "familiar": 3374, 
  "pleased": 3375, 
  "Chamber": 3376, 
  "strike": 3377, 
  "She": 3378, 
  "speech": 3379, 
  "adjustment": 3380, 
  "biggest": 3381, 
  "ears": 3382, 
  "72": 3383, 
  "whoa": 3384, 
  "ff": 3385, 
  "15@@": 3386, 
  "fund": 3387, 
  "ot": 3388, 
  "Text": 3389, 
  "Tony": 3390, 
  "targets": 3391, 
  "59": 3392, 
  "Greek": 3393, 
  "anti@@": 3394, 
  "modern": 3395, 
  "Sarah": 3396, 
  "friendly": 3397, 
  "Ver@@": 3398, 
  "provisional": 3399, 
  "stayed": 3400, 
  "assessed": 3401, 
  "whereas": 3402, 
  "est": 3403, 
  "Ray": 3404, 
  "sum": 3405, 
  "tion": 3406, 
  "originating": 3407, 
  "farm": 3408, 
  "mutual": 3409, 
  "awful": 3410, 
  "charged": 3411, 
  "periods": 3412, 
  "remembered": 3413, 
  "che@@": 3414, 
  "ments": 3415, 
  "intervention": 3416, 
  "holy": 3417, 
  "spending": 3418, 
  "wet": 3419, 
  "checking": 3420, 
  "surely": 3421, 
  "fu@@": 3422, 
  "covers": 3423, 
  "ched": 3424, 
  "identity": 3425, 
  "claimed": 3426, 
  "deserve": 3427, 
  "staring": 3428, 
  "transaction": 3429, 
  "silver": 3430, 
  "improving": 3431, 
  "structural": 3432, 
  "detective": 3433, 
  "effectively": 3434, 
  "lab": 3435, 
  "ol@@": 3436, 
  "forgotten": 3437, 
  "disappeared": 3438, 
  "universe": 3439, 
  "Har@@": 3440, 
  "za": 3441, 
  "Bu@@": 3442, 
  "advanced": 3443, 
  "core": 3444, 
  "ns": 3445, 
  "tin": 3446, 
  "del": 3447, 
  "}": 3448, 
  "IT": 3449, 
  "traditional": 3450, 
  "saving": 3451, 
  "buildings": 3452, 
  "square": 3453, 
  "14@@": 3454, 
  "medicines": 3455, 
  "networks": 3456, 
  "ba": 3457, 
  "instructions": 3458, 
  "cheese": 3459, 
  "mountain": 3460, 
  "crowd": 3461, 
  "16@@": 3462, 
  "Okay": 3463, 
  "awesome": 3464, 
  "initiatives": 3465, 
  "El@@": 3466, 
  "wing": 3467, 
  "For@@": 3468, 
  "1997": 3469, 
  "Agent": 3470, 
  "agencies": 3471, 
  "positions": 3472, 
  "Appeal": 3473, 
  "birds": 3474, 
  "spring": 3475, 
  "trick": 3476, 
  "technologies": 3477, 
  "coat": 3478, 
  "nation": 3479, 
  "Mon@@": 3480, 
  "statistics": 3481, 
  "reaction": 3482, 
  "joined": 3483, 
  "finds": 3484, 
  "sk@@": 3485, 
  "Madam": 3486, 
  "purchase": 3487, 
  "exporting": 3488, 
  "iron": 3489, 
  "System": 3490, 
  "hi@@": 3491, 
  "fo@@": 3492, 
  "regime": 3493, 
  "released": 3494, 
  "parent": 3495, 
  "Pre@@": 3496, 
  "immediate": 3497, 
  "ists": 3498, 
  "aimed": 3499, 
  "folks": 3500, 
  "Johnny": 3501, 
  "68": 3502, 
  "chemical": 3503, 
  "afford": 3504, 
  "Who": 3505, 
  "excited": 3506, 
  "ju@@": 3507, 
  "ian": 3508, 
  "si": 3509, 
  "unknown": 3510, 
  "Billy": 3511, 
  "represent": 3512, 
  "solid": 3513, 
  "preparation": 3514, 
  "expert": 3515, 
  "beneficiary": 3516, 
  "answers": 3517, 
  "profile": 3518, 
  "TO": 3519, 
  "granting": 3520, 
  "murdered": 3521, 
  "her@@": 3522, 
  "fucked": 3523, 
  "photo": 3524, 
  "individuals": 3525, 
  "stomach": 3526, 
  "strategic": 3527, 
  "operate": 3528, 
  "asset": 3529, 
  "becoming": 3530, 
  "ak": 3531, 
  "apparent": 3532, 
  "conflict": 3533, 
  "rapporteur": 3534, 
  "ordinary": 3535, 
  "format": 3536, 
  "perform": 3537, 
  "Red": 3538, 
  "61": 3539, 
  "falls": 3540, 
  "cream": 3541, 
  "wondered": 3542, 
  "mor@@": 3543, 
  "lift": 3544, 
  "soldier": 3545, 
  "Where": 3546, 
  "millions": 3547, 
  "reactions": 3548, 
  "businesses": 3549, 
  "ob@@": 3550, 
  "83": 3551, 
  "beach": 3552, 
  "recorded": 3553, 
  "Director": 3554, 
  "loud": 3555, 
  "67": 3556, 
  "au@@": 3557, 
  "snow": 3558, 
  "surgery": 3559, 
  "ly@@": 3560, 
  "20@@": 3561, 
  "Do": 3562, 
  "ist": 3563, 
  "Ber@@": 3564, 
  "guards": 3565, 
  "quarter": 3566, 
  "becomes": 3567, 
  "Or@@": 3568, 
  "sharp": 3569, 
  "slept": 3570, 
  "smaller": 3571, 
  "larger": 3572, 
  "ines": 3573, 
  "daddy": 3574, 
  "extension": 3575, 
  "substantial": 3576, 
  "promotion": 3577, 
  "Ma": 3578, 
  "articles": 3579, 
  "governments": 3580, 
  "Steve": 3581, 
  "bro@@": 3582, 
  "res": 3583, 
  "switch": 3584, 
  "gh@@": 3585, 
  "incurred": 3586, 
  "specify": 3587, 
  "highest": 3588, 
  "farmers": 3589, 
  "exists": 3590, 
  "sis": 3591, 
  "hu@@": 3592, 
  "subsequent": 3593, 
  "Lo@@": 3594, 
  "sees": 3595, 
  "cra@@": 3596, 
  "theory": 3597, 
  "update": 3598, 
  "73": 3599, 
  "features": 3600, 
  "lied": 3601, 
  "Queen": 3602, 
  "horrible": 3603, 
  "award": 3604, 
  "Ted": 3605, 
  "sensitive": 3606, 
  "ent@@": 3607, 
  "student": 3608, 
  "gra@@": 3609, 
  "burned": 3610, 
  "burning": 3611, 
  "Ch@@": 3612, 
  "armed": 3613, 
  "recognize": 3614, 
  "Great": 3615, 
  "OHIM": 3616, 
  "transferred": 3617, 
  "8.@@": 3618, 
  "fulfil": 3619, 
  "shift": 3620, 
  "plate": 3621, 
  "healthy": 3622, 
  "functions": 3623, 
  "fought": 3624, 
  "loans": 3625, 
  "percent": 3626, 
  "accession": 3627, 
  "Trade": 3628, 
  "dust": 3629, 
  "holder": 3630, 
  "63": 3631, 
  "generation": 3632, 
  "families": 3633, 
  "ching": 3634, 
  "belong": 3635, 
  "When": 3636, 
  "Thomas": 3637, 
  "critical": 3638, 
  "UN": 3639, 
  "ging": 3640, 
  "cake": 3641, 
  "ear": 3642, 
  "Procedure": 3643, 
  "print": 3644, 
  "Austria": 3645, 
  "hung": 3646, 
  "PPE": 3647, 
  "restrictions": 3648, 
  "giant": 3649, 
  "culture": 3650, 
  "flag": 3651, 
  "&apos;all": 3652, 
  "priorities": 3653, 
  "naked": 3654, 
  "journey": 3655, 
  "binding": 3656, 
  "shadow": 3657, 
  "Bobby": 3658, 
  "nuts": 3659, 
  "stronger": 3660, 
  "Japan": 3661, 
  "Te@@": 3662, 
  "Dr": 3663, 
  "streets": 3664, 
  "depends": 3665, 
  "flowers": 3666, 
  "et@@": 3667, 
  "television": 3668, 
  "designated": 3669, 
  "FOR": 3670, 
  "closing": 3671, 
  "Daniel": 3672, 
  "": 3673, 
  "classification": 3674, 
  "sch@@": 3675, 
  "satisfied": 3676, 
  "Ms.": 3677, 
  "nowhere": 3678, 
  "mmm": 3679, 
  "losses": 3680, 
  "dozen": 3681, 
  "eggs": 3682, 
  "stakeholders": 3683, 
  "supplies": 3684, 
  "multiple": 3685, 
  "fail": 3686, 
  "improved": 3687, 
  "encourage": 3688, 
  "paint": 3689, 
  "Why": 3690, 
  "cycle": 3691, 
  "tongue": 3692, 
  "reducing": 3693, 
  "Louis": 3694, 
  "pan@@": 3695, 
  "trading": 3696, 
  "Robert": 3697, 
  "engaged": 3698, 
  "Qu@@": 3699, 
  "developments": 3700, 
  "session": 3701, 
  "conducted": 3702, 
  "struck": 3703, 
  "democracy": 3704, 
  "virus": 3705, 
  "B.": 3706, 
  "pe": 3707, 
  "schedule": 3708, 
  "SMEs": 3709, 
  "17@@": 3710, 
  "€": 3711, 
  "Members": 3712, 
  "ely": 3713, 
  "offers": 3714, 
  "notify": 3715, 
  "wound": 3716, 
  "faced": 3717, 
  "sy": 3718, 
  "wheel": 3719, 
  "ser@@": 3720, 
  "sion": 3721, 
  "sen@@": 3722, 
  "Sch@@": 3723, 
  "Portugal": 3724, 
  "beauty": 3725, 
  "ak@@": 3726, 
  "69": 3727, 
  "prefer": 3728, 
  "east": 3729, 
  "conference": 3730, 
  "Ra@@": 3731, 
  "Charles": 3732, 
  "ga@@": 3733, 
  "flesh": 3734, 
  "62": 3735, 
  "verification": 3736, 
  "permission": 3737, 
  "78": 3738, 
  "Opinion": 3739, 
  "ges": 3740, 
  "82": 3741, 
  "monster": 3742, 
  "ens": 3743, 
  "rescue": 3744, 
  "player": 3745, 
  "av@@": 3746, 
  "involving": 3747, 
  "England": 3748, 
  "frequency": 3749, 
  "messages": 3750, 
  "shed": 3751, 
  "sts": 3752, 
  "76": 3753, 
  "ki": 3754, 
  "fin@@": 3755, 
  "tic": 3756, 
  "77": 3757, 
  "breathe": 3758, 
  "ER": 3759, 
  "Rights": 3760, 
  "rat": 3761, 
  "courts": 3762, 
  "creature": 3763, 
  "pop": 3764, 
  "shower": 3765, 
  "Mother": 3766, 
  "solutions": 3767, 
  "Master": 3768, 
  "shame": 3769, 
  "runs": 3770, 
  "column": 3771, 
  "personnel": 3772, 
  "op": 3773, 
  "Let": 3774, 
  "To@@": 3775, 
  "sufficiently": 3776, 
  "bones": 3777, 
  "km": 3778, 
  "ised": 3779, 
  "taxes": 3780, 
  "dumb": 3781, 
  "Just": 3782, 
  "bullet": 3783, 
  "sharing": 3784, 
  "promoting": 3785, 
  "fisheries": 3786, 
  "respond": 3787, 
  "shock": 3788, 
  "passenger": 3789, 
  "circle": 3790, 
  "intelligence": 3791, 
  "indication": 3792, 
  "Gu@@": 3793, 
  "Mer@@": 3794, 
  "label": 3795, 
  "constitutes": 3796, 
  "respectively": 3797, 
  "tur@@": 3798, 
  "pretend": 3799, 
  "glanced": 3800, 
  "Mu@@": 3801, 
  "communications": 3802, 
  "fied": 3803, 
  "stolen": 3804, 
  "breathing": 3805, 
  "pro": 3806, 
  "allocation": 3807, 
  "buried": 3808, 
  "remind": 3809, 
  "apologize": 3810, 
  "wise": 3811, 
  "www.@@": 3812, 
  "ga": 3813, 
  "handed": 3814, 
  "repeat": 3815, 
  "San": 3816, 
  "supplied": 3817, 
  "kin": 3818, 
  "combined": 3819, 
  "screw": 3820, 
  "M.": 3821, 
  "li": 3822, 
  "Val@@": 3823, 
  "title": 3824, 
  "cousin": 3825, 
  "drove": 3826, 
  "ble": 3827, 
  "ho": 3828, 
  "Q@@": 3829, 
  "Management": 3830, 
  "odd": 3831, 
  "leaders": 3832, 
  "difficulties": 3833, 
  "wash": 3834, 
  "Cal@@": 3835, 
  "plastic": 3836, 
  "rough": 3837, 
  "commander": 3838, 
  "parking": 3839, 
  "woods": 3840, 
  "mer@@": 3841, 
  "fallen": 3842, 
  "cutting": 3843, 
  "fla@@": 3844, 
  "Tra@@": 3845, 
  "determining": 3846, 
  "governance": 3847, 
  "ingly": 3848, 
  "competitiveness": 3849, 
  "legitimate": 3850, 
  "replace": 3851, 
  "pen": 3852, 
  "tool": 3853, 
  "thick": 3854, 
  "mal@@": 3855, 
  "silly": 3856, 
  "exemption": 3857, 
  "Come": 3858, 
  "sooner": 3859, 
  "guarantees": 3860, 
  "seeking": 3861, 
  "66": 3862, 
  "aged": 3863, 
  "Turkey": 3864, 
  "ticket": 3865, 
  "season": 3866, 
  "Bi@@": 3867, 
  "marked": 3868, 
  "suitable": 3869, 
  "personally": 3870, 
  "defense": 3871, 
  "Will": 3872, 
  "bite": 3873, 
  "Lady": 3874, 
  "mer": 3875, 
  "telephone": 3876, 
  "Ru@@": 3877, 
  "ko": 3878, 
  "ridiculous": 3879, 
  "sand": 3880, 
  "launch": 3881, 
  "•": 3882, 
  "alcohol": 3883, 
  "TA": 3884, 
  "relief": 3885, 
  "facing": 3886, 
  "hereby": 3887, 
  "liver": 3888, 
  "heaven": 3889, 
  "ugly": 3890, 
  "M.@@": 3891, 
  "spare": 3892, 
  "views": 3893, 
  "refused": 3894, 
  "fake": 3895, 
  "Payments": 3896, 
  "voted": 3897, 
  "Eddie": 3898, 
  "William": 3899, 
  "lan": 3900, 
  "brown": 3901, 
  "im": 3902, 
  "fraud": 3903, 
  "exact": 3904, 
  "nurse": 3905, 
  "fifty": 3906, 
  "rural": 3907, 
  "settle": 3908, 
  "ow": 3909, 
  "tre@@": 3910, 
  "spoken": 3911, 
  "languages": 3912, 
  "quietly": 3913, 
  "comprehensive": 3914, 
  "je@@": 3915, 
  "pig": 3916, 
  "symptoms": 3917, 
  "Association": 3918, 
  "stairs": 3919, 
  "bleeding": 3920, 
  "Bill": 3921, 
  "ski": 3922, 
  "deck": 3923, 
  "component": 3924, 
  "La@@": 3925, 
  "leads": 3926, 
  "ban@@": 3927, 
  "vo@@": 3928, 
  "tail": 3929, 
  "stress": 3930, 
  "processes": 3931, 
  "Tommy": 3932, 
  "86": 3933, 
  "convinced": 3934, 
  "suspension": 3935, 
  "Centre": 3936, 
  "Un@@": 3937, 
  "mechanisms": 3938, 
  "anger": 3939, 
  "software": 3940, 
  "Rachel": 3941, 
  "War": 3942, 
  "defendant": 3943, 
  "procurement": 3944, 
  "sweetheart": 3945, 
  "winter": 3946, 
  "appointment": 3947, 
  "opposition": 3948, 
  "mode": 3949, 
  "supervision": 3950, 
  "cried": 3951, 
  "gods": 3952, 
  "mobile": 3953, 
  "youth": 3954, 
  "brings": 3955, 
  "comparison": 3956, 
  "ze@@": 3957, 
  "Policy": 3958, 
  "hand@@": 3959, 
  "expenses": 3960, 
  "é@@": 3961, 
  "allocated": 3962, 
  "stable": 3963, 
  "rising": 3964, 
  "ged": 3965, 
  "ying": 3966, 
  "suffered": 3967, 
  "unique": 3968, 
  "Chief": 3969, 
  "deficit": 3970, 
  "expensive": 3971, 
  "believes": 3972, 
  "Sea": 3973, 
  "complicated": 3974, 
  "refers": 3975, 
  "gen@@": 3976, 
  "brilliant": 3977, 
  "bearing": 3978, 
  "back@@": 3979, 
  "strengthen": 3980, 
  "ov": 3981, 
  "tied": 3982, 
  "allowing": 3983, 
  "J.": 3984, 
  "Kate": 3985, 
  "propose": 3986, 
  "goal": 3987, 
  "RE@@": 3988, 
  "400": 3989, 
  "fate": 3990, 
  "knees": 3991, 
  "cook": 3992, 
  "1996": 3993, 
  "deemed": 3994, 
  "Sal@@": 3995, 
  "19@@": 3996, 
  "customer": 3997, 
  "UK": 3998, 
  "occur": 3999, 
  "fer@@": 4000, 
  "S.": 4001, 
  "automatically": 4002, 
  "Safety": 4003, 
  "financed": 4004, 
  "accompanied": 4005, 
  "rolling": 4006, 
  "wave": 4007, 
  "pers": 4008, 
  "measured": 4009, 
  "Romania": 4010, 
  "aims": 4011, 
  "1994": 4012, 
  "bedroom": 4013, 
  "laughs": 4014, 
  "AN@@": 4015, 
  "ise": 4016, 
  "agenda": 4017, 
  "protecting": 4018, 
  "explanation": 4019, 
  "Day": 4020, 
  "tone": 4021, 
  "150": 4022, 
  "Washington": 4023, 
  "interview": 4024, 
  "ja": 4025, 
  "Mi@@": 4026, 
  "mixed": 4027, 
  "meal": 4028, 
  "crossed": 4029, 
  "determination": 4030, 
  "intention": 4031, 
  "Dis@@": 4032, 
  "indicators": 4033, 
  "lately": 4034, 
  "studied": 4035, 
  "tears": 4036, 
  "Microsoft": 4037, 
  "D.": 4038, 
  "ther@@": 4039, 
  "output": 4040, 
  "pulling": 4041, 
  "log": 4042, 
  "lets": 4043, 
  "pattern": 4044, 
  "expecting": 4045, 
  "pure": 4046, 
  "super@@": 4047, 
  "bucks": 4048, 
  "J": 4049, 
  "derogation": 4050, 
  "Department": 4051, 
  "dating": 4052, 
  "ST@@": 4053, 
  "va@@": 4054, 
  "ality": 4055, 
  "submission": 4056, 
  "alarm": 4057, 
  "ano": 4058, 
  "combat": 4059, 
  "poverty": 4060, 
  "Luxembourg": 4061, 
  "arrested": 4062, 
  "ron": 4063, 
  "ka@@": 4064, 
  "wire": 4065, 
  "director": 4066, 
  "Rome": 4067, 
  "drinks": 4068, 
  "clients": 4069, 
  "sized": 4070, 
  "facility": 4071, 
  "ably": 4072, 
  "AT@@": 4073, 
  "guidance": 4074, 
  "ef@@": 4075, 
  "maintained": 4076, 
  "ast@@": 4077, 
  "discussion": 4078, 
  "trained": 4079, 
  "express": 4080, 
  "nationals": 4081, 
  "owned": 4082, 
  "taxation": 4083, 
  "Kar@@": 4084, 
  "margin": 4085, 
  "disposal": 4086, 
  "ants": 4087, 
  "Japanese": 4088, 
  "laughed": 4089, 
  "qualified": 4090, 
  "moments": 4091, 
  "lo": 4092, 
  "Bel@@": 4093, 
  "collected": 4094, 
  "Commitments": 4095, 
  "Arthur": 4096, 
  "modified": 4097, 
  "harder": 4098, 
  "ped": 4099, 
  "Prince": 4100, 
  "suggested": 4101, 
  "coated": 4102, 
  "Majesty": 4103, 
  "lieutenant": 4104, 
  "Ge@@": 4105, 
  "respective": 4106, 
  "ward": 4107, 
  "employed": 4108, 
  "9.@@": 4109, 
  "destination": 4110, 
  "footnote": 4111, 
  "governing": 4112, 
  "dancing": 4113, 
  "buying": 4114, 
  "installation": 4115, 
  "confirm": 4116, 
  "pal": 4117, 
  "partnership": 4118, 
  "fan": 4119, 
  "interpreted": 4120, 
  "1995": 4121, 
  "Park": 4122, 
  "A.@@": 4123, 
  "tive": 4124, 
  "belt": 4125, 
  "competence": 4126, 
  "un": 4127, 
  "outta": 4128, 
  "define": 4129, 
  "outcome": 4130, 
  "smoking": 4131, 
  "els": 4132, 
  "upper": 4133, 
  "Ho@@": 4134, 
  "memories": 4135, 
  "Uncle": 4136, 
  "forth": 4137, 
  "So@@": 4138, 
  "appropriation": 4139, 
  "annulment": 4140, 
  "library": 4141, 
  "cy@@": 4142, 
  "counter": 4143, 
  "prevention": 4144, 
  "secrets": 4145, 
  "improvement": 4146, 
  "honestly": 4147, 
  "mat@@": 4148, 
  "shake": 4149, 
  "AR@@": 4150, 
  "79": 4151, 
  "Friday": 4152, 
  "10.@@": 4153, 
  "mobility": 4154, 
  "remote": 4155, 
  "Col@@": 4156, 
  "hundreds": 4157, 
  "gain": 4158, 
  "doctors": 4159, 
  "&apos;it": 4160, 
  "powder": 4161, 
  "gar@@": 4162, 
  "ering": 4163, 
  "gear": 4164, 
  "cru@@": 4165, 
  "tip": 4166, 
  "queen": 4167, 
  "che": 4168, 
  "Sha@@": 4169, 
  "grave": 4170, 
  "suicide": 4171, 
  "submits": 4172, 
  "soil": 4173, 
  "COMMISSION": 4174, 
  "Sa@@": 4175, 
  "Walter": 4176, 
  "super": 4177, 
  "stocks": 4178, 
  "Ba@@": 4179, 
  "exports": 4180, 
  "alleged": 4181, 
  "bags": 4182, 
  "suffering": 4183, 
  "refuse": 4184, 
  "opposite": 4185, 
  "tan": 4186, 
  "Black": 4187, 
  "St.": 4188, 
  "crash": 4189, 
  "Do@@": 4190, 
  "Market": 4191, 
  "lists": 4192, 
  "beneficiaries": 4193, 
  "spell": 4194, 
  "desire": 4195, 
  "aw": 4196, 
  "bread": 4197, 
  "fed": 4198, 
  "Guidelines": 4199, 
  "exit": 4200, 
  "P.": 4201, 
  "lin@@": 4202, 
  "Lee": 4203, 
  "ction": 4204, 
  "sal@@": 4205, 
  "s--": 4206, 
  "jacket": 4207, 
  "imported": 4208, 
  "congratulations": 4209, 
  "participate": 4210, 
  "sweetie": 4211, 
  "arising": 4212, 
  "mountains": 4213, 
  "DNA": 4214, 
  "collective": 4215, 
  "yard": 4216, 
  "offering": 4217, 
  "votes": 4218, 
  "dick": 4219, 
  "ο@@": 4220, 
  "Che@@": 4221, 
  "Tri@@": 4222, 
  "cent": 4223, 
  "Mal@@": 4224, 
  "alert": 4225, 
  "Web": 4226, 
  "Denmark": 4227, 
  "confidential": 4228, 
  "Health": 4229, 
  "Services": 4230, 
  "extend": 4231, 
  "samples": 4232, 
  "false": 4233, 
  "participating": 4234, 
  "Sunday": 4235, 
  "contracting": 4236, 
  "cities": 4237, 
  "tes": 4238, 
  "Kim": 4239, 
  "alien": 4240, 
  "bal@@": 4241, 
  "Sweden": 4242, 
  "mid": 4243, 
  "cheap": 4244, 
  "fifth": 4245, 
  "experienced": 4246, 
  "devil": 4247, 
  "Smith": 4248, 
  "ro": 4249, 
  "dumped": 4250, 
  "ER@@": 4251, 
  "enemies": 4252, 
  "digital": 4253, 
  "Non": 4254, 
  "input": 4255, 
  "tested": 4256, 
  "ade": 4257, 
  "chose": 4258, 
  "licences": 4259, 
  "screaming": 4260, 
  "principal": 4261, 
  "We@@": 4262, 
  "picking": 4263, 
  "repeated": 4264, 
  "por@@": 4265, 
  "considerations": 4266, 
  "administered": 4267, 
  "houses": 4268, 
  "Brian": 4269, 
  "attacked": 4270, 
  "goin": 4271, 
  "dies": 4272, 
  "ages": 4273, 
  "lifted": 4274, 
  "ye": 4275, 
  "steady": 4276, 
  "col@@": 4277, 
  "tablet": 4278, 
  "pages": 4279, 
  "Good": 4280, 
  "invite": 4281, 
  "Andy": 4282, 
  "ty@@": 4283, 
  "Table": 4284, 
  "pr@@": 4285, 
  "pray": 4286, 
  "handling": 4287, 
  "kinda": 4288, 
  "fa@@": 4289, 
  "Gar@@": 4290, 
  "era": 4291, 
  "fees": 4292, 
  "ceiling": 4293, 
  "est@@": 4294, 
  "hill": 4295, 
  "ek": 4296, 
  "dollar": 4297, 
  "dig": 4298, 
  "clock": 4299, 
  "frozen": 4300, 
  "motor": 4301, 
  "head@@": 4302, 
  "garden": 4303, 
  "coach": 4304, 
  "badly": 4305, 
  "singing": 4306, 
  "Ad@@": 4307, 
  "AL@@": 4308, 
  "largest": 4309, 
  "rolled": 4310, 
  "subjects": 4311, 
  "tha": 4312, 
  "reaching": 4313, 
  "ye@@": 4314, 
  "hunting": 4315, 
  "precisely": 4316, 
  "liable": 4317, 
  "rent": 4318, 
  "Inter@@": 4319, 
  "zi@@": 4320, 
  "mirror": 4321, 
  "tour": 4322, 
  "mile": 4323, 
  "statistical": 4324, 
  "Simon": 4325, 
  "continues": 4326, 
  "excluded": 4327, 
  "suck": 4328, 
  "cap": 4329, 
  "Data": 4330, 
  "Lieutenant": 4331, 
  "CO@@": 4332, 
  "essentially": 4333, 
  "angle": 4334, 
  "necessarily": 4335, 
  "rely": 4336, 
  "Roger": 4337, 
  "confused": 4338, 
  "she@@": 4339, 
  "updated": 4340, 
  "settlement": 4341, 
  "ct": 4342, 
  "menu": 4343, 
  "regret": 4344, 
  "Mac@@": 4345, 
  "sergeant": 4346, 
  "ghost": 4347, 
  "Bra@@": 4348, 
  "UN@@": 4349, 
  "campaign": 4350, 
  "shoulders": 4351, 
  "Ti@@": 4352, 
  "smooth": 4353, 
  "San@@": 4354, 
  "massive": 4355, 
  "Plan": 4356, 
  "considerable": 4357, 
  "depending": 4358, 
  "ats": 4359, 
  "Go@@": 4360, 
  "tis": 4361, 
  "Amy": 4362, 
  "Saturday": 4363, 
  "rail": 4364, 
  "gray": 4365, 
  "grass": 4366, 
  "appointed": 4367, 
  "guests": 4368, 
  "Air": 4369, 
  "74": 4370, 
  "reflect": 4371, 
  "younger": 4372, 
  "inclusion": 4373, 
  "signature": 4374, 
  "84": 4375, 
  "tickets": 4376, 
  "relative": 4377, 
  "Name": 4378, 
  "tic@@": 4379, 
  "med": 4380, 
  "cks": 4381, 
  "Hu@@": 4382, 
  "ser": 4383, 
  "football": 4384, 
  "borders": 4385, 
  "wore": 4386, 
  "quota": 4387, 
  "brave": 4388, 
  "Si@@": 4389, 
  "Adam": 4390, 
  "crack": 4391, 
  "organised": 4392, 
  "sounded": 4393, 
  "thereby": 4394, 
  "ine@@": 4395, 
  "Mama": 4396, 
  "VI": 4397, 
  "suffer": 4398, 
  "wherever": 4399, 
  "whispered": 4400, 
  "permitted": 4401, 
  "ily": 4402, 
  "ber": 4403, 
  "exceeding": 4404, 
  "tele@@": 4405, 
  "nights": 4406, 
  "gross": 4407, 
  "ac": 4408, 
  "democratic": 4409, 
  "fee": 4410, 
  "license": 4411, 
  "Edward": 4412, 
  "11.@@": 4413, 
  "certificates": 4414, 
  "infection": 4415, 
  "demonstrate": 4416, 
  "worker": 4417, 
  "disorders": 4418, 
  "cleaning": 4419, 
  "popular": 4420, 
  "blew": 4421, 
  "investors": 4422, 
  "kicked": 4423, 
  "sur@@": 4424, 
  "communicate": 4425, 
  "supervisory": 4426, 
  "minor": 4427, 
  "concrete": 4428, 
  "wishes": 4429, 
  "Jason": 4430, 
  "driven": 4431, 
  "Energy": 4432, 
  "raising": 4433, 
  "my@@": 4434, 
  "visible": 4435, 
  "senior": 4436, 
  "bro": 4437, 
  "transparent": 4438, 
  "beg": 4439, 
  "receipt": 4440, 
  "presentation": 4441, 
  "sites": 4442, 
  "cur@@": 4443, 
  "mere": 4444, 
  "aboard": 4445, 
  "breast": 4446, 
  "cartel": 4447, 
  "Outturn": 4448, 
  "pounds": 4449, 
  "automatic": 4450, 
  "Western": 4451, 
  "firms": 4452, 
  "ire": 4453, 
  "comparable": 4454, 
  "plain": 4455, 
  "shing": 4456, 
  "mood": 4457, 
  "landing": 4458, 
  "Mexico": 4459, 
  "IS@@": 4460, 
  "contents": 4461, 
  "ED": 4462, 
  "exclusive": 4463, 
  "SA": 4464, 
  "Chris": 4465, 
  "estate": 4466, 
  "installed": 4467, 
  "reforms": 4468, 
  "ell": 4469, 
  "sin": 4470, 
  "fancy": 4471, 
  "chuckles": 4472, 
  "Eric": 4473, 
  "recommendation": 4474, 
  "Dan": 4475, 
  "lesson": 4476, 
  "bath": 4477, 
  "ali@@": 4478, 
  "Doc": 4479, 
  "Scott": 4480, 
  "Bur@@": 4481, 
  "à": 4482, 
  "score": 4483, 
  "ore": 4484, 
  "pal@@": 4485, 
  "EN@@": 4486, 
  "tin@@": 4487, 
  "formed": 4488, 
  "Vi@@": 4489, 
  "ham": 4490, 
  "thy": 4491, 
  "ctions": 4492, 
  "disaster": 4493, 
  "dated": 4494, 
  "clo@@": 4495, 
  "professor": 4496, 
  "helps": 4497, 
  "lan@@": 4498, 
  "incredible": 4499, 
  "len@@": 4500, 
  "objects": 4501, 
  "cid": 4502, 
  "insane": 4503, 
  "stones": 4504, 
  "resident": 4505, 
  "&lt;": 4506, 
  "Secretary": 4507, 
  "curious": 4508, 
  "sighs": 4509, 
  "basically": 4510, 
  "Affairs": 4511, 
  "variety": 4512, 
  "identical": 4513, 
  "hired": 4514, 
  "moves": 4515, 
  "movies": 4516, 
  "Ca@@": 4517, 
  "Luke": 4518, 
  "04@@": 4519, 
  "panel": 4520, 
  "assumed": 4521, 
  "fleet": 4522, 
  "bow": 4523, 
  "association": 4524, 
  "Bulgaria": 4525, 
  "ocean": 4526, 
  "ble@@": 4527, 
  "trace": 4528, 
  "internet": 4529, 
  "visa": 4530, 
  "precise": 4531, 
  "tru@@": 4532, 
  "rush": 4533, 
  "Americans": 4534, 
  "priest": 4535, 
  "rope": 4536, 
  "defend": 4537, 
  "absolute": 4538, 
  "entering": 4539, 
  "Big": 4540, 
  "tables": 4541, 
  "focused": 4542, 
  "guide": 4543, 
  "narrow": 4544, 
  "documentation": 4545, 
  "Kevin": 4546, 
  "Honor": 4547, 
  "Hungary": 4548, 
  "mi": 4549, 
  "exceptional": 4550, 
  "bel@@": 4551, 
  "ils": 4552, 
  "expiry": 4553, 
  "codes": 4554, 
  "adult": 4555, 
  "Alan": 4556, 
  "frame": 4557, 
  "logical": 4558, 
  "IT@@": 4559, 
  "excessive": 4560, 
  "chamber": 4561, 
  "cooperate": 4562, 
  "puts": 4563, 
  "corporate": 4564, 
  "lers": 4565, 
  "IC@@": 4566, 
  "banking": 4567, 
  "hunt": 4568, 
  "candidate": 4569, 
  "vulnerable": 4570, 
  "ratio": 4571, 
  "shots": 4572, 
  "ess": 4573, 
  "dates": 4574, 
  "belongs": 4575, 
  "Strategy": 4576, 
  "glasses": 4577, 
  "brief": 4578, 
  "argue": 4579, 
  "not@@": 4580, 
  "involve": 4581, 
  "cing": 4582, 
  "sexy": 4583, 
  "Cha@@": 4584, 
  "oc@@": 4585, 
  "CH@@": 4586, 
  "participants": 4587, 
  "03@@": 4588, 
  "Special": 4589, 
  "ani": 4590, 
  "ist@@": 4591, 
  "reviews": 4592, 
  "crucial": 4593, 
  "trap": 4594, 
  "motherfucker": 4595, 
  "doin": 4596, 
  "Santa": 4597, 
  "Date": 4598, 
  "butt": 4599, 
  "tower": 4600, 
  "wor@@": 4601, 
  "tonnes": 4602, 
  "s.": 4603, 
  "enterprise": 4604, 
  "con": 4605, 
  "tan@@": 4606, 
  "Sh@@": 4607, 
  "dismissed": 4608, 
  "invitation": 4609, 
  "electric": 4610, 
  "Ukraine": 4611, 
  "cos": 4612, 
  "Iran": 4613, 
  "U.S.": 4614, 
  "tw@@": 4615, 
  "structures": 4616, 
  "hook": 4617, 
  "acquired": 4618, 
  "feeding": 4619, 
  "om": 4620, 
  "St@@": 4621, 
  "lit": 4622, 
  "Human": 4623, 
  "proportion": 4624, 
  "comment": 4625, 
  "Pete": 4626, 
  "withdrawal": 4627, 
  "j": 4628, 
  "Jean": 4629, 
  "degrees": 4630, 
  "desert": 4631, 
  "recitals": 4632, 
  "Anna": 4633, 
  "hoped": 4634, 
  "solve": 4635, 
  "verify": 4636, 
  "Type": 4637, 
  "Indian": 4638, 
  "tor@@": 4639, 
  "tank": 4640, 
  "Green": 4641, 
  "demonstrated": 4642, 
  "ig@@": 4643, 
  "solely": 4644, 
  "pot": 4645, 
  "shh": 4646, 
  "Ke@@": 4647, 
  "discretion": 4648, 
  "handsome": 4649, 
  "collect": 4650, 
  "Commander": 4651, 
  "execution": 4652, 
  "fax": 4653, 
  "Mat@@": 4654, 
  "vital": 4655, 
  "unlike": 4656, 
  "exposed": 4657, 
  "meters": 4658, 
  "stands": 4659, 
  "secondary": 4660, 
  "Ministry": 4661, 
  "spo@@": 4662, 
  "freak": 4663, 
  "drag": 4664, 
  "ney": 4665, 
  "ran@@": 4666, 
  "discussed": 4667, 
  "resource": 4668, 
  "responsibilities": 4669, 
  "ov@@": 4670, 
  "University": 4671, 
  "troops": 4672, 
  "Windows": 4673, 
  "-I": 4674, 
  "tar@@": 4675, 
  "urgent": 4676, 
  "sto@@": 4677, 
  "voting": 4678, 
  "gr@@": 4679, 
  "links": 4680, 
  "lake": 4681, 
  "ink": 4682, 
  "cleared": 4683, 
  "Federal": 4684, 
  "tariff": 4685, 
  "launched": 4686, 
  "consequence": 4687, 
  "procedural": 4688, 
  "gre@@": 4689, 
  "involvement": 4690, 
  "star@@": 4691, 
  "La": 4692, 
  "Prague": 4693, 
  "gentleman": 4694, 
  "announced": 4695, 
  "Control": 4696, 
  "equity": 4697, 
  "castle": 4698, 
  "height": 4699, 
  "certainty": 4700, 
  "gy": 4701, 
  "increases": 4702, 
  "ban": 4703, 
  "riding": 4704, 
  "assistant": 4705, 
  "technological": 4706, 
  "rear": 4707, 
  "terrorist": 4708, 
  "web": 4709, 
  "recognized": 4710, 
  "damned": 4711, 
  "slipped": 4712, 
  "objections": 4713, 
  "calendar": 4714, 
  "RO@@": 4715, 
  "ending": 4716, 
  "cohesion": 4717, 
  "Gra@@": 4718, 
  "processed": 4719, 
  "ay": 4720, 
  "ena": 4721, 
  "delete": 4722, 
  "attractive": 4723, 
  "partial": 4724, 
  "rocks": 4725, 
  "twelve": 4726, 
  "pale": 4727, 
  "kers": 4728, 
  "throwing": 4729, 
  "seats": 4730, 
  "funeral": 4731, 
  "pressed": 4732, 
  "ising": 4733, 
  "trail": 4734, 
  "CD": 4735, 
  "bury": 4736, 
  "recovered": 4737, 
  "cro@@": 4738, 
  "subsequently": 4739, 
  "strengthening": 4740, 
  "preparing": 4741, 
  "Ri@@": 4742, 
  "Right": 4743, 
  "deadline": 4744, 
  "Reference": 4745, 
  "jo@@": 4746, 
  "cting": 4747, 
  "Christian": 4748, 
  "adults": 4749, 
  "jealous": 4750, 
  "ren@@": 4751, 
  "us@@": 4752, 
  "clearance": 4753, 
  "People": 4754, 
  "genius": 4755, 
  "awareness": 4756, 
  "downstairs": 4757, 
  "proved": 4758, 
  "ang@@": 4759, 
  "unusual": 4760, 
  "sive": 4761, 
  "reputation": 4762, 
  "justify": 4763, 
  "religious": 4764, 
  "plays": 4765, 
  "ws": 4766, 
  "cabin": 4767, 
  "guaranteed": 4768, 
  "wording": 4769, 
  "Research": 4770, 
  "tunnel": 4771, 
  "bilateral": 4772, 
  "players": 4773, 
  "pla@@": 4774, 
  "ths": 4775, 
  "mid@@": 4776, 
  "cap@@": 4777, 
  "Dean": 4778, 
  "Grand": 4779, 
  "shopping": 4780, 
  "Bal@@": 4781, 
  "Tu@@": 4782, 
  "br@@": 4783, 
  "hy@@": 4784, 
  "ven@@": 4785, 
  "blade": 4786, 
  "hated": 4787, 
  "painting": 4788, 
  "1993": 4789, 
  "renal": 4790, 
  "bur@@": 4791, 
  "unemployment": 4792, 
  "interim": 4793, 
  "pleas": 4794, 
  "index": 4795, 
  "Israel": 4796, 
  "sor@@": 4797, 
  "joy": 4798, 
  "folder": 4799, 
  "lands": 4800, 
  "pie": 4801, 
  "E.": 4802, 
  "lonely": 4803, 
  "gang": 4804, 
  "awake": 4805, 
  "admitted": 4806, 
  "panic": 4807, 
  "COMP": 4808, 
  "micro@@": 4809, 
  "connect": 4810, 
  "nbsp": 4811, 
  "properties": 4812, 
  "tal": 4813, 
  "Protection": 4814, 
  "election": 4815, 
  "ford": 4816, 
  "tr@@": 4817, 
  "desperate": 4818, 
  "intend": 4819, 
  "rapidly": 4820, 
  "decent": 4821, 
  "Ab@@": 4822, 
  "searching": 4823, 
  "EL@@": 4824, 
  "vampire": 4825, 
  "¶": 4826, 
  "asks": 4827, 
  "ct@@": 4828, 
  "rapid": 4829, 
  "yards": 4830, 
  "Pa@@": 4831, 
  "correctly": 4832, 
  "channel": 4833, 
  "listened": 4834, 
  "ino": 4835, 
  "behavior": 4836, 
  "harmonised": 4837, 
  "asylum": 4838, 
  "jumped": 4839, 
  "sti@@": 4840, 
  "suspected": 4841, 
  "Cre@@": 4842, 
  "rats": 4843, 
  "arrangement": 4844, 
  "Paragraph": 4845, 
  "kinds": 4846, 
  "Je@@": 4847, 
  "babies": 4848, 
  "sun@@": 4849, 
  "relate": 4850, 
  "Are": 4851, 
  "and@@": 4852, 
  "packaging": 4853, 
  "Public": 4854, 
  "organic": 4855, 
  "criterion": 4856, 
  "screwed": 4857, 
  "No@@": 4858, 
  "entrance": 4859, 
  "Ben@@": 4860, 
  "secondly": 4861, 
  "validity": 4862, 
  "disclosure": 4863, 
  "branch": 4864, 
  "assist": 4865, 
  "pipe": 4866, 
  "Dan@@": 4867, 
  "doubts": 4868, 
  "Lan@@": 4869, 
  "stations": 4870, 
  "images": 4871, 
  "refusal": 4872, 
  "victory": 4873, 
  "sole": 4874, 
  "abuse": 4875, 
  "ari@@": 4876, 
  "AD@@": 4877, 
  "mix": 4878, 
  "liquid": 4879, 
  "emission": 4880, 
  "&apos;what": 4881, 
  "air@@": 4882, 
  "naturally": 4883, 
  "reserve": 4884, 
  "ruin": 4885, 
  "politics": 4886, 
  "Nations": 4887, 
  "mask": 4888, 
  "Clark": 4889, 
  "dle": 4890, 
  "constant": 4891, 
  "Time": 4892, 
  "Monday": 4893, 
  "independence": 4894, 
  "models": 4895, 
  "satellite": 4896, 
  "AS": 4897, 
  "ut@@": 4898, 
  "leaned": 4899, 
  "Bre@@": 4900, 
  "brand": 4901, 
  "hereinafter": 4902, 
  "adjusted": 4903, 
  "division": 4904, 
  "Carter": 4905, 
  "&apos;clock": 4906, 
  "electrical": 4907, 
  "Euratom": 4908, 
  "Second": 4909, 
  "borne": 4910, 
  "Jerry": 4911, 
  "Total": 4912, 
  "wed": 4913, 
  "diseases": 4914, 
  "undertaken": 4915, 
  "ii": 4916, 
  "achieving": 4917, 
  "ll": 4918, 
  "lawyers": 4919, 
  "trigger": 4920, 
  "loaded": 4921, 
  "ctive": 4922, 
  "rating": 4923, 
  "Al": 4924, 
  "1992": 4925, 
  "toilet": 4926, 
  "Duke": 4927, 
  "gg@@": 4928, 
  "Contracting": 4929, 
  "underlying": 4930, 
  "aries": 4931, 
  "ä@@": 4932, 
  "recall": 4933, 
  "Z": 4934, 
  "relatively": 4935, 
  "Remarks": 4936, 
  "Year": 4937, 
  "strategies": 4938, 
  "creatures": 4939, 
  "minds": 4940, 
  "proceed": 4941, 
  "Civil": 4942, 
  "photos": 4943, 
  "forty": 4944, 
  "tor": 4945, 
  "union": 4946, 
  "fore@@": 4947, 
  "His": 4948, 
  "chi@@": 4949, 
  "sport": 4950, 
  "destruction": 4951, 
  "mag@@": 4952, 
  "Language": 4953, 
  "beast": 4954, 
  "advertising": 4955, 
  "deeply": 4956, 
  "ong": 4957, 
  "trans@@": 4958, 
  "flu@@": 4959, 
  "California": 4960, 
  "fantastic": 4961, 
  "appearance": 4962, 
  "witch": 4963, 
  "Han@@": 4964, 
  "courage": 4965, 
  "indicates": 4966, 
  "Her@@": 4967, 
  "contractual": 4968, 
  "nes": 4969, 
  "confusion": 4970, 
  "woke": 4971, 
  "Ha@@": 4972, 
  "pin": 4973, 
  "references": 4974, 
  "chances": 4975, 
  "agriculture": 4976, 
  "equally": 4977, 
  "causes": 4978, 
  "deleted": 4979, 
  "shi@@": 4980, 
  "perspective": 4981, 
  "conclude": 4982, 
  "difficulty": 4983, 
  "platform": 4984, 
  "audience": 4985, 
  "specifications": 4986, 
  "du": 4987, 
  "cure": 4988, 
  "sections": 4989, 
  "string": 4990, 
  "slip": 4991, 
  "holds": 4992, 
  "errors": 4993, 
  "sla@@": 4994, 
  "incorporated": 4995, 
  "AL": 4996, 
  "vast": 4997, 
  "settings": 4998, 
  "whilst": 4999, 
  "divorce": 5000, 
  "clause": 5001, 
  "com": 5002, 
  "instant": 5003, 
  "Sta@@": 5004, 
  "ology": 5005, 
  "multi": 5006, 
  "vis": 5007, 
  "describe": 5008, 
  "spe@@": 5009, 
  "wan@@": 5010, 
  "ruined": 5011, 
  "reliable": 5012, 
  "divided": 5013, 
  "aunt": 5014, 
  "dragon": 5015, 
  "dimension": 5016, 
  "hurts": 5017, 
  "Aid": 5018, 
  "Susan": 5019, 
  "ata": 5020, 
  "ori@@": 5021, 
  "é": 5022, 
  "escaped": 5023, 
  "ou": 5024, 
  "transitional": 5025, 
  "stream": 5026, 
  "dawn": 5027, 
  "thrown": 5028, 
  "neighborhood": 5029, 
  "managing": 5030, 
  "clever": 5031, 
  "resistance": 5032, 
  "AC@@": 5033, 
  "Professor": 5034, 
  "egg": 5035, 
  "Ni@@": 5036, 
  "precious": 5037, 
  "ey": 5038, 
  "ni": 5039, 
  "IC": 5040, 
  "represents": 5041, 
  "ON": 5042, 
  "hal@@": 5043, 
  "protocol": 5044, 
  "investigations": 5045, 
  "doses": 5046, 
  "quarters": 5047, 
  "Far@@": 5048, 
  "arrive": 5049, 
  "indirect": 5050, 
  "gravity": 5051, 
  "grandfather": 5052, 
  "Q": 5053, 
  "um@@": 5054, 
  "ignore": 5055, 
  "pushing": 5056, 
  "az@@": 5057, 
  "grants": 5058, 
  "valuable": 5059, 
  "pin@@": 5060, 
  "ati@@": 5061, 
  "Iraq": 5062, 
  "bond": 5063, 
  "securities": 5064, 
  "grateful": 5065, 
  "parameters": 5066, 
  "Emily": 5067, 
  "tracks": 5068, 
  "Dave": 5069, 
  "CN": 5070, 
  "12.@@": 5071, 
  "employee": 5072, 
  "Ron": 5073, 
  "ation@@": 5074, 
  "fulfilled": 5075, 
  "za@@": 5076, 
  "Charter": 5077, 
  "fashion": 5078, 
  "economies": 5079, 
  "hire": 5080, 
  "Jo@@": 5081, 
  "cker": 5082, 
  "prisoner": 5083, 
  "sons": 5084, 
  "recommend": 5085, 
  "Larry": 5086, 
  "begun": 5087, 
  "blocks": 5088, 
  "legally": 5089, 
  "disappear": 5090, 
  "fication": 5091, 
  "cares": 5092, 
  "ves": 5093, 
  "cy": 5094, 
  "continuing": 5095, 
  "increasingly": 5096, 
  "revised": 5097, 
  "bike": 5098, 
  "Army": 5099, 
  "mum": 5100, 
  "regularly": 5101, 
  "returns": 5102, 
  "restricted": 5103, 
  "Ser@@": 5104, 
  "attitude": 5105, 
  "Pan@@": 5106, 
  "attacks": 5107, 
  "impose": 5108, 
  "yep": 5109, 
  "placing": 5110, 
  "convince": 5111, 
  "bars": 5112, 
  "candidates": 5113, 
  "proportionality": 5114, 
  "password": 5115, 
  "boring": 5116, 
  "gently": 5117, 
  "ach@@": 5118, 
  "violent": 5119, 
  "C.@@": 5120, 
  "2.1": 5121, 
  "decrease": 5122, 
  "berg": 5123, 
  "abandoned": 5124, 
  "ents": 5125, 
  "trapped": 5126, 
  "win@@": 5127, 
  "impairment": 5128, 
  "migration": 5129, 
  "Two": 5130, 
  "chocolate": 5131, 
  "recording": 5132, 
  "talks": 5133, 
  "threshold": 5134, 
  "consent": 5135, 
  "cab": 5136, 
  "incident": 5137, 
  "supports": 5138, 
  "distant": 5139, 
  "institutional": 5140, 
  "shadows": 5141, 
  "ES@@": 5142, 
  "tro@@": 5143, 
  "gathered": 5144, 
  "rage": 5145, 
  "burst": 5146, 
  "discharge": 5147, 
  "va": 5148, 
  "Get": 5149, 
  "golden": 5150, 
  "pat@@": 5151, 
  "ung": 5152, 
  "EC@@": 5153, 
  "colour": 5154, 
  "fever": 5155, 
  "IA": 5156, 
  "remuneration": 5157, 
  "affecting": 5158, 
  "Im@@": 5159, 
  "compatibility": 5160, 
  "stranger": 5161, 
  "Customs": 5162, 
  "250": 5163, 
  "pped": 5164, 
  "Can@@": 5165, 
  "El": 5166, 
  "romantic": 5167, 
  "assessing": 5168, 
  "indications": 5169, 
  "savings": 5170, 
  "impression": 5171, 
  "carrier": 5172, 
  "pissed": 5173, 
  "lover": 5174, 
  "citizen": 5175, 
  "cable": 5176, 
  "ongoing": 5177, 
  "Carl": 5178, 
  "warrant": 5179, 
  "restriction": 5180, 
  "labelling": 5181, 
  "engines": 5182, 
  "GmbH": 5183, 
  "mann": 5184, 
  "han@@": 5185, 
  "concentrate": 5186, 
  "OR": 5187, 
  "Chicago": 5188, 
  "programming": 5189, 
  "sports": 5190, 
  "gan": 5191, 
  "Company": 5192, 
  "ier": 5193, 
  "leather": 5194, 
  "fy": 5195, 
  "winning": 5196, 
  "ISO": 5197, 
  "char@@": 5198, 
  "allowances": 5199, 
  "acquisition": 5200, 
  "enhance": 5201, 
  "African": 5202, 
  "parallel": 5203, 
  "smiling": 5204, 
  "comfort": 5205, 
  "tear": 5206, 
  "flash": 5207, 
  "operative": 5208, 
  "Phil": 5209, 
  "penalty": 5210, 
  "behaviour": 5211, 
  "robot": 5212, 
  "commit": 5213, 
  "post@@": 5214, 
  "&apos;the": 5215, 
  "retail": 5216, 
  "zing": 5217, 
  "wings": 5218, 
  "Del@@": 5219, 
  "lion": 5220, 
  "satisfy": 5221, 
  "opinions": 5222, 
  "transition": 5223, 
  "delegated": 5224, 
  "warn": 5225, 
  "Others": 5226, 
  "midnight": 5227, 
  "Ta@@": 5228, 
  "pursued": 5229, 
  "grabbed": 5230, 
  "mystery": 5231, 
  "adapted": 5232, 
  "pride": 5233, 
  "boots": 5234, 
  "lar@@": 5235, 
  "pigs": 5236, 
  "poison": 5237, 
  "trusted": 5238, 
  "ene": 5239, 
  "Officer": 5240, 
  "scheduled": 5241, 
  "obliged": 5242, 
  "Korea": 5243, 
  "laboratory": 5244, 
  "taxable": 5245, 
  "designation": 5246, 
  "providers": 5247, 
  "ff@@": 5248, 
  "CIA": 5249, 
  "Rule": 5250, 
  "cs": 5251, 
  "hood": 5252, 
  "exclusively": 5253, 
  "communicated": 5254, 
  "appellant": 5255, 
  "atic": 5256, 
  "cave": 5257, 
  "beam": 5258, 
  "1,@@": 5259, 
  "Chuck": 5260, 
  "Can": 5261, 
  "sions": 5262, 
  "pink": 5263, 
  "innovative": 5264, 
  "tissue": 5265, 
  "maritime": 5266, 
  "fortune": 5267, 
  "sted": 5268, 
  "sting": 5269, 
  "ment@@": 5270, 
  "fifteen": 5271, 
  "Thank": 5272, 
  "spy": 5273, 
  "tal@@": 5274, 
  "terrorism": 5275, 
  "L.": 5276, 
  "Pi@@": 5277, 
  "officially": 5278, 
  "Mag@@": 5279, 
  "Area": 5280, 
  "bell": 5281, 
  "manufacturing": 5282, 
  "pping": 5283, 
  "Er@@": 5284, 
  "genuine": 5285, 
  "ase": 5286, 
  "butter": 5287, 
  "suspended": 5288, 
  "teaching": 5289, 
  "work@@": 5290, 
  "assure": 5291, 
  "primarily": 5292, 
  "Tar@@": 5293, 
  "cargo": 5294, 
  "pursue": 5295, 
  "27@@": 5296, 
  "Pen@@": 5297, 
  "Annie": 5298, 
  "prisoners": 5299, 
  "shy": 5300, 
  "Kelly": 5301, 
  "prodej": 5302, 
  "Lily": 5303, 
  "possession": 5304, 
  "Old": 5305, 
  "artist": 5306, 
  "boxes": 5307, 
  "sheriff": 5308, 
  "knocked": 5309, 
  "nu@@": 5310, 
  "ft": 5311, 
  "Chi@@": 5312, 
  "800": 5313, 
  "initiated": 5314, 
  "ear@@": 5315, 
  "exciting": 5316, 
  "voices": 5317, 
  "pl@@": 5318, 
  "revenge": 5319, 
  "piss": 5320, 
  "Miles": 5321, 
  "FBI": 5322, 
  "classes": 5323, 
  "beings": 5324, 
  "softly": 5325, 
  "random": 5326, 
  "amend": 5327, 
  "plasma": 5328, 
  "Star": 5329, 
  "enormous": 5330, 
  "renewable": 5331, 
  "nasty": 5332, 
  "Art.": 5333, 
  "REGULATION": 5334, 
  "holes": 5335, 
  "ere": 5336, 
  "Go": 5337, 
  "scream": 5338, 
  "completion": 5339, 
  "factory": 5340, 
  "mo": 5341, 
  "EUROPEAN": 5342, 
  "Jackson": 5343, 
  "penalties": 5344, 
  "talent": 5345, 
  "Fre@@": 5346, 
  "wal@@": 5347, 
  "mistakes": 5348, 
  "acceptable": 5349, 
  "prescribed": 5350, 
  "visual": 5351, 
  "Ms": 5352, 
  "juice": 5353, 
  "sweat": 5354, 
  "climb": 5355, 
  "Number": 5356, 
  "flows": 5357, 
  "Kyle": 5358, 
  "trials": 5359, 
  "turnover": 5360, 
  "ji@@": 5361, 
  "cts": 5362, 
  "Finland": 5363, 
  "cuts": 5364, 
  "subsidiary": 5365, 
  "actors": 5366, 
  "Grace": 5367, 
  "scare": 5368, 
  "cat@@": 5369, 
  "enjoyed": 5370, 
  "120": 5371, 
  "·": 5372, 
  "At": 5373, 
  "warned": 5374, 
  "24@@": 5375, 
  "producing": 5376, 
  "railway": 5377, 
  "mandatory": 5378, 
  "Alice": 5379, 
  "ko@@": 5380, 
  "servants": 5381, 
  "root": 5382, 
  "crimes": 5383, 
  "chin": 5384, 
  "frightened": 5385, 
  "ate@@": 5386, 
  "Sar@@": 5387, 
  "seed": 5388, 
  "isation": 5389, 
  "kissed": 5390, 
  "kes": 5391, 
  "backup": 5392, 
  "Ste@@": 5393, 
  "je": 5394, 
  "Robin": 5395, 
  "I.@@": 5396, 
  "Irish": 5397, 
  "bent": 5398, 
  "federal": 5399, 
  "stu@@": 5400, 
  "certification": 5401, 
  "corruption": 5402, 
  "san@@": 5403, 
  "DECISION": 5404, 
  "occasion": 5405, 
  "tering": 5406, 
  "Wil@@": 5407, 
  "serving": 5408, 
  "DG": 5409, 
  "hom@@": 5410, 
  "Prime": 5411, 
  "ick": 5412, 
  "extreme": 5413, 
  "remarks": 5414, 
  "affair": 5415, 
  "alized": 5416, 
  "Portuguese": 5417, 
  "privacy": 5418, 
  "jury": 5419, 
  "directory": 5420, 
  "sodium": 5421, 
  "Note": 5422, 
  "replacement": 5423, 
  "availability": 5424, 
  "fairly": 5425, 
  "shell": 5426, 
  "voluntary": 5427, 
  "reflected": 5428, 
  "literally": 5429, 
  "bri@@": 5430, 
  "jerk": 5431, 
  "Matt": 5432, 
  "stopping": 5433, 
  "corridor": 5434, 
  "bre@@": 5435, 
  "quotas": 5436, 
  "paras": 5437, 
  "composition": 5438, 
  "&apos;and": 5439, 
  "gen": 5440, 
  "yourselves": 5441, 
  "derived": 5442, 
  "brains": 5443, 
  "whore": 5444, 
  "composed": 5445, 
  "River": 5446, 
  "Lisa": 5447, 
  "useless": 5448, 
  "s.&apos;": 5449, 
  "Howard": 5450, 
  "grace": 5451, 
  "arranged": 5452, 
  "extraordinary": 5453, 
  "happiness": 5454, 
  "notably": 5455, 
  "Joey": 5456, 
  "mandate": 5457, 
  "fixing": 5458, 
  "consists": 5459, 
  "cer": 5460, 
  "Amendment": 5461, 
  "Dutch": 5462, 
  "Jeff": 5463, 
  "liabilities": 5464, 
  "Mediterranean": 5465, 
  "intensity": 5466, 
  "hor@@": 5467, 
  "atmosphere": 5468, 
  "repair": 5469, 
  "successfully": 5470, 
  "Ka@@": 5471, 
  "fac@@": 5472, 
  "rings": 5473, 
  "Ga@@": 5474, 
  "issuing": 5475, 
  "pardon": 5476, 
  "dish": 5477, 
  "excluding": 5478, 
  "monetary": 5479, 
  "pending": 5480, 
  "causing": 5481, 
  "25@@": 5482, 
  "Ed": 5483, 
  "movements": 5484, 
  "accessible": 5485, 
  "welfare": 5486, 
  "targeted": 5487, 
  "600": 5488, 
  "scary": 5489, 
  "directed": 5490, 
  "surrounded": 5491, 
  "cooking": 5492, 
  "ory": 5493, 
  "garage": 5494, 
  "orange": 5495, 
  "harmonisation": 5496, 
  "gender": 5497, 
  "Van": 5498, 
  "cats": 5499, 
  "craft": 5500, 
  "prohibition": 5501, 
  "mas@@": 5502, 
  "gather": 5503, 
  "Presidency": 5504, 
  "recover": 5505, 
  "fra@@": 5506, 
  "PO@@": 5507, 
  "shouted": 5508, 
  "Partnership": 5509, 
  "Nor@@": 5510, 
  "intellectual": 5511, 
  "Canada": 5512, 
  "Detective": 5513, 
  "manufacture": 5514, 
  "Maria": 5515, 
  "housing": 5516, 
  "Ger@@": 5517, 
  "argued": 5518, 
  "awarded": 5519, 
  "1990": 5520, 
  "Proposal": 5521, 
  "equipped": 5522, 
  "G.": 5523, 
  "101": 5524, 
  "angel": 5525, 
  "mb@@": 5526, 
  "salt": 5527, 
  "copies": 5528, 
  "schools": 5529, 
  "Admiral": 5530, 
  "stake": 5531, 
  "provider": 5532, 
  "placebo": 5533, 
  "stored": 5534, 
  "Sub@@": 5535, 
  "threatened": 5536, 
  "deny": 5537, 
  "pity": 5538, 
  "ane": 5539, 
  "smells": 5540, 
  "profits": 5541, 
  "ational": 5542, 
  "hol@@": 5543, 
  "Morgan": 5544, 
  "sampling": 5545, 
  "ger@@": 5546, 
  "punch": 5547, 
  "radiation": 5548, 
  "contrast": 5549, 
  "ken": 5550, 
  "auto@@": 5551, 
  "Schengen": 5552, 
  "warrior": 5553, 
  "mommy": 5554, 
  "cen@@": 5555, 
  "outer": 5556, 
  "ec@@": 5557, 
  "Jones": 5558, 
  "Order": 5559, 
  "Min@@": 5560, 
  "Star@@": 5561, 
  "insufficient": 5562, 
  "lays": 5563, 
  "ü@@": 5564, 
  "Major": 5565, 
  "someday": 5566, 
  "celebrate": 5567, 
  "sia": 5568, 
  "urban": 5569, 
  "detected": 5570, 
  "sheets": 5571, 
  "dra@@": 5572, 
  "landed": 5573, 
  "Jordan": 5574, 
  "wished": 5575, 
  "bit@@": 5576, 
  "dri@@": 5577, 
  "nonsense": 5578, 
  "fold": 5579, 
  "und": 5580, 
  "thou": 5581, 
  "restrictive": 5582, 
  "Switzerland": 5583, 
  "sanctions": 5584, 
  "Ty@@": 5585, 
  "pur@@": 5586, 
  "kin@@": 5587, 
  "balanced": 5588, 
  "ica": 5589, 
  "stealing": 5590, 
  "transfers": 5591, 
  "dirt": 5592, 
  "liar": 5593, 
  "non@@": 5594, 
  "IS": 5595, 
  "cul@@": 5596, 
  "multi@@": 5597, 
  "Food": 5598, 
  "pri@@": 5599, 
  "Now": 5600, 
  "cameras": 5601, 
  "expertise": 5602, 
  "Lex": 5603, 
  "honour": 5604, 
  "CO": 5605, 
  "Claire": 5606, 
  "Dar@@": 5607, 
  "depend": 5608, 
  "cer@@": 5609, 
  "pills": 5610, 
  "maintaining": 5611, 
  "Asia": 5612, 
  "representing": 5613, 
  "Sergeant": 5614, 
  "partly": 5615, 
  "contacts": 5616, 
  "min": 5617, 
  "measurement": 5618, 
  "wanting": 5619, 
  "engage": 5620, 
  "symbol": 5621, 
  "q": 5622, 
  "protective": 5623, 
  "tered": 5624, 
  "returning": 5625, 
  "T.": 5626, 
  "Belgian": 5627, 
  "seal": 5628, 
  "dependent": 5629, 
  "UR@@": 5630, 
  "somewhat": 5631, 
  "vial": 5632, 
  "ther": 5633, 
  "inspections": 5634, 
  "muscle": 5635, 
  "cking": 5636, 
  "Gal@@": 5637, 
  "dump": 5638, 
  "locate": 5639, 
  "Executive": 5640, 
  "organization": 5641, 
  "Norway": 5642, 
  "any@@": 5643, 
  "veterinary": 5644, 
  "cigarette": 5645, 
  "expired": 5646, 
  "Ju@@": 5647, 
  "sacrifice": 5648, 
  "Fi@@": 5649, 
  "ads": 5650, 
  "Internal": 5651, 
  "iling": 5652, 
  "relates": 5653, 
  "Annexes": 5654, 
  "strongly": 5655, 
  "Tribunal": 5656, 
  "coast": 5657, 
  "EU@@": 5658, 
  "&apos;We": 5659, 
  "vacation": 5660, 
  "skull": 5661, 
  "routine": 5662, 
  "sectoral": 5663, 
  "unlikely": 5664, 
  "inner": 5665, 
  "domain": 5666, 
  "au": 5667, 
  "conferred": 5668, 
  "Fe@@": 5669, 
  "My@@": 5670, 
  "revision": 5671, 
  "shaking": 5672, 
  "marine": 5673, 
  "cted": 5674, 
  "wounded": 5675, 
  "beating": 5676, 
  "É@@": 5677, 
  "elections": 5678, 
  "Latin": 5679, 
  "teams": 5680, 
  "AS@@": 5681, 
  "Appendix": 5682, 
  "survival": 5683, 
  "mama": 5684, 
  "competitors": 5685, 
  "inserted": 5686, 
  "pet": 5687, 
  "elevator": 5688, 
  "Stan": 5689, 
  "swim": 5690, 
  "flew": 5691, 
  "Hol@@": 5692, 
  "seeks": 5693, 
  "&apos;s@@": 5694, 
  "declare": 5695, 
  "sk": 5696, 
  "Polish": 5697, 
  "choices": 5698, 
  "time@@": 5699, 
  "suppliers": 5700, 
  "counting": 5701, 
  "mercy": 5702, 
  "hyper@@": 5703, 
  "transit": 5704, 
  "Ac@@": 5705, 
  "PR@@": 5706, 
  "ita": 5707, 
  "gap": 5708, 
  "expectations": 5709, 
  "pregnancy": 5710, 
  "emotional": 5711, 
  "preparations": 5712, 
  "sta@@": 5713, 
  "ids": 5714, 
  "Ltd": 5715, 
  "demon": 5716, 
  "hum@@": 5717, 
  "packed": 5718, 
  "chef": 5719, 
  "flower": 5720, 
  "snapped": 5721, 
  "generated": 5722, 
  "infusion": 5723, 
  "ease": 5724, 
  "gro@@": 5725, 
  "Sean": 5726, 
  "revealed": 5727, 
  "suits": 5728, 
  "Saint": 5729, 
  "squ@@": 5730, 
  "couch": 5731, 
  "sustainability": 5732, 
  "Ban@@": 5733, 
  "magazine": 5734, 
  "continuous": 5735, 
  "shes": 5736, 
  "efficacy": 5737, 
  "reception": 5738, 
  "IM@@": 5739, 
  "dec@@": 5740, 
  "alleging": 5741, 
  "Dra@@": 5742, 
  "nic@@": 5743, 
  "you--": 5744, 
  "filter": 5745, 
  "envisaged": 5746, 
  "technically": 5747, 
  "tom@@": 5748, 
  "ized": 5749, 
  "tube": 5750, 
  "tics": 5751, 
  "Regional": 5752, 
  "minus": 5753, 
  "Tor@@": 5754, 
  "Emma": 5755, 
  "EM@@": 5756, 
  "pointing": 5757, 
  "compromise": 5758, 
  "holiday": 5759, 
  "Hank": 5760, 
  "borrow": 5761, 
  "ownership": 5762, 
  "ently": 5763, 
  "cloud": 5764, 
  "prohibited": 5765, 
  "hence": 5766, 
  "ben@@": 5767, 
  "tobacco": 5768, 
  "explosion": 5769, 
  "R.": 5770, 
  "songs": 5771, 
  "ville": 5772, 
  "definitive": 5773, 
  "tracking": 5774, 
  "examples": 5775, 
  "dy@@": 5776, 
  "arrival": 5777, 
  "med@@": 5778, 
  "paused": 5779, 
  "deposit": 5780, 
  "&apos;t@@": 5781, 
  "Tre@@": 5782, 
  "premises": 5783, 
  "operated": 5784, 
  "elsewhere": 5785, 
  "wrapped": 5786, 
  "gaze": 5787, 
  "sheep": 5788, 
  "regardless": 5789, 
  "territorial": 5790, 
  "survived": 5791, 
  "ral": 5792, 
  "trash": 5793, 
  "custody": 5794, 
  "bits": 5795, 
  "struggle": 5796, 
  "helpful": 5797, 
  "demands": 5798, 
  "curse": 5799, 
  "Marshall": 5800, 
  "wealth": 5801, 
  "Cap@@": 5802, 
  "nah": 5803, 
  "Cu@@": 5804, 
  "favourable": 5805, 
  "pleasant": 5806, 
  "possibilities": 5807, 
  "oxygen": 5808, 
  "rice": 5809, 
  "consult": 5810, 
  "TH@@": 5811, 
  "passage": 5812, 
  "Having": 5813, 
  "prince": 5814, 
  "107": 5815, 
  "enhanced": 5816, 
  "preamble": 5817, 
  "eaten": 5818, 
  "pizza": 5819, 
  "son@@": 5820, 
  "ports": 5821, 
  "regulated": 5822, 
  "29@@": 5823, 
  "suggests": 5824, 
  "An": 5825, 
  "Legal": 5826, 
  "emerging": 5827, 
  "acceptance": 5828, 
  "las": 5829, 
  "hearts": 5830, 
  "eri@@": 5831, 
  "fines": 5832, 
  "horizontal": 5833, 
  "supplier": 5834, 
  "offices": 5835, 
  "sey": 5836, 
  "cli@@": 5837, 
  "Fer@@": 5838, 
  "employer": 5839, 
  "Ko@@": 5840, 
  "1,000": 5841, 
  "respected": 5842, 
  "end@@": 5843, 
  "ele@@": 5844, 
  "waves": 5845, 
  "bat@@": 5846, 
  "CFSP": 5847, 
  "abroad": 5848, 
  "ure": 5849, 
  "MS": 5850, 
  "mes": 5851, 
  "publish": 5852, 
  "soup": 5853, 
  "ultimately": 5854, 
  "survey": 5855, 
  "needle": 5856, 
  "religion": 5857, 
  "tent": 5858, 
  "install": 5859, 
  "complaints": 5860, 
  "Bro@@": 5861, 
  "reward": 5862, 
  "attorney": 5863, 
  "From": 5864, 
  "monkey": 5865, 
  "Road": 5866, 
  "Patrick": 5867, 
  "ry@@": 5868, 
  "goals": 5869, 
  "adopting": 5870, 
  "thief": 5871, 
  "ö@@": 5872, 
  "dealt": 5873, 
  "flights": 5874, 
  "Marie": 5875, 
  "barriers": 5876, 
  "Co": 5877, 
  "characters": 5878, 
  "dropping": 5879, 
  "CE": 5880, 
  "bly": 5881, 
  "Vice": 5882, 
  "Under": 5883, 
  "30@@": 5884, 
  "concentrations": 5885, 
  "scenario": 5886, 
  "centuries": 5887, 
  "rid@@": 5888, 
  "discussions": 5889, 
  "depth": 5890, 
  "decreased": 5891, 
  "aspect": 5892, 
  "murderer": 5893, 
  "din@@": 5894, 
  "acted": 5895, 
  "po": 5896, 
  "Project": 5897, 
  "Thursday": 5898, 
  "Pal@@": 5899, 
  "terror": 5900, 
  "cow": 5901, 
  "practically": 5902, 
  "strict": 5903, 
  "connections": 5904, 
  "AT": 5905, 
  "historical": 5906, 
  "limitation": 5907, 
  "LN": 5908, 
  "retirement": 5909, 
  "Victor": 5910, 
  "wizard": 5911, 
  "situated": 5912, 
  "affairs": 5913, 
  "poly@@": 5914, 
  "stops": 5915, 
  "repealed": 5916, 
  "computers": 5917, 
  "moral": 5918, 
  "coordinated": 5919, 
  "ray": 5920, 
  "reverse": 5921, 
  "Na@@": 5922, 
  "Elizabeth": 5923, 
  "grandmother": 5924, 
  "formation": 5925, 
  "Ross": 5926, 
  "cher": 5927, 
  "funded": 5928, 
  "Georgia": 5929, 
  "dro@@": 5930, 
  "nearby": 5931, 
  "household": 5932, 
  "bid": 5933, 
  "Implementing": 5934, 
  "od": 5935, 
  "clouds": 5936, 
  "approaching": 5937, 
  "winner": 5938, 
  "manufacturers": 5939, 
  "pper": 5940, 
  "Cooperation": 5941, 
  "pan": 5942, 
  "104": 5943, 
  "sometime": 5944, 
  "pp@@": 5945, 
  "Hall": 5946, 
  "tly": 5947, 
  "bang": 5948, 
  "ani@@": 5949, 
  "decades": 5950, 
  "directives": 5951, 
  "Hal@@": 5952, 
  "miracle": 5953, 
  "deeper": 5954, 
  "Lucy": 5955, 
  "grey": 5956, 
  "pollution": 5957, 
  "ide@@": 5958, 
  "estimate": 5959, 
  "Brown": 5960, 
  "reserved": 5961, 
  "Castle": 5962, 
  "circulation": 5963, 
  "Ter@@": 5964, 
  "ATION": 5965, 
  "tle": 5966, 
  "lat@@": 5967, 
  "arise": 5968, 
  "cancel": 5969, 
  "assuming": 5970, 
  "damaged": 5971, 
  "conversion": 5972, 
  "gri@@": 5973, 
  "THIS": 5974, 
  "laughter": 5975, 
  "gh": 5976, 
  "witnesses": 5977, 
  "Island": 5978, 
  "begins": 5979, 
  "dr@@": 5980, 
  "bay": 5981, 
  "holders": 5982, 
  "machinery": 5983, 
  "Pu@@": 5984, 
  "Middle": 5985, 
  "ening": 5986, 
  "Croatia": 5987, 
  "by@@": 5988, 
  "Earl": 5989, 
  "Berlin": 5990, 
  "loading": 5991, 
  "23@@": 5992, 
  "mayor": 5993, 
  "Prodej": 5994, 
  "Jan@@": 5995, 
  "governed": 5996, 
  "Look": 5997, 
  "slave": 5998, 
  "EFTA": 5999, 
  "leg@@": 6000, 
  "loving": 6001, 
  "sealed": 6002, 
  "sin@@": 6003, 
  "Jan": 6004, 
  "impressive": 6005, 
  "carriers": 6006, 
  "vice": 6007, 
  "studying": 6008, 
  "ki@@": 6009, 
  "thee": 6010, 
  "Soviet": 6011, 
  "attend": 6012, 
  "Th@@": 6013, 
  "Eastern": 6014, 
  "rode": 6015, 
  "Ku@@": 6016, 
  "inch": 6017, 
  "texts": 6018, 
  "slight": 6019, 
  "toast": 6020, 
  "gal@@": 6021, 
  "lamp": 6022, 
  "basement": 6023, 
  "lessons": 6024, 
  "I--": 6025, 
  "ach": 6026, 
  "tend": 6027, 
  "blast": 6028, 
  "recognise": 6029, 
  "failing": 6030, 
  "unfair": 6031, 
  "bug": 6032, 
  "beef": 6033, 
  "zer": 6034, 
  "gla@@": 6035, 
  "Am@@": 6036, 
  "adjustments": 6037, 
  "yed": 6038, 
  "backed": 6039, 
  "meets": 6040, 
  "blank": 6041, 
  "stages": 6042, 
  "shore": 6043, 
  "shortly": 6044, 
  "Marty": 6045, 
  "Wal@@": 6046, 
  "closure": 6047, 
  "consistency": 6048, 
  "down@@": 6049, 
  "duly": 6050, 
  "typical": 6051, 
  "twisted": 6052, 
  "fro@@": 6053, 
  "Funds": 6054, 
  "correction": 6055, 
  "gentle": 6056, 
  "threats": 6057, 
  "approve": 6058, 
  "Or": 6059, 
  "freeze": 6060, 
  "cop@@": 6061, 
  "belly": 6062, 
  "crossing": 6063, 
  "28@@": 6064, 
  "Aye": 6065, 
  "EX@@": 6066, 
  "ple@@": 6067, 
  "VII": 6068, 
  "timing": 6069, 
  "clothing": 6070, 
  "allowance": 6071, 
  "solidarity": 6072, 
  "fur@@": 6073, 
  "pee": 6074, 
  "ang": 6075, 
  "pos@@": 6076, 
  "q@@": 6077, 
  "ming": 6078, 
  "boom": 6079, 
  "potentially": 6080, 
  "printed": 6081, 
  "Fred": 6082, 
  "infringements": 6083, 
  "mp@@": 6084, 
  "requiring": 6085, 
  "Division": 6086, 
  "relationships": 6087, 
  "Cyprus": 6088, 
  "stra@@": 6089, 
  "ada": 6090, 
  "techniques": 6091, 
  "separated": 6092, 
  "Au@@": 6093, 
  "Gordon": 6094, 
  "closet": 6095, 
  "4.4": 6096, 
  "knee": 6097, 
  "actor": 6098, 
  "ET@@": 6099, 
  "aviation": 6100, 
  "coal": 6101, 
  "scientists": 6102, 
  "SO@@": 6103, 
  "capture": 6104, 
  "writer": 6105, 
  "nightmare": 6106, 
  "ln@@": 6107, 
  "sucks": 6108, 
  "strictly": 6109, 
  "EIB": 6110, 
  "fre@@": 6111, 
  "jo": 6112, 
  "At@@": 6113, 
  "para": 6114, 
  "chase": 6115, 
  "Force": 6116, 
  "BO@@": 6117, 
  "Annual": 6118, 
  "swing": 6119, 
  "fire@@": 6120, 
  "Anne": 6121, 
  "investor": 6122, 
  "shield": 6123, 
  "Sol@@": 6124, 
  "Gary": 6125, 
  "PRC": 6126, 
  "fying": 6127, 
  "unlawful": 6128, 
  "bonds": 6129, 
  "Ly@@": 6130, 
  "friendship": 6131, 
  "blo@@": 6132, 
  "incompatible": 6133, 
  "accurate": 6134, 
  "slide": 6135, 
  "removal": 6136, 
  "approached": 6137, 
  "expressly": 6138, 
  "tures": 6139, 
  "Police": 6140, 
  "preventing": 6141, 
  "candy": 6142, 
  "hers": 6143, 
  "meantime": 6144, 
  "ugh": 6145, 
  "lad": 6146, 
  "ctor": 6147, 
  "ruled": 6148, 
  "4.2": 6149, 
  "Kra@@": 6150, 
  "tag": 6151, 
  "outstanding": 6152, 
  "lifetime": 6153, 
  "dar@@": 6154, 
  "assessments": 6155, 
  "sisters": 6156, 
  "accused": 6157, 
  "university": 6158, 
  "hates": 6159, 
  "HAS": 6160, 
  "Helen": 6161, 
  "hits": 6162, 
  "estimates": 6163, 
  "heavily": 6164, 
  "infected": 6165, 
  "initially": 6166, 
  "snake": 6167, 
  "coverage": 6168, 
  "existed": 6169, 
  "importers": 6170, 
  "gging": 6171, 
  "Church": 6172, 
  "wheels": 6173, 
  "ai": 6174, 
  "mit@@": 6175, 
  "counter@@": 6176, 
  ",000": 6177, 
  "exclusion": 6178, 
  "restore": 6179, 
  "patch": 6180, 
  "impressed": 6181, 
  "iz@@": 6182, 
  "spite": 6183, 
  "blown": 6184, 
  "prime": 6185, 
  "dragged": 6186, 
  "leadership": 6187, 
  "Win@@": 6188, 
  "Free": 6189, 
  "refund": 6190, 
  "ashamed": 6191, 
  "unexpected": 6192, 
  "transmitted": 6193, 
  "gie": 6194, 
  "B7": 6195, 
  "De": 6196, 
  "intelligent": 6197, 
  "disk": 6198, 
  "improvements": 6199, 
  "integrity": 6200, 
  "ala": 6201, 
  "equality": 6202, 
  "RA@@": 6203, 
  "delicious": 6204, 
  "zation": 6205, 
  "ut": 6206, 
  "membership": 6207, 
  "mal": 6208, 
  "TS": 6209, 
  "rap@@": 6210, 
  "numerous": 6211, 
  "Pri@@": 6212, 
  "aah": 6213, 
  "far@@": 6214, 
  "hitting": 6215, 
  "assault": 6216, 
  "disappointed": 6217, 
  "sul@@": 6218, 
  "chat": 6219, 
  "gun@@": 6220, 
  "Little": 6221, 
  "princess": 6222, 
  "elected": 6223, 
  "vozidel": 6224, 
  "meanwhile": 6225, 
  "tran@@": 6226, 
  "palace": 6227, 
  "threatening": 6228, 
  "Emperor": 6229, 
  "firing": 6230, 
  "sel@@": 6231, 
  "sses": 6232, 
  "merger": 6233, 
  "IBM": 6234, 
  "tradition": 6235, 
  "pile": 6236, 
  "Bor@@": 6237, 
  "nothin": 6238, 
  "rat@@": 6239, 
  "methodology": 6240, 
  "lt": 6241, 
  "The@@": 6242, 
  "washed": 6243, 
  "translation": 6244, 
  "wolf": 6245, 
  "Ralph": 6246, 
  "TR@@": 6247, 
  "dedicated": 6248, 
  "tons": 6249, 
  "enabling": 6250, 
  "tries": 6251, 
  "babe": 6252, 
  "pace": 6253, 
  "fires": 6254, 
  "largely": 6255, 
  "ab": 6256, 
  "tale": 6257, 
  "Ki@@": 6258, 
  "bare": 6259, 
  "sel": 6260, 
  "treasure": 6261, 
  "Tuesday": 6262, 
  "ignored": 6263, 
  "fitted": 6264, 
  "reminded": 6265, 
  "gained": 6266, 
  "amongst": 6267, 
  "logy": 6268, 
  "council": 6269, 
  "conservation": 6270, 
  "sl@@": 6271, 
  "surrender": 6272, 
  "wider": 6273, 
  "Hong": 6274, 
  "smo@@": 6275, 
  "studio": 6276, 
  "adding": 6277, 
  "relied": 6278, 
  "owners": 6279, 
  "According": 6280, 
  "painful": 6281, 
  "pra@@": 6282, 
  "1991": 6283, 
  "Jacob": 6284, 
  "lap": 6285, 
  "Cro@@": 6286, 
  "don@@": 6287, 
  "Third": 6288, 
  "servant": 6289, 
  "definitions": 6290, 
  "Nathan": 6291, 
  "virtue": 6292, 
  "radi@@": 6293, 
  "centres": 6294, 
  "stroke": 6295, 
  "disabled": 6296, 
  "consultations": 6297, 
  "foregoing": 6298, 
  "opens": 6299, 
  "genetic": 6300, 
  "custom": 6301, 
  "delegation": 6302, 
  "26@@": 6303, 
  "fal@@": 6304, 
  "Region": 6305, 
  "worldwide": 6306, 
  "torture": 6307, 
  "Shi@@": 6308, 
  "108": 6309, 
  "ora": 6310, 
  "Class": 6311, 
  "ners": 6312, 
  "maid": 6313, 
  "climbed": 6314, 
  "ton@@": 6315, 
  "was@@": 6316, 
  "roads": 6317, 
  "bastards": 6318, 
  "spar@@": 6319, 
  "phones": 6320, 
  "bun@@": 6321, 
  "excess": 6322, 
  "ara": 6323, 
  "incentives": 6324, 
  "flexibility": 6325, 
  "yer": 6326, 
  "Por@@": 6327, 
  "inflation": 6328, 
  "configuration": 6329, 
  "Sixth": 6330, 
  "Bay": 6331, 
  "advantages": 6332, 
  "authorisations": 6333, 
  "strip": 6334, 
  "decisive": 6335, 
  "faint": 6336, 
  "Princess": 6337, 
  "AM@@": 6338, 
  "3.1": 6339, 
  "nail": 6340, 
  "D.@@": 6341, 
  "AG": 6342, 
  "land@@": 6343, 
  "water@@": 6344, 
  "beard": 6345, 
  "py@@": 6346, 
  "assurance": 6347, 
  "shoe": 6348, 
  "monitored": 6349, 
  "swimming": 6350, 
  "squad": 6351, 
  "Auditors": 6352, 
  "ron@@": 6353, 
  "nerve": 6354, 
  "humanity": 6355, 
  "vegetables": 6356, 
  "executive": 6357, 
  "ined": 6358, 
  "clue": 6359, 
  "ini": 6360, 
  "og@@": 6361, 
  "kills": 6362, 
  "breaks": 6363, 
  "Johnson": 6364, 
  "dan@@": 6365, 
  "plates": 6366, 
  "ó@@": 6367, 
  "Navy": 6368, 
  "involves": 6369, 
  "112": 6370, 
  "mil@@": 6371, 
  "bat": 6372, 
  "associations": 6373, 
  "vaccine": 6374, 
  "withdraw": 6375, 
  "Royal": 6376, 
  "touching": 6377, 
  "Land": 6378, 
  "≥": 6379, 
  "Like": 6380, 
  "homes": 6381, 
  "odds": 6382, 
  "Network": 6383, 
  "Roman": 6384, 
  "dominant": 6385, 
  "subsidies": 6386, 
  "backs": 6387, 
  "ingredients": 6388, 
  "protein": 6389, 
  "S.@@": 6390, 
  "cked": 6391, 
  "yl": 6392, 
  "vis@@": 6393, 
  "clearing": 6394, 
  "rude": 6395, 
  "wo@@": 6396, 
  "val@@": 6397, 
  "script": 6398, 
  "¡": 6399, 
  "B.@@": 6400, 
  "equ@@": 6401, 
  "injured": 6402, 
  "furniture": 6403, 
  "reasoning": 6404, 
  "xed": 6405, 
  "exhausted": 6406, 
  "Directives": 6407, 
  "Business": 6408, 
  "dos": 6409, 
  "County": 6410, 
  "performing": 6411, 
  "passion": 6412, 
  "Kong": 6413, 
  "goodness": 6414, 
  "demanded": 6415, 
  "Single": 6416, 
  "play@@": 6417, 
  "Dick": 6418, 
  "reviewed": 6419, 
  "serial": 6420, 
  "pit": 6421, 
  "approaches": 6422, 
  "safely": 6423, 
  "recalled": 6424, 
  "san": 6425, 
  "EL": 6426, 
  "bo": 6427, 
  "adapt": 6428, 
  "Texas": 6429, 
  "one@@": 6430, 
  "Atlantic": 6431, 
  "trunk": 6432, 
  "reveal": 6433, 
  "calculating": 6434, 
  "fer": 6435, 
  "sy@@": 6436, 
  "objection": 6437, 
  "Room": 6438, 
  "stays": 6439, 
  "safeguard": 6440, 
  "colleagues": 6441, 
  "Afghanistan": 6442, 
  "valley": 6443, 
  "hopes": 6444, 
  "Rose": 6445, 
  "arrange": 6446, 
  "explains": 6447, 
  "Sara": 6448, 
  "Leo": 6449, 
  "gers": 6450, 
  "discover": 6451, 
  "SP@@": 6452, 
  "download": 6453, 
  "": 6454, 
  "bla@@": 6455, 
  "bored": 6456, 
  "ner@@": 6457, 
  "newspaper": 6458, 
  "topic": 6459, 
  "fle@@": 6460, 
  "Mil@@": 6461, 
  "manual": 6462, 
  "SC": 6463, 
  "ological": 6464, 
  "separately": 6465, 
  "sighed": 6466, 
  "Jessica": 6467, 
  "bullets": 6468, 
  "district": 6469, 
  "underground": 6470, 
  "inadmissible": 6471, 
  "grip": 6472, 
  "alisation": 6473, 
  "universal": 6474, 
  "hopefully": 6475, 
  "10,000": 6476, 
  "disgusting": 6477, 
  "addressing": 6478, 
  "dried": 6479, 
  "resulted": 6480, 
  "rows": 6481, 
  "loo@@": 6482, 
  "essence": 6483, 
  "Bon@@": 6484, 
  "departure": 6485, 
  "distinction": 6486, 
  "labor": 6487, 
  "terminal": 6488, 
  "boats": 6489, 
  "dre@@": 6490, 
  "enjoying": 6491, 
  "secretary": 6492, 
  "exported": 6493, 
  "are@@": 6494, 
  "resolve": 6495, 
  "passport": 6496, 
  "initiation": 6497, 
  "IL@@": 6498, 
  "defeat": 6499, 
  "programs": 6500, 
  "assignment": 6501, 
  "installations": 6502, 
  "ssi@@": 6503, 
  "succeed": 6504, 
  "healthcare": 6505, 
  "wooden": 6506, 
  "&apos;he": 6507, 
  "know@@": 6508, 
  "marking": 6509, 
  "Jenny": 6510, 
  "purse": 6511, 
  "Jackie": 6512, 
  "logic": 6513, 
  "sixth": 6514, 
  "shrugged": 6515, 
  "Barney": 6516, 
  "cock": 6517, 
  "US@@": 6518, 
  "stri@@": 6519, 
  "chill": 6520, 
  "din": 6521, 
  "captured": 6522, 
  "declarations": 6523, 
  "clu@@": 6524, 
  "incorrect": 6525, 
  "qualifications": 6526, 
  "supplementary": 6527, 
  "halfway": 6528, 
  "activated": 6529, 
  "Mel@@": 6530, 
  "extensive": 6531, 
  "Barry": 6532, 
  "Swedish": 6533, 
  "encouraged": 6534, 
  "just--": 6535, 
  "peaceful": 6536, 
  "Institute": 6537, 
  "undertake": 6538, 
  "confident": 6539, 
  "bills": 6540, 
  "Andrew": 6541, 
  "110": 6542, 
  "Undertaking": 6543, 
  "signing": 6544, 
  "mp": 6545, 
  "eliminate": 6546, 
  "achievement": 6547, 
  "ADOPTED": 6548, 
  "mel@@": 6549, 
  "05@@": 6550, 
  "dam@@": 6551, 
  "industries": 6552, 
  "bust": 6553, 
  "ides": 6554, 
  "interface": 6555, 
  "feature": 6556, 
  "carriage": 6557, 
  "biological": 6558, 
  "mighty": 6559, 
  "ites": 6560, 
  "bli@@": 6561, 
  "ec.europa.eu": 6562, 
  "immunity": 6563, 
  "intense": 6564, 
  "wounds": 6565, 
  "lip": 6566, 
  "nearest": 6567, 
  "Paper": 6568, 
  "observation": 6569, 
  "Britain": 6570, 
  "Ö": 6571, 
  "inde@@": 6572, 
  "pa": 6573, 
  "Please": 6574, 
  "Egypt": 6575, 
  "prize": 6576, 
  "zo": 6577, 
  "guilt": 6578, 
  "ster@@": 6579, 
  "functional": 6580, 
  "ambitious": 6581, 
  "filling": 6582, 
  "os@@": 6583, 
  "vertical": 6584, 
  "founded": 6585, 
  "rip": 6586, 
  "bor@@": 6587, 
  "Randy": 6588, 
  "formula": 6589, 
  "Char@@": 6590, 
  "glu@@": 6591, 
  "drivers": 6592, 
  "handled": 6593, 
  "Lin@@": 6594, 
  "immigration": 6595, 
  "destiny": 6596, 
  "packages": 6597, 
  "Box": 6598, 
  "ste": 6599, 
  "routes": 6600, 
  "arian": 6601, 
  "that@@": 6602, 
  "Club": 6603, 
  "differently": 6604, 
  "Hor@@": 6605, 
  "satisfaction": 6606, 
  "rubber": 6607, 
  "pulse": 6608, 
  "PL": 6609, 
  "AC": 6610, 
  "spirits": 6611, 
  "worlds": 6612, 
  "authentic": 6613, 
  "sli@@": 6614, 
  "pressing": 6615, 
  "observe": 6616, 
  "fence": 6617, 
  "WTO": 6618, 
  "Blue": 6619, 
  "hel@@": 6620, 
  "blowing": 6621, 
  "insert": 6622, 
  "Center": 6623, 
  "Empire": 6624, 
  "preceding": 6625, 
  "worthy": 6626, 
  "humanitarian": 6627, 
  "vol@@": 6628, 
  "constantly": 6629, 
  "cleaned": 6630, 
  "initiate": 6631, 
  "LA@@": 6632, 
  "indicating": 6633, 
  "imagination": 6634, 
  "branches": 6635, 
  "legend": 6636, 
  "som@@": 6637, 
  "pound": 6638, 
  "interrupted": 6639, 
  "visitors": 6640, 
  "3.2": 6641, 
  "Tel": 6642, 
  "speaks": 6643, 
  "overcome": 6644, 
  "enabled": 6645, 
  "cruel": 6646, 
  "bowl": 6647, 
  "Õ": 6648, 
  "garbage": 6649, 
  "suspicious": 6650, 
  "van@@": 6651, 
  "School": 6652, 
  "List": 6653, 
  "ssed": 6654, 
  "cattle": 6655, 
  "tenders": 6656, 
  "teachers": 6657, 
  "OR@@": 6658, 
  "mouse": 6659, 
  "weakness": 6660, 
  "entries": 6661, 
  "FR": 6662, 
  "sec": 6663, 
  "fellas": 6664, 
  "somethin": 6665, 
  "sink": 6666, 
  "&apos;that": 6667, 
  "AP@@": 6668, 
  "elle": 6669, 
  "ots": 6670, 
  "shaped": 6671, 
  "lia": 6672, 
  "ric@@": 6673, 
  "champagne": 6674, 
  "Brazil": 6675, 
  "IF@@": 6676, 
  "similarly": 6677, 
  "partially": 6678, 
  "hot@@": 6679, 
  "uncomfortable": 6680, 
  "earned": 6681, 
  "personality": 6682, 
  "tab": 6683, 
  "plan@@": 6684, 
  "Duncan": 6685, 
  "Gi@@": 6686, 
  "bless": 6687, 
  "1.1": 6688, 
  "email": 6689, 
  "Elena": 6690, 
  "gradually": 6691, 
  "War@@": 6692, 
  "Hi": 6693, 
  "mud": 6694, 
  "Federation": 6695, 
  "denied": 6696, 
  "loser": 6697, 
  "childhood": 6698, 
  "sequence": 6699, 
  "§": 6700, 
  "eb@@": 6701, 
  "s.@@": 6702, 
  "off@@": 6703, 
  "channels": 6704, 
  "decline": 6705, 
  "intra": 6706, 
  "embarrassed": 6707, 
  "Swiss": 6708, 
  "sil@@": 6709, 
  "requesting": 6710, 
  "AD": 6711, 
  "math": 6712, 
  "Pla@@": 6713, 
  "ced": 6714, 
  "Fisheries": 6715, 
  "102": 6716, 
  "&apos;but": 6717, 
  "AN": 6718, 
  "mist": 6719, 
  "Tan@@": 6720, 
  "Bureau": 6721, 
  "temple": 6722, 
  "CR@@": 6723, 
  "punishment": 6724, 
  "purely": 6725, 
  "heating": 6726, 
  "E.@@": 6727, 
  "charming": 6728, 
  "patterns": 6729, 
  "engagement": 6730, 
  "Bush": 6731, 
  "pays": 6732, 
  "justification": 6733, 
  "frankly": 6734, 
  "payable": 6735, 
  "soci@@": 6736, 
  "reg@@": 6737, 
  "Mas@@": 6738, 
  "measuring": 6739, 
  "scan": 6740, 
  "chasing": 6741, 
  "engineering": 6742, 
  "volumes": 6743, 
  "evaluate": 6744, 
  "miserable": 6745, 
  "ACP": 6746, 
  "alo@@": 6747, 
  "afterwards": 6748, 
  "Notice": 6749, 
  "answering": 6750, 
  "posts": 6751, 
  "swung": 6752, 
  "Oliver": 6753, 
  "í@@": 6754, 
  "heh": 6755, 
  "foreseen": 6756, 
  "Holy": 6757, 
  "enti@@": 6758, 
  "dic@@": 6759, 
  "chick": 6760, 
  "B6": 6761, 
  "Art": 6762, 
  "pussy": 6763, 
  "Gen@@": 6764, 
  "Jay": 6765, 
  "walks": 6766, 
  "invisible": 6767, 
  "frequently": 6768, 
  "Transport": 6769, 
  "trend": 6770, 
  "horror": 6771, 
  "ture": 6772, 
  "Server": 6773, 
  "shareholders": 6774, 
  "cigarettes": 6775, 
  "obstacles": 6776, 
  "LO@@": 6777, 
  "Cra@@": 6778, 
  "ultimate": 6779, 
  "thin@@": 6780, 
  "CA": 6781, 
  "Angela": 6782, 
  "Equipment": 6783, 
  "Nicole": 6784, 
  "ante": 6785, 
  "COUNCIL": 6786, 
  "jointly": 6787, 
  "0,@@": 6788, 
  "proven": 6789, 
  "stan@@": 6790, 
  "visited": 6791, 
  "Tur@@": 6792, 
  "missions": 6793, 
  "proportionate": 6794, 
  "joining": 6795, 
  "edit": 6796, 
  "freight": 6797, 
  "imagined": 6798, 
  "zones": 6799, 
  "PP@@": 6800, 
  "gosh": 6801, 
  "Ford": 6802, 
  "syringe": 6803, 
  "farmer": 6804, 
  "disputes": 6805, 
  "ack": 6806, 
  "AG@@": 6807, 
  "jet": 6808, 
  "ok@@": 6809, 
  "intends": 6810, 
  "civilian": 6811, 
  "jungle": 6812, 
  "50@@": 6813, 
  "reserves": 6814, 
  "noon": 6815, 
  "likelihood": 6816, 
  "She@@": 6817, 
  "legislature": 6818, 
  "pun@@": 6819, 
  "consisting": 6820, 
  "glance": 6821, 
  "ambulance": 6822, 
  "fighter": 6823, 
  "battery": 6824, 
  "pathetic": 6825, 
  "eyed": 6826, 
  "Three": 6827, 
  "sm@@": 6828, 
  "sad@@": 6829, 
  "contra@@": 6830, 
  "aw@@": 6831, 
  "grid": 6832, 
  "CHMP": 6833, 
  "jack": 6834, 
  "reasonably": 6835, 
  "agrees": 6836, 
  "sandwich": 6837, 
  "Fin@@": 6838, 
  "Sun": 6839, 
  "ny@@": 6840, 
  "Wednesday": 6841, 
  "drank": 6842, 
  "thereto": 6843, 
  "experiment": 6844, 
  "recipient": 6845, 
  "grandma": 6846, 
  "subsidy": 6847, 
  "wipe": 6848, 
  "maintains": 6849, 
  "Kor@@": 6850, 
  "cage": 6851, 
  "publicly": 6852, 
  "chan@@": 6853, 
  "fails": 6854, 
  "bride": 6855, 
  "nationality": 6856, 
  "holdings": 6857, 
  "freezing": 6858, 
  "Karen": 6859, 
  "gathering": 6860, 
  "Los": 6861, 
  "OP@@": 6862, 
  "wallet": 6863, 
  "golf": 6864, 
  "insulin": 6865, 
  "lit@@": 6866, 
  "Pra@@": 6867, 
  "generous": 6868, 
  "dealer": 6869, 
  "Beth": 6870, 
  "firmly": 6871, 
  "your@@": 6872, 
  "Gor@@": 6873, 
  "Men@@": 6874, 
  "ie@@": 6875, 
  "generate": 6876, 
  "variable": 6877, 
  "del@@": 6878, 
  "inger": 6879, 
  "Tyler": 6880, 
  "Fbl": 6881, 
  "newly": 6882, 
  "specification": 6883, 
  "painted": 6884, 
  "Because": 6885, 
  "Exchange": 6886, 
  "coincidence": 6887, 
  "neighbors": 6888, 
  "ay@@": 6889, 
  "Roy": 6890, 
  "ish@@": 6891, 
  "dock": 6892, 
  "welcomes": 6893, 
  "floating": 6894, 
  "assured": 6895, 
  "navigation": 6896, 
  "flo@@": 6897, 
  "withdrawn": 6898, 
  "cou@@": 6899, 
  "but@@": 6900, 
  "ringing": 6901, 
  "someplace": 6902, 
  "flexible": 6903, 
  "manufactured": 6904, 
  "wasting": 6905, 
  "hur@@": 6906, 
  "wasted": 6907, 
  "certified": 6908, 
  "contest": 6909, 
  "inches": 6910, 
  "ler@@": 6911, 
  "rape": 6912, 
  "pump": 6913, 
  "Leonard": 6914, 
  "cotton": 6915, 
  "taxi": 6916, 
  "transposition": 6917, 
  "representation": 6918, 
  "avoiding": 6919, 
  "ji": 6920, 
  "substantially": 6921, 
  "invest": 6922, 
  "Ren@@": 6923, 
  "territories": 6924, 
  "evaluated": 6925, 
  "filed": 6926, 
  "Ja@@": 6927, 
  "Uh": 6928, 
  "investigate": 6929, 
  "caution": 6930, 
  "pursuit": 6931, 
  "von": 6932, 
  "cooperating": 6933, 
  "V.": 6934, 
  "envelope": 6935, 
  "ver": 6936, 
  "IX": 6937, 
  "affects": 6938, 
  "noble": 6939, 
  "audits": 6940, 
  "Sophie": 6941, 
  "acquis": 6942, 
  "lov@@": 6943, 
  "tourism": 6944, 
  "new@@": 6945, 
  "boards": 6946, 
  "DO@@": 6947, 
  "Enterprise": 6948, 
  "greenhouse": 6949, 
  "brush": 6950, 
  "Organisation": 6951, 
  "proceeding": 6952, 
  "life@@": 6953, 
  "Cy@@": 6954, 
  "gates": 6955, 
  "Turkish": 6956, 
  "coherent": 6957, 
  "Miller": 6958, 
  "Foreign": 6959, 
  "matches": 6960, 
  "о@@": 6961, 
  "bio@@": 6962, 
  "Roland": 6963, 
  "Wi@@": 6964, 
  "foster": 6965, 
  "firstly": 6966, 
  "toxicity": 6967, 
  "Directorate": 6968, 
  "fen@@": 6969, 
  "productivity": 6970, 
  "Vegas": 6971, 
  "reporter": 6972, 
  "crush": 6973, 
  "xi@@": 6974, 
  "treating": 6975, 
  "hills": 6976, 
  "Parker": 6977, 
  "murders": 6978, 
  "Roma": 6979, 
  "tribe": 6980, 
  "Eurostat": 6981, 
  "secured": 6982, 
  "Josh": 6983, 
  "allergic": 6984, 
  "Tom@@": 6985, 
  "originally": 6986, 
  "toy": 6987, 
  "betrayed": 6988, 
  "prints": 6989, 
  "evolution": 6990, 
  "Donna": 6991, 
  "K.": 6992, 
  "reasoned": 6993, 
  "105": 6994, 
  "eu@@": 6995, 
  "skill": 6996, 
  "tel@@": 6997, 
  "Taylor": 6998, 
  "awkward": 6999, 
  "Papa": 7000, 
  "sticks": 7001, 
  "discriminatory": 7002, 
  "black@@": 7003, 
  "pt": 7004, 
  "irrelevant": 7005, 
  "ku@@": 7006, 
  "belief": 7007, 
  "chart": 7008, 
  "occurs": 7009, 
  "sle@@": 7010, 
  "mysterious": 7011, 
  "DS": 7012, 
  "termination": 7013, 
  "adjust": 7014, 
  "impacts": 7015, 
  "ali": 7016, 
  "Mm": 7017, 
  "Cam@@": 7018, 
  "collecting": 7019, 
  "colors": 7020, 
  "penny": 7021, 
  "1.2": 7022, 
  "lungs": 7023, 
  "implications": 7024, 
  "auto": 7025, 
  "underneath": 7026, 
  "eli@@": 7027, 
  "tanks": 7028, 
  "Mars": 7029, 
  "&apos;no": 7030, 
  "Hy@@": 7031, 
  "alised": 7032, 
  "serves": 7033, 
  "EN.0100@@": 7034, 
  "AB@@": 7035, 
  "ME@@": 7036, 
  "book@@": 7037, 
  "nia": 7038, 
  "airports": 7039, 
  "invented": 7040, 
  "Laura": 7041, 
  "sue": 7042, 
  "superior": 7043, 
  "flame": 7044, 
  "packing": 7045, 
  "Drizzt": 7046, 
  "communities": 7047, 
  "rifle": 7048, 
  "imposition": 7049, 
  "deserves": 7050, 
  "unnecessary": 7051, 
  "forming": 7052, 
  "oring": 7053, 
  "alize": 7054, 
  "Tru@@": 7055, 
  "deaths": 7056, 
  "proposes": 7057, 
  "insisted": 7058, 
  "Gre@@": 7059, 
  "pour": 7060, 
  "Hungarian": 7061, 
  "Fa@@": 7062, 
  "classic": 7063, 
  "sters": 7064, 
  "Wa@@": 7065, 
  "foolish": 7066, 
  "Here": 7067, 
  "ker@@": 7068, 
  "low@@": 7069, 
  "Death": 7070, 
  "shelter": 7071, 
  "examining": 7072, 
  "mild": 7073, 
  "PT": 7074, 
  "theme": 7075, 
  "ater": 7076, 
  "Budget": 7077, 
  "catching": 7078, 
  "boot": 7079, 
  "calculate": 7080, 
  "helicopter": 7081, 
  "nope": 7082, 
  "guts": 7083, 
  "2.5": 7084, 
  "micro": 7085, 
  "hug": 7086, 
  "printing": 7087, 
  "embarrassing": 7088, 
  "glory": 7089, 
  "gy@@": 7090, 
  "torn": 7091, 
  "our@@": 7092, 
  "bitter": 7093, 
  "mus": 7094, 
  "Bruce": 7095, 
  "lean": 7096, 
  "Agents": 7097, 
  "gin": 7098, 
  "tap": 7099, 
  "lis": 7100, 
  "crystal": 7101, 
  "ading": 7102, 
  "Boston": 7103, 
  "tech": 7104, 
  "accompanying": 7105, 
  "Hel@@": 7106, 
  "cam@@": 7107, 
  "Lithuania": 7108, 
  "educational": 7109, 
  "bull": 7110, 
  "instantly": 7111, 
  "accidents": 7112, 
  "lowered": 7113, 
  "hurting": 7114, 
  "atory": 7115, 
  "compulsory": 7116, 
  "moderate": 7117, 
  "hon@@": 7118, 
  "nut": 7119, 
  "emotions": 7120, 
  "novel": 7121, 
  "assembly": 7122, 
  "Wilson": 7123, 
  "avoided": 7124, 
  "owns": 7125, 
  "stic": 7126, 
  "wives": 7127, 
  "souls": 7128, 
  "god@@": 7129, 
  "encouraging": 7130, 
  "cle@@": 7131, 
  "Sally": 7132, 
  "forehead": 7133, 
  "verified": 7134, 
  "displayed": 7135, 
  "arrow": 7136, 
  "Euro": 7137, 
  "eligibility": 7138, 
  "Then": 7139, 
  "distributed": 7140, 
  "ola": 7141, 
  "lightning": 7142, 
  "Head": 7143, 
  "207": 7144, 
  "prim@@": 7145, 
  "neighbor": 7146, 
  "gue": 7147, 
  "introducing": 7148, 
  "VIII": 7149, 
  "worn": 7150, 
  "Russians": 7151, 
  "damages": 7152, 
  "identifying": 7153, 
  "incentive": 7154, 
  "2nd": 7155, 
  "insist": 7156, 
  "baseball": 7157, 
  "mechanical": 7158, 
  "spin": 7159, 
  "Pacific": 7160, 
  "Advocate": 7161, 
  "visiting": 7162, 
  "Don@@": 7163, 
  "escort": 7164, 
  "sni@@": 7165, 
  "Investment": 7166, 
  "Austrian": 7167, 
  "liquidity": 7168, 
  "lending": 7169, 
  "Slovakia": 7170, 
  "let@@": 7171, 
  "ick@@": 7172, 
  "cm": 7173, 
  "counted": 7174, 
  "loyal": 7175, 
  "loyalty": 7176, 
  "Slovenia": 7177, 
  "dial": 7178, 
  "106": 7179, 
  "sna@@": 7180, 
  "uncertainty": 7181, 
  "ened": 7182, 
  "exceptions": 7183, 
  "directions": 7184, 
  "sphere": 7185, 
  "F.": 7186, 
  "ette": 7187, 
  "Maggie": 7188, 
  "Lake": 7189, 
  "salary": 7190, 
  "hydrogen": 7191, 
  "sacred": 7192, 
  "farming": 7193, 
  "Danish": 7194, 
  "missile": 7195, 
  "complied": 7196, 
  "creative": 7197, 
  "assisted": 7198, 
  "gged": 7199, 
  "pul@@": 7200, 
  "fella": 7201, 
  "gym": 7202, 
  "vanished": 7203, 
  "gon@@": 7204, 
  "cooked": 7205, 
  "dynamic": 7206, 
  "USA": 7207, 
  "run@@": 7208, 
  "chip": 7209, 
  "Point": 7210, 
  "a.m.": 7211, 
  "dan": 7212, 
  "LE@@": 7213, 
  "CI@@": 7214, 
  "cared": 7215, 
  "solar": 7216, 
  "Aunt": 7217, 
  "ion@@": 7218, 
  "passes": 7219, 
  "bottles": 7220, 
  "signals": 7221, 
  "hammer": 7222, 
  "pretending": 7223, 
  "ela": 7224, 
  "traveling": 7225, 
  "ath": 7226, 
  "timely": 7227, 
  "Carlos": 7228, 
  "rou@@": 7229, 
  "combating": 7230, 
  "Joseph": 7231, 
  "Carol": 7232, 
  "ceremony": 7233, 
  "whoo": 7234, 
  "permits": 7235, 
  "olive": 7236, 
  "scent": 7237, 
  "warriors": 7238, 
  "125": 7239, 
  "Julia": 7240, 
  "kingdom": 7241, 
  "Europol": 7242, 
  "wins": 7243, 
  "Angel": 7244, 
  "reductions": 7245, 
  "sta": 7246, 
  "chemicals": 7247, 
  "Rick": 7248, 
  "Hill": 7249, 
  "night@@": 7250, 
  "hid": 7251, 
  "react": 7252, 
  "container": 7253, 
  "headquarters": 7254, 
  "Tim": 7255, 
  "4.1": 7256, 
  "±": 7257, 
  "digging": 7258, 
  "Terry": 7259, 
  "minister": 7260, 
  "duck": 7261, 
  "Mur@@": 7262, 
  "profession": 7263, 
  "ila": 7264, 
  "occupied": 7265, 
  "vel": 7266, 
  "compound": 7267, 
  "establishes": 7268, 
  "Cognos": 7269, 
  "Marcus": 7270, 
  "throne": 7271, 
  "decides": 7272, 
  "gorgeous": 7273, 
  "nar@@": 7274, 
  "notion": 7275, 
  "coins": 7276, 
  "robbery": 7277, 
  "may@@": 7278, 
  "fli@@": 7279, 
  "mac@@": 7280, 
  "phrase": 7281, 
  "incredibly": 7282, 
  "int": 7283, 
  "layer": 7284, 
  "Cases": 7285, 
  "zo@@": 7286, 
  "abilities": 7287, 
  "adequately": 7288, 
  "conventional": 7289, 
  "organized": 7290, 
  "generations": 7291, 
  "bul@@": 7292, 
  "residents": 7293, 
  "P.@@": 7294, 
  "argues": 7295, 
  "Administrative": 7296, 
  "if@@": 7297, 
  "dignity": 7298, 
  "deadly": 7299, 
  "Conference": 7300, 
  "Ram@@": 7301, 
  "gifts": 7302, 
  "bra": 7303, 
  "ensured": 7304, 
  "elderly": 7305, 
  "Judgment": 7306, 
  "earn": 7307, 
  "premium": 7308, 
  "muscles": 7309, 
  "diplomatic": 7310, 
  "alism": 7311, 
  "collapse": 7312, 
  "trafficking": 7313, 
  "loc@@": 7314, 
  "hip": 7315, 
  "Moscow": 7316, 
  "crops": 7317, 
  "wiped": 7318, 
  "plot": 7319, 
  "Dor@@": 7320, 
  "organ": 7321, 
  "200@@": 7322, 
  "exploitation": 7323, 
  "cloth": 7324, 
  "raises": 7325, 
  "jokes": 7326, 
  "see@@": 7327, 
  "hear@@": 7328, 
  "preserve": 7329, 
  "ID@@": 7330, 
  "1st": 7331, 
  "Amanda": 7332, 
  "infections": 7333, 
  "spaces": 7334, 
  "arch@@": 7335, 
  "attempted": 7336, 
  "diet": 7337, 
  "Northern": 7338, 
  "stretch": 7339, 
  "simplified": 7340, 
  "cut@@": 7341, 
  "OLAF": 7342, 
  "Den@@": 7343, 
  "ple": 7344, 
  "slaughter": 7345, 
  "shouting": 7346, 
  "ideal": 7347, 
  "py": 7348, 
  "ED@@": 7349, 
  "Home": 7350, 
  "á@@": 7351, 
  "May@@": 7352, 
  "1000": 7353, 
  "Vincent": 7354, 
  "emphasis": 7355, 
  "screamed": 7356, 
  "Pol@@": 7357, 
  "Working": 7358, 
  "obtaining": 7359, 
  "Hello": 7360, 
  "inf@@": 7361, 
  "audio": 7362, 
  "decade": 7363, 
  "habit": 7364, 
  "clarity": 7365, 
  "consciousness": 7366, 
  "hepatic": 7367, 
  "burg": 7368, 
  "chy": 7369, 
  "tion@@": 7370, 
  "accuracy": 7371, 
  "slid": 7372, 
  "Sam@@": 7373, 
  "toys": 7374, 
  "tical": 7375, 
  "advised": 7376, 
  "ries": 7377, 
  "Latvia": 7378, 
  "cho@@": 7379, 
  "gesture": 7380, 
  "snap": 7381, 
  "surgeon": 7382, 
  "patent": 7383, 
  "However": 7384, 
  "professionals": 7385, 
  "addresses": 7386, 
  "acute": 7387, 
  "sail": 7388, 
  "blocked": 7389, 
  "IAS": 7390, 
  "swept": 7391, 
  "creates": 7392, 
  "×": 7393, 
  "monthly": 7394, 
  "executed": 7395, 
  "fist": 7396, 
  ".0@@": 7397, 
  "illness": 7398, 
  "discipline": 7399, 
  "steering": 7400, 
  "iv@@": 7401, 
  "H.": 7402, 
  "Use": 7403, 
  "Molly": 7404, 
  "horn": 7405, 
  "guessing": 7406, 
  "shipping": 7407, 
  "gli@@": 7408, 
  "imposing": 7409, 
  "ops": 7410, 
  "folk": 7411, 
  "exercised": 7412, 
  "interrupt": 7413, 
  "tuna": 7414, 
  "rop@@": 7415, 
  "likewise": 7416, 
  "02@@": 7417, 
  "indent": 7418, 
  "nie": 7419, 
  "diversity": 7420, 
  "Cri@@": 7421, 
  "realise": 7422, 
  "home@@": 7423, 
  "anxious": 7424, 
  "Kal@@": 7425, 
  "Da@@": 7426, 
  "rabbit": 7427, 
  "Sparhawk": 7428, 
  "pitch": 7429, 
  "freely": 7430, 
  "visits": 7431, 
  "briefly": 7432, 
  "significance": 7433, 
  "Mac": 7434, 
  "exclude": 7435, 
  "consolidated": 7436, 
  "Fundamental": 7437, 
  "CS@@": 7438, 
  "Argument": 7439, 
  "hydro@@": 7440, 
  "confidentiality": 7441, 
  "Jewish": 7442, 
  "fun@@": 7443, 
  "2.2": 7444, 
  "surrounding": 7445, 
  "Germans": 7446, 
  "apple": 7447, 
  "lessly": 7448, 
  "Form": 7449, 
  "individually": 7450, 
  "ri": 7451, 
  "bee": 7452, 
  "sw@@": 7453, 
  "alongside": 7454, 
  "Sen@@": 7455, 
  "Oral": 7456, 
  "junior": 7457, 
  "Ricky": 7458, 
  "judgments": 7459, 
  "wa": 7460, 
  "NO@@": 7461, 
  "inspector": 7462, 
  "ip@@": 7463, 
  "muttered": 7464, 
  "manifest": 7465, 
  "stein": 7466, 
  "commission": 7467, 
  "doll": 7468, 
  "dimensions": 7469, 
  "champion": 7470, 
  "switched": 7471, 
  "rated": 7472, 
  "cin@@": 7473, 
  "scratch": 7474, 
  "une": 7475, 
  "kissing": 7476, 
  "wagon": 7477, 
  "cau@@": 7478, 
  "reservation": 7479, 
  "experiences": 7480, 
  "drops": 7481, 
  "och@@": 7482, 
  "reads": 7483, 
  "tricks": 7484, 
  "ctors": 7485, 
  "ile": 7486, 
  "wrap": 7487, 
  "cha@@": 7488, 
  "downtown": 7489, 
  "ax": 7490, 
  "Tal@@": 7491, 
  "reimbursement": 7492, 
  "coin": 7493, 
  "scor@@": 7494, 
  "rank": 7495, 
  "limitations": 7496, 
  "wage": 7497, 
  "reject": 7498, 
  "Albert": 7499, 
  "mps": 7500, 
  "stretched": 7501, 
  "Sto@@": 7502, 
  "remarkable": 7503, 
  "catches": 7504, 
  "confirmation": 7505, 
  "Sel@@": 7506, 
  "bil@@": 7507, 
  "fuels": 7508, 
  "Euro@@": 7509, 
  "Vietnam": 7510, 
  "venture": 7511, 
  "blu@@": 7512, 
  "maker": 7513, 
  "posted": 7514, 
  "grief": 7515, 
  "dreaming": 7516, 
  "counts": 7517, 
  "cease": 7518, 
  "thi@@": 7519, 
  "God@@": 7520, 
  "webcam": 7521, 
  "180": 7522, 
  "royal": 7523, 
  "SME": 7524, 
  "march": 7525, 
  "exceeded": 7526, 
  "considerably": 7527, 
  "p.@@": 7528, 
  "breakdown": 7529, 
  "Products": 7530, 
  "put@@": 7531, 
  "southern": 7532, 
  "indirectly": 7533, 
  "bas@@": 7534, 
  "Ivan": 7535, 
  "indicator": 7536, 
  "sorts": 7537, 
  "responded": 7538, 
  "File": 7539, 
  "alley": 7540, 
  "2,@@": 7541, 
  "Derek": 7542, 
  "SH@@": 7543, 
  "detection": 7544, 
  "warming": 7545, 
  "Iceland": 7546, 
  "bon@@": 7547, 
  "conflicts": 7548, 
  "tackle": 7549, 
  "Pat@@": 7550, 
  "Gro@@": 7551, 
  "corpse": 7552, 
  "removing": 7553, 
  "widely": 7554, 
  "fic@@": 7555, 
  "freaking": 7556, 
  "rarely": 7557, 
  "ripped": 7558, 
  "Applicant": 7559, 
  "wrist": 7560, 
  "theater": 7561, 
  "mus@@": 7562, 
  "irrespective": 7563, 
  "ams": 7564, 
  "edly": 7565, 
  "steam": 7566, 
  "exempt": 7567, 
  "joking": 7568, 
  "accommodation": 7569, 
  "patrol": 7570, 
  "Kosovo": 7571, 
  "harmful": 7572, 
  "charging": 7573, 
  "ions": 7574, 
  "statutory": 7575, 
  "governor": 7576, 
  "courses": 7577, 
  "piano": 7578, 
  "pole": 7579, 
  "sid@@": 7580, 
  "tra": 7581, 
  "preferred": 7582, 
  "calculations": 7583, 
  "nit@@": 7584, 
  "ska": 7585, 
  "bore": 7586, 
  "belonging": 7587, 
  "Jo": 7588, 
  "SIS": 7589, 
  "confess": 7590, 
  "terribly": 7591, 
  "resist": 7592, 
  "immune": 7593, 
  "messed": 7594, 
  "unfounded": 7595, 
  "Norwegian": 7596, 
  "expense": 7597, 
  "kidney": 7598, 
  "-What": 7599, 
  "Summary": 7600, 
  "satisfactory": 7601, 
  "dness": 7602, 
  "interoperability": 7603, 
  "lic": 7604, 
  "cheek": 7605, 
  "demonstration": 7606, 
  "solvent": 7607, 
  "oned": 7608, 
  "mixture": 7609, 
  "interference": 7610, 
  "DC": 7611, 
  "Doug": 7612, 
  "terrorists": 7613, 
  "boost": 7614, 
  "headache": 7615, 
  "acknowledged": 7616, 
  "consolidation": 7617, 
  "Ap@@": 7618, 
  "gut": 7619, 
  "cal": 7620, 
  "anniversary": 7621, 
  "trends": 7622, 
  "ohh": 7623, 
  "Bri@@": 7624, 
  "way@@": 7625, 
  "Me": 7626, 
  "Fo@@": 7627, 
  "patience": 7628, 
  "engineer": 7629, 
  "safer": 7630, 
  "respects": 7631, 
  "cracked": 7632, 
  "HO@@": 7633, 
  "compete": 7634, 
  "NL": 7635, 
  "contributing": 7636, 
  "Jeremy": 7637, 
  "pas@@": 7638, 
  "bed@@": 7639, 
  "bin": 7640, 
  "PS@@": 7641, 
  "remedy": 7642, 
  "ow@@": 7643, 
  "behave": 7644, 
  "parked": 7645, 
  "cit@@": 7646, 
  "wisdom": 7647, 
  "meter": 7648, 
  "Catherine": 7649, 
  "deals": 7650, 
  "Pakistan": 7651, 
  "skip": 7652, 
  "1.5": 7653, 
  "Keywords": 7654, 
  "distinctive": 7655, 
  "spit": 7656, 
  "deployment": 7657, 
  "conjunction": 7658, 
  "Australia": 7659, 
  "yelling": 7660, 
  "selfish": 7661, 
  "legality": 7662, 
  "spectrum": 7663, 
  "vampires": 7664, 
  "Cur@@": 7665, 
  "slaves": 7666, 
  "kit": 7667, 
  "pose": 7668, 
  "closest": 7669, 
  "horizon": 7670, 
  "dressing": 7671, 
  "ving": 7672, 
  "cia": 7673, 
  "gettin": 7674, 
  "Greg": 7675, 
  "what@@": 7676, 
  "IEC": 7677, 
  "15.@@": 7678, 
  "reminds": 7679, 
  "stare": 7680, 
  "dreamed": 7681, 
  "ox@@": 7682, 
  "ups": 7683, 
  "sco@@": 7684, 
  "encountered": 7685, 
  "got@@": 7686, 
  "neuro@@": 7687, 
  "drill": 7688, 
  "gambling": 7689, 
  "irregularities": 7690, 
  "surplus": 7691, 
  "P6": 7692, 
  "shocked": 7693, 
  "doc": 7694, 
  "clarify": 7695, 
  "emerged": 7696, 
  "infringed": 7697, 
  "Cas@@": 7698, 
  "portion": 7699, 
  "ped@@": 7700, 
  "Item": 7701, 
  "Arab": 7702, 
  "pel@@": 7703, 
  "delicate": 7704, 
  "Archer": 7705, 
  "isolated": 7706, 
  "alter": 7707, 
  "revolution": 7708, 
  "log@@": 7709, 
  "corn": 7710, 
  "gal": 7711, 
  "convention": 7712, 
  "bi": 7713, 
  "Employment": 7714, 
  "brake": 7715, 
  "Recommendation": 7716, 
  "bail": 7717, 
  "scrutiny": 7718, 
  "advise": 7719, 
  "temporarily": 7720, 
  "Alexander": 7721, 
  "fe": 7722, 
  "gru@@": 7723, 
  "fits": 7724, 
  "5.1": 7725, 
  "ja@@": 7726, 
  "charity": 7727, 
  "beaten": 7728, 
  "foods": 7729, 
  "distinct": 7730, 
  "worrying": 7731, 
  "exchanges": 7732, 
  "Hollywood": 7733, 
  "EE@@": 7734, 
  "contends": 7735, 
  "lowest": 7736, 
  "foodstuffs": 7737, 
  "concentrated": 7738, 
  "vel@@": 7739, 
  "Decree": 7740, 
  "artificial": 7741, 
  "Bar": 7742, 
  "Garion": 7743, 
  "filthy": 7744, 
  "contributed": 7745, 
  "blood@@": 7746, 
  "politicians": 7747, 
  "cab@@": 7748, 
  "radar": 7749, 
  "pit@@": 7750, 
  "opposed": 7751, 
  "160": 7752, 
  "ight": 7753, 
  "sauce": 7754, 
  "Ur@@": 7755, 
  "versions": 7756, 
  "eve": 7757, 
  "pistol": 7758, 
  "pon@@": 7759, 
  "ALDE": 7760, 
  "bears": 7761, 
  "constructed": 7762, 
  "Norman": 7763, 
  "Vol@@": 7764, 
  "fatal": 7765, 
  "Rev@@": 7766, 
  "tragedy": 7767, 
  "alist": 7768, 
  "109": 7769, 
  "ich@@": 7770, 
  "2.3": 7771, 
  "treaty": 7772, 
  "reflects": 7773, 
  "conscience": 7774, 
  "Barbara": 7775, 
  "revenues": 7776, 
  "ale@@": 7777, 
  "chairs": 7778, 
  "warehouse": 7779, 
  "ham@@": 7780, 
  "slu@@": 7781, 
  "liber@@": 7782, 
  "plu@@": 7783, 
  "sty": 7784, 
  "mounted": 7785, 
  "Gri@@": 7786, 
  "penis": 7787, 
  "relieved": 7788, 
  "extending": 7789, 
  "capsules": 7790, 
  "fled": 7791, 
  "UL@@": 7792, 
  "actively": 7793, 
  "sus": 7794, 
  "deposits": 7795, 
  "Angeles": 7796, 
  "Lou": 7797, 
  "Environment": 7798, 
  "lon": 7799, 
  "cliff": 7800, 
  "Linda": 7801, 
  "width": 7802, 
  "peak": 7803, 
  "busted": 7804, 
  "Ce@@": 7805, 
  "abovementioned": 7806, 
  "illi@@": 7807, 
  "ole": 7808, 
  "bombs": 7809, 
  "consulted": 7810, 
  "Advisory": 7811, 
  "native": 7812, 
  "cers": 7813, 
  "quantitative": 7814, 
  "HIV": 7815, 
  "drives": 7816, 
  "Eu@@": 7817, 
  "resolved": 7818, 
  "suggesting": 7819, 
  "bench": 7820, 
  "static": 7821, 
  "Islands": 7822, 
  "renewed": 7823, 
  "adaptation": 7824, 
  "aded": 7825, 
  "baseline": 7826, 
  "eleven": 7827, 
  "IP@@": 7828, 
  "jun@@": 7829, 
  "accent": 7830, 
  "lor@@": 7831, 
  "hun@@": 7832, 
  "ace": 7833, 
  "conscious": 7834, 
  "ris@@": 7835, 
  "DA": 7836, 
  "io": 7837, 
  "here@@": 7838, 
  "purchased": 7839, 
  "nations": 7840, 
  "farther": 7841, 
  "Vince": 7842, 
  "lamps": 7843, 
  "wil@@": 7844, 
  "Harold": 7845, 
  "toxic": 7846, 
  "L.A.": 7847, 
  "TO@@": 7848, 
  "wn": 7849, 
  "iled": 7850, 
  "fluid": 7851, 
  "Judge": 7852, 
  "Ann": 7853, 
  "physically": 7854, 
  "Wait": 7855, 
  "Foundation": 7856, 
  "administrator": 7857, 
  "&apos;s--": 7858, 
  "modification": 7859, 
  "intentions": 7860, 
  "CZK": 7861, 
  "sack": 7862, 
  "kicking": 7863, 
  "Stone": 7864, 
  "occasionally": 7865, 
  "&apos;S": 7866, 
  "negotiate": 7867, 
  "Malta": 7868, 
  "blanket": 7869, 
  "grin": 7870, 
  "violation": 7871, 
  "13.@@": 7872, 
  "ñ@@": 7873, 
  "CO2": 7874, 
  "fur": 7875, 
  "diamond": 7876, 
  "consist": 7877, 
  "Madame": 7878, 
  "Rooms": 7879, 
  "1989": 7880, 
  "Secretariat": 7881, 
  "elimination": 7882, 
  "ghosts": 7883, 
  "ona": 7884, 
  "debts": 7885, 
  "compare": 7886, 
  "cha": 7887, 
  "ken@@": 7888, 
  "Ze@@": 7889, 
  "ng": 7890, 
  "y--": 7891, 
  "ALE": 7892, 
  "beds": 7893, 
  "Stra@@": 7894, 
  "northern": 7895, 
  "committees": 7896, 
  "Sig@@": 7897, 
  "su": 7898, 
  "museum": 7899, 
  "technique": 7900, 
  "Regions": 7901, 
  "As@@": 7902, 
  "ill@@": 7903, 
  "Cooper": 7904, 
  "carries": 7905, 
  "enables": 7906, 
  "Wall": 7907, 
  "pockets": 7908, 
  "obey": 7909, 
  "fetch": 7910, 
  "Bond": 7911, 
  "Black@@": 7912, 
  "criminals": 7913, 
  "detention": 7914, 
  "Conditions": 7915, 
  "foot@@": 7916, 
  "investigating": 7917, 
  "cheating": 7918, 
  "Grant": 7919, 
  "HR": 7920, 
  "setup": 7921, 
  "ular": 7922, 
  "alike": 7923, 
  "axis": 7924, 
  "stores": 7925, 
  "IR@@": 7926, 
  "Serbia": 7927, 
  "Application": 7928, 
  "planes": 7929, 
  "rash": 7930, 
  "offense": 7931, 
  "mad@@": 7932, 
  "irs": 7933, 
  "flames": 7934, 
  "Chloe": 7935, 
  "Asian": 7936, 
  "alization": 7937, 
  "petrol": 7938, 
  "metres": 7939, 
  "responses": 7940, 
  "sed@@": 7941, 
  "spotted": 7942, 
  "prom": 7943, 
  "Did": 7944, 
  "xes": 7945, 
  "heroes": 7946, 
  "40@@": 7947, 
  "squeeze": 7948, 
  "tore": 7949, 
  "Unit": 7950, 
  "comin": 7951, 
  "ison": 7952, 
  "lookin": 7953, 
  "polite": 7954, 
  "unhappy": 7955, 
  "mistaken": 7956, 
  "sman": 7957, 
  "dialog": 7958, 
  "seventh": 7959, 
  "Alfred": 7960, 
  "Red@@": 7961, 
  "twin": 7962, 
  "Š@@": 7963, 
  "excitement": 7964, 
  "controlling": 7965, 
  "lighting": 7966, 
  "dow@@": 7967, 
  "colleague": 7968, 
  "talkin": 7969, 
  "lun@@": 7970, 
  "outfit": 7971, 
  "Abby": 7972, 
  "strangers": 7973, 
  "spray": 7974, 
  "chaos": 7975, 
  "flip": 7976, 
  "apparatus": 7977, 
  "Ken@@": 7978, 
  "enhancing": 7979, 
  "mot@@": 7980, 
  "Station": 7981, 
  "eastern": 7982, 
  "flies": 7983, 
  "T.@@": 7984, 
  "Dennis": 7985, 
  "xB6": 7986, 
  "Estonia": 7987, 
  "len": 7988, 
  "fans": 7989, 
  "organisms": 7990, 
  "weed": 7991, 
  "iness": 7992, 
  "magical": 7993, 
  "western": 7994, 
  "berry": 7995, 
  "ved": 7996, 
  "concert": 7997, 
  "searched": 7998, 
  "ado": 7999, 
  "Charlotte": 8000, 
  "laundry": 8001, 
  "shine": 8002, 
  "Fax": 8003, 
  "strengthened": 8004, 
  "Len@@": 8005, 
  "Functioning": 8006, 
  "eling": 8007, 
  "snow@@": 8008, 
  "humor": 8009, 
  "quote": 8010, 
  "cart": 8011, 
  "some@@": 8012, 
  "booth": 8013, 
  "terrific": 8014, 
  "tas": 8015, 
  "ssing": 8016, 
  "separation": 8017, 
  "empowered": 8018, 
  "Europeans": 8019, 
  "beloved": 8020, 
  "optional": 8021, 
  "detect": 8022, 
  "hunter": 8023, 
  "just@@": 8024, 
  "thrust": 8025, 
  "announcer": 8026, 
  "module": 8027, 
  "aver@@": 8028, 
  "fies": 8029, 
  "weighted": 8030, 
  "parliamentary": 8031, 
  "finances": 8032, 
  "rocket": 8033, 
  "simplification": 8034, 
  "Alpha": 8035, 
  "corrections": 8036, 
  "Eve": 8037, 
  "simultaneously": 8038, 
  "washing": 8039, 
  "arts": 8040, 
  "ets": 8041, 
  "20.@@": 8042, 
  "dull": 8043, 
  "sher": 8044, 
  "ova": 8045, 
  "anytime": 8046, 
  "pharmaceutical": 8047, 
  "Airlines": 8048, 
  "Standard": 8049, 
  "breeding": 8050, 
  "Structural": 8051, 
  "aliens": 8052, 
  "notwithstanding": 8053, 
  "convergence": 8054, 
  "indi@@": 8055, 
  "pause": 8056, 
  "sque@@": 8057, 
  "questionnaire": 8058, 
  "stressed": 8059, 
  "organs": 8060, 
  "semi": 8061, 
  "ella": 8062, 
  "Mid@@": 8063, 
  "leaflet": 8064, 
  "waved": 8065, 
  "O.": 8066, 
  "fl@@": 8067, 
  "gains": 8068, 
  "Vor@@": 8069, 
  "glow": 8070, 
  "odi@@": 8071, 
  "MO@@": 8072, 
  "hop": 8073, 
  "retain": 8074, 
  "Have": 8075, 
  "fears": 8076, 
  "ences": 8077, 
  "doorway": 8078, 
  "Bru@@": 8079, 
  "locker": 8080, 
  "chips": 8081, 
  "homework": 8082, 
  "ille": 8083, 
  "aking": 8084, 
  "explore": 8085, 
  "demons": 8086, 
  "admission": 8087, 
  "Auto@@": 8088, 
  "tension": 8089, 
  "hm": 8090, 
  "bend": 8091, 
  "copper": 8092, 
  "е@@": 8093, 
  "defining": 8094, 
  "fi": 8095, 
  "prevented": 8096, 
  "140": 8097, 
  "consensus": 8098, 
  "interaction": 8099, 
  "Gr@@": 8100, 
  "pharmacist": 8101, 
  "ura": 8102, 
  "adventure": 8103, 
  "diesel": 8104, 
  "retired": 8105, 
  "spreading": 8106, 
  "ored": 8107, 
  "Men": 8108, 
  "sho@@": 8109, 
  "Bible": 8110, 
  "Harvey": 8111, 
  "pad": 8112, 
  "ere@@": 8113, 
  "crown": 8114, 
  "modify": 8115, 
  "ero": 8116, 
  "connecting": 8117, 
  "costume": 8118, 
  "exposures": 8119, 
  "expansion": 8120, 
  "occasions": 8121, 
  "Ve@@": 8122, 
  "worm": 8123, 
  "ished": 8124, 
  "info": 8125, 
  "adds": 8126, 
  "PC": 8127, 
  "kidnapped": 8128, 
  "necessity": 8129, 
  "Jews": 8130, 
  "IMF": 8131, 
  "sunlight": 8132, 
  "Marine": 8133, 
  "103": 8134, 
  "Stephen": 8135, 
  "Airport": 8136, 
  "Liz": 8137, 
  "ys@@": 8138, 
  "employers": 8139, 
  "inventory": 8140, 
  "gloves": 8141, 
  "cents": 8142, 
  "terrified": 8143, 
  "ities": 8144, 
  "enlargement": 8145, 
  "ston": 8146, 
  "Lucas": 8147, 
  "beans": 8148, 
  "crashed": 8149, 
  "ET": 8150, 
  "aro@@": 8151, 
  "nat@@": 8152, 
  "Technical": 8153, 
  "dishes": 8154, 
  "begging": 8155, 
  "systemic": 8156, 
  "Mister": 8157, 
  "goat": 8158, 
  "qui@@": 8159, 
  "Wayne": 8160, 
  "solved": 8161, 
  "abandon": 8162, 
  "badge": 8163, 
  "cheer": 8164, 
  "Assessment": 8165, 
  "trailer": 8166, 
  "lifting": 8167, 
  "115": 8168, 
  "Sil@@": 8169, 
  "296": 8170, 
  "mothers": 8171, 
  "tops": 8172, 
  "sharply": 8173, 
  "brick": 8174, 
  "album": 8175, 
  "Vimes": 8176, 
  "seeds": 8177, 
  "dramatic": 8178, 
  "LA": 8179, 
  "的@@": 8180, 
  "toe": 8181, 
  "fog": 8182, 
  "ep": 8183, 
  "0,000": 8184, 
  "designate": 8185, 
  "coordinate": 8186, 
  "shuttle": 8187, 
  "sends": 8188, 
  "acy": 8189, 
  "speaker": 8190, 
  "stepping": 8191, 
  "blows": 8192, 
  "films": 8193, 
  "silk": 8194, 
  "circuit": 8195, 
  "senator": 8196, 
  "hr@@": 8197, 
  "belonged": 8198, 
  "discovery": 8199, 
  "ash": 8200, 
  "hostage": 8201, 
  "A1": 8202, 
  "crop": 8203, 
  "sneak": 8204, 
  "fishery": 8205, 
  "researchers": 8206, 
  "Book": 8207, 
  "finest": 8208, 
  "Jesse": 8209, 
  "dling": 8210, 
  "helmet": 8211, 
  "EDPS": 8212, 
  "Registry": 8213, 
  "transportation": 8214, 
  "unfortunate": 8215, 
  "unconscious": 8216, 
  "wat@@": 8217, 
  "suspects": 8218, 
  "challenged": 8219, 
  "Access": 8220, 
  "good@@": 8221, 
  "ese": 8222, 
  "Lincoln": 8223, 
  "thumb": 8224, 
  "whereby": 8225, 
  "salad": 8226, 
  "house@@": 8227, 
  "feared": 8228, 
  "consulting": 8229, 
  "ake": 8230, 
  "Hell": 8231, 
  "Tower": 8232, 
  "Florida": 8233, 
  "aks": 8234, 
  ".And": 8235, 
  "4.3": 8236, 
  "lon@@": 8237, 
  "sustained": 8238, 
  "σ@@": 8239, 
  "Imperial": 8240, 
  "eager": 8241, 
  "illa": 8242, 
  "establishments": 8243, 
  "Statute": 8244, 
  "hazard": 8245, 
  "partnerships": 8246, 
  "discussing": 8247, 
  "keeper": 8248, 
  "happily": 8249, 
  "Lewis": 8250, 
  "chi": 8251, 
  "mount": 8252, 
  "ci": 8253, 
  "Sheriff": 8254, 
  "promises": 8255, 
  "rel@@": 8256, 
  "fewer": 8257, 
  "halt": 8258, 
  "bru@@": 8259, 
  "racing": 8260, 
  "exhaust": 8261, 
  "graph": 8262, 
  "corrected": 8263, 
  "prayer": 8264, 
  "tically": 8265, 
  ".com": 8266, 
  "shout": 8267, 
  "EGF": 8268, 
  "114": 8269, 
  "League": 8270, 
  "ome@@": 8271, 
  "red@@": 8272, 
  "oni": 8273, 
  "purple": 8274, 
  "grinned": 8275, 
  "urge": 8276, 
  "Nu@@": 8277, 
  "unbelievable": 8278, 
  "postcard": 8279, 
  "bing": 8280, 
  "foundation": 8281, 
  "Ara@@": 8282, 
  "boarding": 8283, 
  "Google": 8284, 
  "Casey": 8285, 
  "s-": 8286, 
  "nest": 8287, 
  "urgency": 8288, 
  "wholly": 8289, 
  "I-": 8290, 
  "les@@": 8291, 
  "nan@@": 8292, 
  "Var@@": 8293, 
  "ensures": 8294, 
  "Francisco": 8295, 
  "Nancy": 8296, 
  "analysed": 8297, 
  "Lam@@": 8298, 
  "clinic": 8299, 
  "CI": 8300, 
  "struggling": 8301, 
  "rob@@": 8302, 
  "Stu@@": 8303, 
  "rounds": 8304, 
  "knocking": 8305, 
  "suggestion": 8306, 
  "madness": 8307, 
  "columns": 8308, 
  "disorder": 8309, 
  "lar": 8310, 
  "Em@@": 8311, 
  "explicitly": 8312, 
  "Cer@@": 8313, 
  "Miami": 8314, 
  "confession": 8315, 
  "cti@@": 8316, 
  "1.3": 8317, 
  "palm": 8318, 
  "inland": 8319, 
  "mers": 8320, 
  "laser": 8321, 
  "carpet": 8322, 
  "hooked": 8323, 
  "5.2": 8324, 
  "sively": 8325, 
  "dwarf": 8326, 
  "1.": 8327, 
  "dining": 8328, 
  "seated": 8329, 
  "bout": 8330, 
  "ê": 8331, 
  "blessed": 8332, 
  "Rad@@": 8333, 
  "show@@": 8334, 
  "therein": 8335, 
  "sickness": 8336, 
  "apology": 8337, 
  "phen@@": 8338, 
  "replies": 8339, 
  "tot@@": 8340, 
  "ades": 8341, 
  "freedoms": 8342, 
  "ling@@": 8343, 
  "Baron": 8344, 
  "Mommy": 8345, 
  "barrel": 8346, 
  "author": 8347, 
  "authorising": 8348, 
  "restrict": 8349, 
  "lease": 8350, 
  "Scheme": 8351, 
  "coma": 8352, 
  "kle": 8353, 
  "disputed": 8354, 
  "ren": 8355, 
  "ida": 8356, 
  "wishing": 8357, 
  "photograph": 8358, 
  "guitar": 8359, 
  "ICT": 8360, 
  "Sor@@": 8361, 
  "swallowed": 8362, 
  "paediatric": 8363, 
  "Julie": 8364, 
  "delighted": 8365, 
  "curve": 8366, 
  "ath@@": 8367, 
  "130": 8368, 
  "metric": 8369, 
  "Ol@@": 8370, 
  "stat@@": 8371, 
  "aging": 8372, 
  "planted": 8373, 
  "broadcast": 8374, 
  "summit": 8375, 
  "lid": 8376, 
  "Wolf": 8377, 
  "ik": 8378, 
  "Fal@@": 8379, 
  "Was": 8380, 
  "aria": 8381, 
  "ari": 8382, 
  "hardware": 8383, 
  "stating": 8384, 
  "crushed": 8385, 
  "prick": 8386, 
  "shelf": 8387, 
  "dled": 8388, 
  "IG@@": 8389, 
  "collar": 8390, 
  "travelling": 8391, 
  "macro": 8392, 
  "suspicion": 8393, 
  "dissemination": 8394, 
  "virgin": 8395, 
  "Only": 8396, 
  "dor@@": 8397, 
  "subsidiaries": 8398, 
  "lined": 8399, 
  "dly": 8400, 
  "sixty": 8401, 
  "hair@@": 8402, 
  "bac@@": 8403, 
  "get@@": 8404, 
  "fitting": 8405, 
  "fairy": 8406, 
  "stre@@": 8407, 
  "Mis@@": 8408, 
  "questioning": 8409, 
  "mates": 8410, 
  "county": 8411, 
  "sins": 8412, 
  "real@@": 8413, 
  "Holmes": 8414, 
  "key@@": 8415, 
  "societies": 8416, 
  "plug": 8417, 
  "dest": 8418, 
  "arguing": 8419, 
  "131": 8420, 
  "depression": 8421, 
  "realised": 8422, 
  "&apos;yes": 8423, 
  "wars": 8424, 
  "systematic": 8425, 
  "underwear": 8426, 
  "with@@": 8427, 
  "folded": 8428, 
  "35@@": 8429, 
  "announcement": 8430, 
  "scientist": 8431, 
  "hoo": 8432, 
  "promoted": 8433, 
  "multiannual": 8434, 
  "tooth": 8435, 
  "rightly": 8436, 
  "poultry": 8437, 
  "Avenue": 8438, 
  "Boy": 8439, 
  "creepy": 8440, 
  "kan": 8441, 
  "Harris": 8442, 
  "Victoria": 8443, 
  ".I": 8444, 
  "factual": 8445, 
  "fel@@": 8446, 
  "Long": 8447, 
  "grand@@": 8448, 
  "ive": 8449, 
  "climbing": 8450, 
  "vary": 8451, 
  "renewal": 8452, 
  "Bell": 8453, 
  "chers": 8454, 
  "Open": 8455, 
  "monsters": 8456, 
  "lobby": 8457, 
  "interfere": 8458, 
  "coordinates": 8459, 
  "backwards": 8460, 
  "potatoes": 8461, 
  "shining": 8462, 
  "Christine": 8463, 
  "hatch": 8464, 
  "Kenny": 8465, 
  "dal@@": 8466, 
  "exceeds": 8467, 
  "Mexican": 8468, 
  "terminated": 8469, 
  "leasing": 8470, 
  "60@@": 8471, 
  "delayed": 8472, 
  "slo@@": 8473, 
  "highway": 8474, 
  "succeeded": 8475, 
  "ico": 8476, 
  "chains": 8477, 
  "Life": 8478, 
  "serum": 8479, 
  "motive": 8480, 
  "cloak": 8481, 
  "CS": 8482, 
  "han": 8483, 
  "Tran@@": 8484, 
  "bou@@": 8485, 
  "cle": 8486, 
  "managers": 8487, 
  "Cat@@": 8488, 
  "til@@": 8489, 
  "implies": 8490, 
  "barrier": 8491, 
  "los": 8492, 
  "fantasy": 8493, 
  "oper@@": 8494, 
  "twins": 8495, 
  "ANNEX": 8496, 
  "heal": 8497, 
  "Stability": 8498, 
  "Five": 8499, 
  "These": 8500, 
  "Love": 8501, 
  "Accession": 8502, 
  "Nar@@": 8503, 
  "crowded": 8504, 
  "forecast": 8505, 
  "correspond": 8506, 
  "pes": 8507, 
  "138": 8508, 
  "lend": 8509, 
  "Ali": 8510, 
  "Take": 8511, 
  "West@@": 8512, 
  "leak": 8513, 
  "thereafter": 8514, 
  "Stop": 8515, 
  "robbed": 8516, 
  "expand": 8517, 
  "landscape": 8518, 
  "mon": 8519, 
  "emotion": 8520, 
  "indicative": 8521, 
  "sto": 8522, 
  "orbit": 8523, 
  "strain": 8524, 
  "vest": 8525, 
  "day@@": 8526, 
  "roughly": 8527, 
  "fan@@": 8528, 
  "dering": 8529, 
  "prote@@": 8530, 
  "harsh": 8531, 
  "junk": 8532, 
  "versus": 8533, 
  "Pur@@": 8534, 
  "kings": 8535, 
  "weaknesses": 8536, 
  "basket": 8537, 
  "Ran@@": 8538, 
  "shark": 8539, 
  "permanently": 8540, 
  "Van@@": 8541, 
  "perimeter": 8542, 
  "guessed": 8543, 
  "differ": 8544, 
  "shipment": 8545, 
  "historic": 8546, 
  "offence": 8547, 
  "pay@@": 8548, 
  "bitches": 8549, 
  "Ry@@": 8550, 
  "Since": 8551, 
  "ire@@": 8552, 
  "fighters": 8553, 
  "max": 8554, 
  "ccm": 8555, 
  "concludes": 8556, 
  "roots": 8557, 
  "LE": 8558, 
  "Ji@@": 8559, 
  "complain": 8560, 
  "Bishop": 8561, 
  "metallic": 8562, 
  "700": 8563, 
  "preclude": 8564, 
  "portfolio": 8565, 
  "annexed": 8566, 
  "blah": 8567, 
  "yield": 8568, 
  "medication": 8569, 
  "divorced": 8570, 
  "oun@@": 8571, 
  "recommends": 8572, 
  "suite": 8573, 
  "Frankie": 8574, 
  "footage": 8575, 
  "jumping": 8576, 
  "Pap@@": 8577, 
  "Shar@@": 8578, 
  "chronic": 8579, 
  "111": 8580, 
  "Ellie": 8581, 
  "CAP": 8582, 
  "Teddy": 8583, 
  "UT@@": 8584, 
  "SS": 8585, 
  "Monsieur": 8586, 
  "check@@": 8587, 
  "Fon@@": 8588, 
  "graphic": 8589, 
  "IV@@": 8590, 
  "gallery": 8591, 
  "EG@@": 8592, 
  "tune": 8593, 
  "&apos;t--": 8594, 
  "batch": 8595, 
  "Hitler": 8596, 
  "entrusted": 8597, 
  "coherence": 8598, 
  "facilitating": 8599, 
  "paperwork": 8600, 
  "Out": 8601, 
  "set@@": 8602, 
  "judges": 8603, 
  "refugees": 8604, 
  "Fla@@": 8605, 
  "iner": 8606, 
  "specially": 8607, 
  "Dale": 8608, 
  "Virginia": 8609, 
  "sticking": 8610, 
  "OS@@": 8611, 
  "Slovak": 8612, 
  "thread": 8613, 
  "bovine": 8614, 
  "itch": 8615, 
  "pled": 8616, 
  "Aaron": 8617, 
  "dor": 8618, 
  "mos": 8619, 
  "Betty": 8620, 
  "specifies": 8621, 
  "---": 8622, 
  "dou@@": 8623, 
  "Ye@@": 8624, 
  "threaten": 8625, 
  "kov@@": 8626, 
  "Walker": 8627, 
  "pensions": 8628, 
  "robots": 8629, 
  "14.@@": 8630, 
  "bag@@": 8631, 
  "Obama": 8632, 
  "hallway": 8633, 
  "gum": 8634, 
  "lane": 8635, 
  "tain@@": 8636, 
  "exporter": 8637, 
  "pli@@": 8638, 
  "thr@@": 8639, 
  "Monica": 8640, 
  "diamonds": 8641, 
  "sums": 8642, 
  "insolvency": 8643, 
  "cky": 8644, 
  "Highness": 8645, 
  "ards": 8646, 
  "punished": 8647, 
  "inappropriate": 8648, 
  "Med@@": 8649, 
  "PDO": 8650, 
  "posed": 8651, 
  "Bat@@": 8652, 
  "sum@@": 8653, 
  "Cole": 8654, 
  "ast": 8655, 
  "sensors": 8656, 
  "aggressive": 8657, 
  "No.": 8658, 
  "Young": 8659, 
  "attempts": 8660, 
  "substantive": 8661, 
  "Brad": 8662, 
  "reckon": 8663, 
  "subsidiarity": 8664, 
  "coward": 8665, 
  "nominal": 8666, 
  "constituted": 8667, 
  "Nate": 8668, 
  "prolonged": 8669, 
  "owing": 8670, 
  "updates": 8671, 
  "dont": 8672, 
  "Laurie": 8673, 
  "lining": 8674, 
  "pad@@": 8675, 
  "Yu@@": 8676, 
  "Spe@@": 8677, 
  "AF@@": 8678, 
  "shorter": 8679, 
  "Claude": 8680, 
  "Kin@@": 8681, 
  "ony": 8682, 
  "Katie": 8683, 
  "relaxed": 8684, 
  "retained": 8685, 
  "atives": 8686, 
  "assumption": 8687, 
  "charm": 8688, 
  "delays": 8689, 
  "Chairman": 8690, 
  "Ten@@": 8691, 
  "reflection": 8692, 
  "toes": 8693, 
  "activate": 8694, 
  "SE": 8695, 
  "mistress": 8696, 
  "unacceptable": 8697, 
  "deputy": 8698, 
  "altered": 8699, 
  "musical": 8700, 
  "sup@@": 8701, 
  "ón": 8702, 
  "After": 8703, 
  "whisper": 8704, 
  "repayment": 8705, 
  "til": 8706, 
  "companion": 8707, 
  "0.5": 8708, 
  "authorise": 8709, 
  "locations": 8710, 
  "Assembly": 8711, 
  "Grandpa": 8712, 
  "break@@": 8713, 
  "Steven": 8714, 
  "symbols": 8715, 
  "claiming": 8716, 
  "overhead": 8717, 
  "bled": 8718, 
  "5,000": 8719, 
  "ceased": 8720, 
  "sar@@": 8721, 
  "pricing": 8722, 
  "ssa": 8723, 
  "intensive": 8724, 
  "portal": 8725, 
  "gener@@": 8726, 
  "Gus": 8727, 
  "barn": 8728, 
  "iting": 8729, 
  "fashioned": 8730, 
  "lastly": 8731, 
  "minority": 8732, 
  "idiots": 8733, 
  "collateral": 8734, 
  "exemptions": 8735, 
  "derogations": 8736, 
  "maturity": 8737, 
  "intent": 8738, 
  "exchanged": 8739, 
  "str@@": 8740, 
  "prob@@": 8741, 
  "icon": 8742, 
  "ira": 8743, 
  "jaw": 8744, 
  "Quinn": 8745, 
  "gran@@": 8746, 
  "all@@": 8747, 
  "drama": 8748, 
  "Caroline": 8749, 
  "bin@@": 8750, 
  "Verts": 8751, 
  "dive": 8752, 
  "eng@@": 8753, 
  "ladder": 8754, 
  "ffs": 8755, 
  "missiles": 8756, 
  "injuries": 8757, 
  "A6": 8758, 
  "heels": 8759, 
  "continuation": 8760, 
  "38@@": 8761, 
  "Margaret": 8762, 
  "Bran@@": 8763, 
  "tz": 8764, 
  "devoted": 8765, 
  "forests": 8766, 
  "integral": 8767, 
  "-no": 8768, 
  "surprising": 8769, 
  "trucks": 8770, 
  "mustn": 8771, 
  "transmit": 8772, 
  "Bo": 8773, 
  "Land@@": 8774, 
  "desired": 8775, 
  "ł@@": 8776, 
  "sweep": 8777, 
  "multilateral": 8778, 
  "-you": 8779, 
  "servis": 8780, 
  "rushed": 8781, 
  "beats": 8782, 
  "nephew": 8783, 
  "cancelled": 8784, 
  "foul": 8785, 
  "a.@@": 8786, 
  "tle@@": 8787, 
  "hint": 8788, 
  "corresponds": 8789, 
  "vin@@": 8790, 
  "negotiated": 8791, 
  "supper": 8792, 
  "Ob@@": 8793, 
  "Ci@@": 8794, 
  "merry": 8795, 
  "Agriculture": 8796, 
  "terminate": 8797, 
  "armor": 8798, 
  "applause": 8799, 
  "scra@@": 8800, 
  "greatly": 8801, 
  "trans": 8802, 
  "Karl": 8803, 
  "responding": 8804, 
  "Sheldon": 8805, 
  "analyses": 8806, 
  "NATO": 8807, 
  "choosing": 8808, 
  "S.A.": 8809, 
  "attempting": 8810, 
  "cookies": 8811, 
  "Hi@@": 8812, 
  "Gil@@": 8813, 
  "cursed": 8814, 
  "punk": 8815, 
  "skilled": 8816, 
  "Administration": 8817, 
  "packs": 8818, 
  "gon": 8819, 
  "Reg@@": 8820, 
  "lity": 8821, 
  "competences": 8822, 
  "spots": 8823, 
  "gan@@": 8824, 
  "auction": 8825, 
  "edition": 8826, 
  "acquire": 8827, 
  "formally": 8828, 
  "tel": 8829, 
  "&apos;oh": 8830, 
  "cour@@": 8831, 
  "Hen@@": 8832, 
  "tens": 8833, 
  "aked": 8834, 
  "Position": 8835, 
  "mister": 8836, 
  "pillar": 8837, 
  "Zone": 8838, 
  "loop": 8839, 
  "Carrie": 8840, 
  "Davis": 8841, 
  "Cross": 8842, 
  "islands": 8843, 
  "dispatch": 8844, 
  "defines": 8845, 
  "alcoholic": 8846, 
  "bie": 8847, 
  "Global": 8848, 
  "onal": 8849, 
  "Cle@@": 8850, 
  "我@@": 8851, 
  "curiosity": 8852, 
  "hatred": 8853, 
  "CP@@": 8854, 
  "gel": 8855, 
  "murmured": 8856, 
  "seized": 8857, 
  "Jess": 8858, 
  "offences": 8859, 
  "rang": 8860, 
  "dom@@": 8861, 
  "Oscar": 8862, 
  "disturbed": 8863, 
  "macroeconomic": 8864, 
  "BE": 8865, 
  "ssy": 8866, 
  "è@@": 8867, 
  "Representative": 8868, 
  "Pr@@": 8869, 
  "endless": 8870, 
  "hunger": 8871, 
  "gos": 8872, 
  "16.@@": 8873, 
  "Jersey": 8874, 
  "did@@": 8875, 
  "matching": 8876, 
  "aiming": 8877, 
  "&apos;well": 8878, 
  "Whereas": 8879, 
  "commonly": 8880, 
  "exporters": 8881, 
  "Team": 8882, 
  "Wendy": 8883, 
  "ai@@": 8884, 
  "diameter": 8885, 
  "productive": 8886, 
  "pillow": 8887, 
  "fix@@": 8888, 
  "lame": 8889, 
  "SE@@": 8890, 
  "Technology": 8891, 
  "photographs": 8892, 
  "bases": 8893, 
  "mun@@": 8894, 
  "focusing": 8895, 
  "Main": 8896, 
  "21.@@": 8897, 
  "rolls": 8898, 
  "profitability": 8899, 
  "Help": 8900, 
  "neutral": 8901, 
  "tar": 8902, 
  "traitor": 8903, 
  "negotiating": 8904, 
  "long@@": 8905, 
  "distortion": 8906, 
  "spi@@": 8907, 
  "residue": 8908, 
  "tragic": 8909, 
  "Caramon": 8910, 
  "lighter": 8911, 
  "tubes": 8912, 
  "fucker": 8913, 
  "Ho": 8914, 
  "Hannah": 8915, 
  "Sy@@": 8916, 
  "law@@": 8917, 
  "bel": 8918, 
  "fil@@": 8919, 
  "tional": 8920, 
  "bubble": 8921, 
  "hesitated": 8922, 
  "Scientific": 8923, 
  "Fu@@": 8924, 
  "copyright": 8925, 
  "preserved": 8926, 
  "capacities": 8927, 
  "airline": 8928, 
  "bility": 8929, 
  "possessed": 8930, 
  "preparatory": 8931, 
  "converted": 8932, 
  "ech": 8933, 
  "survivors": 8934, 
  "ppy": 8935, 
  "wages": 8936, 
  "bold": 8937, 
  "shi": 8938, 
  "Dol@@": 8939, 
  "mining": 8940, 
  "&apos;a": 8941, 
  "swiftly": 8942, 
  "nt": 8943, 
  "stuffed": 8944, 
  "screams": 8945, 
  "rever@@": 8946, 
  "mmed": 8947, 
  "ulation": 8948, 
  "had@@": 8949, 
  "ency": 8950, 
  "pipes": 8951, 
  "Subject": 8952, 
  "trains": 8953, 
  "faded": 8954, 
  "virtually": 8955, 
  "stabbed": 8956, 
  "smen": 8957, 
  "fri@@": 8958, 
  "electro@@": 8959, 
  "fried": 8960, 
  "vault": 8961, 
  "alliance": 8962, 
  "intermediate": 8963, 
  "blocking": 8964, 
  "wel@@": 8965, 
  "ae": 8966, 
  "Mad@@": 8967, 
  "registry": 8968, 
  "derivatives": 8969, 
  "daylight": 8970, 
  "heart@@": 8971, 
  "execute": 8972, 
  "interior": 8973, 
  "By@@": 8974, 
  "scri@@": 8975, 
  "deaf": 8976, 
  "offset": 8977, 
  "nerves": 8978, 
  "ili@@": 8979, 
  "towel": 8980, 
  "mines": 8981, 
  "extra@@": 8982, 
  "Manager": 8983, 
  "Count": 8984, 
  "participated": 8985, 
  "vaccination": 8986, 
  "oils": 8987, 
  "stiff": 8988, 
  "trauma": 8989, 
  "daughters": 8990, 
  "parliament": 8991, 
  "senses": 8992, 
  "invoice": 8993, 
  "coun@@": 8994, 
  "tide": 8995, 
  "independently": 8996, 
  "lung": 8997, 
  "tennis": 8998, 
  "thers": 8999, 
  "Baltic": 9000, 
  "extract": 9001, 
  "cross@@": 9002, 
  "Private": 9003, 
  "economically": 9004, 
  "yell": 9005, 
  "shifted": 9006, 
  "eds": 9007, 
  "frequent": 9008, 
  "201@@": 9009, 
  "bands": 9010, 
  "Dev@@": 9011, 
  "poured": 9012, 
  "Inspector": 9013, 
  "divide": 9014, 
  "reaches": 9015, 
  "episode": 9016, 
  "high@@": 9017, 
  "ting@@": 9018, 
  "Dark": 9019, 
  "entitlement": 9020, 
  "protest": 9021, 
  "zi": 9022, 
  "oppose": 9023, 
  "mortal": 9024, 
  "owed": 9025, 
  "Doyle": 9026, 
  "anxiety": 9027, 
  "selective": 9028, 
  "breasts": 9029, 
  "Valley": 9030, 
  "associate": 9031, 
  "а@@": 9032, 
  "Figures": 9033, 
  "farms": 9034, 
  "Martha": 9035, 
  "inadequate": 9036, 
  "bothered": 9037, 
  "chu@@": 9038, 
  "depressed": 9039, 
  "drawer": 9040, 
  "Lana": 9041, 
  "invasion": 9042, 
  "troubled": 9043, 
  "ential": 9044, 
  "gases": 9045, 
  "Ali@@": 9046, 
  "realistic": 9047, 
  "ros": 9048, 
  "swallow": 9049, 
  "plenary": 9050, 
  "Francis": 9051, 
  "Han": 9052, 
  "collapsed": 9053, 
  "mill": 9054, 
  "Cho@@": 9055, 
  "attribute": 9056, 
  "silently": 9057, 
  "recruitment": 9058, 
  "85@@": 9059, 
  "who@@": 9060, 
  "printer": 9061, 
  "literature": 9062, 
  "AR": 9063, 
  "ï@@": 9064, 
  "segment": 9065, 
  "blonde": 9066, 
  "Space": 9067, 
  "thorough": 9068, 
  "possess": 9069, 
  "bum": 9070, 
  "circles": 9071, 
  "μ@@": 9072, 
  "£": 9073, 
  "Support": 9074, 
  "Korean": 9075, 
  "motel": 9076, 
  "king@@": 9077, 
  "assassin": 9078, 
  "Vic": 9079, 
  "differentiated": 9080, 
  "Resolution": 9081, 
  "Four": 9082, 
  "Post": 9083, 
  "desperately": 9084, 
  "IU": 9085, 
  "Olivia": 9086, 
  "presumption": 9087, 
  "CH": 9088, 
  "Hood": 9089, 
  "mr": 9090, 
  "wholesale": 9091, 
  "AM": 9092, 
  "08@@": 9093, 
  "neat": 9094, 
  "maps": 9095, 
  "nails": 9096, 
  "bles": 9097, 
  "ose": 9098, 
  "wood@@": 9099, 
  "lick": 9100, 
  "dé@@": 9101, 
  "bolt": 9102, 
  "capsule": 9103, 
  "traders": 9104, 
  "viable": 9105, 
  "path@@": 9106, 
  "Rebecca": 9107, 
  "Za@@": 9108, 
  "operates": 9109, 
  "pic@@": 9110, 
  "ever@@": 9111, 
  "07@@": 9112, 
  "warp": 9113, 
  "Ele@@": 9114, 
  "Darling": 9115, 
  "characteristic": 9116, 
  "messing": 9117, 
  "rot": 9118, 
  "ρ@@": 9119, 
  "dug": 9120, 
  "par": 9121, 
  "SU@@": 9122, 
  "suspend": 9123, 
  "shar@@": 9124, 
  "39@@": 9125, 
  "iro": 9126, 
  "Stanley": 9127, 
  "τ@@": 9128, 
  "lasting": 9129, 
  "Gran@@": 9130, 
  "slope": 9131, 
  "Russell": 9132, 
  "submissions": 9133, 
  "deserved": 9134, 
  "123": 9135, 
  "editor": 9136, 
  "fights": 9137, 
  "Pin@@": 9138, 
  "coastal": 9139, 
  "fingerprints": 9140, 
  "cheeks": 9141, 
  "mob": 9142, 
  "Lois": 9143, 
  "paths": 9144, 
  "intervals": 9145, 
  "Authorisation": 9146, 
  "retreat": 9147, 
  "ENT": 9148, 
  "Brother": 9149, 
  "College": 9150, 
  "chop": 9151, 
  "hurried": 9152, 
  "Ah": 9153, 
  "eries": 9154, 
  "discount": 9155, 
  "Letter": 9156, 
  "Kat@@": 9157, 
  "Innovation": 9158, 
  "AB": 9159, 
  "worries": 9160, 
  "pod": 9161, 
  "Rock": 9162, 
  "marketed": 9163, 
  "shor@@": 9164, 
  "22@@": 9165, 
  "intervene": 9166, 
  "pac@@": 9167, 
  "poli@@": 9168, 
  "embrace": 9169, 
  "hen@@": 9170, 
  "buyer": 9171, 
  "evident": 9172, 
  "read@@": 9173, 
  "414": 9174, 
  "compartment": 9175, 
  "bugs": 9176, 
  "planets": 9177, 
  "entirety": 9178, 
  "departments": 9179, 
  "conditioning": 9180, 
  "bowed": 9181, 
  "fortunately": 9182, 
  "stab": 9183, 
  "school@@": 9184, 
  "buttons": 9185, 
  "transported": 9186, 
  "shaft": 9187, 
  "rol@@": 9188, 
  "ction@@": 9189, 
  "inevitable": 9190, 
  "tastes": 9191, 
  "pursuing": 9192, 
  "convenient": 9193, 
  "liberty": 9194, 
  "Caesar": 9195, 
  "Vo@@": 9196, 
  "ridge": 9197, 
  "ode": 9198, 
  "EFSA": 9199, 
  "competing": 9200, 
  "amed": 9201, 
  "Dun@@": 9202, 
  "istic": 9203, 
  "a--": 9204, 
  "leaning": 9205, 
  "lus": 9206, 
  "Syria": 9207, 
  "displays": 9208, 
  "qualify": 9209, 
  "EF@@": 9210, 
  "homeless": 9211, 
  "nel": 9212, 
  "I.D.": 9213, 
  "orientation": 9214, 
  "fascinating": 9215, 
  "sang": 9216, 
  "23.@@": 9217, 
  "soap": 9218, 
  "USD": 9219, 
  "4.5": 9220, 
  "Pitt": 9221, 
  "mist@@": 9222, 
  "17.@@": 9223, 
  "structured": 9224, 
  "inspired": 9225, 
  "annoying": 9226, 
  "sovereign": 9227, 
  "swe@@": 9228, 
  "atively": 9229, 
  "Tracy": 9230, 
  "External": 9231, 
  "mod@@": 9232, 
  "flowing": 9233, 
  "SS@@": 9234, 
  "disasters": 9235, 
  "projected": 9236, 
  "verse": 9237, 
  "whatsoever": 9238, 
  "congratulate": 9239, 
  "constraints": 9240, 
  "oldest": 9241, 
  "makers": 9242, 
  "Hugh": 9243, 
  "attract": 9244, 
  "reservations": 9245, 
  "rub": 9246, 
  "steak": 9247, 
  "Fourth": 9248, 
  "convincing": 9249, 
  "O.@@": 9250, 
  "22.@@": 9251, 
  "Ethan": 9252, 
  "arly": 9253, 
  "hat@@": 9254, 
  "var@@": 9255, 
  "fond": 9256, 
  "R.@@": 9257, 
  "Mission": 9258, 
  "lea@@": 9259, 
  "Wizard": 9260, 
  "ascertain": 9261, 
  "Capital": 9262, 
  "On@@": 9263, 
  "galaxy": 9264, 
  "prescription": 9265, 
  "s&apos;": 9266, 
  "oath": 9267, 
  "Neil": 9268, 
  "lads": 9269, 
  "empire": 9270, 
  "reinforce": 9271, 
  "donor": 9272, 
  "Marks": 9273, 
  "deciding": 9274, 
  "scattered": 9275, 
  "lig@@": 9276, 
  "insult": 9277, 
  "mortgage": 9278, 
  "syndrome": 9279, 
  "Bridge": 9280, 
  "broadcasting": 9281, 
  "cheat": 9282, 
  "yelled": 9283, 
  "chairman": 9284, 
  "lousy": 9285, 
  "deliberately": 9286, 
  "encounter": 9287, 
  "rumors": 9288, 
  "believing": 9289, 
  "PA": 9290, 
  "interval": 9291, 
  "cheers": 9292, 
  "COD": 9293, 
  "1049": 9294, 
  "acknowledge": 9295, 
  "Thanks": 9296, 
  "tattoo": 9297, 
  "biodiversity": 9298, 
  "gar": 9299, 
  "tray": 9300, 
  "Sun@@": 9301, 
  "BA": 9302, 
  "spinning": 9303, 
  "cel@@": 9304, 
  "ul": 9305, 
  "hull": 9306, 
  "Williams": 9307, 
  "deduction": 9308, 
  "containers": 9309, 
  "Tr@@": 9310, 
  "Super": 9311, 
  "subheading": 9312, 
  "locks": 9313, 
  "rum": 9314, 
  "bonus": 9315, 
  "scar": 9316, 
  "oning": 9317, 
  "dim": 9318, 
  "bol@@": 9319, 
  "bothering": 9320, 
  "creditors": 9321, 
  "hypo@@": 9322, 
  "Il@@": 9323, 
  "observes": 9324, 
  "Shawn": 9325, 
  "â": 9326, 
  "row@@": 9327, 
  "varieties": 9328, 
  "hob@@": 9329, 
  "Animal": 9330, 
  "mother@@": 9331, 
  "gues": 9332, 
  "cri@@": 9333, 
  "ε@@": 9334, 
  "favourite": 9335, 
  "Graham": 9336, 
  "scar@@": 9337, 
  "mic": 9338, 
  "prospects": 9339, 
  "league": 9340, 
  "ee": 9341, 
  "ich": 9342, 
  "slap": 9343, 
  "strings": 9344, 
  "stem": 9345, 
  "importer": 9346, 
  "backward": 9347, 
  "Society": 9348, 
  "WH@@": 9349, 
  "madam": 9350, 
  "populations": 9351, 
  "harvest": 9352, 
  "A7": 9353, 
  "ME": 9354, 
  "safeguards": 9355, 
  "Times": 9356, 
  "wreck": 9357, 
  "bad@@": 9358, 
  "tossed": 9359, 
  "disproportionate": 9360, 
  "Fun@@": 9361, 
  "Ker@@": 9362, 
  "sig@@": 9363, 
  "visibility": 9364, 
  "About": 9365, 
  "a.s.": 9366, 
  "phenomenon": 9367, 
  "113": 9368, 
  "aux": 9369, 
  "Senator": 9370, 
  "ts@@": 9371, 
  "Mitch": 9372, 
  "CON@@": 9373, 
  "recycling": 9374, 
  "starving": 9375, 
  "broader": 9376, 
  "valuation": 9377, 
  "swore": 9378, 
  "ght": 9379, 
  "PRO@@": 9380, 
  "knight": 9381, 
  "booked": 9382, 
  "disclosed": 9383, 
  "Cohesion": 9384, 
  "accompany": 9385, 
  "bucket": 9386, 
  "Our": 9387, 
  "Bol@@": 9388, 
  "IO@@": 9389, 
  "EDF": 9390, 
  "delivering": 9391, 
  "Entry": 9392, 
  "06@@": 9393, 
  "anticipated": 9394, 
  "constitutional": 9395, 
  "ESMA": 9396, 
  "lings": 9397, 
  "commands": 9398, 
  "to--": 9399, 
  "questioned": 9400, 
  "self@@": 9401, 
  "template": 9402, 
  "iti@@": 9403, 
  "refusing": 9404, 
  "Page": 9405, 
  "Br@@": 9406, 
  "obsessed": 9407, 
  "demanding": 9408, 
  "Lor@@": 9409, 
  "modifications": 9410, 
  "34@@": 9411, 
  "fort": 9412, 
  "have@@": 9413, 
  "fathers": 9414, 
  "bald": 9415, 
  "whe@@": 9416, 
  "Dal@@": 9417, 
  "Mul@@": 9418, 
  "burns": 9419, 
  "Moon": 9420, 
  "outlined": 9421, 
  "invested": 9422, 
  "t.": 9423, 
  "š@@": 9424, 
  "Canadian": 9425, 
  "Academy": 9426, 
  "a.": 9427, 
  "Zoe": 9428, 
  "sick@@": 9429, 
  "rod": 9430, 
  "complexity": 9431, 
  "cord": 9432, 
  "highlighted": 9433, 
  "saddle": 9434, 
  "dra": 9435, 
  "helpless": 9436, 
  "ggy": 9437, 
  "gene": 9438, 
  "autumn": 9439, 
  "Kon@@": 9440, 
  "mall": 9441, 
  "Speci@@": 9442, 
  "convert": 9443, 
  "prosecution": 9444, 
  "Dragon": 9445, 
  "attracted": 9446, 
  "confirms": 9447, 
  "excise": 9448, 
  "Mara": 9449, 
  "pol@@": 9450, 
  "Level": 9451, 
  "blond": 9452, 
  "18.@@": 9453, 
  "understands": 9454, 
  "jam": 9455, 
  "tire": 9456, 
  "Southern": 9457, 
  "fragile": 9458, 
  "bait": 9459, 
  "ENT@@": 9460, 
  "explanations": 9461, 
  "shops": 9462, 
  "Reverend": 9463, 
  "draws": 9464, 
  "zz@@": 9465, 
  "vacuum": 9466, 
  "margins": 9467, 
  "scenes": 9468, 
  "complies": 9469, 
  "altogether": 9470, 
  "oped": 9471, 
  "dis": 9472, 
  "ob": 9473, 
  "ν@@": 9474, 
  "iding": 9475, 
  "Jew": 9476, 
  "spr@@": 9477, 
  "occupation": 9478, 
  "&apos;mon": 9479, 
  "37@@": 9480, 
  "liquor": 9481, 
  "telecommunications": 9482, 
  "thre@@": 9483, 
  "ited": 9484, 
  "gly@@": 9485, 
  "wind@@": 9486, 
  "CL@@": 9487, 
  "EN.01000@@": 9488, 
  "textile": 9489, 
  "resting": 9490, 
  "vegetable": 9491, 
  "honored": 9492, 
  "tled": 9493, 
  "29.@@": 9494, 
  "colored": 9495, 
  "oriented": 9496, 
  "typically": 9497, 
  "Owen": 9498, 
  "continent": 9499, 
  "refunds": 9500, 
  "sol@@": 9501, 
  "Radio": 9502, 
  "AP": 9503, 
  "W.": 9504, 
  "hoc": 9505, 
  "Water": 9506, 
  "incomplete": 9507, 
  "arriving": 9508, 
  "una@@": 9509, 
  "sucked": 9510, 
  "unsuccessful": 9511, 
  "abruptly": 9512, 
  "asses": 9513, 
  "psychological": 9514, 
  "undermine": 9515, 
  "newspapers": 9516, 
  "magnificent": 9517, 
  "dioxide": 9518, 
  "upward": 9519, 
  "civilization": 9520, 
  "RCV": 9521, 
  "wolves": 9522, 
  "zes": 9523, 
  "accepting": 9524, 
  "startled": 9525, 
  "118": 9526, 
  "्": 9527, 
  "Teva": 9528, 
  "tier": 9529, 
  "attributed": 9530, 
  "disturbing": 9531, 
  "v.": 9532, 
  "lum": 9533, 
  "Sav@@": 9534, 
  "Ellen": 9535, 
  "ue": 9536, 
  "ggle": 9537, 
  "robe": 9538, 
  "1988": 9539, 
  "colonel": 9540, 
  "ú@@": 9541, 
  "licensing": 9542, 
  "twist": 9543, 
  "breeze": 9544, 
  "cope": 9545, 
  "killers": 9546, 
  "Sim@@": 9547, 
  "singer": 9548, 
  "raped": 9549, 
  "notifications": 9550, 
  "Holly": 9551, 
  "ris": 9552, 
  "Mun@@": 9553, 
  "sat@@": 9554, 
  "smelled": 9555, 
  "everyday": 9556, 
  "alternatives": 9557, 
  "complementary": 9558, 
  "Arch@@": 9559, 
  "Guard": 9560, 
  "Raistlin": 9561, 
  "raz@@": 9562, 
  "art@@": 9563, 
  "-yeah": 9564, 
  "sne@@": 9565, 
  "lad@@": 9566, 
  "gasps": 9567, 
  "cho": 9568, 
  "lightly": 9569, 
  "whispering": 9570, 
  "powered": 9571, 
  "opravy": 9572, 
  "oven": 9573, 
  "specialised": 9574, 
  "FROM": 9575, 
  "Up": 9576, 
  "shirts": 9577, 
  "waist": 9578, 
  "Jennifer": 9579, 
  "lawn": 9580, 
  "proves": 9581, 
  "tolerance": 9582, 
  "bulk": 9583, 
  "pil@@": 9584, 
  "Congress": 9585, 
  "Justin": 9586, 
  "nonetheless": 9587, 
  "collaboration": 9588, 
  "clubs": 9589, 
  "entail": 9590, 
  "rejection": 9591, 
  "sian": 9592, 
  "brutal": 9593, 
  "luggage": 9594, 
  "cruci@@": 9595, 
  "fools": 9596, 
  "limiting": 9597, 
  "Satan": 9598, 
  "distress": 9599, 
  "ash@@": 9600, 
  "graduate": 9601, 
  "urine": 9602, 
  "sty@@": 9603, 
  "Kan@@": 9604, 
  "Julian": 9605, 
  "drain": 9606, 
  "ethnic": 9607, 
  "concession": 9608, 
  "grows": 9609, 
  "Megan": 9610, 
  "defeated": 9611, 
  "Maybe": 9612, 
  "19.@@": 9613, 
  "Pot@@": 9614, 
  "OECD": 9615, 
  "emp@@": 9616, 
  "proving": 9617, 
  "there@@": 9618, 
  "ining": 9619, 
  "230": 9620, 
  "2,000": 9621, 
  "alities": 9622, 
  "wer": 9623, 
  "eliminated": 9624, 
  "levy": 9625, 
  "sober": 9626, 
  "AV@@": 9627, 
  "inclusive": 9628, 
  "eternal": 9629, 
  "flood": 9630, 
  "this@@": 9631, 
  "socks": 9632, 
  "Jules": 9633, 
  "uh--": 9634, 
  "waking": 9635, 
  "side@@": 9636, 
  "probability": 9637, 
  "investigated": 9638, 
  "Ky@@": 9639, 
  "say@@": 9640, 
  "mes@@": 9641, 
  "116": 9642, 
  "tourist": 9643, 
  "conditional": 9644, 
  "measurements": 9645, 
  "academic": 9646, 
  "2016": 9647, 
  "Uni@@": 9648, 
  "Power": 9649, 
  "uncertain": 9650, 
  "urs": 9651, 
  "Damon": 9652, 
  "jeez": 9653, 
  "Rem@@": 9654, 
  "batteries": 9655, 
  "�": 9656, 
  "NO": 9657, 
  "additives": 9658, 
  "specialist": 9659, 
  "accounted": 9660, 
  "Supreme": 9661, 
  "NE@@": 9662, 
  "sno@@": 9663, 
  "thoroughly": 9664, 
  "sky@@": 9665, 
  "wicked": 9666, 
  "idi@@": 9667, 
  "explaining": 9668, 
  "122": 9669, 
  "administrations": 9670, 
  "ashes": 9671, 
  "overnight": 9672, 
  "testimony": 9673, 
  "tub": 9674, 
  "sophisticated": 9675, 
  "Catholic": 9676, 
  "bio": 9677, 
  "whistle": 9678, 
  "cas@@": 9679, 
  "kie": 9680, 
  "poker": 9681, 
  "Ul@@": 9682, 
  "URL": 9683, 
  "sadly": 9684, 
  "journal": 9685, 
  "conducting": 9686, 
  "Todd": 9687, 
  "©": 9688, 
  "tting": 9689, 
  "vic@@": 9690, 
  "postal": 9691, 
  "cry@@": 9692, 
  "ps@@": 9693, 
  "121": 9694, 
  "replacing": 9695, 
  "bleed": 9696, 
  "mankind": 9697, 
  "aluminium": 9698, 
  "radioactive": 9699, 
  "sing@@": 9700, 
  "Rob": 9701, 
  "Manhattan": 9702, 
  "rov@@": 9703, 
  "keen": 9704, 
  "weighing": 9705, 
  "precautions": 9706, 
  "whip": 9707, 
  "27.@@": 9708, 
  "stor@@": 9709, 
  "intact": 9710, 
  "winds": 9711, 
  "reliability": 9712, 
  "117": 9713, 
  "infrastructures": 9714, 
  "cans": 9715, 
  "Lane": 9716, 
  "anonymous": 9717, 
  "Forum": 9718, 
  "resort": 9719, 
  "potato": 9720, 
  "Pam": 9721, 
  "bet@@": 9722, 
  "lou@@": 9723, 
  "ep@@": 9724, 
  "IONS": 9725, 
  "Tell": 9726, 
  "tage": 9727, 
  "CC": 9728, 
  "heritage": 9729, 
  "dire@@": 9730, 
  "és": 9731, 
  "ances": 9732, 
  "Golden": 9733, 
  "credits": 9734, 
  "absorption": 9735, 
  "chickens": 9736, 
  "kilometers": 9737, 
  "attended": 9738, 
  "preferential": 9739, 
  "ofthe": 9740, 
  "rational": 9741, 
  "Change": 9742, 
  "anna": 9743, 
  "plague": 9744, 
  "meals": 9745, 
  "forbidden": 9746, 
  "Jamie": 9747, 
  "Grayson": 9748, 
  "makeup": 9749, 
  "Bosnia": 9750, 
  "cob@@": 9751, 
  "BY": 9752, 
  "Document": 9753, 
  "Kennedy": 9754, 
  "RO": 9755, 
  "leverage": 9756, 
  "Troy": 9757, 
  "upside": 9758, 
  "mineral": 9759, 
  "arch": 9760, 
  "Mitchell": 9761, 
  "zen@@": 9762, 
  "visitor": 9763, 
  "proposing": 9764, 
  "grain": 9765, 
  "entertainment": 9766, 
  "tain": 9767, 
  "faithful": 9768, 
  "News": 9769, 
  "temper": 9770, 
  "Vel@@": 9771, 
  "swords": 9772, 
  "hazardous": 9773, 
  "admire": 9774, 
  "Really": 9775, 
  "aquaculture": 9776, 
  "cycles": 9777, 
  "DP": 9778, 
  "bert": 9779, 
  "dles": 9780, 
  "psychic": 9781, 
  "cabinet": 9782, 
  "Pope": 9783, 
  "heck": 9784, 
  "shave": 9785, 
  "recipients": 9786, 
  "Matthew": 9787, 
  "eye@@": 9788, 
  "Under@@": 9789, 
  "confined": 9790, 
  "density": 9791, 
  "Over@@": 9792, 
  "Finance": 9793, 
  "illusion": 9794, 
  "lows": 9795, 
  "render": 9796, 
  "tunnels": 9797, 
  "Scotland": 9798, 
  "seas": 9799, 
  "validation": 9800, 
  "irregular": 9801, 
  "cation": 9802, 
  "NA@@": 9803, 
  "smashed": 9804, 
  "Lev@@": 9805, 
  "importantly": 9806, 
  "presently": 9807, 
  "sation": 9808, 
  "MA": 9809, 
  "Night": 9810, 
  "Agricultural": 9811, 
  "mul@@": 9812, 
  "tits": 9813, 
  "Ned": 9814, 
  "judging": 9815, 
  "PL@@": 9816, 
  "220": 9817, 
  "lump": 9818, 
  "homicide": 9819, 
  "139": 9820, 
  "compensate": 9821, 
  "Mickey": 9822, 
  "thing@@": 9823, 
  "Benjamin": 9824, 
  "risky": 9825, 
  "purchasing": 9826, 
  "merits": 9827, 
  "like@@": 9828, 
  "opera": 9829, 
  "Check": 9830, 
  "soda": 9831, 
  "Bun@@": 9832, 
  "governmental": 9833, 
  "forwarded": 9834, 
  "TSI": 9835, 
  "Sandy": 9836, 
  "artists": 9837, 
  "N.@@": 9838, 
  "periodic": 9839, 
  "ová": 9840, 
  "destroying": 9841, 
  "3.3": 9842, 
  "Chan@@": 9843, 
  "Sho@@": 9844, 
  "Blake": 9845, 
  "phot@@": 9846, 
  "testify": 9847, 
  "rotten": 9848, 
  "extraction": 9849, 
  "instinct": 9850, 
  "Delta": 9851, 
  "tense": 9852, 
  "consumed": 9853, 
  "gel@@": 9854, 
  "oma": 9855, 
  "conspiracy": 9856, 
  "companions": 9857, 
  "reli@@": 9858, 
  "01.xml": 9859, 
  "contractor": 9860, 
  "YOU": 9861, 
  "Ken": 9862, 
  "grasp": 9863, 
  "transformation": 9864, 
  "Her": 9865, 
  "clown": 9866, 
  "Palestinian": 9867, 
  "pork": 9868, 
  "negotiation": 9869, 
  "hydrocarbons": 9870, 
  "kil@@": 9871, 
  "households": 9872, 
  "defending": 9873, 
  "deterioration": 9874, 
  "annually": 9875, 
  "tips": 9876, 
  "airlines": 9877, 
  "lovers": 9878, 
  "ato@@": 9879, 
  "vid@@": 9880, 
  "accomplished": 9881, 
  "tapped": 9882, 
  "vague": 9883, 
  "luxury": 9884, 
  "grim": 9885, 
  "boo": 9886, 
  "shapes": 9887, 
  "wig": 9888, 
  "logist": 9889, 
  "modes": 9890, 
  "than@@": 9891, 
  "distinguished": 9892, 
  "matched": 9893, 
  "2.4": 9894, 
  "occasional": 9895, 
  "holidays": 9896, 
  "Klaus": 9897, 
  "utter": 9898, 
  "Work": 9899, 
  "Recital": 9900, 
  "wears": 9901, 
  "accidentally": 9902, 
  "Mayor": 9903, 
  "Cameron": 9904, 
  "ria": 9905, 
  "zy": 9906, 
  "Jonathan": 9907, 
  "frowned": 9908, 
  "masters": 9909, 
  "viability": 9910, 
  "Chase": 9911, 
  "reflecting": 9912, 
  "nicely": 9913, 
  "Keith": 9914, 
  "Growth": 9915, 
  "hostile": 9916, 
  "911": 9917, 
  "advances": 9918, 
  "Duration": 9919, 
  "stamp": 9920, 
  "crawl": 9921, 
  "mar": 9922, 
  "sore": 9923, 
  "disclose": 9924, 
  "chloride": 9925, 
  "lot@@": 9926, 
  "CT@@": 9927, 
  "ama": 9928, 
  "generic": 9929, 
  "diabetes": 9930, 
  "cowboy": 9931, 
  "Palace": 9932, 
  "Olympics": 9933, 
  "Joan": 9934, 
  "Child": 9935, 
  "Facility": 9936, 
  "timber": 9937, 
  "aman": 9938, 
  "modest": 9939, 
  "restored": 9940, 
  "lene": 9941, 
  "stresses": 9942, 
  "nets": 9943, 
  "pill": 9944, 
  "cows": 9945, 
  "ambition": 9946, 
  "roommate": 9947, 
  "&apos;There": 9948, 
  "EP@@": 9949, 
  "characterised": 9950, 
  "conten@@": 9951, 
  "receives": 9952, 
  "Chef": 9953, 
  "weekly": 9954, 
  "instructed": 9955, 
  "intravenous": 9956, 
  "Cla@@": 9957, 
  "4.2.@@": 9958, 
  "kov": 9959, 
  "stack": 9960, 
  "explosives": 9961, 
  "nitrogen": 9962, 
  "RIP": 9963, 
  "dessert": 9964, 
  "ffy": 9965, 
  "privilege": 9966, 
  "Lar@@": 9967, 
  "rob": 9968, 
  "casino": 9969, 
  "ric": 9970, 
  "buck": 9971, 
  "resolutions": 9972, 
  "troubles": 9973, 
  "District": 9974, 
  "admissible": 9975, 
  "indu@@": 9976, 
  "shade": 9977, 
  "concepts": 9978, 
  "Be": 9979, 
  "basketball": 9980, 
  "ium": 9981, 
  "FO@@": 9982, 
  "hn": 9983, 
  "ribs": 9984, 
  "Ruth": 9985, 
  "universities": 9986, 
  "burnt": 9987, 
  "resume": 9988, 
  "Heaven": 9989, 
  "ware": 9990, 
  "iser": 9991, 
  "lecture": 9992, 
  "Eva": 9993, 
  "uni@@": 9994, 
  "eness": 9995, 
  "Wor@@": 9996, 
  "turkey": 9997, 
  "Vic@@": 9998, 
  "parameter": 9999, 
  "vozů": 10000, 
  "Montenegro": 10001, 
  "particles": 10002, 
  "sie": 10003, 
  "001": 10004, 
  "Dom@@": 10005, 
  "sampled": 10006, 
  "shooter": 10007, 
  "organise": 10008, 
  "judged": 10009, 
  "Nina": 10010, 
  "ê@@": 10011, 
  "MA@@": 10012, 
  "Son": 10013, 
  "ables": 10014, 
  "Hermione": 10015, 
  "importation": 10016, 
  "ques": 10017, 
  "Sammy": 10018, 
  "pling": 10019, 
  "dairy": 10020, 
  "Line": 10021, 
  "particulars": 10022, 
  "alignment": 10023, 
  "Governing": 10024, 
  "PD": 10025, 
  "beneficial": 10026, 
  "contamination": 10027, 
  "Op@@": 10028, 
  "ropes": 10029, 
  "CAR@@": 10030, 
  "skinny": 10031, 
  "explosive": 10032, 
  "Logan": 10033, 
  "trader": 10034, 
  "angels": 10035, 
  "r.o.": 10036, 
  "More": 10037, 
  "Franklin": 10038, 
  "Madrid": 10039, 
  "Trans@@": 10040, 
  "ordering": 10041, 
  "reinforced": 10042, 
  "poisoned": 10043, 
  "11@@": 10044, 
  "Travis": 10045, 
  "BG": 10046, 
  "medi@@": 10047, 
  "Finnish": 10048, 
  "PSE": 10049, 
  "road@@": 10050, 
  "nausea": 10051, 
  "Education": 10052, 
  "glo@@": 10053, 
  "forestry": 10054, 
  "circus": 10055, 
  "CZ": 10056, 
  "listing": 10057, 
  "appellants": 10058, 
  "livestock": 10059, 
  "eur": 10060, 
  "capabilities": 10061, 
  "labels": 10062, 
  "Lloyd": 10063, 
  "traveled": 10064, 
  "wer@@": 10065, 
  "console": 10066, 
  "Fran@@": 10067, 
  "lor": 10068, 
  "IB@@": 10069, 
  "e.@@": 10070, 
  "Bas@@": 10071, 
  "tractor": 10072, 
  "Son@@": 10073, 
  "corrective": 10074, 
  "punish": 10075, 
  "wheat": 10076, 
  "vain": 10077, 
  "bargain": 10078, 
  "budgets": 10079, 
  "counsel": 10080, 
  "fabric": 10081, 
  "ghts": 10082, 
  "vin": 10083, 
  "virtual": 10084, 
  "HS": 10085, 
  "Copenhagen": 10086, 
  "query": 10087, 
  "ration": 10088, 
  "Sorry": 10089, 
  "1980": 10090, 
  "cies": 10091, 
  "ignoring": 10092, 
  "Leader": 10093, 
  "ind": 10094, 
  "ske@@": 10095, 
  "talented": 10096, 
  "Arts": 10097, 
  "prospect": 10098, 
  "entitlements": 10099, 
  "dagger": 10100, 
  "PC@@": 10101, 
  "SA@@": 10102, 
  "cheated": 10103, 
  "substitute": 10104, 
  "Out@@": 10105, 
  "reinsurance": 10106, 
  "Moldova": 10107, 
  "challenging": 10108, 
  "Hal": 10109, 
  "peer": 10110, 
  "antly": 10111, 
  "Review": 10112, 
  "crude": 10113, 
  "Objective": 10114, 
  "Minutes": 10115, 
  "appetite": 10116, 
  "lazy": 10117, 
  "Tax": 10118, 
  "Burton": 10119, 
  "fraction": 10120, 
  "candles": 10121, 
  "porch": 10122, 
  "swift": 10123, 
  "ind@@": 10124, 
  "targeting": 10125, 
  "poetry": 10126, 
  "candle": 10127, 
  "blessing": 10128, 
  "dragging": 10129, 
  "gram": 10130, 
  "yl@@": 10131, 
  "Beach": 10132, 
  "relatives": 10133, 
  "allegedly": 10134, 
  "distorted": 10135, 
  "å@@": 10136, 
  "Product": 10137, 
  "contributes": 10138, 
  "Vienna": 10139, 
  "bells": 10140, 
  "sessions": 10141, 
  "loads": 10142, 
  "exercising": 10143, 
  "Mason": 10144, 
  "wax": 10145, 
  "incoming": 10146, 
  "and--": 10147, 
  "Adopted": 10148, 
  "Bla@@": 10149, 
  "CP": 10150, 
  "isolation": 10151, 
  "Front": 10152, 
  "e--": 10153, 
  "hut": 10154, 
  "Declaration": 10155, 
  "beta": 10156, 
  "Pat": 10157, 
  "tapes": 10158, 
  "Small": 10159, 
  "flashed": 10160, 
  "ancestors": 10161, 
  "sensitivity": 10162, 
  "Thailand": 10163, 
  "porn": 10164, 
  "Tele@@": 10165, 
  "Anthony": 10166, 
  "lemon": 10167, 
  "wines": 10168, 
  "Spencer": 10169, 
  "oli@@": 10170, 
  "attacking": 10171, 
  "fridge": 10172, 
  "architecture": 10173, 
  "N.": 10174, 
  "human@@": 10175, 
  "oh@@": 10176, 
  "necklace": 10177, 
  "ant@@": 10178, 
  "dead@@": 10179, 
  "zy@@": 10180, 
  "mean@@": 10181, 
  "sou@@": 10182, 
  "Jenna": 10183, 
  "complement": 10184, 
  "smoked": 10185, 
  "Gibbs": 10186, 
  "Before": 10187, 
  "tightly": 10188, 
  "theft": 10189, 
  "kno@@": 10190, 
  "casting": 10191, 
  "chicks": 10192, 
  "relies": 10193, 
  "Tak@@": 10194, 
  "cured": 10195, 
  "other@@": 10196, 
  "spun": 10197, 
  "Indians": 10198, 
  "CEN": 10199, 
  "Fle@@": 10200, 
  "allies": 10201, 
  "assumptions": 10202, 
  "ky@@": 10203, 
  "whispers": 10204, 
  "cler@@": 10205, 
  "ritual": 10206, 
  "Guarantee": 10207, 
  "Square": 10208, 
  "tte": 10209, 
  "fon@@": 10210, 
  "MP": 10211, 
  "fabulous": 10212, 
  ".cz": 10213, 
  "Sur@@": 10214, 
  "ship@@": 10215, 
  "Question": 10216, 
  "mia": 10217, 
  "Elliot": 10218, 
  "top@@": 10219, 
  "healing": 10220, 
  "spider": 10221, 
  "SK": 10222, 
  "Governor": 10223, 
  "popped": 10224, 
  "neighbouring": 10225, 
  "dit@@": 10226, 
  "cooperative": 10227, 
  "rays": 10228, 
  "Belarus": 10229, 
  "distinguish": 10230, 
  "net@@": 10231, 
  "traded": 10232, 
  "list@@": 10233, 
  "finishing": 10234, 
  "bees": 10235, 
  "Pierre": 10236, 
  "betray": 10237, 
  "promising": 10238, 
  "obstacle": 10239, 
  "swelling": 10240, 
  "misery": 10241, 
  "Treaties": 10242, 
  "analytical": 10243, 
  "subtle": 10244, 
  "appoint": 10245, 
  "tability": 10246, 
  "peculiar": 10247, 
  "unlimited": 10248, 
  "volunteers": 10249, 
  "Guy": 10250, 
  "presents": 10251, 
  "126": 10252, 
  "utterly": 10253, 
  "dope": 10254, 
  "Penny": 10255, 
  "traces": 10256, 
  "ο": 10257, 
  "bes": 10258, 
  "scores": 10259, 
  "spol.": 10260, 
  "marrying": 10261, 
  "physics": 10262, 
  "undoubtedly": 10263, 
  "oz@@": 10264, 
  "Christopher": 10265, 
  "Watson": 10266, 
  "Monitoring": 10267, 
  "compounds": 10268, 
  "contacted": 10269, 
  "brass": 10270, 
  "Toby": 10271, 
  "spill": 10272, 
  "repeatedly": 10273, 
  "occupational": 10274, 
  "sal": 10275, 
  "Malcolm": 10276, 
  "Michelle": 10277, 
  "你@@": 10278, 
  "Rural": 10279, 
  "Command": 10280, 
  "145": 10281, 
  "trembling": 10282, 
  "heavens": 10283, 
  "dual": 10284, 
  "slice": 10285, 
  "corporation": 10286, 
  "arises": 10287, 
  "kindly": 10288, 
  "Next": 10289, 
  "unpleasant": 10290, 
  "deli@@": 10291, 
  "Dylan": 10292, 
  "evaluations": 10293, 
  "ao": 10294, 
  "Fra@@": 10295, 
  "supplement": 10296, 
  "fertility": 10297, 
  "cocaine": 10298, 
  "Mum": 10299, 
  "rin": 10300, 
  "900": 10301, 
  "sely": 10302, 
  "toss": 10303, 
  "psycho@@": 10304, 
  "ills": 10305, 
  "Anderson": 10306, 
  "36@@": 10307, 
  "deserted": 10308, 
  "announce": 10309, 
  "fusion": 10310, 
  "PS": 10311, 
  "triple": 10312, 
  "complaining": 10313, 
  "vocational": 10314, 
  "mature": 10315, 
  "yn": 10316, 
  "Amber": 10317, 
  "additive": 10318, 
  "distracted": 10319, 
  "deer": 10320, 
  "ful@@": 10321, 
  "struggled": 10322, 
  "conviction": 10323, 
  "inform@@": 10324, 
  "eth@@": 10325, 
  "thieves": 10326, 
  "135": 10327, 
  "moron": 10328, 
  "vo": 10329, 
  "blinked": 10330, 
  "Leto": 10331, 
  "sten": 10332, 
  "remembering": 10333, 
  "array": 10334, 
  "upheld": 10335, 
  "borrowed": 10336, 
  "prohibit": 10337, 
  "torch": 10338, 
  "onic": 10339, 
  "pharmac@@": 10340, 
  "Ev@@": 10341, 
  "dividends": 10342, 
  "steadily": 10343, 
  "smarter": 10344, 
  "mber": 10345, 
  "elf": 10346, 
  "inherent": 10347, 
  "uncommon": 10348, 
  "oting": 10349, 
  "spiritual": 10350, 
  "Pel@@": 10351, 
  "ageing": 10352, 
  "ree": 10353, 
  "overview": 10354, 
  "tremendous": 10355, 
  "despair": 10356, 
  "thirsty": 10357, 
  "Kam@@": 10358, 
  "shields": 10359, 
  "nor@@": 10360, 
  "occurrence": 10361, 
  "consistently": 10362, 
  "Competition": 10363, 
  "headings": 10364, 
  "upgrade": 10365, 
  "Israeli": 10366, 
  "clerk": 10367, 
  "unemployed": 10368, 
  "advisory": 10369, 
  "experiencing": 10370, 
  "yang": 10371, 
  "Blair": 10372, 
  "Tro@@": 10373, 
  "welcomed": 10374, 
  "handful": 10375, 
  "credibility": 10376, 
  "Shut": 10377, 
  "quar@@": 10378, 
  "ples": 10379, 
  "forcing": 10380, 
  "therapeutic": 10381, 
  "&apos;they": 10382, 
  "warmth": 10383, 
  "rental": 10384, 
  "incidence": 10385, 
  "Výroba": 10386, 
  "Kom@@": 10387, 
  "thro@@": 10388, 
  "1987": 10389, 
  "form@@": 10390, 
  "shotgun": 10391, 
  "Alliance": 10392, 
  "nap": 10393, 
  "usage": 10394, 
  "Le": 10395, 
  "exam": 10396, 
  "manners": 10397, 
  "ele": 10398, 
  "Ham@@": 10399, 
  "cluster": 10400, 
  "MP@@": 10401, 
  "kins": 10402, 
  "New@@": 10403, 
  "stink": 10404, 
  "undercover": 10405, 
  "winding": 10406, 
  "vomiting": 10407, 
  "tiger": 10408, 
  "Bernard": 10409, 
  "sworn": 10410, 
  "Ashley": 10411, 
  "cement": 10412, 
  "Ag@@": 10413, 
  "boundaries": 10414, 
  "stubborn": 10415, 
  "inquiry": 10416, 
  "civilians": 10417, 
  "sit@@": 10418, 
  "paranoid": 10419, 
  "friend@@": 10420, 
  "Rapporteur": 10421, 
  "CF@@": 10422, 
  "Mari@@": 10423, 
  "cough": 10424, 
  "wee": 10425, 
  "rubbed": 10426, 
  "Pierce": 10427, 
  "exploded": 10428, 
  "Jill": 10429, 
  "materi@@": 10430, 
  "20th": 10431, 
  "m2": 10432, 
  "towns": 10433, 
  "LS": 10434, 
  "exercises": 10435, 
  "awfully": 10436, 
  "whiskey": 10437, 
  "slightest": 10438, 
  "striking": 10439, 
  "Facilities": 10440, 
  "MENT": 10441, 
  "minded": 10442, 
  "TAC": 10443, 
  "predominantly": 10444, 
  "strikes": 10445, 
  "massage": 10446, 
  "resistant": 10447, 
  "forgetting": 10448, 
  "experimental": 10449, 
  "banana": 10450, 
  "dale": 10451, 
  "lasted": 10452, 
  "1.4": 10453, 
  "genetically": 10454, 
  "30.@@": 10455, 
  "ven": 10456, 
  "breed": 10457, 
  "statue": 10458, 
  "fam@@": 10459, 
  "compromised": 10460, 
  "residual": 10461, 
  "backing": 10462, 
  "geographic": 10463, 
  "rus": 10464, 
  "debtor": 10465, 
  "119": 10466, 
  "hollow": 10467, 
  "ode@@": 10468, 
  "Kirk": 10469, 
  "stag@@": 10470, 
  "F.@@": 10471, 
  "ous@@": 10472, 
  "Jar@@": 10473, 
  "corrupt": 10474, 
  "TE": 10475, 
  "ERS": 10476, 
  "guided": 10477, 
  "Zo@@": 10478, 
  "nigger": 10479, 
  "informal": 10480, 
  "prosperity": 10481, 
  "Very": 10482, 
  "hail": 10483, 
  "tales": 10484, 
  "produces": 10485, 
  "Cup": 10486, 
  "sensible": 10487, 
  "clay": 10488, 
  "eats": 10489, 
  "adolescents": 10490, 
  "happier": 10491, 
  "prey": 10492, 
  "glowing": 10493, 
  "him@@": 10494, 
  "person@@": 10495, 
  "Sab@@": 10496, 
  "precision": 10497, 
  "evidently": 10498, 
  "leaf": 10499, 
  "magnetic": 10500, 
  "fications": 10501, 
  "drum": 10502, 
  "Warren": 10503, 
  "comparative": 10504, 
  "volunteer": 10505, 
  "experiments": 10506, 
  "approximation": 10507, 
  "meth@@": 10508, 
  "betting": 10509, 
  "Stu": 10510, 
  "Category": 10511, 
  "restaurants": 10512, 
  "SEC": 10513, 
  "alise": 10514, 
  "frontier": 10515, 
  "narrator": 10516, 
  "tonne": 10517, 
  "Thanksgiving": 10518, 
  "mat": 10519, 
  "submitting": 10520, 
  "boiling": 10521, 
  "Ven@@": 10522, 
  "policeman": 10523, 
  "fier": 10524, 
  "ght@@": 10525, 
  "G.@@": 10526, 
  "cture": 10527, 
  "tod@@": 10528, 
  "ambassador": 10529, 
  "Family": 10530, 
  "cellar": 10531, 
  "LY": 10532, 
  "dreadful": 10533, 
  "then@@": 10534, 
  "Nice": 10535, 
  "Bonnie": 10536, 
  "diagnosis": 10537, 
  "lesser": 10538, 
  "theirs": 10539, 
  "Which": 10540, 
  "cep@@": 10541, 
  "stru@@": 10542, 
  "rick": 10543, 
  "absurd": 10544, 
  "secrecy": 10545, 
  "mini": 10546, 
  "rant": 10547, 
  "PM": 10548, 
  "explode": 10549, 
  "bump": 10550, 
  "bacon": 10551, 
  "tracked": 10552, 
  "wl": 10553, 
  "influenza": 10554, 
  "citizenship": 10555, 
  "liberalisation": 10556, 
  "outcomes": 10557, 
  "Summer": 10558, 
  "corners": 10559, 
  "ditch": 10560, 
  "rounded": 10561, 
  "inhibitors": 10562, 
  "Halloween": 10563, 
  "&apos;How": 10564, 
  "Marco": 10565, 
  "appendix": 10566, 
  "ung@@": 10567, 
  "herd": 10568, 
  "Str@@": 10569, 
  "une@@": 10570, 
[...]
